#version: 0.2
a n
i n
t i
t h
t u
t a
m a
a r
u n
a q
l i
u t</w>
m i
s i
a u
i t</w>
e r
a l
th e</w>
u q
o n</w>
i r
i q
r e
an n
q u
a k
g i
e r</w>
s t
in n
g a
i l
m r</w>
r i
j u
t o</w>
i k</w>
e n
a t</w>
a v
in g</w>
c o
i t
s a
u l
y o
ti on</w>
a t
i k
a m
s u
p i
o f</w>
yo u</w>
aq tu
l u
in g
a mi
an g
st a</w>
an d</w>
p e
i n</w>
in i
j i
a ti
i s</w>
o n
o r
e d</w>
mi sta</w>
qu j
th an
than k</w>
un n
ann ami
n un
quj annami
e s</w>
qujannami ik</w>
k i
m en
th at</w>
r a
s pe
uq aq
h a
si v
ta u
m ini
v i
g ut</w>
tu n
e s
o r</w>
p re
ak er</w>
r o
spe aker</w>
co m
t er
ma j
a p
u ti
l u</w>
ar n
o u
ma li
a q</w>
t a</w>
al u
a s
w e</w>
ta tion</w>
a li
in ter
tu sa
m ut</w>
m i</w>
men t</w>
nun av
tusa a
inter pre
ik k
interpre tation</w>
i j
a n</w>
c ha
d e
m an
li ri
f or</w>
au ta
g a</w>
cha ir
l e
siv auta
k k
h av
t i</w>
w h
ti gut</w>
au j
u r
e n</w>
a l</w>
t o
a s</w>
n o
ar i
am ma
tusaa ji
a g
l e</w>
lu g
a tu
t t
p er
q an
a c
ak k
k ati
t s</w>
tusaaji tigut</w>
ar e</w>
u j
th is</w>
s ta
p ro
i s
hav e</w>
er e</w>
l o
in ir
mini st
a j
uq au
aqtu q</w>
mali ga
s on</w>
u t
aq ti
on s</w>
q au
b e</w>
m e
g o
m ma
qu es
er s</w>
ti i</w>
uqaq ti</w>
b e
li r
nunav ut</w>
mi k</w>
ul d</w>
th e
v a
l y</w>
il l</w>
amma lu</w>
ap iq
v er
uqaq tii</w>
s e</w>
i li
un i
co n
a k</w>
m b
an i</w>
m a</w>
tu q</w>
n iq
uqau si
gi j
au q
per son</w>
minist er</w>
k e</w>
k a
in u
inn i
m e</w>
m ann
a b
maliga li
un ga</w>
o uld</w>
chair person</w>
s e
gi t
si ma
sivauta q</w>
w ill</w>
p u
ju q</w>
g u
c i
qau ji
w it
p p
v e</w>
d i
ki in
p ar
wit h</w>
kiin auj
c e</w>
a tion</w>
u v
aq q
apiq qu
w ould</w>
ou r</w>
si maj
s an
s t</w>
pi liri
ma n</w>
ar u
il inni
e l
s o
inn ut</w>
ta q
com m
ti ons</w>
tu t</w>
i su
h on</w>
a d
uq ti
a ij
me mb
n i
pi j
p o
niq tun
lug u</w>
chair man</w>
ques tion</w>
ing it</w>
n u
tu q
inn i</w>
t ti
au l
niqtun aqtuq</w>
com mi
kati maj
th ere</w>
liri j
t e
ta ma
alu k</w>
re s
aqtu n
h o
inir mut</w>
am ma</w>
r u
un i</w>
an i
ang it</w>
s o</w>
lug it</w>
a y</w>
arn i
ju ti
ga va
aq ta
man ga
u p</w>
apiqqu ti
al a
ki si
ta i
w as</w>
m o
aq p
al li
go ver
gover n
iq qan
f or
li ke</w>
the y</w>
gi l
men ts</w>
e x
par t
iqqan aij
r e</w>
li q
i g
d ing</w>
maligali uqti
m y</w>
de part
gava ma
an ut</w>
tu inn
govern ment</w>
nunav u
commi tt
i f</w>
no w</w>
ari aq
ar v
f f
o p
un g
al u</w>
a su
th er</w>
p or
h e
g e
l a
th o
p a
mann a</w>
d o
committ e
ang iq
ti es</w>
ou s
a si
w or
t in
memb ers</w>
p iq
no t</w>
sivauta aq</w>
n e
al l</w>
c es</w>
ti k</w>
o ut</w>
m in
9 9
ann i
b u
mini sta</w>
atu q
a ta
n ir
d s</w>
tu t
tau j
p l
d u
u a</w>
t h</w>
it y</w>
ul lu
f ro
ka ma
fro m</w>
to o</w>
kk ut</w>
nu ta
v ut</w>
qan u
depart ment</w>
e m</w>
al l
t ed</w>
inn it</w>
at ti
k ing</w>
au r
to o
sa q</w>
ing a</w>
ta manna</w>
0 0
inn ik</w>
ti ti
ar ri
unn i
l l
v u
isu ma
b ri
an ga
q i
committe e</w>
on e</w>
c an</w>
ques tions</w>
n a
at ta
iq aq
too too</w>
g u</w>
lirij ikk
s aq
a i
y e
d e</w>
s er
p on
a ju
u k</w>
at e</w>
n al
katimaj ir
m p
ik sivautaq</w>
a r</w>
s h
aqtu t</w>
in ga
e c
nun al
katimajir ala
pi gi
a w
un ga
c h
ma t</w>
i r</w>
d ay</w>
u ju
ri j
pe op
mma t</w>
m u
lir inirmut</w>
en t</w>
ha s</w>
peop le</w>
at a</w>
ann a</w>
b y</w>
it em</w>
an ik</w>
ti l
wh at</w>
iqaq ri
v e
iqaqri alu</w>
go ing</w>
un it</w>
res pon
tut u</w>
an ir
ta l</w>
mini sta
b ut</w>
i c
t ra
d er
bri en</w>
il l
comm uni
it tuq</w>
tusaa j
un ity</w>
comm unity</w>
a it</w>
an t</w>
mali g
ta k
ge t</w>
un ikk
n g</w>
ikk arri
inu it</w>
ar d</w>
ti me</w>
b le</w>
sa it</w>
b o
mi t</w>
es s</w>
sta te
du c
un ut</w>
t r
m s</w>
ar manga
s au
aqq i
ang a</w>
ma ta</w>
ati gi
so me</w>
unikk a
iq alu
u g
n ak</w>
ar a</w>
s in
ar vi
il a
ser vi
m mi
u p
nal un
nuta ra
kama gij
kati ma
the ir</w>
at t
pro g
is sivautaq</w>
ikkarri aluk</w>
ar unn
communi ties</w>
u k
ci al</w>
au se</w>
sa n</w>
nun ali
u s
li ma
s un
maligaliuqti it</w>
il u
be en</w>
1 99
v alli
ag re
ta akk
m or
lo o
ar uti
ab out</w>
iq q
ati ons</w>
ab le</w>
a tau
u r</w>
ver y</w>
tu ra
an s
o ther</w>
siv u
ra ij
ing innut</w>
r n
ju st</w>
an it</w>
a m</w>
av ut</w>
f in
servi ces</w>
d o</w>
c c
or al</w>
ju ma
he al
yo ur</w>
ali ma
ul lu</w>
ac k</w>
aw ak</w>
an awak</w>
st an
ar ra
l li
raij an</w>
h ous
a un
au ti
tai ma
mma ta</w>
es e</w>
simaj ut</w>
d ers</w>
th ese</w>
t y</w>
d er</w>
an gi
arv aluk</w>
w ere</w>
v er</w>
heal th</w>
al so</w>
s i</w>
k now</w>
at ta</w>
an git
ar lu
an aru
iqalu it</w>
ar s</w>
ka ju
wh en</w>
e duc
hous ing</w>
t si
ar va
aj uq
h t</w>
t ing</w>
qi mi
ta un
ut in
tusaaj i</w>
av it
ann u
ve lo
titi r
n am
de velo
ga v
si man
at ed</w>
uq alima
pp or
s ul
p ri
unni it</w>
anaru aq</w>
00 0</w>
ma k
tho se</w>
wh o</w>
uti q
c le
c l
ang u
tu s
si r
p uq
il lu
re por
pi cc
picc o</w>
siv ul
p ut</w>
n g
a ga
on al</w>
mor e</w>
educ ation</w>
g e</w>
ac t</w>
arn ir
t er</w>
f ir
al auq
ap ir
v in</w>
unn i</w>
mo tion</w>
c t</w>
ikk ut</w>
unn ut</w>
arra ag
gi aq
g ni
ul auq
al ly</w>
an ce</w>
g o</w>
kisi ani</w>
d ed</w>
o l
re co
tin ut</w>
ini q</w>
tu kisi
iqqanaij aqti
ul a
it tu
atu inn
avit tuq
t s
memb er</w>
aqtun ga</w>
a anni
niq sun
kk u
an y</w>
re ad
v v
am i</w>
g ht</w>
> >
uq q
is su
ik u</w>
th in
qimi r
pigi aqti
ik sivautaaq</w>
am a</w>
ta r
k il
ma r
- 1</w>
tama tu
be c
ann ir
akk ut</w>
reco gni
niqsun aqtuq</w>
k at
au juq</w>
vi e
vi si
qauji ma
taakk ua</w>
lir inir
re g
p le
f un
develo p
q il
mi lli
ji it</w>
ali r
il lu</w>
en ts</w>
s ed</w>
b li
at si
tu re</w>
thin k</w>
milli on</w>
h e</w>
o ff
maligali ur
u s</w>
ti t</w>
nalun a
f f</w>
e e
bec ause</w>
ha d</w>
v alu
ki uj
fir st</w>
uqausi kkut</w>
s c
al lu
p arn
com e</w>
hav i
liq pa
c en
al ak
ye ar</w>
nunal inni</w>
ik aju
wor k</w>
z e</w>
li ur
c h</w>
nutara k</w>
katimajirala at</w>
l lugit</w>
co uld</w>
pro vi
ili q
ag e</w>
state ments</w>
in asu
k s
ar ds</w>
agre ed</w>
malig ak
re vie
th ous
thous and</w>
respon si
ik ajuq
ig lu
ho w</w>
w ant</w>
m mi</w>
k ing
h ere</w>
ta anna</w>
the m</w>
pu q</w>
ma ann
kaju si
develop ment</w>
mp son</w>
tho mpson</w>
m on
d on</w>
aj ji
ma ke</w>
cle an</w>
c y</w>
puq iq
qauji maj
puqiq nak</w>
ilinni aqtu
ga su
co r
alak annu
t w
it sivautaq</w>
bu d
b ill</w>
unn aq
tama kk
stan ding</w>
k sa
tun ga</w>
ta am
n ak
f i
mi li
man i
l uni</w>
vu raijan</w>
i m
u ji
p en
m clean</w>
con t
as t</w>
ar mat</w>
an il
as se
in for
apiqquti it</w>
s ti
w el
tu k
t or
as k</w>
pij juti
it sivautaaq</w>
i tu
v ing
pi valli
aq tau
tai mann
lirijikk ut</w>
as e</w>
ga j
ati q
c e
ami k</w>
su k</w>
a d</w>
v unga</w>
b ill
r am
s l
l lu
mma ri
le t</w>
c er
a pi
ti mi
piliri at
akk a</w>
sta ff</w>
j a
sima ju
k s</w>
tun n
pi lir
e suk</w>
d ir
u si
ak esuk</w>
sivauta a</w>
dir ec
tu k</w>
sc ho
maligali uq
bud get</w>
k ti
ali k</w>
so cial</w>
p ir
un ik</w>
n o</w>
wh ic
whic h</w>
asse mb
ta l
l lugu</w>
assemb ly</w>
y ing</w>
c u
u ma
ro ug
qu ti
qil av
pre mi
aru ma
tamatu m
le gi
an iq
qimir r
legi sl
g it</w>
f e
su r
su ppor
ne w</w>
ll ars</w>
k ed</w>
do llars</w>
anil i</w>
kil ab
kilab uk</w>
el ders</w>
pre s
ou r
repor t</w>
ak isu
gavama kk
wh o
kisi anili</w>
aq t
ur mi
s uq
u mi</w>
k el
al aur
q ittuq</w>
in to</w>
angit tu
uv valu
sul i</w>
ir qittuq</w>
a aqq
kel vin</w>
bill s</w>
c api
titi q
pu gut</w>
p inga
capi tal</w>
u juq</w>
it ti
com ments</w>
gav am
ap pro
mini s
gavama kkut</w>
tr ans
co un
ar ij
al s</w>
2 000</w>
revie w</w>
premi er</w>
j o
f er
d is
tau juq</w>
pi taq
off i
o per
ma tion</w>
l l</w>
k u
ati ve</w>
s si
piliriat saq</w>
ga ma</w>
ullu mi</w>
tau ju
ta ke</w>
g in
gi v
ta vv
s tu
m manga
c ul
a aqqi
th ing</w>
aq arn
0 0</w>
t ly</w>
r an
ing innit</w>
iq ta
uqausi q
akisu k</w>
ik sivautaa</w>
c al</w>
prog ram
j ut</w>
nir u
c re
ar mata</w>
j j
ul lugit</w>
b ack</w>
w n</w>
pu bli
h ou
who le</w>
p inasu
read ing</w>
k ir
hou se</w>
es t</w>
infor mation</w>
si q
program s</w>
po li
v ed</w>
f u
p il
git tuq</w>
g n
arva allu
su m
ing ir
au ju
to day</w>
ti gu
it t
ut ti
un der
u ri
t en
kat tuk</w>
state ment</w>
k an
nak urmi
minist ers</w>
to tal</w>
t ta</w>
po in
piq uji
for e</w>
f ac
titir aq
responsi ble</w>
e ment</w>
199 9
tu ki
nunavu mi</w>
maj unga</w>
h is</w>
arvaallu k</w>
suppor t</w>
su re</w>
qanu q</w>
pilir iq
o un
199 9</w>
s es</w>
q auj
me e
ma anna</w>
si mali
th roug
nakurmi ik</w>
wh ere</w>
publi c</w>
na as
ing innik</w>
aqta un
u ta
ma y</w>
li uq
in di
u ki
ar aj
ang ir
tun it</w>
ma t
il auq
1 0</w>
ak ili
re gi
naluna iq
y s</w>
w er</w>
p iku</w>
d ents</w>
ar mi
a inn
sivu liq
o ver</w>
li e
l auq
ann gi
ali q
o k
tau q</w>
sh ould</w>
se con
arraag u
tun i</w>
j am
tu r
q ut</w>
in i</w>
git tut</w>
a il
sa i
o l</w>
in iq
tun i
ma tu
issu e</w>
con tra
be lie
be ing</w>
arni q</w>
nir tun
m u</w>
it s</w>
gil lugu</w>
a p</w>
ul l
t sa
qu vi
tw o</w>
ra m</w>
prog ram</w>
y es</w>
scho ol</w>
pro b
p ut
l lu</w>
jam es</w>
iqqanaij a
uqau s
ti ve</w>
tamakk ua</w>
s aqqi
kiinauj ait</w>
pij ari
se e</w>
o d</w>
ing s</w>
ik u
c ess</w>
tun ik</w>
tt er</w>
m ang
in gi
en ing</w>
akk u</w>
na amma
j ack</w>
con cer
mb er</w>
inu kti
tor s</w>
ti tti
re s</w>
ili ta
g inn
pu kir
er y</w>
ar e
a ff
sivul liqpa
qilav v
qauji s
nutara q</w>
bu sin
w i
g all
de put
deput y</w>
belie ve</w>
1 1</w>
di ff
un ir
res s</w>
j unn
loo k</w>
la in</w>
aqtun i</w>
throug h</w>
g unn
r uti
il angit</w>
wor king</w>
inn ga</w>
ar k</w>
sima juq</w>
si on</w>
s aqq
qu si
avittuq simaj
aqarn angittu
tun ij
tauj ut</w>
tau v
t sait</w>
q ik
p ula
mar ru
bo ard</w>
tun ut</w>
t tu
gall ery</w>
alakannu ark</w>
san ik</w>
iqq ittuq</w>
q a
apir i
ri ght</w>
bu il
be fore</w>
armanga ata</w>
aqtu gut</w>
vu q</w>
so me
ing anik</w>
i ma
uti t</w>
f ic
e mp
ul lugu</w>
ti tt
ing anut</w>
i i</w>
unn gi
qu ir
ma de</w>
ili ty</w>
poli cy</w>
po si
ou s</w>
l angu
j ec
ak itu
piquji v
ajji gi
taam san</w>
ing inn
at taq
ar mi</w>
nunali it</w>
tt ing</w>
ta uni
legisl ative</w>
is sivautaaq</w>
iq al
en ce</w>
ul u
uj aq</w>
g alu
kiinauj aq
ju maj
spe ci
sa y</w>
ti onal</w>
san it</w>
pl ac
on g</w>
ok alik</w>
minista it</w>
mili an</w>
loo king</w>
kiinauj aqtu
con si
aqp ut</w>
2 0</w>
uj ut</w>
u ra
piqujiv unga
p s</w>
mo ve</w>
kk a</w>
apiq qut</w>
uvvalu unniit</w>
ma mi
li k</w>
k ee
do cu
arlu k</w>
ar asu
a f
unn it</w>
tu gut</w>
c ated</w>
aqtun ik</w>
ann ut</w>
ann ik</w>
w on
maliga q</w>
ka an
anir mut</w>
unn ik</w>
qilavv aq</w>
ac h</w>
ang inn
o k</w>
emp lo
c an
arva arluk</w>
y ak</w>
on ly</w>
kiuj juti
ing inni</w>
un der</w>
o ri
fun ding</w>
ami su
tu rn
o yak</w>
ne ed</w>
havi oyak</w>
c lu
aqtun it</w>
aq qu
as ed</w>
tin it</w>
ar ti
ar atta</w>
v es</w>
uk ali
l in
c tion</w>
atta r
g ra
as si
aq si
angiq atigi
aga in</w>
w ay</w>
unikka angit</w>
re d</w>
ple ase</w>
inir mik</w>
z ed</w>
w ri
ter s</w>
i pp
w t</w>
ukali q</w>
titiq q
pe ter</w>
k in
t e</w>
provi de</w>
g en
uqaus ingit</w>
minista mut</w>
maligak saq</w>
ing n
atti gu</w>
un iq
p alli
gi ar
e y</w>
aqtu q
nunavu umi</w>
nirtun ar
co l
am ut</w>
s y
recogni ze</w>
pukir ng
h i
ch ang
aqtu mik</w>
an s</w>
a gut</w>
re c
piq uj
pij unn
l at
ex pen
ang innit</w>
kiinauj ali
ann iq
un a</w>
su sta
pukirng nak</w>
maann aujuq</w>
lu ta</w>
uju it</w>
susta in
p pi
mma q
l ast</w>
inn atuq
committe es</w>
d ate</w>
no ti
mak lain</w>
isuma gij
1 2</w>
sustain able</w>
man it
ili taq
d y</w>
c ur
uqq a
ta uq
pro jec
o ppor
su li
isuma alu
in ut</w>
/ 2000</w>
fin ance</w>
am p
al lo
1 9</w>
wel l</w>
qan ga
lirijikk unnut</w>
col le
nir i
le men
k atu
u tau
prob le
a a</w>
p au
it a</w>
anga t</w>
ar ama</w>
apiqquti t</w>
re e</w>
r mi
pl an</w>
langu age</w>
k saq
a ir
th en</w>
op ening</w>
issu es</w>
ilinni aqti
pi v
p ul
iqqanaij aq
angi ju
uqausi ks
re spe
man y</w>
lu tik</w>
ing ani</w>
i an</w>
auj ut</w>
u unga
sta r
s ing</w>
recogni tion</w>
naas au
l aur
havi ujaq</w>
depart ments</w>
res our
n or
mo tions</w>
d ge</w>
trans por
st and</w>
en d</w>
ang innut</w>
ut h</w>
mi st
us ed</w>
nu mber</w>
kamagij aq
il d
diff er
aul auq
ati gut</w>
akk annir
yo uth</w>
mini si
ma in
katimajirala anut</w>
gi ve</w>
ai pp
a uni
ye ars</w>
n uqq
maligaliur ving
ingir ra
de al</w>
arn iq
armanga aq</w>
ar mik</w>
aqta vut</w>
mon ey</w>
mist u</w>
maligaliuq ti</w>
in let</w>
git tu
c us
b l
aq pugut</w>
ak saq</w>
uq tu
jj iq
ap pl
1 3</w>
0 -
w e
ul aur
pi iku</w>
ar ding</w>
aq sima
ad d
pij itti
ir n
inukti tut</w>
h el
ang innik</w>
visi tors</w>
utin ut</w>
tt en</w>
transpor tation</w>
king ul
k angiq
ikk u
ga tta</w>
busin ess</w>
a ys</w>
su pp
por t
gil lu</w>
ga t</w>
g ini
di d</w>
tau san</w>
qik iqta
k no
in v
dis cus
av i
anga j
wh e
w ard</w>
u q</w>
ts angit</w>
til l</w>
manit ok</w>
mak li
ma kk
amp le</w>
tusaaj ikkut</w>
su tik</w>
siv un
nunav ut
kaan tura
aqtun ut</w>
v ing</w>
til lugu</w>
ta il
s till</w>
respe ct</w>
plac e</w>
p ur
g uti
ex ample</w>
e f
concer n
aq puq</w>
apiqquti ga</w>
ne e
cul ture</w>
atu r
al i</w>
1 5</w>
uj unit</w>
ta ak
secon d</w>
maligaliuqti t</w>
kati man
e ar
cor por
com men
w ing</w>
ti k
tau p</w>
reg ards</w>
makli in</w>
inn g
fu ture</w>
ta ble</w>
t ta
st ru
re quir
o t</w>
atuq tu
wri tten</w>
v al
qauj ikk
n alli
il u</w>
c lo
w is
v ik</w>
n ex
nex t</w>
ili ties</w>
tr ying</w>
respon d</w>
repor ts</w>
ig l
in ing</w>
h on
e v
di tional</w>
av ail
aqti tti
poin t</w>
pil lugu</w>
or ders</w>
gen er
appro pri
ann i</w>
pijjuti gillugu</w>
ni q</w>
kiinaujaqtu ruti
ki g
in clu
f ur
appl ause</w>
oper ations</w>
ju sti
h u
der ing</w>
atau si
aaqq it
9 -
r y</w>
pau l</w>
p at</w>
n an
aqtu mi</w>
uqausi tsangit</w>
til lugit</w>
san aj
ri aq
g ro
uqaq qau
uqalima aqtaun
sy st
resour ces</w>
j ju
e co
eco no
cen tra
an other</w>
z ation</w>
uq uti
uq tuq</w>
u se</w>
tauj unn
sivul li
im port
i mp
gu ma
at ing</w>
ans wer</w>
wel come</w>
tuq tut</w>
simali q
san ut</w>
read y</w>
re n
pres en
liri ji
l i</w>
c ti
b ay</w>
ut ta</w>
uj j
tu mi</w>
tin ik</w>
re commen
l and</w>
ung n
mee ting</w>
m ullu</w>
for ward</w>
arn ut</w>
ta bl
stu dents</w>
pro cess</w>
p li
justi ce</w>
fe der
f e</w>
avail able</w>
mu ch</w>
gn wt</w>
expen di
commi ssi
cl er
bo ards</w>
af ter</w>
wor ks</w>
ta vut</w>
p unga</w>
min ik</w>
isuma q
h ig
cont inu
c ted</w>
auj unit</w>
aqta r
aqp at</w>
>> p
ti it</w>
re fer
qanu il
lirinir mi</w>
go od</w>
b aff
baff in</w>
akk u
q am
mi s</w>
coun ci
counci l</w>
cler k</w>
ci p
alir inirmut</w>
alakannu aq</w>
1 2
ter ri
ri b
nunavu mmi</w>
lima at</w>
he ad</w>
fur ther</w>
as ked</w>
uqausiks angit</w>
tamatum innga</w>
p age</w>
ing mi</w>
ilita rij
differ ent</w>
ti gu</w>
ra ian</w>
at e
tho ri
th ir
se t</w>
se l
sa me</w>
respon se</w>
k ami
ju mik</w>
ing i</w>
h un
f o
cl ari
au thori
are a</w>
wi th
uti gi
tun ity</w>
se e
qimirr uj
pe ti
oppor tunity</w>
nam min
ju u
can ad
canad a</w>
with in</w>
th ree</w>
taun ingit</w>
s ma
re si
k in</w>
h am
gavamakk ung
arnir mut</w>
ang ani</w>
a sa
ullu ta</w>
ti m
st s</w>
it e</w>
feder al</w>
es ti
com ing</w>
aanni aqtu
whe ther</w>
ti li
k tu
ilinni ati
ak sa
taakk un
nun atti
naasau tik</w>
m mik</w>
k sait</w>
gava mali
fin an
f is
en ti
a head</w>
tunn gasu
tu res</w>
th ou
ta ulauq
s ent</w>
re turn
i vi
di visi
ann g
ak iliq
1 6</w>
utin it</w>
u u
taam p
s es
posi tions</w>
mini q</w>
lo t</w>
agre ement</w>
uq taq
liri jiit</w>
l ar
l ak
katima ji
inn ar
indi cated</w>
i mmat</w>
d one</w>
au k
2 1</w>
uqausi r
sai d</w>
mami an
kno w
gi aruti
ga ta</w>
d ent</w>
con sul
2 2</w>
1 7</w>
won dering</w>
under stand</w>
tuk sir
taamp san</w>
qaujimaj atuq
po ssi
pl ans</w>
iqq aqtu
c am
arn ik</w>
1 4</w>
uti r
uj unut</w>
syst em</w>
su ru
centra li
ce i
arvi at</w>
ang n
- mi</w>
th er
siv au
si mang
pijitti r
per ha
perha ps</w>
kku n</w>
ch ild
b ility</w>
ari ali
un gu
r ing</w>
mat es</w>
katimaj juti
contra ct</w>
aul atti
au p</w>
aqtar a</w>
ami t</w>
uti k</w>
tusaaji tigu
or der</w>
inn gu
h er</w>
at tu
ang anik</w>
>> applause</w>
w ee
s h</w>
re cei
nun atsi
kamagij ariaq
ir ij
import ant</w>
ak ainn
sti tu
parn a
nalunaiq si
kan ata
ila gij
atu aga
atu ag
ang inni</w>
w an
ti on
nee ds</w>
lo gi
giv en</w>
de centrali
ar alu
aqp unga</w>
ak s
1999 /2000</w>
tuinn aq</w>
san ik
return s</w>
on er</w>
katu jjiq
ilinni ar
ati n</w>
tra ining</w>
tavv ani</w>
tar y</w>
reg arding</w>
man ag
inir mi</w>
ik up
hav en</w>
gavama tuq
de tail
arv ik</w>
add ress</w>
s ini
re n</w>
par t</w>
men tal</w>
ik sa
consi der
child ren</w>
cen t
2 00
u m</w>
th an</w>
sanik ilu
s iniq</w>
ran kin</w>
nirtunar tuq</w>
mma n</w>
iliq qusi
d ur
d n</w>
cha ir</w>
ten ance</w>
t saq
main tenance</w>
ma ki
j un
de ci
ar y</w>
t or</w>
si mann
n a</w>
m inir
hon ou
c arri
ar luni</w>
ar ju
aqta uq
a i</w>
u su
tr y</w>
tamakk un
tal king</w>
piliri ang
ki su
ir mut</w>
git tunga</w>
com ple
com ment</w>
at tut</w>
1 8</w>
til lu</w>
sh i
s or
itt inni</w>
e l</w>
do wn</w>
arnir mik</w>
an y
uq palli
pro po
mmanga ata</w>
minis taup</w>
maligaliur vi
ma in</w>
lin e</w>
know le
f y</w>
dur ing</w>
arn it</w>
ang anut</w>
ur n
uq su
uq arunn
ul t</w>
tu ga
p ra
ll unga</w>
kiinauj alirinirmut</w>
ing an
gener al</w>
g ran
g i</w>
en g
e ff
carri ed</w>
>>p atta
uq qu
tak u
regi onal</w>
pinasu aru
p e</w>
o wn</w>
ini ti
g h</w>
b re
apiqquti q
un asu
ug alu
pu ri
katima tuinn
i v
ear li
c k</w>
all un
6 7</w>
wh y</w>
uq auj
tt inni</w>
to ge
toge ther</w>
thir d</w>
tar a</w>
ra ble</w>
qi ti
lak e</w>
l d</w>
f ol
expendi tures</w>
aqti llugu</w>
apiq usi
akk it</w>
vu gut</w>
j juti
iq qau
i mmi
h ard</w>
e ver
do es</w>
ar cti
aqti tau
w ays</w>
w atin</w>
spe cial</w>
sin ce</w>
qu llugit</w>
offi ce</w>
nunavu mmi
kk annir
kee watin</w>
inv ol
ex pe
ev en</w>
corpor ation</w>
arcti c</w>
aqtu it</w>
anni aqarnangittu
ak tu
wis h</w>
uqausi ri
ses sion</w>
pl ann
offi ci
mamian aq</w>
llu ta</w>
ilinni arvi
hu man</w>
earli er</w>
cont rib
au mmat</w>
aruti it</w>
2 4</w>
1 9
uqausi rij
tun gil
tuinn aqtunga</w>
ta bli
reg ul
pinga ju
mi k
l ong</w>
in ik</w>
honou rable</w>
esti mates</w>
es tabli
b aker</w>
ann gil
ad vi
aaqqi gi
aanni aqarnangittu
ul luni</w>
te ch
t u</w>
qimir ru
q allun
piliri v
n uq
katima jiit</w>
in it</w>
fol lo
f t</w>
e ach</w>
aq ullugit</w>
ag u
ag es</w>
uki uqtaq
st r
st er
pp o
p ilu
lemen tary</w>
kingul liqpa
g ani
fin d</w>
commissi oner</w>
co ur
atau sir
as king</w>
wor k
ut tu
provi ded</w>
pi ita</w>
o logi
ma y
kiinauj anik</w>
de li
continu e</w>
arlu tik</w>
ag it</w>
ti g
si ur
pri v
nunavu mi
in de
vi gi
val lir
u pp
ta ikk
t innut</w>
some thing</w>
si i</w>
resi dents</w>
pivalli aj
or gani
nammin iq
emplo ye
e t</w>
con stitu
aun ingit</w>
at es</w>
th ings</w>
ta inn
t saq</w>
qauji gi
pu raijan</w>
prog ress</w>
pri ori
nunavu u
n it</w>
may be</w>
lirijikk unni</w>
ki ul
gi li
f ul
f av
docu ments</w>
c ations</w>
avittuq simajut</w>
ar mut</w>
angiq pi
a a
uq suq
tu saq
ta ik
t anna</w>
supp lementary</w>
pijjuti q
offici als</w>
knowle dge</w>
it tut</w>
contra c
au v
v en
qaujimaj unga</w>
p r
ar r
an gij
ta s
re l
pigiaqti tti
o ppo
ho me</w>
hel p</w>
aqti tt
ti tau
tak en</w>
sta ted</w>
simaj unit</w>
mu st</w>
manga ata</w>
maj ut</w>
ki vallir
ju t
ik tu
i mann
fav our</w>
cur ren
c ap
b er</w>
ati liur
asi uti
al ready</w>
u vi
t ment</w>
si ons</w>
s ou
aaqq ik
wan ted</w>
uv u
uqau ti
tauj ariaq
t y
t tuq</w>
siv uni
sh or
par a</w>
n ur
mi ksa
manag ement</w>
j ai
emplo y
eff ec
ap poin
aanni asi
3 0</w>
w est</w>
sh e</w>
qu ite</w>
pre vi
on al
nunavut mi</w>
ll uni</w>
inn u
il aur
finan cial</w>
ann it</w>
angaj uqqa
v i</w>
utin ik</w>
uti gij
pir uqpalli
ous ly</w>
nalun aij
lirij ini</w>
kati mani
iqal unni</w>
de al
ar a
ajuq s
aj juti
aj j
ac h
>>patta tuqtut</w>
vi it</w>
v it</w>
uqalimaaqtaun ingit</w>
tunn gav
tama innut</w>
pres ent</w>
pij it
niru aqtau
minista a</w>
kiul vin</w>
in cre
ha pp
h er
co st</w>
av it</w>
aqtu tik</w>
anga ta</w>
amma ri
tau sima
su ch</w>
pi mmari
o c
nal au
katujjiq atigi
co -
be tter</w>
att inni</w>
as i</w>
ari al
aj auq
uq ati
ti ki
si tu
qaujimajatuq angit</w>
n ik</w>
minisi ta
ka inn
e st
e le
aul an
ap ologi
ami s
uju mi</w>
tai l</w>
so ci
pinasuaru si
piliriq atigi
nunal innut</w>
noti ce</w>
kiinauj anit</w>
kat tuq</w>
inn iq
inde ed</w>
i mi
direc ted</w>
ak i
unni iq
un gi
su b
spe ak</w>
qallun a
p as
onal d</w>
m ma</w>
j au
f ami
do ing</w>
d onald</w>
d es</w>
buil ding</w>
9 7
ullu mi
tw e
tur n</w>
rij ikk
ri l</w>
proble ms</w>
n utti
mani ittuq</w>
ku ap
ilinni aq
hav ing</w>
ham let</w>
ge tting</w>
concern s</w>
com p
ap ril</w>
angiq tau
ak tut</w>
ajjigi inn
7 -
vi du
uti ons</w>
uti li
ur lu</w>
twe en</w>
tau ti
tai manna</w>
t el
simali r
projec ts</w>
pi ju
p ast</w>
nunatti ap</w>
nam miniq</w>
mmanga aq</w>
kami san
ir niq</w>
indi vidu
i mma
fun ds</w>
contrib utions</w>
be tween</w>
b i
ar attigu</w>
aq qau
al la
tu s</w>
tt innut</w>
tama ani</w>
t ro
t inni</w>
si la
quj a
plann ing</w>
p inngu
min it</w>
maligak sanit</w>
k ikku
ing mut</w>
ilinni arv
ik s
gil lugit</w>
con sent</w>
atu li
tusaajitigu uqtuq</w>
tu u
tra ditional</w>
star t</w>
so lu
s p
re ally</w>
quvi asu
piliri j
pe n</w>
naamma s
mali q
lima anut</w>
il e</w>
h an
gran ts</w>
es ses</w>
decentrali zation</w>
d enti
b asi
aw are</w>
ap pre
am oun
ve l</w>
ter i
sor ry</w>
ri es</w>
re f
pivalli ati
maligaliurving mi</w>
m mut</w>
m er</w>
le vel</w>
ki mmi
ja ak</w>
it s
ingi ta</w>
ikaju r
ik aj
i aq
g re
consider ation</w>
ar lugu</w>
aqtu tit</w>
anni q</w>
un ingit</w>
uj ar
tamatum inga</w>
san ir
responsi bility</w>
proble m</w>
per i
par ti
noti ces</w>
ma king</w>
kiujjuti t</w>
kati llugit</w>
juma v
isuma al
docu ment</w>
cent re</w>
b ased</w>
u pi
tus aqti
simaj unik</w>
re ali
qikiqta alu
po wer</w>
piliri aq
kangiq &
is sivau
gil auq
g al
bo dy</w>
as ingit</w>
apologi ze</w>
ang i</w>
y er</w>
tun ga
tuki sin
tt innit</w>
tim es</w>
taq qi
taimann aummat</w>
re as
pigiaqti ta
mo st</w>
maliga tsaq</w>
ma ppi
iq si
inga t</w>
iliq qu
establi sh
en sure</w>
de tail</w>
arn i</w>
anir mik</w>
a taq
uqaq ti
tu sau
to ber</w>
simaj unut</w>
re ad</w>
oc tober</w>
nun aq
ini up</w>
h al
gu ess</w>
g g
employe es</w>
colle ge</w>
c ation</w>
8 67</w>
uvu raijan</w>
tabl ing</w>
ta mann
q at
or s</w>
on ce</w>
ol s</w>
o b
nam minir
lir iniq</w>
la r</w>
j uq
he ar</w>
ga n</w>
b en
aq atta
appre ci
al akk
ac tu
tech ni
ta v
sta tus</w>
sivuliq ti
possi ble</w>
ple ased</w>
katimaj ingit</w>
it ta
ir ju
ilu ani</w>
hal f</w>
es s
ak ta</w>
ag u</w>
97 9-
979- 6
4 -
u uttu
taq q
ta kk
t sanik</w>
servi ce</w>
sa ying</w>
s en
p er</w>
naluna ir
n ut</w>
n ess</w>
mmi j
le ad
iqqanaijaqti it</w>
inn aq</w>
ilitaq siniq</w>
h ir
fi ed</w>
en cy</w>
e qu
ad minist
ye ster
un inga</w>
terri to
techni cal</w>
te le
su uq
shi p</w>
regi on</w>
qilav va
pula aq
projec t</w>
peti tions</w>
mi llu</w>
ju gut</w>
ilita ri
gu maj
5 0</w>
yester day</w>
us ing</w>
uju ma
ti kku
ta ul
si lat
ri ver</w>
qauji saq
parn auti
p ata</w>
oppo sed</w>
makk uk
lug i</w>
kin d</w>
ilitaq si
fic ation</w>
auj unut</w>
ati liuq
taikk ua</w>
t tauq</w>
t sutik</w>
oun d</w>
manga aq</w>
kk anir
k sau
jumaj ara</w>
jai mi
ilinniaqtu lirij
f lo
chang e</w>
c ri
c ann
a unngi
uti it</w>
unikka ali
ul la
u uvuraijan</w>
thou gh</w>
t re
qimi ru
p ang
lirinir mullu</w>
legisl ation</w>
le tter</w>
kee p</w>
i q</w>
employ ment</w>
econo mi
att innut</w>
ariaq arni
3 1</w>
uj uni</w>
taimann a
taak sum
sivulliqpa amik</w>
s s</w>
recommen d
ra tion</w>
ra j
pp at</w>
li fe</w>
ju it</w>
itu aq</w>
ilu unn
ikaj uqti
cann ot</w>
c ab
aul atsi
aqti llugit</w>
apiqqu si
a ma
v a</w>
uti ve</w>
tel l</w>
taima immat</w>
sivuliq ti</w>
qauji man
po pul
n ing</w>
m ul
jaimi si</w>
inn ga
i denti
ex ec
exec utive</w>
detail s</w>
c le</w>
arlu ta</w>
y de</w>
ukiuqtaq tumi</w>
tungil inga</w>
tu it</w>
scho ols</w>
kk alu
kaantura ak
i mmaq
i ituaq</w>
gavamatuq akk
di dn</w>
cl yde</w>
cab in
ak sur
ag g
wh ile</w>
w o
ung inn
situ ation</w>
sel f</w>
miksa anut</w>
kati q
kanata mi</w>
juma vunga</w>
jo a</w>
iqq auj
innar ani</w>
ikup iktu
ha am
g joa</w>
concer n</w>
cabin et</w>
aqp avut</w>
aq uti
ak aun
unikka at</w>
un ti
unti l</w>
tik me
tikme ot</w>
t inn
stan ce</w>
siq inng
ri s
pu raian</w>
p ali
namminir ij
mi ut</w>
maligaliuq tinut</w>
ki tikmeot</w>
iglu lirinirmut</w>
fac ilities</w>
do c
ati k</w>
at sa
aq pi
annu aq</w>
z one</w>
up innarani</w>
re turn</w>
pil lugit</w>
nor th</w>
minisita rij
mi tsa
ma i</w>
loo lik</w>
ki u
iqqaqtu ivi
ig loolik</w>
i gu
hig h</w>
hi m</w>
gij au
f ri
ever y
ci es</w>
c au
ar ata
ajuqs aqtu
7 0</w>
uq atigi
tura anga
til luta</w>
suq qu
simaj uni</w>
s al
issivau ta</w>
ipp a
inn ir
ilinniaqtu lirinirmut</w>
i ti
e ms</w>
ben ef
aul l
are as</w>
ac cess</w>
1 0
tuni si
ta lu</w>
su urlu</w>
san a
p h
organi z
nirtunar tu</w>
ll er</w>
k e
iqqanaijaqti ta
ilinniaqti it</w>
he ard</w>
fe w</w>
cle ar</w>
att ani
ati onal</w>
arti cle</w>
aqtu mut</w>
apir ij
ann gin
angi ta</w>
amoun t</w>
alakk annuaq</w>
uv it</w>
unnaq si
speci ally</w>
ri s</w>
pro ce
pinga s
piliri vi
mee t</w>
mat ters</w>
ingirra juu
imp lemen
g y</w>
economi c</w>
auj unn
amma ta</w>
w er
tti gu</w>
ta ge</w>
st o
qanuil inga
qanu ittu
piliriq atiq
it sa
isu li
e specially</w>
e ments</w>
colle agu
chang es</w>
c are</w>
an a
am u
tor y</w>
te ach
suuq ai
su i
sma ll</w>
si gn
n i</w>
kangiq tuga
iqqanaij aqt
invol ved</w>
innatuq ait</w>
ila gi
econo my</w>
direc t</w>
cor rec
commi tment</w>
aul att
auju it</w>
atiliur utau
as unn
aqp aa</w>
ak sait</w>
agre e</w>
uq ut
un ilu</w>
uju mut</w>
th s</w>
tak unn
ta in
stru c
sanikilu aq</w>
regul ar</w>
r ul
posi tion</w>
maligak sait</w>
lu unniit</w>
j ji
ij a
ga q</w>
g h
fi c</w>
ex p
divisi on</w>
communi cations</w>
atuaga q</w>
aniq tu
ak uni
ad j
w s</w>
uqsuq tu
ulauq tuq</w>
titiqq ait</w>
speci fic</w>
re presen
popul ation</w>
off ic
king uv
kil li
juti t</w>
in come</w>
f our</w>
en d
c ed</w>
bre ak</w>
asi jj
ang annut</w>
won der</w>
wee k</w>
we ver</w>
uqaq atigi
tu l
taima li</w>
solu tion</w>
siman ingit</w>
qu l
q it
pr in
p ati
nunal ingn
mor ning</w>
matu ir
it si
i p
ho wever</w>
go t</w>
fin al</w>
d ra
c us</w>
busin esses</w>
b ring</w>
arni ar
arn ingit</w>
ari alik</w>
aqp a</w>
aq ju
angiq tugut</w>
an u
al ung
ajauq tiit</w>
aanniaqtu lirinirmut</w>
2 3</w>
2 -1</w>
w ed</w>
un ani
u liq
tt le</w>
sima mmata</w>
ra is
puri immi
piv iq
ou t
nir mut</w>
nam es</w>
minis taujuq</w>
lirinir mik</w>
li sh</w>
kig ga
katima vi
g r
fi ve</w>
fer ris</w>
auti t</w>
aul aur
assi stance</w>
aq quti
apiqqu tinut</w>
any thing</w>
ann gat</w>
angiqpi sii</w>
ali rij
ab ly</w>
1 5
uri s</w>
ur u
uq a
under standing</w>
tuinn ait</w>
tu ju
tu av
tauj unut</w>
siqinng uj
simaju mik</w>
qu llugu</w>
puq ir
pra yer</w>
o ver
nam e</w>
mma r
mitsa anut</w>
ma tter</w>
m l
li ttle</w>
iq ti
gi mmata</w>
follo wing</w>
en ds</w>
co sts</w>
b est</w>
avittuqsimaj uni</w>
armanga at</w>
ann git
angiqatigi ig
ang unasu
akitu ju
ye t</w>
ullu tik</w>
u kku
sum mer</w>
se ar
pij ariaq
o pen</w>
m en</w>
kiujjuti it</w>
king uni
in uquti
ho pe</w>
gav it</w>
fis cal</w>
clari fication</w>
c ase</w>
aul a
aqtu gu</w>
appropri ation</w>
an ik
ad ditional</w>
3 3
1 st</w>
w ards</w>
utti gu</w>
un g</w>
tion ed</w>
ti tsi
tauj unit</w>
sma ller</w>
simaj avut</w>
s ing
qujannami ir
qauji mann
qam aniqtu
on g
ol d</w>
o ff</w>
nunatsi ap</w>
mili anit</w>
marru uk</w>
m ous</w>
le ga
l ess</w>
kiinauj aqta
in unnut</w>
he ad
e very</w>
atu liq
arn inganik</w>
ari anga</w>
ar lugit</w>
aq taq
aq para</w>
appropri ate</w>
apiqquti k</w>
aipp a
2 5</w>
1 -1</w>
vi uris</w>
v u</w>
uq all
unn us
unn ginn
u puraijan</w>
u aj
tun ir
tama k
st ing</w>
st e
ref le
puqir nak</w>
pinga su
min ut
la i
kig g
ikajuq tu
h ans
hans ard</w>
ga a</w>
eng lish</w>
c all
aw ay</w>
att innit</w>
aqtauq ullugu</w>
ann gu
ak ir
yo ung</w>
unn gil
ung alu</w>
unani mous</w>
uk ua</w>
tuk si
ta in</w>
re pli
previ ously</w>
piq asiuti
pe d</w>
nunavummi ut</w>
ni uv
n ali
min d</w>
man i</w>
maliga tsait</w>
it ing</w>
inga ta</w>
ar ound</w>
am end</w>
a tuni</w>
3 -1</w>
200 0
1 -
work ers</w>
uunga ju
ul u</w>
ukku ma
u maj
ta lli
ta anut</w>
stru ction</w>
sivu q</w>
refer ence</w>
qu ar
qiti rmi
pro duc
pinasu ag
n aq</w>
mi j
marru unnik</w>
lo cal</w>
kimmi r
ki uv
it ed</w>
isu mali
ini ar
gu majunga</w>
ga ttigu</w>
flo or</w>
ef for
deal ing</w>
b arn
barn ab
barnab as</w>
armanga atta</w>
ap a
ai v
ac y</w>
uq ar
un its</w>
titiraq simajut</w>
ti liur
tabl ed</w>
t ri
qaujima ju
prob ably</w>
pivalli aju
p ay</w>
nan u
mmaq quti
men tioned</w>
lirinir mu</w>
g iq
fu l</w>
for ce</w>
f act</w>
atuli quj
atau p</w>
at ti</w>
ann gittuq</w>
air s</w>
wor ked</w>
tauju mut</w>
ta king</w>
so on</w>
sivu li
simaju it</w>
s inirmut</w>
s ani</w>
pp ata</w>
pa al</w>
nalli ukkuma
mi ght</w>
loo ked</w>
lega l</w>
ki aq</w>
j ariaq
inn u</w>
ing anit</w>
gavamakk unnut</w>
fac ility</w>
dis solution</w>
ch all
as soci
alaur mat</w>
administ ration</w>
2 6</w>
va i</w>
uqaq sima
uju mit</w>
ta kka</w>
t innik</w>
ro o
repli es</w>
re qu
qu tti
pijari iq
mon ths</w>
mi tti
kiinauj at</w>
inn gi
il li
g akku</w>
diff ic
develo p</w>
deci sion</w>
committ ed</w>
clari fy</w>
cl ause</w>
aqp alli
ani q</w>
4 -1</w>
3 -
vi uk</w>
tus aruma
terri tory</w>
ter m</w>
tak uj
ro ad</w>
qanga ta
pro u
pijittir au
p ap
offi cial</w>
man ir
lu ti</w>
kivallir mi</w>
ka y</w>
isumaq saq
isu majunga</w>
ilitarij auningit</w>
ila ak</w>
il s</w>
haam l
gavam anga</w>
coun c
asi jji
as es</w>
an gil
ak aunngi
aff airs</w>
actu ally</w>
wh al
uqausi lirinirmut</w>
uq ari
uj u</w>
tunij au
tukisi giaruti
tu mik</w>
tele communications</w>
ro ss</w>
ra ta
provi ding</w>
prou d</w>
organiz ations</w>
le vi</w>
kiinauj atigut</w>
iq sau
inn au
imma gaa</w>
im pro
head quar
gu su
en ces</w>
discus sions</w>
di es</w>
de fic
con gra
comple ted</w>
bri dge</w>
bo th</w>
av ik
atuq tau
aqp ata</w>
anniaqarnangittu lirinirmi</w>
akitu jun
1 6
v it
uqausi kkun</w>
u va
taun inginnut</w>
t inga</w>
stu dy</w>
siman i
san aju
recommend ations</w>
qanu ili
piliri ar
or y</w>
n ani
man date</w>
lu k
k sanit</w>
immaq a</w>
gij ara</w>
divisi onal</w>
concern ed</w>
buil t</w>
be half</w>
atausir mik</w>
aqq a
aanniasi uqti
2 6
yo n
uqsu alu
unni ir
sta ff
si x</w>
recei ved</w>
qi turn
pon d</w>
pa an
o kay</w>
mitti ma
m uni
lirijikk unnit</w>
kiinaujaq aqti
it tunik</w>
iqqanaij aqtu
individu als</w>
in unnik</w>
git ta</w>
e m
b ilities</w>
aul ajjuti
ariali it</w>
am e</w>
all ar
ak saq
99 /2000</w>
7 7</w>
uq qau
uq alauq
unn ga</w>
un u</w>
ull unga</w>
tuju rmi
tu u</w>
tu g
to wards</w>
tamatum unga</w>
si l
shor t</w>
sear ch</w>
sa p
ri se</w>
ri ji
pir i</w>
piqujivunga arutiit</w>
peti tion</w>
part n
pang nirtun
pangnirtun g</w>
nutti q
niri u
na am
n ang
muni cip
lat er</w>
kk u</w>
k tuq</w>
j unut</w>
inu tuq
inu gi
e f</w>
curren tly</w>
ch ar
atu utiq
ati ves</w>
aru majunga</w>
anniq tu
ak iq
wo men</w>
v ari
u mi
tun gili
ti gi
territo ries</w>
tainn a</w>
t en</w>
su cc
sivulliqpa ami</w>
sivu liuq
siman irij
silat tus
si tting</w>
se ver
sa amu
ques t</w>
pijit sir
p ing</w>
lir ini
lima aq</w>
kigg aqtu
kati ttu
ingirra ju
illu unniit</w>
ikaju uti
i sa
i de
git ti
ex ac
exac tly</w>
establish ed</w>
doc tor</w>
c ally</w>
buil d</w>
b it</w>
ate ly</w>
atausi q</w>
ar akku</w>
ac cor
unn gin
unir mut</w>
ullu tit</w>
titt inirmut</w>
t ru
suuqai mma</w>
su liri
re quest</w>
proce ed</w>
priori ties</w>
piliriq ati
pen sa
p y</w>
nur ses</w>
m innik</w>
l unga</w>
kiinaujali rij
d ays</w>
com pensa
call ed</w>
b roug
b r
aqp it</w>
aq attar
anngi mmat</w>
al lu</w>
ak ul
wit ness</w>
uvvalu unni</w>
uti llugu</w>
unn gittuq</w>
unn g
unn ar
un unga</w>
u tu
tu n</w>
teach ers</w>
te ly</w>
tamatu ma</w>
sou th</w>
sivun iksa
revie wing</w>
quj ali
q inir
q ang
pivalliaj a
piq qusi
nunali r
nu mb
n wt</w>
me an</w>
mali r
m ed</w>
li st</w>
kikku tuinn
it tuq
in gillu</w>
ilinniati tsi
ili sai
ik arr
ex ten
cour se</w>
congra tul
ann gittut</w>
ang annik</w>
alaur mata</w>
1 8
z e
v o
uq aruma
tusau ma
tuav irn
ti sa
ter ms</w>
tai ma</w>
st ri
sivu mu
sever al</w>
ro le</w>
priv ate</w>
pre par
piliri arij
ori gin
numb ers</w>
naas auti
me di
maligaliurving mut</w>
lo an</w>
lima ami</w>
li q</w>
katimaj inginnut</w>
kangiq& iniup</w>
ingir r
in f
ili qusi
hig h
her i
gre at</w>
ful ly</w>
f ee
f a
est ed</w>
es n</w>
do esn</w>
com es</w>
c tions</w>
as inginn
aq ullugu</w>
apa asi</w>
akk anir
ac ross</w>
ze k</w>
w at
uv ut</w>
uqaq ati
uni aqtuq</w>
ugalu aq</w>
u atti
tuksir auti
tuki mu
tal k</w>
ta ti
ta at
sivul lir
simaj uq
sila ta
ra zek</w>
qan uqtu
qa iq
piqujivunga aruti
pigiaqtitti vunga</w>
pigiaqti taujuq</w>
paan apaasi</w>
ou tsi
n gu
m razek</w>
it ems</w>
ing u
ili ma
ik siv
i i
fu el</w>
fami ly</w>
deli very</w>
counc ils</w>
ce p
cam bridge</w>
atur ni
att an
assi st
as unni
arn it
ami ttuq</w>
1999 -
w n
v at</w>
unga si
uj au
titir aqtau
ther e
te l</w>
ta ulaur
ta g
secon ded</w>
rec ru
quir ke</w>
pulaaq tinit</w>
pri or</w>
pi usi
nor th
nalau ksa
na ys</w>
man iq
malig armik</w>
li ving</w>
kuap uri
katimatuinn aqtut</w>
kaju sivuq</w>
inu usi
inn ait</w>
ing ani
in a
ex peri
compensa tion</w>
co ura
basi s</w>
avittuq simaju
authori zed</w>
ai ppi
2 7</w>
1 7
v akka</w>
uv ani</w>
ut ta
ut si
ura su
tunn ga
there fore</w>
ther n</w>
t ini
suru si
su git</w>
ru ma
qan i
pul ar
per s
outsi de</w>
ma teri
ma kku
li it</w>
kiuv an</w>
kajusi juq</w>
it tunit</w>
in put</w>
in cen
ikajuq tau
gij avut</w>
c s</w>
arraag umi</w>
ari aksaq</w>
ang akainn
a ag
uqaqqau gama</w>
uqaq atiq
ullumi mut</w>
ujar arni
u sir
tuni ties</w>
tor ate</w>
th ur
tau simajut</w>
t innit</w>
saqq ija
q qu
por t</w>
pa y
pa ippa
oppor tunities</w>
nunal innu
ml a</w>
maligaliur vik</w>
liur uti
li es</w>
juti q
iq uti
ikkarri alu
h all</w>
er ship</w>
en coura
contrac ts</w>
constitu ency</w>
c ts</w>
c ing</w>
c ar
av el</w>
ar ma
aq attaq
ap pli
ann oun
ajjigiinn git
uqausi ksaq
uqalima arvik</w>
tt innik</w>
tas k</w>
struc ture</w>
siv e</w>
s av
reas on</w>
qikiqta alung
pas sed</w>
nuq qanga
naammas aqtut</w>
min ing</w>
min i</w>
lima anit</w>
la w</w>
l es</w>
ki ujuma
kangiqtuga ap
kan ataup</w>
kama gi
iqalu ttu
ilinniaqtu lirijikkut</w>
i ji
headquar ters</w>
h ar
gu vit</w>
ful l</w>
con struction</w>
ar ms</w>
aj ja
af ter
1 0-
visi on</w>
ving mi</w>
uj ji
trans l
to ld</w>
tion s
t es</w>
some times</w>
ser i
ser ge
sa l</w>
s k
qaujikk aij
pula arv
piliri ari
pi iku
p at
our s</w>
maann akkut</w>
m es</w>
ll ar
lirij in
kiuj unn
k ug
ju majunga</w>
inir mit</w>
ing mi
incen tive</w>
in e</w>
i ppi
fee l</w>
es day</w>
direc torate</w>
defic it</w>
broug ht</w>
atuq tuk
aru ti</w>
ar ut</w>
aqtu r
appoin ted</w>
an u</w>
amis ut</w>
alaur n
al ways</w>
agg uq
5 -
wi tho
witho ut</w>
wee ks</w>
ving mut</w>
uunga jut</w>
uq tut</w>
uq akkannir
u l</w>
tuk iq
tuinn aun
t ingit</w>
star ted</w>
sa uni
ris di
pij ju
pe s</w>
parn atau
ou rn
n angiq
mu unga
mu ra
matu iq
maligaliuqti mut</w>
luk tuk</w>
le arn
kug luktuk</w>
kimmir ut</w>
katimajjuti tsait</w>
ju risdi
jo b
job s</w>
iqqanaijaq tinut</w>
inginn u</w>
ilinni ari
il ul
gra du
gavamakkung innut</w>
di tion</w>
depart mental</w>
d ul
curren t</w>
cor re
con clu
avik tuq
atu ri
arn inga</w>
ar utta</w>
apiq suq
angit tuq</w>
angij uqqa
alauq put</w>
ak ittu
6 0</w>
3 0
2 4
12 00</w>
yon e</w>
vari ous</w>
utin i</w>
ut ingit</w>
uqauj j
u n</w>
tukisi gi
tuinn au
tamann alu</w>
taik ani</w>
taak si
ta ri
sivulli uti
sima vuq</w>
rijikk unni</w>
reali ze</w>
qujannami i</w>
qu vv
qu ali
qanu i
q iniq
piliri p
pijari ir
nun attinni</w>
mon th</w>
liur utiq
lirij irju
lauq tut</w>
kati tsutik</w>
jo b</w>
j unnaq
in ung
iku mmaqquti
ho s
gra de</w>
gij unn
f ar</w>
clo ck</w>
att innik</w>
assist ant</w>
ar avit</w>
aqtu ta</w>
angiju tinut</w>
al auk
akaun gi
add res
aaqqigi aru
a atu
w ild
wild life</w>
v iq
uv uq</w>
uqaqqau mmat</w>
uq ata
u mmata</w>
u ga
tura aqti
ti q
th y</w>
tavv unga</w>
ta a</w>
t ou
t ings</w>
sun ik</w>
sum inga</w>
su ungu
sivun ittinni</w>
sanaj au
propo sal</w>
priori ty</w>
pivalliati tt
pij iqti
piiku u</w>
parti cip
p ages</w>
n ti</w>
mittima tal
min ut</w>
mi killi
mee tings</w>
maligaliuqti uqati
k am
incre ase</w>
ill uni</w>
ilinniati tti
ilinni av
ik saq
ig unn
hun d
hi st
govern mental</w>
fun d</w>
fri day</w>
detail ed</w>
d avi
arn gata</w>
ani g
angir r
alauq tut</w>
akul liq</w>
akku n</w>
ak suru
adj ourn
1 3
x 0
x0 a</w>
unn ir
tuinn ariaq
tin i</w>
timi ujuq</w>
tama at</w>
taima ak</w>
ta tions</w>
ta ij
t sau
su u
sivulliqpa amit</w>
sima vut</w>
s pen
rn ut</w>
re mar
rais ed</w>
quvi a
qu v
qilavva a</w>
pula ariaq
po lar</w>
pilu aqtumi</w>
pi sima
north west</w>
municip ali
m y
lu tit</w>
initi atives</w>
il anga</w>
ik a
hund red</w>
h 0</w>
gi ani</w>
gavamali rij
g n</w>
for m</w>
fer red</w>
expe ct</w>
exp lain</w>
effor ts</w>
d in
cont ro
co py</w>
avittuqsimaj unut</w>
as s
arn inginnut</w>
ar ing</w>
aq tauj
aq s
ai r</w>
0 h0</w>
$ 3
w a</w>
ug unn
u e</w>
tusaruma tuinnaqtunga</w>
tun gn
tu lli
tta wa</w>
thou ght</w>
taima i
su gu</w>
spe ak
sel ves</w>
requir e</w>
remar ks</w>
priv acy</w>
poli cies</w>
pitaq ariaq
piq ju
pinasu aga
parti cul
parn au
op tions</w>
offic ers</w>
o ttawa</w>
ne go
nego ti
n ami
mura aj
mappi gaq</w>
mali k
maki ta
llu tik</w>
lirij iq
la y
jumav ara</w>
j unit</w>
j unga</w>
isuma gi
inclu de</w>
ij ju
i at</w>
gu n</w>
gro up</w>
ex pl
davi d</w>
cau cus</w>
auj ariaq
ati llugit</w>
at si</w>
at i</w>
asi jjiq
as inginnut</w>
armanga attigu</w>
aq ai</w>
appro ved</w>
am end
ad ult</w>
aaqqi giar
979-6 8
979-68 11</w>
979-6 7
979-67 70</w>
8 77</w>
7 26
726 6</w>
6 0
4- 7266</w>
33 4-7266</w>
up date</w>
uju mik</w>
taaksum unga</w>
simang n
ro w</w>
ri cul
re cen
recen tly</w>
r mik</w>
quja gi
qimirr un
qauji mani
piliri vv
pi ta
p ly</w>
nunatsi armi</w>
nun a
no ted</w>
niqtun aqtut</w>
ne c
minisitarij aujuq</w>
mi t
materi als</w>
langu ages</w>
katima q
jun e</w>
inter governmental</w>
inn arnut</w>
inclu ded</w>
i m</w>
govern ments</w>
gavamatuq akkut</w>
gavamakk unni</w>
el se</w>
direc tly</w>
cur ricul
corre ct</w>
consi der</w>
comp ani
colleagu es</w>
avit simanirij
aulauq tuq</w>
auj uni</w>
ati tti
as inginnik</w>
aru maj
arni aqtut</w>
aqti tsi
aqti lluta</w>
aqq is
angiq atiq
aju rn
2 -
uv annut</w>
unn gittut</w>
ung mat</w>
u uma
tukisi giar
taakk u
t ments</w>
stu dent</w>
str ate
stan ds</w>
sign ed</w>
si uti
si tion</w>
serge ant</w>
s ar
s ann
requir ed</w>
recogni zed</w>
ra l</w>
qanu inn
q auta
qauta ma
q atti
puriimmi a</w>
or din
nunavu up</w>
ni uvi
minist angat</w>
me t</w>
mang n
makkuk tu
maj or</w>
kuapuri is
kinguni agut</w>
ki valli
ittu mik</w>
is sivautaa</w>
inclu ding</w>
ill uq
hi e
f ini
f all</w>
constitu ents</w>
chall eng
atuinn au
at s
arv iq
ar unniiq
aq atigi
appro x
all av
akk anniq
akk aniq
ac ti
ac hie
aanniaqarnangittu lirinirmut</w>
4 7
2 8</w>
w ent</w>
v ir
uni aqtut</w>
ung mata</w>
un gittuq</w>
un d</w>
ul dn</w>
tunngasu kti
too k</w>
tavv ani
speci fic
siman ir
sc he
s po
roo m</w>
qujannami k</w>
qauji gumajunga</w>
q atsi
pp alli
pi uniq
o wn
no on</w>
ni g
my self</w>
muraaj ik</w>
matu iqsi
m mu
l ing</w>
l ed</w>
kami sin
k san
jumaj akka</w>
ir ata
inu k</w>
implemen tation</w>
ili sa
igl ul
g l
for tun
ex pres
el der</w>
de pen
cour t</w>
commi t</w>
c ate</w>
aul anirmut</w>
asijj ir
ar ts</w>
aqq ut</w>
aq simajut</w>
ann ginn
angu juq</w>
$ 4
v ara</w>
upp ir
unngi mmat</w>
ujj au
u gaj
tukisi kkanir
tu tuu</w>
teri a</w>
te am</w>
taun inga</w>
str ong</w>
sche dul
qa i</w>
produc ts</w>
piqqusi tuq
piliri at</w>
oper ation</w>
nunalir ala
mi sta
mi s
ma l
lu utta
l ong
ks at</w>
kiinauj anut</w>
kamagij au
juma gama</w>
j unik</w>
isu man
inter im</w>
ing ng
imp act</w>
ilinni anirmut</w>
ila ann
il inga
ik sivauta
happ y</w>
go al</w>
gi arunn
ge ts</w>
galu aqtunga</w>
f er</w>
ele cted</w>
el s</w>
e i
direc tion</w>
cri teria</w>
co- ordin
b a
avittuqsimaj uquti
authori ty</w>
aul anir
at tuq
arn inginnik</w>
ar utinut</w>
ar tu
ar ly</w>
angit tut</w>
an is
all atti</w>
ak si</w>
aju k</w>
aippa anik</w>
ag o</w>
ag l
uuttu uti
utigi lugu</w>
unn u
unga ta
uj unik</w>
tukisikkanir uti
tu tik</w>
tauv ak
ta it
sing le</w>
si de</w>
regi ons</w>
recommen ds</w>
re st</w>
re duc
ra su
qilavva k</w>
qaujikk auta
qanuilinga lir
qalluna ati
piq asi
pa ami</w>
nun iq</w>
ne ga
n alu
mi uta
matu inga
li st
kk anniq</w>
katimani q</w>
it tauq</w>
ing annut</w>
gil aur
gavama kkun</w>
ga s
ex i
ever yone</w>
e ver</w>
compani es</w>
ch i
c lai
aulatti j
auj a
ati on
ar ed</w>
aqta uni
approx ima
apiqquti tsaq
alauq tuq</w>
$ 1</w>
work er</w>
whal e</w>
vu raian</w>
vir on
v ol
utir vigi
uq atta
ullu unniit</w>
uaj am
tus aqtitti
th ers</w>
tau valli
tama ani
su ma</w>
st re
requir ements</w>
recei ve</w>
re ven
qu ki
qaujikkauta uningit</w>
qan uti
piquj aksaq</w>
piquj aksait</w>
piq uti
pati ents</w>
p m</w>
p ini
o i
nuta ang
nunavuu mut</w>
ne ver</w>
nanu lik</w>
n atti
mmi ut</w>
min e</w>
malig ar
ma yo
k sanut</w>
jo h
itt innit</w>
in tro
ill ed</w>
ilinni aruti
ga p
for mul
fami lies</w>
en viron
e valu
bre ak
bo arding</w>
bill s
benef its</w>
auq qu
aul uni</w>
auju mut</w>
as h</w>
arn ait</w>
arlu ti</w>
approxima tely</w>
anir mit</w>
an ikkut</w>
allo w</w>
al though</w>
after noon</w>
00 0
& u
vi s
uqaqti up</w>
uq atau
ullu mut</w>
ulauq tumi</w>
titiq qan
timi uju
ti kir
tauq ullugit</w>
sur lu</w>
su me</w>
sima vugut</w>
sa mik</w>
qimirr uni
pur cha
pu k
pro te
pro c
previ ous</w>
pijjuti gillugit</w>
origin al</w>
n aliq
minut es</w>
mi ki
kingul lir
katiman iq
ja an</w>
iqq ai
infor m</w>
im mini
identi fied</w>
gi mmat</w>
gi ali
gavama vut</w>
ear ly</w>
de si
c he
aun iq
ari iq
aqtu mit</w>
aqq a</w>
ap punga</w>
angi mmata</w>
ang in
aktu uv
aj ju
aanni av
a de
2 9</w>
1999 -mi</w>
wat er</w>
v alu</w>
usu ally</w>
up on</w>
unn u</w>
unir mik</w>
u mmat</w>
tut tar
tunga agut</w>
tav vu
taun iq
ta lu
t sanut</w>
stan d
sivuni ani</w>
siv alli
see ms</w>
see k</w>
saqq it
s at</w>
rn ik</w>
res ult</w>
ra structure</w>
qikiqtaalu mmi</w>
qaujima vunga</w>
qanuti gi</w>
qan ima
pi u
pi juma
peri od</w>
nunalingn i</w>
nunali quti
nunal inni
nun ata
nec ess
n as
mi d
maliga lirij
maj juti
ma ti
ktu git</w>
kiinaujaqturuti ksa
kiinauj j
katimajirala anit</w>
itt innut</w>
iqqanaijaqti q
inu uqatigi
inf rastructure</w>
individu al</w>
il d</w>
ik p
i ci
gumaj ara</w>
gittu mik</w>
git tunut</w>
fer ence</w>
f oun
dra ft</w>
consul tation</w>
consul t</w>
comm o
bu tion</w>
b ro
b er
aul luni</w>
atuinn aq</w>
attu iniq
attar ni
asu ungu
as sa
arvi gi
ar utinit</w>
aqti it</w>
aq ata
appreci ate</w>
apiri jumajara</w>
ac commo
8 -
uv alli
uqauj ji
unnus akkut</w>
unikka aq</w>
uj unn
ug it</w>
ty pe</w>
tusaajitigu ur
tt ini
to mor
tomor row</w>
ta ann
suli lluni</w>
sub si
sivuliq tii</w>
sivuli uqti
siur uti
simaj ara</w>
san i
revie wed</w>
ra se</w>
r ate</w>
quvv as
qanuil ingan
pukir nak</w>
pro per
piruqpalli ajjuti
piq ati
pigi aruti
pi jumaj
pi ij
ph rase</w>
p avut</w>
oper ating</w>
nunavu mut</w>
ni ur
nalun ai
mu anga
mo ved</w>
me ans</w>
mann aujuq</w>
maligaliuqti ujuq</w>
ma d
li vai</w>
le v
kikkutuinn arnik</w>
kigga tuq
katimaj inut</w>
kan tura
k sanik</w>
joh n</w>
iqal ungn
iq ittuq</w>
ingi tigut</w>
ing mik</w>
ing anni</w>
ikaju u
iglu lirijikkut</w>
giv ara</w>
gil lu
gi anga</w>
g iqqauj
every body</w>
el lo
ei ther</w>
e ast</w>
du e</w>
di sa
curricul um</w>
c ir
bu s
bri ef</w>
auj unik</w>
au si
atuinn aq
arv ingmi</w>
armi ut</w>
aqq at</w>
apiqquti gi
ap pe
al un
akiliq tu
akiliq su
advi sed</w>
accor ding</w>
2 7
v avut</w>
v ak
uva gut</w>
uv attinnut</w>
ulauq tut</w>
ul uni</w>
uajam uungaju
ty pes</w>
tusa g
tura l</w>
tulli a</w>
tuavirn aqtu
tauv aktut</w>
taun ir
tamak ua</w>
takk ua</w>
t angit</w>
suli juq
su gg
staff ing</w>
sima mmat</w>
sen i
se en</w>
r unn
r ju
qujannamiir uma
q ari
piq ata
pi it</w>
parn aij
ou gh</w>
nega tive</w>
nee ded</w>
nang miniq</w>
n au
minisi taujuq</w>
llu tit</w>
lirijikk un</w>
le av
lar ge</w>
l ack</w>
ku up
katimajirala a</w>
kamagijaq aqtuq</w>
kaju sini
ju up
ip ment</w>
ill s</w>
ilinniaqtulirij irju
ila akk
il angat</w>
ij unn
ig ht</w>
hun ter</w>
hos pi
go es</w>
gi ta</w>
gi n</w>
fo od</w>
equ ipment</w>
e d
discus sion</w>
develop ing</w>
deal t</w>
cam e</w>
c all</w>
benef it</w>
be come</w>
be ach</w>
at tunik</w>
aqp a
appreci ation</w>
apir ini
apiqquti gij
angit ta</w>
ami g
ami akk
al ong</w>
akk uv
ajuqsaqtu lirinirmullu</w>
adjourn ed</w>
ac e</w>
5 5</w>
4 0</w>
200 0-
vi mmi</w>
vi de</w>
uu mma
uti gut</w>
uqauti junn
ung in
ull i</w>
u lir
tut si
tuki li
tigu sinirmut</w>
throug ho
througho ut</w>
taul uni</w>
tau tu
tamakkun innga</w>
tak uk
ta it</w>
ta isu
t sin
st er</w>
soci e
si t</w>
responsi bilities</w>
requ ested</w>
re pul
repul se</w>
qik iq
qan u</w>
pulaariaq simajut</w>
pro f
par ents</w>
nunavu ut</w>
namminiq arnirmut</w>
mi jut</w>
mar ch</w>
learn ing</w>
lead er</w>
le ts</w>
kisi an
katittu gi</w>
kamagij arialik</w>
k si</w>
k saq</w>
k en</w>
k anng
kanng un
juup i</w>
iqqanaija at</w>
iq naq</w>
ing mata</w>
in te
in ed</w>
illu lirinirmut</w>
ili saq
ikaju usi
ig ur
haaml akkut</w>
git tugut</w>
gi angit</w>
gavamali r
ga k</w>
expe c
exi sting</w>
every thing</w>
effec t</w>
diffic ult</w>
decentrali zed</w>
d ail
dail y</w>
ch ild</w>
cent res</w>
cap ac
c ra
b al
aulatsi j
at sau
associ ation</w>
arraag u</w>
arn gan</w>
armi jut</w>
apiqqutiq aqtunga</w>
anngi mmata</w>
ani aq
angiqatigi igu
ang ng
an ittu
amend ment</w>
allu tik</w>
allo cated</w>
alaur ama</w>
akk unnut</w>
ak tigu</w>
aju r
ac coun
ab ility</w>
a iting</w>
3 5</w>
ver ed</w>
utiq ti
uta uni
uqausi s
uqalima arniq</w>
uq si
unnaq ullugit</w>
un ullu</w>
ula ajuk</w>
tungili a</w>
tukisin aqsi
tuki ta
tuinn a
tt ed</w>
ts inirmut</w>
ts at</w>
titt ini
tinn agu</w>
tak ut
ta li
speak ing</w>
sivu liqpa
simaliq tut</w>
sima tti
sima gama</w>
seni or</w>
sanir aj
s inn
refer red</w>
re phrase</w>
r mi</w>
pitaq aqti
pilu aqtumik</w>
pigiaqtita q</w>
pe tro
particul ar</w>
n ag
municipali ties</w>
mmij unga</w>
minis tauju
manga at</w>
maligaliuqti up</w>
makku tu
lirijiq ju
liq tuq</w>
le ft</w>
lar g
ki s
ke vin</w>
katimaj ingi</w>
kamagij aun
isumagij aq
iqq atu
inu lima
in ikkut</w>
in her
ilinni arni
il i</w>
il aq
iglu it</w>
ig uti
happ ening</w>
h ours</w>
gi arni
g es</w>
formul a</w>
expendi ture</w>
discus s</w>
di st
d son</w>
clo se</w>
cir cu
cer tain</w>
capac ity</w>
bi e</w>
be gin</w>
aul at
at tunga</w>
as inginnit</w>
as ingillu</w>
arju aq</w>
ar unni
akitu junut</w>
aj ut</w>
ad v
19 8
ve ly</w>
v en</w>
uv anga</w>
ut tauq</w>
uri ash</w>
uqausi tsaq
uq tunut</w>
up al
ulla akkut</w>
u gut</w>
tura ang
tun is
tti av
titt inirmik</w>
ti cal</w>
thur s
thurs day</w>
tama kku
tak us
tak es</w>
ta mma
sum unga</w>
sui ci
su kk
specific ally</w>
so l
sau ju
ques tions
qu ji
qil ami
piv vi
piquji vunga</w>
pigiaqti taujumut</w>
petro le
petrole um</w>
pali is
pa ying</w>
pa i
p anniqtu
op er</w>
on es</w>
nuta amik</w>
niriu gij
nir mik</w>
nalau tsa
naam man
minista gij
minist angannut</w>
maligar ala
maligaliurvi up</w>
maki ma
ma ri
long er</w>
lo gy</w>
ll ing</w>
lin es</w>
k punga</w>
jo bie</w>
isuma ksaq
iqqanaijaqt ingit</w>
iluunn atik</w>
il y</w>
il au
hu dson</w>
hel d</w>
gavamakkung it</w>
gavam anganut</w>
f ree</w>
discus sed</w>
deci sions</w>
d or
d it</w>
d ings</w>
d a</w>
cul tural</w>
con ference</w>
co ve</w>
co oper</w>
cap e</w>
atur unn
atuinn auti
atu riaq
arnir mi</w>
aqta kka</w>
aqpi it</w>
apiqsuq tau
annir mut</w>
anngil aq</w>
ann gij
anir mi</w>
ang anit</w>
amma ttauq</w>
amma tauq</w>
ali ri
aks at</w>
akk ann
ak ik
aj unn
aaqqi giaq
a anniq
$ 4</w>
ver si
utu piri</w>
ut e</w>
ur ni
uqalima aqtauqullugu</w>
upal unga
ul ts</w>
u taqq
u sa
tura ag
tunir ru
ts uni</w>
trans ferred</w>
tin u</w>
tili j
tavvu una</w>
tauni aqtut</w>
tau simajuq</w>
tal ked</w>
simang mat</w>
si ta
si s</w>
sh ed</w>
ser ve</w>
see king</w>
se cre
rel ation
refle ct</w>
qaujisaq tau
q inu
q anga</w>
propo sed</w>
proper ly</w>
prepar ed</w>
pingaju annik</w>
pa ir
or ation</w>
nunavumi ut</w>
nunal innit</w>
nuna gij
no thing</w>
na ina
mo ving</w>
mappi g
mad ame</w>
maann amut</w>
m p</w>
li ght</w>
lauq put</w>
isumaalu utiq
ir vi
inher ited</w>
in utti
in gitta</w>
in corpor
ila giaq
iku pivvi
ikkarrialu u</w>
igl uq
hun ters</w>
hir ing</w>
hir ed</w>
heri tage</w>
go als</w>
est ing</w>
e li
dor set</w>
d ation</w>
con fi
con duc
colleagu e</w>
circu m
c tive</w>
atuinn ar
ata ani</w>
at tauti
at tauq</w>
asi anik</w>
asa innaq</w>
arvi ani</w>
arunn aq
arn inginnit</w>
ar uvit</w>
aqtu git</w>
aq atiq
ann angani</w>
an ti
amma lu
ali ra
3 3</w>
2 50</w>
$ 5</w>
y ello
yello w
yellow k
yellowk ni
yellowkni fe</w>
wor ld</w>
wh er
w th</w>
w on</w>
w aiting</w>
w ait</w>
v in
v al</w>
uv annik</w>
uri aq
unn iq
tus sir
titiraq simaningit</w>
tili si
tauv attut</w>
tauj unik</w>
taakkun unga</w>
t inni
strate gy</w>
sta y</w>
some one</w>
sk ills</w>
sivuni agut</w>
si gni
se tting</w>
saqqi tauningit</w>
saqq iq
sa fe
safe ty</w>
s ho
ro se</w>
ri al</w>
qikiqtaalu up</w>
qaujimann gittunga</w>
qam anittu
pulaaq tinik</w>
puk iqnaq</w>
pu tting</w>
provi des</w>
piqujivunga arut</w>
pingaju at</w>
pi gg
p alu
o lay
olay uk</w>
nor thern</w>
nangiq si
mini it</w>
ma ij
ma ani</w>
lirij init</w>
l anga
kivalli q</w>
k ut</w>
it tunut</w>
iqqau ma
iqaq puq</w>
iq qu
iq ata
innir vik</w>
ini aqt
ing mat</w>
in ungn
ili s
i si
ho me
gro wth</w>
g ed</w>
es si
es sed</w>
environ ment</w>
e ly</w>
di al
develo ped</w>
con f
com pli
be ars</w>
aw ar
authori zation</w>
aul ata
atu re</w>
atta riaq
atiliurutau majut</w>
at tigut</w>
assi st</w>
arraagu ttinni</w>
arni aqtuq</w>
ari es</w>
ar as
aqq unga</w>
apiqquti ksaq
apiqqu ti</w>
apiq su
ans wer
angit tunga</w>
angir uti
ang anni</w>
am inik</w>
ak ail
ajjigi i
> ></w>
2 00</w>
1999- 2000</w>
1999 /
w as
vi gij
uvvalu kiaq</w>
ut u</w>
ur uti
ur niq
ur mat</w>
uqsuqtu umi</w>
uqausi ksait</w>
uq ullugit</w>
ung it</w>
un inginnut</w>
ull ar
uk i</w>
u pigi
u li
ty -
tuksir au
tu utu</w>
titir arv
territo rial</w>
talli man
taaksum inga</w>
ta x</w>
t su
speci ali
siv i
siv a
sh are</w>
se ly</w>
rul e</w>
ru us</w>
ri ali
ra ther</w>
r ni
qiturn ga
pur su
prote ction</w>
po wer
pl es</w>
piquj av
piju maliq
pi tuinnaun
o vide</w>
o s
n auja
maligaliuq tii</w>
maliga it</w>
lug ulu</w>
lu uk
llu unniit</w>
liur u
kk anni
katiq atiq
inu k
ila akku
i mmata</w>
i ju
i ce</w>
hous es</w>
gi aq</w>
gaj aqtut</w>
g akkit</w>
f illed</w>
f air</w>
ex c
en s</w>
en cies</w>
du ce</w>
d le</w>
cre ate</w>
contro l</w>
cer tain
be ar</w>
b our</w>
av u</w>
av ati
auti q
aulatt inirmut</w>
atta rn
att en
arraagu mut</w>
arlu tit</w>
arij au
appro ach</w>
apiri juma
ann gittu
angunasu k
angn gittuq</w>
angiqpi si</w>
angiqatiq aq
angiq tut</w>
akir aqtuq
ad op
ad d</w>
ac knowledge</w>
6 -
3 4</w>
we d
was n</w>
w ar
uv valu</w>
uv raian</w>
uuma ju
uq at
uki i</w>
uj a
tunngasu git
tuni uqq
tr avel</w>
titiqq atigut</w>
tauju mik</w>
takk ununga</w>
taaksi ij
taakkun inga</w>
ta x
suici de</w>
stu dies</w>
silattus arvi
shi ps</w>
se em</w>
s how</w>
ri bution</w>
re search</w>
qimirruj au
qauji j
qanu inni
pro mo
presen tation</w>
pre ven
pir i
pilir ini
pijunn arniq
pe l
nuqq angakainn
nig giani</w>
minut e</w>
minista mik</w>
mayo r</w>
maligaliurvi a</w>
li i
lev els</w>
l an
kuup a</w>
kiuj au
kimmi ru
ki ugunn
katu jj
kajusi ti
ka maj
ju uni
j uni</w>
isumaal un
is uq
iq tu
iq s
iq attaq
initi ative</w>
inclu des</w>
ilu anngij
ilisa ij
iliqqu siq
ilinniaq tinut</w>
ikupiktu lirinirmut</w>
ikup irvi
ikk annir
h and</w>
gu s
gi al
gavama q
fun ded</w>
fortun ately</w>
fis h</w>
fac ts</w>
en ed</w>
do l
cre ation</w>
correc tions</w>
cont ribution</w>
aul ainn
au ri
au g
atuinn aun
ati tsi
at sait</w>
asi r
asi q
arunn aqsi
arni aqtugut</w>
arn inganut</w>
aqt angit</w>
apiq usir
any body</w>
anil u</w>
anginn gittut</w>
angiju mik</w>
angajuqqa aq
ang uni
ang ujut</w>
alu unniit</w>
alaur atta</w>
aa aa
a siv
a di
2000 mi</w>
z ing</w>
w in
va a</w>
ut inginnut</w>
uqti it</w>
uqqu rmi
up le</w>
un illu</w>
u ukii</w>
tukisigiar utinit</w>
tt y</w>
transl ation</w>
titiraq simajunut</w>
ti tut</w>
te en</w>
tavv a</w>
tai vit
t taq
t inginni</w>
suqqu i
supp o
sti c</w>
star ting</w>
stan ces</w>
siv unir
simang mata</w>
simaju gut</w>
sima gatta</w>
signi fic
seri ous</w>
san av
s als</w>
res cu
re present</w>
re mind</w>
re member</w>
r ati
qu ic
qimirru jiit</w>
pu ki
propo sals</w>
pingas ut</w>
pijit siq
pij au
pigg an
p puq</w>
p in
p c</w>
ok i</w>
offic er</w>
nir ij
nan cy</w>
na ans
naans i</w>
maligaliur v
maann auju
ma pp
lima amut</w>
li qu
ki vin</w>
katiman ir
katimaj ingita</w>
kama ji
k all
j i</w>
is i</w>
iqalungn i</w>
inu limaanut</w>
inginn illu</w>
impro ve</w>
imi alu
ika juti
iglu li
ho ld</w>
har bour</w>
gavama ulluta</w>
exten d</w>
en ough</w>
en oki</w>
em power
em er
diffic ul
correc tional</w>
comple te</w>
co uple</w>
certain ly</w>
can adi
bus sing</w>
bri ef
aul lutik</w>
au vuq</w>
ati tt
ati i</w>
atausir mi</w>
at tuq</w>
asse ts</w>
arniq sau
arn iku
ar ma</w>
aqqu q</w>
angiq tu
angiq taujuq</w>
ang un
alirij ini</w>
akkannir unn
akittu ri
akili uti
akili ksa
ajji ginn
aff ec
ac k
aaqqit tau
a ittu
00 -
yo ak</w>
wed n
wedn esday</w>
w ai
vie w</w>
uuttuuti gillugu</w>
utili ze</w>
ur i</w>
uqausi ksa
uqalimaaqtaun inginnut</w>
upi gusu
upalunga ij
ul utik</w>
tura aqtuq</w>
tunngav ikkut</w>
tu ar
tr an
tiliur utit</w>
ti al</w>
taivit i</w>
tait su
ta lo
talo yoak</w>
suu san</w>
suppo sed</w>
succ ess</w>
sub jec
su san</w>
sta te</w>
spen ding</w>
sivuniksa mi</w>
siqinnguj aq
si mi
reg ard</w>
refer ring</w>
reas ons</w>
quvvas inn
quj al
qautama at</w>
pur po
pula aqtut</w>
pro per</w>
pl ant</w>
pinngu aqtu
pijari atu
per ki
perki son</w>
p atta
o thers</w>
o cc
nunali lima
nag li
na al
n ut
n t
n d</w>
n ata
mo de
minis tauj
man irmut</w>
lo cated</w>
ll atta
liq p
li ves</w>
li mi
le ast</w>
laur n
kkannir uma
kiinauj alir
k inng
jurisdi ctions</w>
j u</w>
itsa mut</w>
it innut</w>
isumagij au
is e</w>
inuuqatigi it</w>
inn aqtu
ingan u</w>
in ten
ilitarij au
ilinniaqtu liriji
il angi</w>
ikajuq si
ici ent</w>
i juq</w>
hist ory</w>
giv ing</w>
g ullu</w>
fo cus</w>
experi ence</w>
expe cted</w>
empower ment</w>
de b
consider ed</w>
congratul ations</w>
congratul ate</w>
comp any</w>
co ral</w>
clo sely</w>
aru ma</w>
ar l
aqtu up</w>
aqta ulauq
aq a</w>
appoin tments</w>
annami ik</w>
angir utau
ang an
ami akku
allo cation</w>
all atta
al lir
aki liri
ak si
advi se</w>
advi ce</w>
actu al</w>
ab ilities</w>
3 0-
2 nd</w>
& utik</w>
wi de</w>
wai ve</w>
vis nas
vi q</w>
ve mber</w>
va si
us i</w>
ur unn
uq attaq
unn gu
uni uk</w>
un fortunately</w>
un ch</w>
u taqqi
u mmangaata</w>
tuksi arniq</w>
ter n
tech no
tauju it</w>
tau ght</w>
tama rmik</w>
ta ula
ta tive</w>
ta mmaq
t tigut</w>
sur ing</w>
spo ke</w>
simaj angit</w>
silat tuq
sai man</w>
s er</w>
rescu e</w>
res ults</w>
qu llu
qanu immat</w>
pro vin
prin cip
pri ce</w>
piqujivunga aruti</w>
piq atau
pi g
p pen</w>
our n</w>
nunaq aqqa
nunal innu</w>
no vember</w>
niq i
ne ar</w>
nani si
naliq q
mi unut</w>
mi ta</w>
men ts
mak sa
lii vai</w>
lead ers</w>
kiinaujaqturuti ks
katimavi up</w>
isumaqsaq siur
isumaqsaq si
ippa saq</w>
inter est</w>
inn a
ini aqta
ingu al</w>
in uq
in unnit</w>
in unni</w>
ill uqut
ilinniarvi it</w>
ilinniaqtu lirijiit</w>
ilinni arvik</w>
ilauq t
ilaann ikkut</w>
il ingual</w>
high way</w>
ha ppen</w>
gro und</w>
git tunik</w>
gi kkalu
gh ts</w>
gavamali rijikkunni</w>
follo w</w>
fi f
fi el
encoura ge</w>
de ter
coun try</w>
c ases</w>
b ly</w>
aulatti jiit</w>
att end</w>
ata kka</w>
arvi it</w>
arti facts</w>
arr ang
araj aqtuq</w>
ar ut
ar tuq</w>
aqtitt ini
aq at
appoin tment</w>
angiq ati
amisu uniq
ak auti
ad dition</w>
5 -1</w>
4 8</w>
1 4
vigi simaj
vi ties</w>
uv ani
utir luta</w>
uqqu mmiut</w>
uqalima ar
up ak
unikka aq
ukiuqtaq tu
uj ariaq
ugalu at</w>
tunngasu git</w>
tun g
tru e</w>
titt iniq</w>
tili uri
ten tial</w>
tamatum unnga</w>
tamakkun unga</w>
su ff
sta tes</w>
sp ring</w>
siv ut</w>
siv unga</w>
siman inginnut</w>
si ti
runn ing</w>
re no
re -
quj ann
qu ate</w>
qikiqtaalung mi</w>
qauji mangn
qamaniqtu armi</w>
pp unga</w>
po tential</w>
po st</w>
piliriv vi
piliri ji
pigiaqti t
pi uju
pel ly</w>
pati ent</w>
pas s</w>
partn ers</w>
nuta anik</w>
nunal innik</w>
no te</w>
niru aqti
niri upp
necess ary</w>
nalun anngittuq</w>
na asa
n atsi
n amma
mi juq</w>
liq pat</w>
legisl ature</w>
kno wn</w>
kiinaujali urasu
kigga tur
katiq ati
katimaj inginnit</w>
itt anis
it tau
it h</w>
ir ala
inukti tun</w>
inu uki</w>
ing annik</w>
ilul ingit</w>
illu tik</w>
iliqusi lirinirmut</w>
iliqqu s
ilinniar tu
ili tar
il auti
ikajuqti it</w>
ik naq</w>
identi fy</w>
i manna</w>
i giaq
hospi tal</w>
ham lets</w>
h our</w>
gittu it</w>
gil anga</w>
galu aq</w>
fi gu
fa x</w>
en tly</w>
ed it
de di
chang ed</w>
c ro
aul la
aul aniq
ati t</w>
at saq
at ors</w>
arraagu ula
arn ikkut</w>
aqtun ilu</w>
ann guti
ang alu</w>
alir mat</w>
akk anni
akili utit</w>
ak anir
adj ourn</w>
acti vities</w>
ac ting</w>
ac cep
aaqqi i
aaqq isuq
>> committee</w>
9 9</w>
47 1</w>
2 9
1999 mi</w>
12 -
w r
valu unniit</w>
uqqurmi ut</w>
uqar tii</w>
upp irij
up irn
umaj ara</w>
ulu ta</w>
ulauq tu
uk tu
uga al
u al
tus aruti
tun gi
tu p
trans fer</w>
titiraq simaj
titiqq ak</w>
tak ujuma
taisu mani
t san
su s</w>
sto od</w>
sta ti
st ed</w>
sp ace</w>
sou th
sivullir paami</w>
se ven</w>
se p
sau ti
saqqit tauningit</w>
saqqi titti
sann ajji
san anngu
sa tunga</w>
s mo
rul es</w>
ro tel</w>
relation ship</w>
recru it
recruit ment</w>
rec essed</w>
r ho
rho da</w>
qutti ktuq</w>
quti vut</w>
quj an
qu tt
puq iknaq</w>
pre tty</w>
pp ara</w>
pivalliatitt inirmut</w>
piju malir
pij ar
p lu
p i</w>
p 3</w>
organi zation</w>
oper ate</w>
nur se</w>
nt pc</w>
niuv ir
niuv iq
ne w
nalunaij aqtu
n il
mit tar
miki ju
mi gut</w>
me ch
me an
matuir uti
maligaliurvi mmi</w>
maliga tsa
m inga</w>
m anga</w>
lirij inut</w>
li angu
leav e</w>
lan ds</w>
kk ann
kisian ittauq</w>
kamagij arial
k ey</w>
iqq a
inu usu
inu uj
inu liriji
ing mit</w>
ill atta
ilisai ji
ila gili
ila giar
iksa mik</w>
ikp aksaq</w>
ikajur unn
igur e</w>
ide as</w>
i es</w>
ho mes</w>
he av
h arv
gu i
gen cy</w>
gavam angata</w>
ga ma
figu res</w>
fiel d</w>
f igure</w>
expl oration</w>
establi sh</w>
en suring</w>
ele c
d ence</w>
cont ents</w>
commissi on</w>
can c
awar ded</w>
aun inganut</w>
atuq tut
atuq tauni
asu k
as inginni</w>
arni armata</w>
ar sima
ar mit</w>
aqta ili
aqt anga</w>
aq su
apiqqusi s
anni aq
ang mata</w>
an ta
an ingit</w>
amma r
alir mata</w>
ala unngi
akituju utinut</w>
akili u
ak ta
aju ruti
aatu va
aag ga</w>
3 2</w>
1 1-
$ 5
wri te</w>
wher e
versi ty</w>
v ullu</w>
uumma quti
utir vi
utigi simaj
uqausir iqqauj
uq armat</w>
uq arasu
up d
ung ani</w>
uj ja
tunngav ik</w>
tunij auni
tun ng
tukisi uma
tukisi j
tikir arjuaq</w>
tigu si
ti si
the m
them selves</w>
tau giaq
tati ves</w>
taku min
tak un
tak uju
taimann ak</w>
ta ili
subjec t</w>
stre ng
sivuliqpa at</w>
sivul liuq
sivau taup</w>
see ing</w>
schedul e</w>
sap ujj
sa alak
s ak
represen tatives</w>
rel ated</w>
regul ations</w>
refer ences</w>
recommend ation</w>
re pe
ra ith</w>
r iniq</w>
qu t
qaujikk a
presen ted</w>
pra cti
por ts</w>
piliri angu
pijittirau tinut</w>
pi gasu
pap er</w>
panniqtu uq</w>
pai d</w>
p a</w>
oi l</w>
nur sing</w>
nuqq akainn
nu li
niur ru
mu aqpat</w>
maligalirij i</w>
m mu</w>
m mit</w>
luuk ta
lirinir mit</w>
liqu or</w>
li ve</w>
li ra
le ment</w>
laur mata</w>
ku aq</w>
kiuj ju
kingulliqpa aq</w>
kiinaujaq uti
ki uni
kangiqtugaap ingmi</w>
kan ata</w>
kama jiit</w>
kajusi tti
kaju sin
k ly</w>
k annir
k aj
jju tinut</w>
invol ve</w>
interpre ters</w>
ingn gi
ingirrajuu lirijikkut</w>
import ance</w>
illu it</w>
iliqqusi lirinirmut</w>
il lugu</w>
il anginnit</w>
il anga
ii puri
han ta</w>
gal b
galb raith</w>
establish ing</w>
er c
dol lar</w>
de ce
cre dit</w>
comm er
clai ms</w>
cl ass
challeng es</w>
c ut</w>
bo x</w>
bi p</w>
auta a</w>
aun inga</w>
aul atau
atiliurutau simajut</w>
at saq</w>
at sanik</w>
at or</w>
at angi
asi ani</w>
ari angit</w>
ar uni</w>
ar akta</w>
aqtaun inginnut</w>
aqqu uq
aqp akka</w>
apiqquti tsait</w>
apiq sur
angiq put</w>
angi mmat</w>
an illu</w>
am en
alirij ikkut</w>
ak annir
aipp anga</w>
ab o
aaqqigiaru taujuq</w>
8 -1</w>
4 0
3 6</w>
2 0
1 00</w>
wr ong</w>
uuttu utigilugu</w>
uu viq</w>
utigisimaj angitta</w>
uti i</w>
uqaq tit</w>
uq uma
up s</w>
ulla aq</w>
ujar aqsi
u taq
u puraian</w>
tup ik</w>
tunngasu tti
tu pi
tupi q</w>
tu nuniq</w>
to ll
toll -
toll- free</w>
tili jau
ti min
ti me
te mber</w>
te ach</w>
tauq ullugu</w>
tauj arial
tamakkun inga</w>
taisumani tuq
taimann g
sur ance</w>
sulijuq satunga</w>
staff ed</w>
spe cts</w>
sp ent</w>
south -
south- whale</w>
simangn gittut</w>
simaju mut</w>
simaj unga</w>
sima lluni</w>
silattuq s
sep tember</w>
sannajji ji
s ullu
s port</w>
s our
ru ta</w>
resour ce</w>
res er
requir ement</w>
reno v
r on
quvi an
qutti ttuq</w>
quj ana
qilavv a</w>
qauji gasu
qau ppat</w>
qanima tail
qang akkut</w>
puri imi
pur it</w>
puki san</w>
pita qan
piq atigi
piliriar ini
pi c
pers on
parn ai
paliis inga</w>
over all</w>
nuqqanga alauk
nuq angakainn
natti lik</w>
namminiq aqtunut</w>
nalunai si
n iku
n ational</w>
ministauj u</w>
maligaliuq tinit</w>
maksa gak</w>
ma ani
loo ks</w>
lo st</w>
ll ed</w>
ll ari
li ter
l ab
ksa mik</w>
katimatuinn aqtunut</w>
katimajjuti ksa
katima utinik</w>
katima utigisimajangitta</w>
kajusi tuinn
k et</w>
juma tuinn
itt innik</w>
isumaalu utigij
ir mik</w>
iqqanaijaq tinik</w>
iqqanaija aq
iqqanaij arti
iqalu gasu
intro duc
ingir aju
infor med</w>
in u</w>
ilu anngi
illu li
ilinniaqtu lirinirmi</w>
ili qu
ilauq ta
ila giaruti
ikupiktu lirijikkut</w>
ikku n</w>
ik uv
ik arri
ik arra
ik ainn
heri es</w>
gre at
gradu ates</w>
gi lu
gi kk
gavam angit</w>
gap ta</w>
ga ve</w>
g y
foun dation</w>
fis heries</w>
fir e</w>
f ram
edit ors</w>
e sts</w>
deli ver</w>
dece mber</w>
d es
consul ting</w>
clo ser</w>
canadi an</w>
basi c</w>
aviktuq siman
auti it</w>
aulatsi jiit</w>
aulan inginnut</w>
atuliq ti
asi anut</w>
arni armat</w>
arni aratta</w>
arn ingani</w>
armi juq</w>
aqtitt inirmut</w>
aqqu gu</w>
aqp agit</w>
aq taujut</w>
apiqusir a</w>
answer ed</w>
annu ra
annu al</w>
aniq sau
anig uq
ani ittut</w>
ani gu
angiq pugut</w>
ang uniq
ang ujunit</w>
an inginnut</w>
amma t</w>
ami sunik</w>
alauq puq</w>
akuni aluk</w>
ak sanit</w>
ajji gin
air port</w>
adv an
addres sed</w>
a anniqtu
8 7</w>
6 8</w>
win ter</w>
wi fe</w>
va i
ut inginnit</w>
uri tu
ur mi</w>
uqausi rnut</w>
uq ullugu</w>
uppir usu
ungasi ktu
un ik
un ani</w>
ull atta
ulaur mat</w>
u es</w>
tuu liq
tunij aulauq
tuksi anikkut</w>
tuinn arni</w>
tu ta</w>
tu ri
tu esday</w>
tri ed</w>
tou ris
touris m</w>
titiqqan it</w>
timi ujumut</w>
til lugi</w>
ti uritu
tau san
taimann asainnaq</w>
ta ulu
t ent</w>
t an
su aluk</w>
socie ty</w>
sivuliuq tii</w>
sivuliq tinginni</w>
sir mi</w>
siqinnguj aup</w>
si uk</w>
si te</w>
si mp
sel f
self -
sau juq</w>
saqqi ti
s auq
rn i</w>
re lat
quvi attunga</w>
qit ingani
qaujikk ai
qat annguti
possi bly</w>
pivalliati tti
piquj ali
pijumalir nirmut</w>
pay ments</w>
offi ces</w>
ob vi
nuta at</w>
nuta anit</w>
nunavumi unut</w>
nunali ujuit</w>
ni ght</w>
negoti ations</w>
naluna iqta
nalautsa aqtau
nalauksa ag
nal auta
men tion</w>
marru unni</w>
mami appunga</w>
maliga lirinirmut</w>
malig arnik</w>
makkuktu lirijin
ma l</w>
m on</w>
lir iniup</w>
li t</w>
le ar
lear n</w>
kiinauj ani</w>
kamagij ariali
kajusi inn
k si
k ikkut</w>
ju mut</w>
it tuni</w>
isumali ur
is n</w>
ir a
iqqanaijaq tinit</w>
iqaluttu utsi
inu lirinirmi</w>
inni q</w>
inir ij
inasu k
in ve
imma qa
ilisai jiit</w>
il ann
il ali
ikajuq tauv
ho pe
heav y</w>
he aring</w>
gil l
gij a
gh ter</w>
gavam anginnut</w>
gal purit</w>
fac ing</w>
evalu ation</w>
en n</w>
emer gency</w>
el ab
effec tive</w>
di tions</w>
d ru
contrac ting</w>
chi ef</w>
ch ance</w>
centra l</w>
b ir
ati llugu</w>
at angir
asu re</w>
asinginn ullu</w>
asinginn illu</w>
aruti q
arraagu up</w>
arraagu tamaat</w>
arni up</w>
ar lunga</w>
aqtu mini
aqtu lirinirmut</w>
aqpa at</w>
aqp utit</w>
aqp ita</w>
aq ati
ani aqtuq</w>
angaj unit</w>
anga n</w>
anga jumik</w>
ang uv
am mi
ala it</w>
al most</w>
aktuuv va</w>
ak sanik</w>
ad s</w>
a tuni
a juq</w>
7 m
7 5</w>
60 /
$ 10</w>
where as</w>
whal es</w>
visi uk</w>
vi up</w>
vi si</w>
ve ment</w>
v ers</w>
uv val
uqtu it</w>
uqausiq arunn
uqauj jau
uqaqqau gavit</w>
uq sa
uniq ue</w>
unikkaali angu
un ilingual</w>
ul unga</w>
uj annamiik</w>
tunis ini
tun u</w>
tu qau
tran sition</w>
tr av
to tal
timi gij
ti n</w>
techno logy</w>
taun inganut</w>
tau sait</w>
taq armat</w>
talu rju
ta m
ta arasu
t si</w>
t anga</w>
syst ems</w>
sy m
sugg est</w>
succ ess
ste p</w>
sou thern</w>
solu tions</w>
simi lar</w>
simann gin
simaj u</w>
secon d
se le
sanir v
sal lir
s pir
ru n</w>
repe at</w>
re vol
re ply</w>
re cess</w>
rata arniku
r d</w>
qu r
qiturn g
qitirmi ut</w>
qau gama</w>
qanuil ing
qangata su
q aij
pro mi
presen tly</w>
pp an</w>
plu s</w>
plann ed</w>
pijari al
per cen
our selves</w>
o &
o& m</w>
nunavut mi
nunal inn
niruaqtau vigisimaj
mu aqtillugu</w>
mon it
minista rij
mid dle</w>
mi lu</w>
maligaliuqti limaat</w>
mali llugu</w>
mali giaq
makima inn
mak es</w>
ma a</w>
laur mat</w>
larg er</w>
la d</w>
l au
kangiqtuga api
k inngu
jurisdi ction</w>
ju tinut</w>
ju ly</w>
jo in</w>
isumaksaq siuruti
is lands</w>
ir i</w>
iqqanaij ar
iqal unnut</w>
inv ite</w>
inukti tu
initi ated</w>
ingn ut</w>
ingirraju lirinirmut</w>
inginn ullu</w>
ing ing</w>
incre ased</w>
in surance</w>
in stitu
ill ing</w>
ili j
ilagij au
ilaakk uunga
il innut</w>
ikk alu
ikajur niq
iipuri ili</w>
ide a</w>
i lir
ho l
gr avel</w>
gl enn</w>
giv avut</w>
git tuq
ginn ing</w>
gi k</w>
gi anng
gavamalir inirmut</w>
gavamali rijikk
gavam anut</w>
gaj aqtuq</w>
ga angi
finan cing</w>
f el
expres sed</w>
en ter
en ge</w>
en a</w>
employe e</w>
e ight</w>
e asi
continu ing</w>
chall enge</w>
ch ed</w>
cer ti
cam ps</w>
c ho
bu y</w>
br inging</w>
be ginning</w>
bal ance</w>
auk aktu
at s</w>
as sume</w>
arraag uni</w>
arni arama</w>
aqsima vut</w>
aqquti q
aq simajuq</w>
angil li
ang uvut</w>
an gillu</w>
am u</w>
akisu u</w>
aittu in
agl av
ac tion</w>
ac her</w>
aanniasi uq
9 -1</w>
6 3</w>
5 0
1 -mi</w>
- -
va inn
uv attinnik</w>
utirvigi lugit</w>
uti tti
uqsuq tuu
uqsu al
uqausiq aruma
uq tunit</w>
uq tunik</w>
uq sima
ungi ta</w>
ung ng
ull unilu</w>
uliq tuq</w>
u ivi
tus ari
tura aqta
tunngav ikk
tunir ruti
tungn ga
tun ullu</w>
tukisi tti
ts ini
trav el
titiraq simangngittut</w>
titir aqti
tin ullu</w>
timi migut</w>
til lu
tigu mi
ti mmi
te e
te acher</w>
taitsu mani</w>
taakkun ani</w>
ta ullutik</w>
ta av
t tuni</w>
sur vi
sum ed</w>
sto p</w>
sti cs</w>
signific ant</w>
si j
se as
sau p</w>
saqqi taulauq
sanaju lirijikkunnut</w>
saalak s
s ung
s end</w>
s auj
s anngi
rn it</w>
revol ving</w>
reven ue</w>
r ates</w>
quv vasi
quja gij
qit ingani</w>
qaujis aqti
qaujimaj atu
qaujikkaij ju
qan urlu</w>
q ing
pursu e</w>
proc ee
pre li
preli min
prelimin ary</w>
plac ed</w>
pl ay</w>
pingasu uj
piliri ving
pijiqti utii</w>
pigiaqtita t</w>
pigi ali
pi ti
par ts</w>
pa a</w>
p itsi
or ate</w>
oppo sition</w>
o gu
ng utillugu</w>
na ju
mode l</w>
mmi jut</w>
mmi juq</w>
mmanga at</w>
mittimatal ingmi</w>
minist anga</w>
me mor
man ik</w>
maligaliur tiit</w>
maki majjuti
maann ali</w>
lo w</w>
liter acy</w>
l s</w>
l ate</w>
ks aujunit</w>
king un
katimaq atiq
kati lima
kanata limaami</w>
kama gini
k angir
itta rn
it sivauta
it self</w>
isumaksaqsiuruti ksait</w>
isumaalu uti
is ul
iq tut</w>
inu lirinirmut</w>
inu innaqtu
inter ested</w>
iniq sau
inga tigut</w>
ing annit</w>
ik tinni</w>
ij ariaq
ig h
hir e</w>
h ic
guti tsait</w>
gil lar
gi it</w>
gavamatuqakk unnit</w>
g lad</w>
fun ction</w>
fin ally</w>
ex per
er i
ele ction</w>
effor t</w>
di stri
cur red</w>
coun se
contrac tors</w>
consi st
consi dering</w>
confi dent</w>
cle arly</w>
ce ment</w>
buil dings</w>
bud gets</w>
bud ge
basi cally</w>
auj unga</w>
ati lluta</w>
arra ani</w>
araj aqtut</w>
ar akkit</w>
aquti vut</w>
aqtu ti</w>
aqs uni</w>
aqp ap
aqp ammata</w>
aq sutik</w>
aq i
apirij unn
apiqqu taujut</w>
apiq uti
anti cip
anngit tuq
angiqtau juma
angiqatiqaq in</w>
ang ani
an ull
an al
anal y
aliq tut</w>
akaungi liuruti
ak u
ai p
ag lu
ade quate</w>
ac ts</w>
aatu a
aaqqit suq
aanniav ili
aa ji
9 5</w>
8 0</w>
7 0
6 9</w>
2000 mut</w>
wor ds</w>
wo uldn</w>
wh ate
whate ver</w>
wan ts</w>
valli ani
ura ta
uqtu llu</w>
uqaujj aulauq
uq uj
unnginn ama</w>
unngin ittinni</w>
ul inga
u rij
u majunga</w>
tusaajitiguur tuq</w>
tunngav iq
tun ilu</w>
tuinn arnut</w>
tu mut</w>
tre al</w>
to pi
titi qan
tig ujau
ti kku</w>
ti kil
tax es</w>
taun irmut</w>
taun asu
taul utik</w>
tau tuk
takut su
tak uni
taima itu
suppor ted</w>
sun akk
su mma
ster n</w>
sl ated</w>
siman iq
sima vunga</w>
sima v
si mon</w>
si dent</w>
sh all</w>
se par
sav ings</w>
san ders</w>
sal aries</w>
saamu aqti
sa ys</w>
sa al
reven ues</w>
regi st
recei ving</w>
raij as</w>
r s</w>
qu la
qimirruj auni
qaujima ti
qauji giaq
qallunaati tut</w>
q atta
prin ts</w>
pri mar
pre sident</w>
pp ut</w>
possi bility</w>
pinga sunik</w>
piliri anit</w>
pigi arutiit</w>
pi li
pi es</w>
pa alu
oper ational</w>
on going</w>
o ds</w>
nuta ami</w>
nunalingn ut</w>
nun asiuti
niku vi
nan urn
nalunaiq tau
nalliukkuma alirijikkut</w>
nal auk
naasa ut</w>
na ittu
mon treal</w>
medi cal</w>
mar ket</w>
mann gat</w>
ma c
m ing</w>
lu talu</w>
liuq uj
ku ta
kk aniq
kiinaujaqtu tut
kee ping</w>
kamisan a</w>
kamagijariaq aqtuit</w>
kaju tti
kaan ata
ka i
k anir
jumav akka</w>
ju mi</w>
ju k</w>
ju aq</w>
j ung
isumaal uti
iqqanaija atsa
iqal ung
iq ullugit</w>
inte gra
inir millu</w>
ingir ran
implemen ted</w>
im medi
illu lirijirju
ilitaqsi jumagama</w>
ilinni arniq</w>
ilinni anirmik</w>
ikk aj
ikarri aluk</w>
hun ting</w>
hope fully</w>
hist ori
han ds</w>
gu si
gro ups</w>
ginn ama</w>
gavamatuqakk unni</w>
gavamakkung innit</w>
gavamakkung inni</w>
g one</w>
g au
for ms</w>
fir m</w>
fel t</w>
fac tors</w>
fac e</w>
f ts</w>
elab orate</w>
e pi
dist rib
desi gn</w>
de fin
cro w
con tain
com pe
co pies</w>
circum stances</w>
ba in</w>
aw ard</w>
avittuqsimaj unit</w>
avitsimanirij ani</w>
avi ation</w>
aul ani
auj akkut</w>
au ma
atuq taujunn
atuq ta
atuli quji
atiliuq simajut</w>
arvi li
aruti t</w>
aru viuk</w>
aru tau
arni aqpugut</w>
arn inginni</w>
arij aujut</w>
arial innit</w>
ari aluk</w>
ari ali</w>
ar t</w>
aqtun illu</w>
aqq ittau
aqp attut</w>
appro val</w>
apiqqu tinga</w>
ap ply</w>
ap p
ap alli
anni asi
anni aqarn
angn gi
angiqatigiig uti
anginn gittuq
angij uqa
amis unit</w>
am s</w>
am innik</w>
all ari
al utik</w>
ajjigiinngit tunit</w>
ajj i</w>
aipp iqta
agre ements</w>
ag aq
af for
ab original</w>
aaqqit su
aanniasi ur
9 1</w>
6 -1</w>
3 7</w>
$ 3</w>
$ 19</w>
z es</w>
yo ung
whe el
uqalauq tuq</w>
uq asi
uq ai</w>
unn gittu
unir ij
uni aqtuni</w>
ung ali</w>
un inganik</w>
ulaur mata</w>
uk u
uk pir
ual inirmi</w>
u taujut</w>
tusaaj iq
turaanga jut</w>
turaanga juq</w>
tuq siuti
tu gu</w>
tu git</w>
to wn</w>
timi ujumi</w>
timi uju</w>
tik ittu
ti vely</w>
thur st</w>
tauj uq
tar alu
taimann auninganut</w>
ta p
ta ining</w>
t -
sol ve</w>
sin it</w>
simaj akka</w>
sima tsi
secre tari
se ated</w>
sa fe</w>
ron t</w>
respon ded</w>
quviasu kpunga</w>
quki utinut</w>
qiti ani</w>
qauji sa
qauji juma
qanu ittunik</w>
prin ci
princi ples</w>
po sed</w>
ple asure</w>
pivalliaja inirmut</w>
pivalli an
pitaqaqti ti
pir aj
pingas unit</w>
piliri aq</w>
pil auq
pijunn autit</w>
pijjutiq aqtuq</w>
pi gij
pa aq</w>
pa ang
p itti
p ikku
or ing</w>
ob a</w>
o p</w>
nuqq aqpuq</w>
nunalirala anguniq
nun ami</w>
nu uvi
niri un
nalunair i
naamma tti
n atta
n ati
mmij ara</w>
min iq
min ga
mi ke</w>
mi g
mat e</w>
manit oba</w>
mali tta
mali t
makita tittinirmut</w>
mak ua</w>
llu ata
liqpa amit</w>
limi ted</w>
li mit</w>
li abilities</w>
le ase</w>
lab our</w>
la i</w>
l unch</w>
kingulliqpa amik</w>
kiinaujalirij ikkut</w>
kiggatur lugit</w>
katittu git</w>
kamagijariaq aqtuq</w>
kama juq</w>
kajusi titti
kajusi giar
k ulu
k as
juti gini
jut inga</w>
ju uni</w>
ju mit</w>
j ja
iqqaqtu ij
iqq ittu
iqaluttu utti
integra tion</w>
innatuq alirinirmut</w>
inn atu
incre ases</w>
in st</w>
in mates</w>
in d</w>
iluunn a
illu ta
il la
il aj
iksa mut</w>
iks anginnut</w>
i pur
havi aj
gili n</w>
gi ksi</w>
gi aksaq</w>
g utiq
g inasu
for mer</w>
f ound</w>
f air
expen sive</w>
ex erc
ex am
eli gi
di o</w>
coun ter
consul tations</w>
chang ing</w>
ch am
c tor</w>
c ari
cari bo
caribo u</w>
ba thurst</w>
b ack
avi uk</w>
auv attut</w>
aulajjuti tsait</w>
auk ak
atu lir
ata ata
ata agut</w>
aruti k</w>
arraagu tama
arni aqput</w>
aralu ara</w>
ar ai
aqtu si</w>
aqtitt iniq</w>
aqti tun</w>
aqta it</w>
aqt anginnit</w>
aqsima mmata</w>
aqq u</w>
aq uj
aq simaj
aq an</w>
appropri ations</w>
appli cation</w>
apiri gumajara</w>
apiqqusis saq
announ ce</w>
anngil agut</w>
ann ga</w>
anginn u</w>
angi tu
anga juq</w>
amoun ts</w>
amisu ru
allo tted</w>
alli q
all aij
ali rn
ali an
al tern
al one</w>
akkanir ni
ak put</w>
ajjigi ingi
ajj iq
aipp aa</w>
aga inst</w>
administ r
ac c
aaqqik su
aanniaqtu lirijikkut</w>
aanniaqarnangittu lirijikkut</w>
a iq
a akka</w>
7 -1</w>
6 00</w>
199 8</w>
17 5</w>
young er</w>
wri ting</w>
wis h
vol un
volun te
visi t</w>
vi mmi
ve hic
v ani</w>
v ac
ut inga</w>
ur ge</w>
uqausiq aqqau
uqaujji gi
uqalima ari
upirn ga
upi gij
up ag
unnus a</w>
unngil aq</w>
uni versity</w>
uni aqtunit</w>
ungn gittuq</w>
unga a</w>
ung innut</w>
under stood</w>
ul i</w>
ujj ir
u kk
u -
tus aqtitau
tun nuniq</w>
tre ated</w>
titir arvi
tisa ma
thin king</w>
tee th</w>
teach ing</w>
taulauq tuq</w>
tauj arialiit</w>
tau t
tamatu mani</w>
taima ili
tai vit</w>
taat suminga</w>
taakkun anngat</w>
ta al
t tut</w>
t anginnit</w>
success ful</w>
ste ad</w>
siman inginnit</w>
siman inga</w>
simaliq tuq</w>
silattus arv
shor tly</w>
second ary</w>
se ction</w>
se al</w>
sanikilu armiut</w>
san ani
sa un
s sa
s n</w>
s alu
represen tative</w>
refle cts</w>
reduc tion</w>
rec ti
re li
re form</w>
re ach</w>
rati o</w>
r ulu
r mut</w>
qur l
quic kly</w>
quali ty</w>
qimirruj aun
qaujimangn gittunga</w>
qaujimaju innau
qaujima tti
qanu limaaq</w>
qanu itu
q atigi
purcha se</w>
pu ig
pro vision</w>
pp a
port fo
portfo li
piviq aqti
pivalli asi
piv iksaq
pituinnaun gittunut</w>
pitaq arunniiq
piqujivunga aru
piq qu
pinasuaga q</w>
piliri junn
pijjuti lik</w>
piij aqtauninginnut</w>
pi ula
pi su
ph one</w>
per for
pay ment</w>
pa ig
p ha
our ne
ol der</w>
ogu e</w>
obvi ously</w>
nuta r
nunalinnu anga
nunali ujut</w>
nun asi
nun aqq
niruaqtau v
ne ws</w>
nalauk ta
nak atiq
n illi
n ikuv
mma ti
mma gu</w>
minis taujut</w>
min er
mann er</w>
mani mati
man turi
maligaliurv inga</w>
maligaliuqtiuqati kka</w>
malig arnit</w>
malig aq
mali llugit</w>
ma ajji</w>
m m
list ening</w>
lirinir muunga
lirijikk unn
lirijikk ullu</w>
li raj
lauq tuq</w>
l lugi</w>
l avut</w>
kkannir unn
kiu guma
kinguv vi
kingulliqpa ami</w>
katujjiqatigi ingit</w>
katimajirala angu
kama q
kajusigiar it</w>
kajusi gi
kai vainn
ju lai</w>
ju at</w>
jjuti q
j ourne
j avut</w>
isuli tti
iqqau maj
iqqaqtu iji
inve st
inv ited</w>
inungn ut</w>
in stead</w>
imp lement</w>
immaqa a</w>
imann aujuit</w>
imann ak</w>
ill uquti
ilinniaqtuliriji mmari
ili ts
il anginni</w>
ikk atta</w>
ikaju utiq
hig her</w>
ha sn</w>
h ug
gran d
ga mes</w>
g ar
fram e</w>
fini shed</w>
fin ali
expen ses</w>
expec tations</w>
er ed</w>
end a</w>
doc tors</w>
do m</w>
difficul ties</w>
differ ence</w>
desi re</w>
deli vered</w>
de signed</w>
de sign
de n</w>
de mi
de cre
d re
d ations</w>
contra cted</w>
conclu de</w>
communi cation</w>
commer cial</w>
ce le
c ting</w>
bec ame</w>
b c</w>
authori ties</w>
auni aqtut</w>
auni aqtuq</w>
aul ajju
auj j
au mmi</w>
atuqtuk sait</w>
atuag armik</w>
atti it</w>
ati u</w>
ati r
ati gu
as ini
arraag unut</w>
armanga aqpit</w>
arlu tillu</w>
ariaq armata</w>
ariaq armat</w>
ar uttigu</w>
aqtu ni
aqtu mmari
aqtitt inirmik</w>
aqqu uji
aq tinut</w>
announ ced</w>
ann gata</w>
angirr aq
angiqtau jumavunga</w>
angiqatigi ing
amisu un
am mangaata</w>
al au
akta tuqtut</w>
aksur urn
akili ksaq
akaunngi liurutiq
akaun a
ak inga</w>
ajjiginn git
ag enda</w>
administr ative</w>
achie ve</w>
a tun
a taujunn
7 2</w>
4 7</w>
3 9</w>
3 00</w>
000 nit</w>
& uni</w>
$ 1
w ers</w>
w ages</w>
vo te</w>
vi ani</w>
v ik
uu mmaqquti
uu minga</w>
utir ni
uti llugit</w>
uti laur
ut anut</w>
ur g
uqaqati gij
uqall aqatiq
uqalima q
uqalima aga
uq ta
uq atti
unn irmut</w>
unga vv
un uqtu
ullu tillu</w>
ul uk</w>
uk uninga</w>
u uktu
u taujuq</w>
u gi
u annangani</w>
tw en
tus si
tukimu atti
ttu gu</w>
tiuritu arij
timmi ju
tikittu gu</w>
tiki uti
ti r
ten tion</w>
taun inganik</w>
tau ma
tama t
takutsu ga
taisumanituq aqtitun</w>
tag ga</w>
taat suma</w>
suuqai mma
sunakk uta
summa ry</w>
suff icient</w>
subsi dies</w>
su mp
su kat
str ong
state ments
st y
st or
so line</w>
so li
sivu mul
sin ik</w>
sil atu
si x
shor tage</w>
ser v
sen sus</w>
secretari at</w>
seas on</w>
sau titti
sana ji
s we
roo ms</w>
ri d</w>
ren ch</w>
ref er</w>
recommen d</w>
re tention</w>
re sume</w>
rataarniku unngittut</w>
qurl uqtu
qing aummi</w>
qi si
qauji jumajunga</w>
qau q
qat tauti
qanu tuinnaq</w>
qamaniqtu aq</w>
q qau
q ak
q ai
puriimi a</w>
pulaarv ingmut</w>
prof essi
preven tion</w>
posi tive</w>
pingaju annit</w>
pingaju anni</w>
pinasuarusi ulauqtumi</w>
pigiaqtita it</w>
pigiaqti taujut</w>
pigi ala
pi va
pi e
percen tage</w>
particip ation</w>
parnauti q
p t</w>
p ikk
p akka</w>
organiz ational</w>
o t
nunali ujuni</w>
nu i
no w
nir mi</w>
ni giani</w>
nau kkut</w>
natta q</w>
nalunair si
nalunaij aq
n unngu
mon ies</w>
mo tions
mo ment</w>
ministagij aujuq</w>
minista mu</w>
mi ssi
mi ik</w>
matuiqsi jjutinut</w>
mapp iq
manga atta</w>
maligaliuqti tuinnait</w>
malig armut</w>
mali ktugit</w>
makkutu lirinirmut</w>
makimajjuti tuq
ll ungalu</w>
li uqti
l innut</w>
kuap ura
kk aj
kivallir mut</w>
kisu tuinn
kinngu uma
kingullir mi</w>
kingulliqpa amit</w>
kin ds</w>
kiinaujaqturuti ksaq
kiinaujali rijikk
katima tillugit</w>
kati mma
kat tunga
kamisan aul
kamagijariaq aqtumut</w>
kajusi tsi
kaj ung
k ta</w>
k i</w>
k es</w>
it saq
it inni</w>
isuma tuinnaqtunga</w>
iqqanaijaqti quti
iqqanaijaqti i</w>
iqqai ti
iq attar
ipp iri</w>
inutti tut</w>
inuinnaqtu n</w>
inu lirijin
intro duce</w>
inn inganut</w>
inir mullu</w>
inir mi
ingan illu</w>
inga gut</w>
ing miut</w>
in unnu</w>
in du
indu st
ima i
ilu unniit</w>
ill ar
ilitaqsi juma
ilinniarvi up</w>
ilinniaqtu lirijini</w>
ilinniaqtu lirijikkunnut</w>
ilinniaq tinik</w>
ili it</w>
ilauq put</w>
ilagij auq
ilaakku uqtullu</w>
iksiv a
ikk unnut</w>
ikajuq tinga</w>
ikajuq siq
ik ut</w>
i ga
hon our</w>
heal thy</w>
haviaj ak</w>
ham l
guti tsanik</w>
gij aujut</w>
ge ared</w>
gavamatuqakk unnut</w>
gavamakk unnit</w>
gavama it</w>
gavam angita</w>
ga tik</w>
ga soline</w>
ga it</w>
g unnaq
g iqqau
for mal</w>
fo re
fis h
f ur</w>
f rench</w>
f re
er ing</w>
epi demi
effec ts</w>
educ ational</w>
dis cre
dial ec
depen ds</w>
d ro
cu mul
cra fts</w>
con ta
con sensus</w>
clai m</w>
cl as
cau sed</w>
c ate
brief ly</w>
break down</w>
b road</w>
avittuqsimaj uqut
av er
auju mik</w>
au gu
atuqtu arutinut</w>
atuaga it</w>
at ory</w>
at h</w>
associ ations</w>
assi gn
as sure</w>
as ses
as ing</w>
as in
arunn aqullugit</w>
arnit innik</w>
arni aqtavut</w>
arn angittu
ar ena</w>
aqtu llu</w>
aqtaun ingit</w>
aqt u</w>
aqsi mann
aqp ak
aq pu
apir ikkannir
apiqquti gijara</w>
anir ij
angil a
ang uju
ama l
allo wed</w>
alir atta</w>
ala ungi
al anga
aksa mik</w>
akk unnit</w>
akitujun uungaju
ak sanut</w>
air ports</w>
accommo dations</w>
ac tive</w>
ac cumul
ac compli
aanniaqtu lirijiqju
a spects</w>
a saq</w>
a in
>>p aktatuqtut</w>
9 8</w>
7 1</w>
4 5</w>
4 2</w>
2000- mi</w>
199 8
$ 2</w>
$ 20</w>
wheel chair</w>
war ran
warran ts</w>
vi git</w>
uv ura
uvura ian</w>
uti rmi
uqausi uninginnut</w>
uqausi q</w>
uqarunn aqtunga</w>
uqalimaar iniq</w>
uq tuq
uq tuni</w>
uq tau
uppirij ara</w>
unn git
unga juq</w>
un urniq
un gittut</w>
ulu gu</w>
uj unu</w>
uatti aru
u mmik</w>
tusau maj
tura aqt
tunnga vi
tungi lir
tuksirauti liuquj
tujurmi vi
tuga it</w>
tu tit</w>
ttu mi</w>
tsa ma
tru st</w>
tre at</w>
tinn agit</w>
tiliur utinut</w>
tikku aqtau
ti s
than ks</w>
tauq attaq
taujunn aqtut</w>
tauj uni</w>
tau tug
tau simajunit</w>
taku gi
tai gu
ta ulluni</w>
ta tati
sur ve
suppor ting</w>
sun gu
su ung
sta ge</w>
st ly</w>
sivumul liqpaamit</w>
sivuliuq ti</w>
sivuliqti mut</w>
sivuliq tiit</w>
simann gi
simalir mata</w>
simalir mat</w>
sima galu
sima gakku</w>
silata ani</w>
secon der</w>
sau juit</w>
s uni</w>
respon ses</w>
requ esting</w>
represen ting</w>
ren t</w>
recommen ded</w>
rec ent</w>
re sumed</w>
r c
rc mp</w>
quvi appunga</w>
qujannami it</w>
qimirrun attiit</w>
qimirr uvalli
qikiqta aluk</w>
qaujis arniq</w>
qaujikkaijju tauningit</w>
qanuittu ma
qanu inngi
pulaarv itinnut</w>
proce du
procedu res</w>
princip le</w>
pri ses</w>
piliri as
piliri -
pijumaliq tittinirmut</w>
pijittir auti
pigi aruti</w>
pi tuq
particip ate</w>
pa at</w>
p anniq
panniq tuu
out post</w>
on -
off en
o f
of ten</w>
nunali ttinni</w>
nun gu
nun att
nun amik</w>
ni aqtut</w>
naasauti it</w>
naas autit</w>
naas autaa</w>
n gata</w>
mmi q</w>
mista ke</w>
minisitarij aujumut</w>
minis tau
mikilli gi
maligaliurving mit</w>
maligaliuqti ujuit</w>
malig aup</w>
makk ut
makk uqtuit</w>
ll i</w>
lirij inik</w>
lin k</w>
li ved</w>
lead ership</w>
kinguv ari
kinguni ani</w>
kin auj
kin a</w>
kiinaujaqtutut sait</w>
kiinaujaqtu uti
kiinaujaq arvik</w>
kiinaujaq aqtitau
kiinaujali rijikkunni</w>
kiinaujali riji
ki uq
katiman ingat</w>
katimajirala ani</w>
katima vingmi</w>
kati ktugit</w>
kan annangani</w>
ka innar
k tuqtut</w>
k tunga</w>
juu raijas</w>
jut sanik</w>
ju ksau
ju armi</w>
isumaq su
isuman ammari
isuma vunga</w>
is sivauta
irn ut</w>
ir u</w>
ir mit</w>
ir mi</w>
iqqanaijaq ati
iqal unni
iq atti
inu un
institu tions</w>
ingn ik</w>
incorpor ated</w>
in struction</w>
in s</w>
in illu</w>
in as
ima ak</w>
illu tsaq
ilitaqsi jumavunga</w>
ilinniatitsi j
ilinni arn
ili ppalli
ilauq tuq</w>
il ugit</w>
il innik</w>
ikupirvi lirijikkunni</w>
ikkarri alu</w>
ikajur ni
ikajuq su
ik punga</w>
igl uqaq
i vv
i gi
hug e</w>
ho ping</w>
gra ph
git si
gi iq
gavamalirij ikkut</w>
fun c
func tional</w>
fri end</w>
fin e</w>
fif teen</w>
fa ther</w>
f ront</w>
exerc ise</w>
equ al</w>
easi er</w>
disa bilities</w>
deci ded</w>
d ance</w>
corpor ate</w>
commi tments</w>
co vered</w>
co uldn</w>
cham ber</w>
cer e
c ating</w>
bro ad
bi g</w>
b ru
b in
b ase</w>
aver age</w>
aulainn atitsi
auj u</w>
au galuaq</w>
atau ti
at angiq
asunn irmik</w>
asi de</w>
as ingi</w>
arraagu it</w>
arnit innit</w>
arni it</w>
ariaq ar
ara anga
ar m
ar lu</w>
ar ik
aqtun g
aqta vu</w>
apiri jumavara</w>
anniaqarnangittu lirinirmu</w>
annginn ama</w>
ann ga
ani ar
ani aqtavut</w>
angn gittut</w>
ang ul
ang ujuit</w>
ang iniq
ana an
an ura
an ts</w>
an inga</w>
an ce
amisu uningit</w>
amis uni</w>
am anga
alla at</w>
all au
alian ai
ali it</w>
ala in</w>
akitujun uungajut</w>
akiraqtuq tut</w>
ak unn
ak ingit</w>
ak aniq
ajjigiinngit tunik</w>
ajjigiinn gittu
ajjigi in
ag la
aaqqigi aqtauqullugu</w>
a aq</w>
>> katimajiralaat</w>
99 /
4 6</w>
4 00</w>
4 0-
3- mik</w>
z os
y ed</w>
x 7m
x7m l</w>
wish es</w>
wis dom</w>
wer en</w>
visnas q
ver ing</w>
valu able</w>
va asi
uv att
utiq arunn
utin illu</w>
ut inginnik</w>
ut ed</w>
ur y</w>
uqsuq tuq</w>
uqaqqau gama
uqaq au
uqall aqatigi
uqalima arunn
uqakkannir unn
uq aru
unn araj
ul y</w>
uki aksa
uk un
uajamuungaju lirijikkunni</w>
u- valuunniit</w>
tusag aksa
tuni viani</w>
tu up</w>
tu aq</w>
tti ariaq
tt u</w>
ts iniq</w>
tri p</w>
transl ated</w>
tra dition</w>
total ly</w>
topi c</w>
to ward</w>
titti gi
titt inirmi</w>
titiqq at</w>
titiqan iaq
titiqaniaq vi</w>
titiq qau
timin gat</w>
timi ujut</w>
timi ujunut</w>
tig uj
ti llunga</w>
tausima vuq</w>
tauju up</w>
tauj unnaq
tari o</w>
tal s</w>
taima atsi
taik ani
ta ullutit</w>
t work</w>
t tunn
t inginnut</w>
suuqaimma li</w>
suqqui man
suqqu iq
supp ly</w>
sti tut
stati stics</w>
stand ards</w>
st ors</w>
spir it</w>
spen d</w>
some where</w>
sivulli ujj
silata ani
si ze</w>
seri ously</w>
sau sak
saqq iqsi
sanirv aqtau
sana asa
sal ary</w>
saamuaqti riniq</w>
sa w</w>
sa mi</w>
s s
s anngin
ri ding</w>
resi dent</w>
relat es</w>
r ang
quvi as
qullu ktuq</w>
qu o
qitirmi uni</w>
qiti qqu
qil ana
qil alu
qaujimaju inn
qaujimaj ara</w>
qaujima ji
qaujikkaij jutit</w>
qauj inasu
qau juq</w>
qanga t</w>
qallun auj
q in
purpo se</w>
promo te</w>
produc tive</w>
pre p
prep are</w>
pr on
pron oun
pitaq aqtitti
pinasuag arnit</w>
pijunn arn
piju maniq
pij aksaq
pigi aq
pi uqsu
person ally</w>
pers ons</w>
pers onal</w>
per spe
pat ri
parna simajunit</w>
own ed</w>
origin ally</w>
on tario</w>
on ers</w>
offen ders</w>
nuta amut</w>
nuqq aqtuq</w>
nunavut mut</w>
nunavumi u
nunata aruti
nil lir
ni aq
ne l</w>
natsi lik</w>
nata a</w>
namminirij ait</w>
nammin i</w>
naluna ikk
mo zos
mik sausak
mik iniq
mi q
me at</w>
man u
mamian augaluaq</w>
maj unut</w>
maj unik</w>
ma ik</w>
ma gu</w>
m h
mh c</w>
m er
lirijikk unnik</w>
lirij ju
li fe
l ay</w>
know s</w>
kk unnut</w>
kk anniq
kk ama</w>
kikkutuinn arnut</w>
kiinaujaqturuti ksan
kiinaujali ur
kiinauj angit</w>
ki utti
ki ug
katiman irij
katimaji ujuit</w>
katimaj iq
katimaj inginni</w>
katimaj inganni</w>
kanngun aqtunit</w>
kangiq& inirmi</w>
kamisin a</w>
kamisanaul aukaktu
kamagijariaq aqtunit</w>
kamagij auj
kamagij alik</w>
kajusi git</w>
kaivainn aqtuq</w>
kaan ataup</w>
k ann
k amp
k ami</w>
ju mang
journe y</w>
j alun
j aga
ittarn is
it tunn
it sivautaup</w>
isumaal unn
iqqanaijaqtu lirijikkunni</w>
iqqanaijaqti tit</w>
iqqanaijaq atigi
iqaluttuutsi aq</w>
iq atta
ipur ul</w>
inuquti vut</w>
inuquti tta</w>
inung it</w>
inu unasu
inu limaat</w>
interpre ter</w>
inte gr
innatuq arnut</w>
inn asu
iniq vi</w>
ini it</w>
ingng in
ing inni
indust ry</w>
indi cate</w>
in t</w>
implemen ting</w>
immi ku
illu lirijini</w>
ilitari jumajara</w>
ilisaq siniq</w>
ilisaq si
ilinniav inni</w>
ilinniati tt
ilinniar as
ilinni arniq
il lugit</w>
il anginnut</w>
il anginnik</w>
ikk a</w>
ikajuq tuq
ik san
iglul ingmi</w>
iglu lirijirju
i sivautaq</w>
hel ping</w>
happ ened</w>
h ind</w>
gu tau
gro wing</w>
gr ant</w>
gini ar
gil a
gij angit</w>
gij ait</w>
gaj armangaaq</w>
g ala
fini sh</w>
fic ations</w>
f ying</w>
experi en
en er
employ ed</w>
emp ha
elec tri
el l
effec tively</w>
effec ted</w>
e -
direc tor</w>
dedi cated</w>
de a</w>
d en
d ates</w>
cri tical</w>
cre ated</w>
consul ted</w>
co-ordin ator</w>
co- op</w>
clo thing</w>
cele br
car ry</w>
canc er</w>
c mhc</w>
c ks</w>
c are
budge ted</w>
be hind</w>
b ran
b an
auq atta
aulaur mat</w>
aul lutit</w>
auju mit</w>
atuq tauq
atuag aq
ata ani
at tii</w>
at inga</w>
asi agut</w>
as ungu
arva aluk</w>
arva allu</w>
aru kku</w>
arn gat</w>
ari aq</w>
ar u</w>
ar ily</w>
aqtu limaat</w>
aqtauq ullugit</w>
aqtau juq</w>
aqta tinnit</w>
aqqu ur
appli cations</w>
apiqusi saq
apiqusi it</w>
anura aq</w>
anngil anga</w>
anngi lu
anigu liq
angiqatigi i
angi tunga</w>
ance stors</w>
an a</w>
amma l
amen ded</w>
allo ws</w>
aliq tuq</w>
ala ati</w>
al lugu</w>
al lugit</w>
al le
al atiu</w>
akitu lu
ajjigii mik</w>
air line</w>
ag encies</w>
adop ted</w>
ac ci
aanniasiuqti it</w>
aag ga
a al
8 3</w>
60/ 00
60/00 5</w>
5 8</w>
5 00</w>
3 1st</w>
wel l
we stern</w>
w inni
winni pe
winnipe g</w>
valli aj
val lai
v utit</w>
v ity</w>
v aktut</w>
uvval unni</w>
uv annit</w>
uunga junik</w>
utirmi luta</w>
utin gita</w>
utilaur mita</w>
uti ri
uta q</w>
urn ingit</w>
ur uma
ur li</w>
uqausirij unn
uqausiri juma
uqausiks at</w>
uqausi lirijini</w>
uqati i</w>
uqalauq puq</w>
uqakkannir uma
uqa ala
uqaala ut</w>
uq alaur
unniiq tuq</w>
unngil at</w>
unikka ar
unikka angat</w>
uni aqtunik</w>
uni aqtumik</w>
under take</w>
umi aqju
ullu tuinn
ulauq put</w>
u kainn
tut sir
tusauma qattauti
tunngasugit ti</w>
tunngasu giksi</w>
tunij aujunut</w>
tunij aujuit</w>
tukisikkaniruti ksait</w>
tukisigi arv
tuki sinn
tuinn aqtara</w>
tuavirnaqtu liri
tu uv
tu mit</w>
titt inasu
titiraq sima
titiqq amik</w>
titiq tug
tin iq
tin gillu</w>
timi ujunit</w>
tim inga</w>
tig ullu</w>
ti tauninginnut</w>
ti se</w>
tele health</w>
te m
tav ani</w>
tauni aqtuq</w>
tas suminga</w>
taq qa
tamatu ma
tamatuma up</w>
tamakku alu</w>
tamak uninga</w>
tama aqtaq
talliman ut</w>
talli mi
tal lima
tak ua</w>
taimann ai
taima ilinga
ta si
t tunga</w>
t c</w>
t ani</w>
sym pa
sukat u</w>
sugg es
st ra
sour ce</w>
sor t</w>
sol ved</w>
sivullir mi</w>
sivulli uqti
sivulli q</w>
sivu m
siv ata
simann gittut</w>
si lu</w>
si iti
sen se</w>
self- reli
se ctor</w>
se ali
seali ft</w>
se al
sannajjiji lirijikkunni</w>
sana gi
sa tur
s or</w>
ro ads</w>
reduc ed</w>
recru iting</w>
re min
re main
rais e</w>
ra s
ra dio</w>
r ury</w>
qujannami ingu
qujannamiingu jutit</w>
qu pp
qimirr uv
qikiqta it</w>
qi it</w>
qaujimaj aq
qaujima vugut</w>
qatti inn
qari tauj
qanga n</w>
qam ani</w>
qalluna atu
qalluna at</w>
q angiq
pu ra
pre -
portfoli o</w>
poli tical</w>
plac es</w>
pivalliaja inirmik</w>
piu siva
pitaq arunni
piri mi</w>
piqqusituq alirijini</w>
piq utinut</w>
piq tugait</w>
pingas uni</w>
piliriv ik
pilirij iquti
piliriang uni
piliri jiit</w>
piliri ani</w>
pij aks
pi simaj
pi i
pas sing</w>
partn ership</w>
par ties</w>
p la
p ho
over crow
o s</w>
nunavuu mit</w>
nunalilima ani</w>
nunali ujunut</w>
nir sun
ng it</w>
naamma ppuq</w>
naam mann
n inni
n ine</w>
n gan</w>
n ar
n alir
mon y</w>
mmaq qu
mma git</w>
mittimatal ingmut</w>
mista kes</w>
ministauju up</w>
minista ullunga</w>
minista lluata
minist anganut</w>
mik ittu
mij ara</w>
mech ani
manir mik</w>
mani q</w>
maligatsa liangu
maliga liriji
malig lugu</w>
makkuktulirijin ilu</w>
makk uttu
mac rury</w>
ma piqtugait</w>
lu si</w>
lu gillu</w>
lo ans</w>
lirij it</w>
lirij i</w>
lir mi
lir ini</w>
lau ghter</w>
la w
ks anginnik</w>
knowle d
kiujuma guvit</w>
kin atuinnaq</w>
kiinauj akkuv
kiggaqtu ij
ki uju
katimani tuinnarni</w>
katimajirala angit</w>
katima vingmut</w>
kajusi titsi
kaanata mi</w>
k ap
jut ingit</w>
ji alun
itsivauta p</w>
it sait</w>
it i</w>
isumagij auningit</w>
isumagi lugit</w>
isumaalu guti
isuma gillugu</w>
ir aj
iqqatu iji
iqqatuiji lirijini</w>
iqalu liri
iqalu ktu
ipp in
inuusu ktu
inutuq alirijini</w>
inulirijin ullu
inuliriji tuq
inukti tuuliq
inu tu
inu lirinirmu</w>
inn irmut</w>
inn ammari
ini aq
ingirrajuu lirijini</w>
impro ving</w>
immini iq
iliqqu sir
ilinniar utinik</w>
ilinniaqti tau
ila a</w>
il in
ikaju utit</w>
ik pi
ij juti
igl unit</w>
i c</w>
happ ens</w>
h en
gunn angit
gumaj akka</w>
gikkalu aqtunga</w>
gi tigut</w>
gavamalirij ini</w>
gavamakk ungita</w>
gavama up</w>
gavam angat</w>
gaj armangaata</w>
g utta</w>
g lu</w>
fish ing</w>
fac ilita
f ill</w>
expres s</w>
expec ting</w>
ex tra
ex cep
esti mate</w>
ess enti
eligi ble</w>
educ ators</w>
direc ting</w>
dial ogue</w>
der ed</w>
de ferred</w>
d ly</w>
contrib ute</w>
contrac tor</w>
consist ent</w>
conduc ted</w>
conclu ded</w>
concern ing</w>
con ne
co re</w>
cl ar
ch ing</w>
cam paig
bo ok</w>
bir th
b or
aw ards</w>
av ugut</w>
aulauq tut</w>
aulatsij ini</w>
aulanir nut</w>
auju up</w>
au mmata</w>
atuinn aqtunga</w>
atu ru
ati it</w>
atau s
arvi mmi</w>
aruma vunga</w>
arni vut</w>
arni aqpuq</w>
arnangittu lirijini</w>
armi junga</w>
arlu si</w>
ariaq aratta</w>
ariaq aqtugut</w>
ari v
ar tut</w>
aqtu tillu</w>
aqqu gut</w>
aqatta rn
aq uji
aq atau
apir ilaur
apiqqu tinnut</w>
apiqqu sir
ap alu
announ cement</w>
anngin atta</w>
ann gittunga</w>
aniq s
ani aqtugut</w>
angittu gut</w>
angit u</w>
angiqatigiig utiq
anginn illu</w>
anginn arunn
angajuqqa arij
analy sis</w>
an ullu</w>
an cy</w>
an angittu
amiakku miniit</w>
ami sur
amal ga
allu unniit</w>
all attii</w>
alir utta</w>
aliq pugut</w>
ali ty</w>
alaurn gan</w>
al uni</w>
akkannir uma
akkannir iaq
akiq angitu</w>
ajjigiinn gittut</w>
aip anga</w>
advi sor</w>
ac ted</w>
aatuva ami</w>
aanniq arnangittulirijini</w>
aaaa aaaa
a u</w>
a ji
a aktuuv
>>patta ktuqtut</w>
>> house</w>
7 34</w>
6 5</w>
6 4</w>
5 3</w>
3 rd</w>
3 8</w>
2 8
00 0-
&u gu</w>
yo ur
wis e</w>
ve ments</w>
valli aniq</w>
v vi
v ar
uv attinnit</w>
utili zed</w>
utili ties</w>
uti llu</w>
uru uti
urmi ut</w>
urg ent</w>
ura s
uqausi ts
uqaus inga</w>
uqaqsima mmat</w>
uqaqqaugama ilaak</w>
uqalima arnirmik</w>
uq s
uq arumajunga</w>
unni q</w>
unnaq pi
unir nut</w>
unikka arvi
unikka anginnit</w>
unikk ut</w>
uni ons</w>
uni aqtumi</w>
ungavv ari
uki u
u uvraian</w>
u ms</w>
u bli
ubli vik</w>
tuu tuu</w>
tusaq attauti
tura aga
tuq angit</w>
tunngasugit si</w>
tuki liuq
tu uk</w>
tu ap
trans f
transf ers</w>
tr uly</w>
titti junn
titir auj
titiqqan ik</w>
tin illu</w>
tikku aq
tig ulu</w>
ti z
te mp
tauq atta
taulauq tut</w>
taulauq put</w>
tauj juti
tau vuq</w>
tau tuinn
taqqi tamaat</w>
taq aqpaa</w>
tamakkun unnga</w>
tama innik</w>
takuj unn
taimanng anit</w>
taima ittu
taikk un
taakkun innga</w>
sy mb
surusi it</w>
sur plus</w>
suppor tive</w>
suli lu</w>
sul l
subsi dy</w>
su rn
ste ps</w>
sta ting</w>
speciali zed</w>
socie ties</w>
siq ingng
simaju mi</w>
sima llu
si lar
ser ved</w>
separ ate</w>
se where</w>
se ven
se ats</w>
se at</w>
satur day</w>
saqqi i
sapujj inirmillu</w>
sanaju lirijikkut</w>
sanaj auni
sanaj aun
sa miik</w>
s me
s lo
s kin</w>
s a</w>
ru si
respon ding</w>
requir es</w>
renov ations</w>
rel ation</w>
recti fy</w>
recogni zes</w>
ra anik
r lu</w>
quvvasinn ilinnik</w>
quti q
qul anangittu
qulanangittu kkun</w>
quki uti
qujannamiir umajara</w>
qujannami iq
qujal iniq</w>
qujagi jumajakka</w>
qu or
quor um</w>
qu lli
qit ingmi
qinu isa
qikiq tar
qi ma
qaujis aqtaun
qaujimajatuq anginnit</w>
qaujima tsi
qaujikk aqtauj
qauji ti
qauji giaruti
qanuittuma vat</w>
qanuinngi si
qanuilingalir mangaaq</w>
qani gij
purpo ses</w>
publi c
premi ers</w>
pra y
pr u</w>
pon ent</w>
piquj aksat</w>
piq atiq
pinga jung
pimmari alu
pilirivi ujut</w>
piliri jjuti
piliri anut</w>
piliri aksat</w>
pijiqti utini</w>
pigiaqti tauj
pi pe
pipe line</w>
perspe ctive</w>
pali isi
p auj
p attut</w>
p ak
own ership</w>
ou ght</w>
ori ty</w>
nutti r
nuta aq</w>
nunngu ani</w>
nunavu limaami</w>
nunatti armi</w>
nunali limaat</w>
nun arju
niru ar
niru aqsi
niru aq
nirsun aqtuq</w>
niriupp unga</w>
niri unniq
ne twork</w>
nangiq sivunga</w>
nan uq</w>
nalunaiqsi gi
nalunaiq sivi
nalir aras
nali ra
naamma k
municip al</w>
mon day</w>
mma tik</w>
missi on</w>
minista qai</w>
miner al</w>
mi re</w>
matuiq tauninga</w>
maligaliuqti ujut</w>
maligaliuqti limaanut</w>
mali kti
makk uqtunut</w>
mak alain</w>
luutta aq</w>
lo cation</w>
life sty
li cen
learn ed</w>
le ad</w>
laur ama</w>
larg est</w>
kuapuriis akkut</w>
kikku tuinnait</w>
kiinaujaqturuti ksat</w>
kiinaujali ri
kiinauj ak
katujjiqatigi it</w>
katujjiqatigi inginnut</w>
katu k</w>
katimajiralaangu kainn
katimaji uqatau
katimaj ingitta</w>
kati m
kangir &
kaantura amik</w>
k tinnut</w>
k tinnik</w>
k iks
juma juq</w>
ju tigut</w>
ju ti</w>
j ariaksaq</w>
it ta</w>
it san
isuma gama</w>
isu maj
ir i
iq uj
inu gl
inn ut
inn ullu</w>
inn ama</w>
inir mu</w>
ingn i</w>
ing ni
ing alu</w>
inde pen
in kami</w>
imann a
iluunna innut</w>
ilu ti</w>
ilitari juma
ilauq tut</w>
ilagiaq si
il ing
il anng
ikarr aup</w>
ikajuti ujuit</w>
ikaju ruti
ikaju rasu
ik sivau
ij unnaq
ii pru</w>
iglu lirinirmik</w>
hun t</w>
home less</w>
han d
giv es</w>
gini aqtavut</w>
gil lutik</w>
giali it</w>
gi simaj
gi aqtuq
gavam angannut</w>
g uni</w>
g rid</w>
g ing</w>
fun ctions</w>
fre e
fortun ate</w>
for um</w>
for ced</w>
fe es</w>
f it
f as
fas hi
expl an
exc ell
ev en
es cor
enter prises</w>
ener gy</w>
el sewhere</w>
distrib uted</w>
dis e
decre ase</w>
d l
d ated</w>
cu ri
cra ft</w>
cour ses</w>
cor respon
contain s</w>
con stru
com pre
co ver</w>
co ho
ci tiz
challeng ing</w>
car es</w>
cap ita</w>
cam p</w>
c ent</w>
bran ch</w>
birth day</w>
bal an
avittuqsimaju tigut</w>
avittuqsimaj u</w>
auq attani
aulatti jjuti
aul aj
augu st</w>
au tti
au di
atuq tauju
atu ruma
atu res</w>
atti aq
atten ding</w>
attaq tut</w>
atiliuq tau
ataus inng
at tuni</w>
at temp
at ingit</w>
asu ung
associ ated</w>
assign ed</w>
arvi anut</w>
arunn araj
aruma llunga</w>
arnir aq
arata ang
aralu armangaata</w>
araj armangaata</w>
ara angat</w>
ar unniir
ar ujj
ar it</w>
ar iq
aqtu ksau
aqsi mang
aqq aa</w>
aqp alla
aqattaq tut</w>
aq uv
aq attani
apiri jumajunga</w>
apiqusi q</w>
apiqsur unn
apiqqu t
ans wers</w>
anniaqarnangittu lirinirmut</w>
anngil at</w>
angunasuk tinut</w>
angu mmat</w>
angiq ti
angiju mi</w>
ang li
amisu ummata</w>
amalga mation</w>
am init</w>
am ini</w>
allo cations</w>
aliq tugut</w>
ali riji
ali lauq
alauq tuit</w>
alauq pugut</w>
al coho
aksuru utiq
aksur uq
akk in</w>
akitujun uunga
akitu juq
akir aqtur
akiliqtu iguti
akaunngi liuruti
akaunngi liuru
ajjigi ingn
aippi illuni</w>
aippa anit</w>
ac cur
aanniaqarnangittu lirijiit</w>
9 0</w>
5 7</w>
4 9</w>
4 3</w>
2 5
13 2</w>
1 19</w>
$ 9</w>
z er
zer o</w>
yon d</w>
x i
wor d</w>
who se</w>
w arr
warr ant</w>
w al
visi ting</w>
ver se</w>
valu es</w>
va asiq
ut inni
ut ini
ut es</w>
uqsualu mmik</w>
uqqu uqtuq</w>
uqqu u
uqqa i</w>
uqari arn
uqaq simangmat</w>
uq attar
uq ariaq
uq arata
unni inga
unni i
unnginn ingani</w>
unngi mmata</w>
unir mi</w>
unikkaali ari
ungn gi
unga ttauq</w>
ullu q</w>
ulla ami</w>
uki unit</w>
uju mu</w>
ujaraqsi ur
uivi iti
u u</w>
u mar
u gatta</w>
twen ty</w>
tus aru
turaaqti ppara</w>
tuq si
tunij auv
tungnga vi
tuksir autit</w>
tukisi aj
tra ined</w>
tra in</w>
titt in
titiraq ti</w>
titiraq simajuni</w>
titiraq simajuit</w>
tin gata</w>
tin gat</w>
tilijau lutik</w>
tikil lugu</w>
tigu maj
ti ves</w>
taun inginnit</w>
tak uti
tain ed</w>
taimann ail
taima ipp
taima a</w>
taakku alu</w>
ta aqqa
t inu
sympa thy</w>
suqqu in
sullu li
sul auq
strate gi
spo ken</w>
spe ec
speec h</w>
some body</w>
sivulli ujjau
sivul liq
simaj uqtaq
sima tillugu</w>
sima q
sima gattigu</w>
sh ing</w>
sh el
sav iraj
sauju mit</w>
sanikilu armi
san u</w>
san irmut</w>
s inirmik</w>
s angit</w>
s ang
ru uti
ro un
rn u</w>
rij ara</w>
ri ghts</w>
re vi
rang e</w>
ra yer</w>
r f
qinir iaq
qil aujj
qaujimann gilanga</w>
qaujima gatta</w>
qaujigi arunn
qauj ilauq
qanuil ingani
qanu ittuq
qanimatail inirmut</w>
qangata suuq
qan utigi
qan urli</w>
qallunauj arunn
pur u</w>
pular aqtu
provin ces</w>
procee ding</w>
por tion</w>
pivalliaju lirinirmut</w>
pitaqan gittuq</w>
piqujav unga
pingas unut</w>
pinga tsi
pinga sun
piliri anik</w>
pijunn au
pijjutiq aqtumi</w>
pijittir autit</w>
pi anik
partn er
partner ships</w>
parna sima
pang niq
p w
p ik
out lin
ot prints</w>
ob tain</w>
o logy</w>
o dy</w>
nuqq aqti
nunavuu limaami</w>
nunali q
nunali k
nun assi
nu kti
nikuvi ppunga</w>
ni l</w>
necess arily</w>
ne t</w>
nanurn ik</w>
nalun angngittuq</w>
nali ira
nak innga
municipali ty</w>
mu ti</w>
monit oring</w>
mo ther</w>
mo ody</w>
mo b
ml as</w>
mittima tali
minis taujumut</w>
min ation</w>
mik inniq
mi unit</w>
mi qqu
mi ll
mi ittut</w>
mean time</w>
manu fac
manturi ami</w>
man asu
maliga lirini
malig angit</w>
makkuk tut</w>
makkuk tunullu</w>
maj ority</w>
main tain</w>
ma iru</w>
list ed</w>
lir in
liq q
lima anik</w>
li gh
le e
la g</w>
kuapura is
ku ak</w>
kkannir ni
kkannir iaq
kkanni it</w>
kiuj jut</w>
king uva
kin atuinn
kimmiru mmi</w>
kil liq
kiinaujj assa
kiinaujalirijikk unnit</w>
kiinaujaliri jiit</w>
ki gu
katimatuinn atillugit</w>
katimanir mi</w>
katimaj it</w>
katimaj init</w>
kamagijariaq aqtumit</w>
kajusi junn
kaanturaak ta
kaantura ak</w>
k unnut</w>
juma arni
ju ami</w>
jju tinit</w>
j it</w>
j ak</w>
ittanis aujunut</w>
itsa mik</w>
it innik</w>
isumaq sa
ir ta
iqqaqtuivi lirinirmut</w>
iqqanaijaqtita arasu
iqqanaijaqt ingi</w>
iq tuq</w>
iq atigi
ippi gusu
inuquti ttinnut</w>
inung innut</w>
inulirijinullu s</w>
inugl ak</w>
inu usir
inu us
inu limaanit</w>
inu gasu
inter net</w>
inniq sau
inn illu</w>
inn auj
ingirra jju
ingi gut</w>
ing ly</w>
ing in
ing ency</w>
incre asing</w>
in tent</w>
impro vements</w>
imialu tta
ima ittu
iluanngij juti
iluanngi liurutiq
illu ta</w>
ill unga</w>
ill ari
ilinniarvi mmi</w>
ilinni ariaq
ilaur mata</w>
ilagij aujut</w>
ilagi inut</w>
il angillu</w>
il angannik</w>
ikupiktu lirijikkunnut</w>
ikk arialuk</w>
ikajuqtau vi
iglu liriniq</w>
igl uqut
ig it</w>
i l</w>
h y
gy m</w>
gu ma</w>
gu ide
govern ors</w>
go ods</w>
gil luni</w>
gil at</w>
gil agut</w>
gij aun
gij ariaq
giar lugu</w>
gi mman</w>
gavamakk unnik</w>
gavama ulauq
gavam anganik</w>
ga s</w>
g ulu
g ree</w>
follo wed</w>
fo otprints</w>
finali zed</w>
fe bru
febru ary</w>
fashi on</w>
fair ly</w>
fac tor</w>
f lag</w>
exper tise</w>
en ni
e mb
distri ct</w>
discus sing</w>
defic its</w>
de mon
cu sto
cre ating</w>
cont ingency</w>
con curred</w>
com petition</w>
co- operation</w>
co- oper
co vers</w>
class rooms</w>
class room</w>
clas s</w>
cere mony</w>
cate go
can di
c arv
ber ta</w>
be yond</w>
back ground</w>
b urn
b ought</w>
avittuq siman
av uq</w>
aulatt inirmik</w>
auju mi</w>
auju gut</w>
auj juti
au gi
atur niq
atuqtuk saq
atuqtu ar
atuq tauv
atuq taujariaq
atuinn aqtaq
attu aniq
att anirmik</w>
ati llu</w>
at sutik</w>
asijj iqta
asi anit</w>
arv ingmik</w>
aru maliq
aru k</w>
arti sts</w>
arraaguula aqtumi</w>
arraag ur
arnir ij
arni tigut</w>
arni armangaaq</w>
arn inganit</w>
armanga arma</w>
arlu tigu</w>
arij avut</w>
ari juma
aralu aqtunga</w>
ar atik</w>
ar ani</w>
ar ali</w>
ar aktigu</w>
aqti q
aqtauq uj
aqqau gama</w>
aqq aujunga</w>
aqattar ni
aq u
aq ij
appreci ated</w>
apiri jumaj
apir ilauq
apiqsuqtau ving
apiqquti mik</w>
anull aksi
anngi tu
ann au
ani aqtut</w>
angu mmati
angn gimmata</w>
angiq tauv
angiju alu
angi kkalu
angaj uqqau
ang ujunut</w>
ang annit</w>
an iktu
amisu k
ami lu</w>
aliq pata</w>
alima at</w>
alcoho l</w>
alauq tunga</w>
akitu jut</w>
akili utinut</w>
akili iv
aki lir
ak punga</w>
aj auri
aippi tauluni</w>
affec t</w>
acti vity</w>
accommo date</w>
accep table</w>
acc essi
abo ve</w>
aaqqigiar inirmut</w>
aaqqigiaq tau
aaji ir
a pe
a an
>>p rayer</w>
>> laughter</w>
6 2</w>
5 7
5 2</w>
5 1</w>
4 4</w>
2000- mut</w>
200 1</w>
2 55</w>
15 3</w>
1 mi</w>
0 1</w>
&u ta</w>
y 2
y2 k</w>
y -
wee k
w c
wc b</w>
vo ir</w>
vi mmu
vi jju
var dy</w>
valli an
vak put</w>
vac ant</w>
v attut</w>
v akk
uv unga</w>
uta it</w>
ut inu
uqti llugu</w>
uqausir mut</w>
uqausir mik</w>
uqausir irata
uqausi tsa
uqausi giqqauj
uqaqati gilauq
uqaq tillugu</w>
uq ali
uq alaurmat</w>
upi gus
upd ated</w>
up coming</w>
unngil anga</w>
unngi kkalu
unnar uvit</w>
unnaq t
unikkaali at</w>
unikka anga</w>
ungata ani</w>
unga jut</w>
under taken</w>
un illuunniit</w>
un a
ullu si</w>
ulauq tinnagu</w>
ula aqtumi</w>
u ut
u mmangaaq</w>
u giaq
tuttar vi
tut sau
tusaqti ti
tura akauti
tuniuqq aqtau
tunij aujunit</w>
tungil ingata</w>
tukisinaqsi ti
tujurmi v
tt innu</w>
tsa innaq</w>
ts anginnik</w>
travel ling</w>
titiraqti i</w>
titir ar
timi quti
timi qu
tikku aqsi
tig lu</w>
thir ty</w>
th ly</w>
th i
thi er</w>
tausima vut</w>
tauq uj
taunir mit</w>
tauni armangaata</w>
tauju mit</w>
tauju ksa
tau tillugit</w>
tamatu mu
tamaaqtaq tumik</w>
takuj agaq
taima ittumik</w>
ta ta
ta k</w>
ta aruti
t tunit</w>
t ti</w>
t on</w>
t inginnik</w>
surusi rnu</w>
suqqu ima
sump tion</w>
suli llunga</w>
su ta</w>
strong ly</w>
streng th</w>
stitut e</w>
star ts</w>
st -
some time</w>
sivun itti
siv uv
situ ations</w>
siqingng ujaq</w>
siq atta
simaliq put</w>
sima mman</w>
sima llutik</w>
sima ga
si ght</w>
si e</w>
saqq itti
sanir vai
sanir va
sanaju lirinirmut</w>
sanajau gi
sa tis
sa mut</w>
sa ge</w>
s sani</w>
s now
snow mob
s aujunit</w>
rul ing</w>
ro les</w>
reser voir</w>
reser ve</w>
rel ate</w>
re solve</w>
re al</w>
ra y</w>
quvia gij
qutt iniq
qul angitunga</w>
qujan samiik</w>
quj au
qu uq
qu lluta</w>
qaujimajatuq anginnik</w>
qaujima lli
qaujikka iniq</w>
qauji giar
qanga tuinn
qam aniq</w>
qaiq ujau
q aqti
pw tt
pu n</w>
propo sing</w>
pres ents</w>
poin ts</w>
pivalliaj aij
piv ik
piruqpalli aju
piqujivungaaruti taq
piqujav umar
piqju ang
piq utit</w>
piq ann
pinngu av
piliriv inga</w>
piliriq ju
piliriang ujariaq
piliriang uj
piliri tti
piliri assa
piliri aks
pijitsir utinik</w>
pijit si
pij unnaq
pij unit</w>
pi vi
pi iqta
pi i</w>
pho to
particul arly</w>
p ped</w>
outlin ed</w>
op ini
op ened</w>
oi c</w>
off er</w>
occ ur
o bli
obli ga
nuuvi ippiri</w>
nuq qau
nunata arnirmut</w>
nunaqq ati
nunali ujunit</w>
nunali qu
nunali limaanut</w>
nun ami
nun am
nu taqq
niru ag
nir mit</w>
ni ce</w>
ng ujut</w>
nata aq</w>
nalunaiq sin
nalunaij a
nalli at</w>
nalau tta
naju uti
na ama
n one</w>
n inginnut</w>
n inganik</w>
n ing
n atu
natu ral</w>
n at
n asi
muanga jumik</w>
mu se
mo stly</w>
mmi jugut</w>
mmari k
miuta it</w>
ministalluata q</w>
minisita r</w>
minisi taup</w>
miksa ani</w>
mik ilu
mid -
mi r
mi d</w>
mech anis
me tho
mappiq tug
maligatsaliangu majut</w>
maligaliurvi mmut</w>
maligaliur ti
maligaliuqtiuqati ga</w>
maliga tsanik</w>
maki uma
maj irala
ma tuinn
ma ted</w>
m unut</w>
m innut</w>
lirijikk utigut</w>
lir mat</w>
liq tillugu</w>
lead ing</w>
ktu mik</w>
ks ani</w>
ks anginnit</w>
kk alu</w>
kiuj unnaq
kiu juti
kinng arni</w>
kinguvvi uti
kiinaujaqturuti ksanut</w>
kiinaujali uru
ki av
ke pt</w>
katimaniq aqtillugit</w>
katimajjutiksa tinnut</w>
katimaj inginnik</w>
kati mali
kamagij auni
k u</w>
k o
juu mi
jumav agit</w>
ju tinit</w>
ju ap</w>
ji i</w>
itta ili
it ely</w>
isumagij ara</w>
isumaal utigij
isuma tsaq
ir ni
iqqaqtuivi lirijikkut</w>
iqqanaijaqti kka</w>
iqqanaijaq atiq
iqqanaija atsait</w>
iq arri
iq ariaq
ipp atsaq</w>
ipp alli
invest ment</w>
inungn ik</w>
inugi atigut</w>
inu lirinirmullu</w>
innatu qau
inn a</w>
ingiraju lirinirmut</w>
ingan ullu</w>
incorpor ate</w>
in ullu</w>
in gillu
immi kku
imi q
ima immat</w>
ilu ani
illa ak</w>
ilinniatitti ji
ilinniar atsau
ilinni anir
ilaur mat</w>
il utik</w>
il angani</w>
ikupivvi lirijikkunnut</w>
ikup ittu
ikummaqquti lirinirmut</w>
ikajuq taujariaq
ikaju ru
ikaju ri
ik anir
i tigut</w>
i e</w>
hen sive</w>
haml akkut</w>
h ur
guma tuinnaqtunga</w>
giv akka</w>
gillar ik
gij auv
gij aujuq</w>
gij akka</w>
giaq aratta</w>
gi lugu</w>
gener ations</w>
gavamaq arvi
gavama ujuit</w>
gavama r
gavam anginnik</w>
gavam anginni</w>
galu aqpat</w>
g ulu</w>
g irata
for got</w>
for get</w>
flo w</w>
fir ms</w>
f ran
exp la
establish ment</w>
essenti al</w>
electri cal</w>
eff icient</w>
docu men
difficul ty</w>
deli vering</w>
defin itely</w>
de gree</w>
d ou
correspon dence</w>
correc ted</w>
constitu ent</w>
conclu des</w>
con ven
con firm</w>
compre hensive</w>
comp tro
commissi oners</w>
colle ctive</w>
citiz ens</w>
ci ence</w>
catego ries</w>
campaig n</w>
bu re
bo whe
be gun</w>
be comes</w>
b ul
avittuq simaninginnut</w>
av v
auq attaq
aun inginnut</w>
aulatt iniq</w>
aulan inginnu</w>
ati g
atausir mut</w>
atau juq</w>
at tunut</w>
at sualuk</w>
at inni</w>
at ani
asi ru
arvaallu u</w>
arrang ement</w>
arraagutama aqsi
arraag unit</w>
arra gu
arni arattigu</w>
arni aqtunik</w>
arni aqpunga</w>
arn ar
armanga armik</w>
ariaq araj
ariali t</w>
ari angita</w>
ar it
ar chi
aqtu ugaluaq</w>
aqti t</w>
aqtaun inga</w>
aqta git</w>
aqt anganik</w>
aqsima vugut</w>
aqqau mmat</w>
aqpi uk</w>
aq simajunik</w>
appe ared</w>
apiqusi ksait</w>
apiqquti ksait</w>
apiqquti giqqauj
apiqqusi it</w>
apiqqu taujunut</w>
ap point</w>
any where</w>
annir mit</w>
anniaqarn angitu
anni aj
anngit tunit</w>
anngi kkalu
ann u</w>
angunasu kti
angiqtauv utit</w>
angiqatigiig utiit</w>
angin atta</w>
angiju tinu</w>
angi kk
anga tta</w>
anga ja
ang ni
ang inni
anaru armut</w>
ammalu ttauq</w>
ami sun
alu armata</w>
all uni</w>
ali raj
alauq qut</w>
ala unngimmat</w>
ala aq
al unnit</w>
al berta</w>
akk ullu</w>
akir aqtu
akiliqtuiguti tsait</w>
akiliqsu riali
akili ks
ak unik
ak anni
ajjigiinn ginn
ajji un
agg iq
ag unn
ag lat
ag i</w>
addres s
ad ver
achie ved</w>
ach es</w>
accur ate</w>
acci dent</w>
aatua ami</w>
aaqqik sui
aaqqi giaruti
a amik</w>
>> opening</w>
9 6</w>
9 2</w>
7- 9</w>
3 7
16 -
your self</w>
week end</w>
w illing</w>
vu si</w>
volunte ers</w>
vo ice</w>
visi i</w>
ving ani</w>
vehic le</w>
valli aga
val la
va at</w>
v agit</w>
uvvalu uni</w>
uv ikk
uv aktut</w>
utiq aqp
uta ulauq
uta a</w>
ut inni</w>
ur mut</w>
uqausiq aqtilluta</w>
uqausiksaq aqtuq
uqausi uqqau
uqaruma vunga</w>
uqaruma tuinnaqtunga</w>
uqariarn gau
uqalima aqtauj
uqa al
uq araj
unnaq sini
unn uk</w>
unn gittumik</w>
unn ga
ungn gu
unga ju
ung inni</w>
under way</w>
un urningit</w>
un u
umi arju
umaj akka</w>
ulu uj
ulu ti</w>
ullu ti</w>
ullu ru
ul aun
ukpir usu
ukk aq</w>
uki ung
uju up</w>
uju uk</w>
u tuinn
u taujunut</w>
u tauj
u pa
u mut</w>
u ann
tus ar
turaag aq
tur ing</w>
tunng an
tunisi junn
tunirru si
tungn gav
tukisigi arvi
tukisi umaj
tukisi tsi
tukisi titau
tuki liur
tuinnaun gittuq</w>
tuinn armik</w>
tu v
tu qu
tu mi
ttu git</w>
tsi av
tre men
tremen d
tra ck</w>
titiraq simajunik</w>
tisi piri</w>
timi ujuit</w>
tim ing</w>
til auq
ti ri
ti mo
ti av
thir ty-
te sting</w>
tav u</w>
tauq attar
tauni q</w>
taulu ataq
tau tut
tau tti
tau simajunik</w>
tamatu manngat</w>
tamakkun anngat</w>
tama innu
tallimi rmi</w>
takumin aqtulirinirmut</w>
takk uninga</w>
taimanna ittu
taimann gat</w>
taimann auma
taimannauma llu</w>
taima ittunik</w>
taima inni
taima igunn
tail inirmut</w>
tag vani</w>
taak suma</w>
ta kku
ta ikku
ta aqqau
t oral</w>
t led</w>
t inirmut</w>
t angat</w>
sur roun
suli kkanniq</w>
suli juq</w>
stor e</w>
smo king</w>
sivuni ujumi</w>
sivulliqpa ang
sivulli uqtiit</w>
sivuliqpa ami</w>
sivul liqp
sivu gut</w>
siqinng ujaq</w>
simaju mit</w>
sima mmangaaq</w>
silatu s
sil aqju
sign atures</w>
si ster</w>
si ki
si arma
siarma q
shel ter</w>
sele cted</w>
secre tary</w>
schedul es</w>
saqqija aqti
saniraj ang
sanikilu armi</w>
sa innaq</w>
sa i</w>
s unga
s now</w>
s ki
s ingit</w>
ru p
roug h
rough ly</w>
rij au
ri atsaq</w>
requ ests</w>
represen ted</w>
regist ration</w>
refle cted</w>
recogni zing</w>
recei ves</w>
reali stic</w>
re patri
re it
reit er
re duce</w>
ra n</w>
r utiq
quvi asunn
quti ttinnut</w>
qujann aamik</w>
quali fications</w>
qu ur
qiturnga vut</w>
qik irta
qaujis ari
qaujima gama</w>
qaujikkai vunga</w>
qanuilingan inga</w>
qanu ilu
qanimatail inir
qangiq &
qamanittu armi</w>
qallunaati tu
q unga</w>
q aj
pwtt s</w>
purcha sing</w>
pu igur
promo ting</w>
professi on
primar ily</w>
pre fer</w>
pl an
pivalli aniq
pivalli anginnarunn
pisu gunnangit
piquti lirijikkunnut</w>
piquj alima
piqati gillugit</w>
pingajung anni</w>
pinasuaga it</w>
pinasuag arnut</w>
piliriarij ariaq
piliri aksaq</w>
pijittirau tinit</w>
pijari ali
pij unnaqsi
pigiaqtit anit</w>
pigi arutinit</w>
pi juti
patta tuqtut</w>
parn ak
pair iv
p inir
p ila
p ack
own ers</w>
ou ts</w>
op en
ob jec
nut titir
nuqq ang
nunalir ju
nunali mmi</w>
nu iti
niri up
nikuv ikpunga</w>
ni piq
nasi um</w>
nani siv
nang miniq
namminirij anit</w>
nalunaij ai
naliqq angit</w>
nalauta tauluataq
naammas anngittut</w>
naammas anngittuq
naal auti
na ala
n on-
muanga juq</w>
mu m</w>
mo u</w>
mmij avut</w>
mmij akka</w>
mmanga atta</w>
minir nut</w>
min it
mill enni
millenni um</w>
mili anta
memor an
mayo rs</w>
mar y</w>
mar tin</w>
mar ke
mann gi
manga t</w>
maligarala aq</w>
mali ttugit</w>
makkuk tunut</w>
maann arataang
ma tik</w>
ma le</w>
m nasium</w>
m inni</w>
m es
lu tillu</w>
lo wer</w>
llu si</w>
liur nirmik</w>
list en</w>
lirinir millu</w>
liriji ujuit</w>
lir mata</w>
lir iniq
li sa
lay ed</w>
l anga</w>
ku iq</w>
kno wing</w>
kk it</w>
kiuq uni
kiujuma viit</w>
kisu mut</w>
kingullir paami</w>
kingul li
kiinaujaq aqtitti
kiinaujaq aqtitt
kiinauj akku
kigu ta
kiav in</w>
kattunga iq
katimani vut</w>
katiman ittinnut</w>
katimajjuti tsanut</w>
katimajjuti ksait</w>
katima v
kap pi
kantura a</w>
kanngun aqtu
kamagijariaq aqtunut</w>
kamagijaq aqtumut</w>
kamagij ariali</w>
kam o
kajusi titau
ka ta
k auti
ji gi
ivv it</w>
its uni</w>
its angit</w>
its anginnut</w>
isumaksaq siur
isuma v
isuli ktuq</w>
isul inni
is land</w>
iqqatu ivi
iqqanaijaqti tti
iqqanaijaatsa lirijikkut</w>
iqqanaija aqta
iqalung mi
iqal unn
iq tau
iq ati
invol vement</w>
inn arnit</w>
inn agu</w>
ingillu si</w>
ingan u
inf lu
indepen dent</w>
in ingit</w>
in inginnut</w>
in a</w>
immedi ate</w>
immaq alu</w>
imai mman</w>
im minik</w>
illu ata
illi giaq
illi gi
iliqqusi tuq
iliqqusi lirijiit</w>
ilinniarv iq
ilinniar atsait</w>
ilinniaqtulirijirju at</w>
ilinniaqtu lirinirmu</w>
ilinniaq tinit</w>
ili jau
ilanga gut</w>
ilagij aujuq</w>
ilagiaruti it</w>
ila inn
ikupivvi lirinirmut</w>
iku mmaqqu
iksivauta rij
ikk ullu</w>
ikarr aq
ikajuu tauj
iglul ingmut</w>
iglu mi
ig utit</w>
i gaj
hospi tals</w>
honou red</w>
high est</w>
harv est
han tu</w>
gy mnasium</w>
guti k</w>
guti it</w>
guma arni
guide lines</w>
gro w</w>
great er</w>
ginn gi
gil aq</w>
gij auni
gij anut</w>
gavama uluta</w>
gavama ujunut</w>
gavam angannik</w>
ga tsi</w>
g uttauq</w>
fin ding</w>
facilita te</w>
f it</w>
ex act</w>
ev ening</w>
epidemi ology</w>
encoura ged</w>
en han
e vi
e as
eas y</w>
dise ases</w>
differ ences</w>
di vi
di and</w>
deter mine</w>
depen d</w>
dedi cation</w>
deci de</w>
de st
d ingly</w>
counter parts</w>
conf li
con cep
comple x</w>
comm ons</w>
com ponent</w>
com for
char t</w>
c tly</w>
c li
c king</w>
c c</w>
broad er</w>
bo o
bl ed</w>
b lu
b ad</w>
avitsimanirij ami</w>
aviktuq simani
avail ability</w>
av in
av alu
aulaur ama</w>
aulanir mu</w>
aul luta</w>
auj aq</w>
au kainn
atur lugit</w>
atuq ata
atuinn ariaq
atuag armut</w>
atu raj
atti aqullugit</w>
attan aqtaili
atta vut</w>
ati gu</w>
atausinng uqti
ata luunniit</w>
ata a</w>
at angiqtu
asses s
asi uj
arvi armi</w>
arvi armi
arv ingmut</w>
arv ik
aruti tsanik</w>
arunn aqtut</w>
aru taujut</w>
aru taujunn
aru ta
aru ju
arrang ements</w>
arraag ungani</w>
arn u
arn iqaq
arma tik</w>
ariaq aqpugut</w>
ara alu
ar p
ar minik</w>
ar ikk
ar an
aqtu uk</w>
aqtitsi j
aqti tsinirmut</w>
aqta ul
aqta si</w>
aqqu uj
aqqittau gunn
aqqi gi
aqq ara</w>
aqpap put</w>
aqatta riaq
aq un
aq siman
aq simajunit</w>
aq armata</w>
appli ed</w>
apiri guma
apir ikk
apiqsuqtauving mu
apiqqusi ga</w>
apiqqu tinik</w>
apiqqu tau
anngi ppat</w>
ann ingit</w>
anil auq
ani arattigu</w>
angir unn
anginn ama</w>
angij uqqau
ang uti
ang ulauq
an inginnit</w>
amma ilaak</w>
amis unut</w>
ami t
amend ments</w>
allo cate</w>
allav vi
aliri jiit</w>
alir akta</w>
aliq tilluta</w>
ali tainn
ali rijikk
alauq tu
alauq tavut</w>
alauq simajuq</w>
ala at</w>
al innit</w>
aksur ur
akk an
akittu r
aki tun
akaungi liurutiq
akaun iq
ak uta
ak sualuk</w>
ak inniq
ak all
ak al
ak a
ajur iq
aju inna
ajjigin gi
aj a
air craft</w>
ainn ar
ai mi</w>
aglu kk
affor d</w>
affec ts</w>
aff ir
addres sing</w>
ad ju
ach ed</w>
accoun t</w>
accessi ble</w>
ab sent</w>
aaqqit siman
aanni tuqsiuti
aaktuuv a</w>
a h</w>
30- mi</w>
2 2nd</w>
2 2
12 1</w>
1- mik</w>
1 1
0 7</w>
0 3</w>
0 2</w>
& ugit</w>
$4 7</w>
yo k</w>
wn s</w>
who le
wel com
welcom ed</w>
we a
wea ther</w>
w illi
vo ted</w>
vi u
vi tation</w>
vi mmut</w>
ver sion</w>
valu e</w>
va ins</w>
v ent</w>
v ali
uv ara</w>
uv a</w>
uuktu utigilugu</w>
uti ruma
uti minik</w>
uti lluta</w>
ut sugu</w>
usi on</w>
uquma ittu
uqti tti
uqsu aluk</w>
uqquu sau
uqausirij anga</w>
uqausi lirijiit</w>
uqausi ksan
uqatigi it</w>
uqatau juq</w>
uqalimaaqtaun iqaqpuq</w>
uqalimaaqtaun ingita</w>
uqalima ag
uq ittuq</w>
uq arumaj
uq aqtuq</w>
uq aqtuq
uq al
upalungaij arsima
unnu kkut</w>
unnginn inginni</w>
unngin atta</w>
unir paaq</w>
unir mu</w>
unikka arunn
unikka ari
ungn gimmata</w>
ungi mmata</w>
ungata an
ungasi ttu
under stand
un less</w>
un inganut</w>
un gitta</w>
un able</w>
ullumi uliqtuq</w>
ullumi kkanniq</w>
ull uqsi
ulaur mangaaq</w>
ul utit</w>
ujjir usu
ujja uni
ug li
uatti jii</w>
u min
u ili
tussir auti
tusaru min
tusaq tau
tusaq sa
turaaqta rij
tuq aqtumini
tunngasukti tti
tunnga suq
tunij aujut</w>
tungn gasu
tun nirij
tun illu</w>
tukisin atti
tukisin asu
tukisikkaniruti ksaujunit</w>
tukisigiaruti t</w>
tuinn auqqu
tuinn arnit</w>
tu ram
tu de</w>
tti arunn
tt iniq</w>
tsa illu</w>
tremend ous</w>
travel led</w>
tra ff
traff ic</w>
tra ditions</w>
too ls</w>
titir ari
titiqqau si
titiqq aq</w>
timo thy</w>
timiuju mu</w>
tilij auluni</w>
til luunniit</w>
tik inni
ti tauningit</w>
th or
tem por
te en
tavv an
tauv aktu
tau tillugu</w>
tau simajuni</w>
tau mmata</w>
tas sumunga</w>
taralu ara</w>
tar r
taqq ini</w>
tamatumu una</w>
takunn a
takuju maj
tak ug
taisu mani</w>
taav ani</w>
ta tinni</w>
ta s</w>
ta ki
ta aq
ta ap
ta alait</w>
t iniq</w>
t anik</w>
suungu mmata</w>
surve y</w>
suru siq
surroun ding</w>
sun ilu</w>
sun der
sun anik</w>
sum ing</w>
suliri vi
sulijuq s
sukk aju
sub -
su red</w>
su per
stu ck</w>
stri ctly</w>
stand ard</w>
speciali sts</w>
sour ces</w>
so und</w>
sivun iks
sivum utti
sivulliqpa aq</w>
sivulli pa
sivuliqti ujuq</w>
sivu lir
siur niq</w>
siman gi
simaliq pat</w>
simajuq armat</w>
sila tun
siki tu
si jj
si gi
si aru
si amma
sh aring</w>
self-reli ance</w>
secon ds</w>
sc al
sav e</w>
sau vut</w>
sau gaj
saqqi ini
sanaj aulauq
san avi
sal e</w>
sa uniq
sa anta
saanta s</w>
s mi
s lee
s innut</w>
s inir
s den</w>
ru ma</w>
rf p</w>
rel ations</w>
reali ty</w>
re treat</w>
re stri
re presents</w>
ram sden</w>
r uj
quviasu mmari
qulli q</w>
qul liqpa
qul arn
qujannamiiruma vakka</w>
quic k</w>
qu ll
qu lin
qu e
qu an
qit su
qisi raj
qilav aq</w>
qilalu gait</w>
qikirta alu
qaujis arni
qaujiman ingit</w>
qaujiman gittunga</w>
qaujimaju ksau
qaujimajatu qan
qaujimaj au
qaujima mmata</w>
qaujima la
qaujima jugut</w>
qaujima galuaqtunga</w>
qaujigi arvi
qauji jau
qau r
qari sauj
qanuqtu uruti
qanuinn gittuq</w>
qanuilingalir mangaata</w>
qanuilingalir mangaat</w>
qanimatailinir inirmut</w>
qam utauj
qaiq uj
qa itti
q aun
q attar
q attaq
q ati
puriimmi angul
public ly</w>
pu san
provin cial</w>
promi se</w>
profession als</w>
primar y</w>
pri me</w>
prepar ing</w>
prepar ation</w>
piv iks
piusi gi
pitaq arunn
pir uq
piqqusituq alirij
piq ujaq</w>
pinasuarusi uju
pinasuag armik</w>
pilu riatsaq</w>
pilu aqtumit</w>
pilirip vimmi</w>
piliriang uvalli
piliri aksaq
pijunn aqti
pijumaliq tittinirmik</w>
pij aulauq
pij auj
pigiaqtita mut</w>
pigiaqti taujumik</w>
pigi arningani</w>
pigi arni
pi us
pi ulu
pi tuqau
pi si</w>
perfor med</w>
pe titi
parnatau simajut</w>
parn ata
par ent</w>
p w</w>
p ingi
p ammata</w>
p aktut</w>
out line</w>
ori en
oper ated</w>
op s</w>
ok ak</w>
obliga tions</w>
nuta ani</w>
nuta angu
nut titiq
nunavuu mik</w>
nunavuu mi
nunavummi unut</w>
nunavummi unik</w>
nunavummi u
nunavumiu limaanut</w>
nunataaruti mut</w>
nunaq uti
nunaq aqtu
nunalingn it</w>
nunalik inniq
nun attinnut</w>
nu utau
nu uta
nu taq
nu k
no body</w>
niruaqtau sima
niru aqta
niriupp ungalu</w>
niriup pugut</w>
nat ingmi</w>
nanu it</w>
nanisi junn
namminirij anut</w>
nammin iqta
nalunaiqsi junn
nalli ki
nalauksaag allatta
najuuti jut</w>
nagli atuinnaq</w>
naasau tinga</w>
naamma san
n inga</w>
n ers</w>
n akk
mmari ummata</w>
mmari it</w>
minista i</w>
minist eri
ministeri al</w>
minisi taujuup</w>
minir nik</w>
mini tuq
mili j
mik ila
mi tsi
mi sunder
mi lluunniit</w>
mi gama</w>
mi &
medi a</w>
matu ing
mati cs</w>
mann ir
manimati tait</w>
manga ta</w>
mang ng
mami akpunga</w>
maligaliuqti illu</w>
maligak saup</w>
maligak sat</w>
maligak sa
maliga tigut</w>
mali ktu
mal ly</w>
makkut tunut</w>
makku tunut</w>
makiuma inn
makimainn aqtunut</w>
mak ru
mak pir
main taining</w>
main ly</w>
maannarataang unirpaaq</w>
ma p</w>
m ur
lu c
lo cally</w>
llu tillu</w>
ll ab
liur unn
liur ni
lirijin illu</w>
lirij ingit</w>
liq tunit</w>
liq puq</w>
lifesty le</w>
leav ing</w>
laurn gata</w>
laur atta</w>
laur akku</w>
l ou
l ess
kuap akkut</w>
ksau p</w>
ks anginnut</w>
kkanir ni
kisu ummangaata</w>
kis u</w>
kingun ittinni</w>
kiinaujaqturuti ksanit</w>
kiinauj ja
kiinaujja sa
ki unasu
ki ula
ki ds</w>
katujjiqatigi ing
katujjiq ati
katu jji
katimaq ati
katiman ittinni</w>
katimaj ini</w>
katimaj ingannit</w>
kati llugu</w>
kat sunga
kamo okak</w>
kamagi gi
kama tti
kama giq
kajusi giarunn
kaanturaak tau
k put</w>
k new</w>
k ill
k anniq
jutigini aqpara</w>
juti it</w>
juma llunga</w>
ju innau
ju gu</w>
ju d
jo ami
joami e</w>
jju tauni
jju tau
jai ms</w>
j e
iv it</w>
ittu mi</w>
it innit</w>
it inni
isumaqsaq siuruti
isumaalu u
isuli k
irn inga</w>
irn i</w>
iqqu li
iqqittu u</w>
iqqauma juti
iqqanaijaqti vut</w>
iqqanaijaqti lirinirmut</w>
iqqanaij arvingmi</w>
iqqanaij aqtut</w>
iqalu mmi
iq uji
iq aqtut</w>
inuuj unni
inulima atigut</w>
inu i</w>
innammari it</w>
inn uk
initi ate</w>
initi al</w>
ingirraju lirinirmullu</w>
infor matics</w>
infor ma
in vitation</w>
in ill
in audi
inaudi ble</w>
immi kkut</w>
immedi ately</w>
iluanngij ju
ilu liq
ilu gu</w>
illuq utiq
illulirijirju ak
illu mi</w>
illu lirijikkunnut</w>
illu liriji
ilitari jumavara</w>
ilinniav ingmi</w>
ilinniatitsi ji
ilinniartu lirinirmut</w>
ilinniarni up</w>
ilinniaqtulirijirju akkut</w>
ilinniaqtu liriniq</w>
ilinniaqti pauj
ilinni arti
ilinni arnir
ilinni akannir
ilauqta tinni</w>
ilali uti
ilagili uti
ila aqai</w>
il anganik</w>
ikupittu lirijikkut</w>
ikarraq aqatigi
ikajuqtu i
ikajuqti gi
ikajuq ti</w>
ikajuq tauju
ikajuq ta
ikaju rn
ik sivautaup</w>
ik ittu
ij ut</w>
ij ja
iglulirijirju akkut</w>
i ta
i sir
i ces</w>
i &u
havi uj
ha y</w>
gunn araj
gu y</w>
gu viuk</w>
gradu ated</w>
go tten</w>
git tunit</w>
git ti</w>
giq attaq
gini arakku</w>
gin e</w>
gill uniuk</w>
giaq arattigu</w>
gi aqtur
gi aqtu
gi alik</w>
gavama ttinnut</w>
galu aqpunga</w>
ga ther
ga ju
ga aq</w>
ga akkanni
g luni</w>
fri ends</w>
for th</w>
finan ces</w>
f illing</w>
f il
explan ation</w>
expla ined</w>
exc iting</w>
ex tre
esti mated</w>
equ ality</w>
encoura ging</w>
e fi
dru m</w>
divi ded</w>
discre tion</w>
di verse</w>
di ed</w>
design ated</w>
de m
de lay</w>
de duc
de c</w>
d pw</w>
d or</w>
d ding</w>
d /
cri sis</w>
cre ates</w>
counse lling</w>
counse l</w>
conf usion</w>
conduc t</w>
con ditions</w>
con c
comple tely</w>
comfor table</w>
co- ops</w>
co in</w>
clo sing</w>
cha r</w>
ch ur
ch es</w>
certi fied</w>
cau ses</w>
cap able</w>
candi dates</w>
br ings</w>
bowhe ad</w>
ben efi
be coming</w>
b ur
b ar
avittuq simanirij
aviktuqsiman ikkut</w>
aun ir
aun ingani</w>
aun gittuq</w>
aull unilu</w>
aull unga</w>
aulauq put</w>
aulatti ji
aulat tin
au lutik</w>
au k</w>
au gaj
au dit</w>
atuq tus
atuni iq
atuliquj au
atu rn
atu ariaq
atu aq</w>
attan aqtu
atiliuq tausimajut</w>
ati tut</w>
atau juit</w>
at tau
asir urn
asi an
arumaj ara</w>
aru tauni
aru mani
arri ved</w>
arraagu rij
arra ani
arniq pat</w>
arniar utta</w>
arni armangaatta</w>
arni aqpara</w>
arn ak
armi javut</w>
ariaqarni aqpugut</w>
ari mi</w>
ari ir
ari amik</w>
archi ves</w>
arasu k
ar er</w>
ar av
ar alu</w>
ar aksi</w>
aqtun u</w>
aqtu talu</w>
aqti kkut</w>
aqta minit</w>
aqt ini
aqt anginnik</w>
aqs arniit</w>
aqquuq tugut</w>
aqqu uqtuq</w>
aqqis uq
aqqi it</w>
aqq avu</w>
aq tigut</w>
aq att
appro ve</w>
apirini aqtara</w>
apiqquti mut</w>
apiq utigij
apiq us
ape x</w>
ap ik</w>
anni av
anngit tunik</w>
anngin iqsau
anngin akku</w>
aniq sauni
ani ujuq</w>
angiqtau rataarnikuunngittut</w>
angiqatiqaq isi</w>
angiq taun
angiq sima
ang ujuni</w>
ang mangaata</w>
anaru ak</w>
an mut</w>
an inganut</w>
an asu
amisuuniq sait</w>
amisuru ri
amisu kall
am ong</w>
alu ar
alu aqtunga</w>
alu aqtillugu</w>
allu ata
all ap
alauq ta
alaunngi mmata</w>
ala ungin
al innik</w>
aksur unn
akkuv ik</w>
akkannir ni
akkaniq piit</w>
akk a
akitujunuungaju tsat</w>
akir aqtun
akiliq tuq
akiliq suq
akaunngi lu
akaungi liur
akail liuruti
ajuruti liit</w>
ajjigin git
ajjigiinngit tunut</w>
ajjigiingi tunit</w>
ajj inginnik</w>
aj avut</w>
aittuin aqtumi</w>
aippiqta ulluni</w>
aippi q</w>
ag uti
ag uma
ag ullu</w>
ag aksa
after wards</w>
advan tage</w>
advan ced</w>
adv ance</w>
adju st
accumul ated</w>
accor dingly</w>
accommo dation</w>
ac tions</w>
aaqqik si
aaqqi ini
aanniaqarnangittu lirijikkunnut</w>
a tunit</w>
a sima
a angaja
8 8</w>
8 5</w>
5 9</w>
5 4</w>
5 1
40 %</w>
30 muaqpat</w>
27 9</w>
24 3</w>
2 2-1</w>
199 6</w>
15 7</w>
12- mik</w>
10 2</w>
1 7-
1 13</w>
$3 13</w>
$ 7
$ 15</w>
y 6</w>
x ed</w>
wor ks
works ho
won dered</w>
wh als</w>
we al
weal th</w>
vu gu</w>
vit inni</w>
visi ted</w>
ving mik</w>
vie ws</w>
vi g
vi cti
vi able</w>
valli aju
vallai juq</w>
va tion</w>
v innut</w>
v ini</w>
v ast</w>
uvikk aliriji
uvikkaliriji illu</w>
uvi ani</w>
uv attuq</w>
uv atsi
uv at</w>
uv anga
uv alu</w>
uv alla
uuttu utiq
utili ty</w>
utigi lugit</w>
uti la
ut inginni</w>
uru maliq
uru aq</w>
ura i
ur utaa</w>
uqauti gunn
uqausis saq
uqausirij ait</w>
uqausir ilauq
uqausi tuinnaq</w>
uqausi saq
uqausi lirijinit</w>
uqausi lirijikkut</w>
uqausi ksanut</w>
uqaujjigi aqti
uqau tigumaj
uqariarngau tinut</w>
uqaq qu
uqaq paa</w>
uqalima utiq
uqalima aqtau
uq aju
upd ates</w>
upalungaijarsima vik</w>
upag uti
up valuunniit</w>
unnus akkun</w>
unni i</w>
unnaqpi uk</w>
unnaq ulluta</w>
unnaq ullugu</w>
unikka arij
unikka amut</w>
unikk angit</w>
uni git</w>
unga jumik</w>
ung mi</w>
ung innik</w>
ung anut</w>
un fore
unfore seen</w>
un ds</w>
un d
ulu unniit</w>
ullutuinn armi</w>
ulaur ama</w>
ul ugit</w>
uki unut</w>
uk ununga</w>
uiviiti tut</w>
ugaal autaa</w>
uatti aru</w>
uajamuungaju lirijikkunn
uajamuungajulirijikkunn illu</w>
u mman</w>
u man
u ma</w>
tutsi arniq</w>
tusaumaqattauti lirinirmut</w>
tusaaji tigu</w>
tura angaj
tuqaqtumini utillugu</w>
tunijau simajut</w>
tungilir a</w>
tun uviani</w>
tun u
tun gal
tukita aqtittinirmut</w>
tukisiuma qat
tukisij ara</w>
tukisi ti
tukisi giaq
tukisi aniq
tu ti
tu aqpat</w>
tta riaq
tt inirmut</w>
tt inirmi</w>
ts inirmik</w>
ts inirij
tre at
tou ched</w>
too th</w>
to m</w>
titt inirmit</w>
titt inir
titir arviq
titiqq akkuvik</w>
tion ally</w>
tinn asu
timmiju uqsi
timi ulluta</w>
til aur
tigusi jjuti
tigu sinirmik</w>
tigu ma
thou san
ten ders</w>
ten d</w>
tempor ary</w>
tel ling</w>
tavv ung
tavv annga</w>
tauti gi
tausan taalait</w>
tauq qau
tauq attarn
taulaur mat</w>
tauj unnaqullugit</w>
tauj ja
tau simann
tau siman
tau s
taqqi it</w>
taq aqpuq</w>
taq anngilaq</w>
tamak ki
tama s
takus sar
takunn agaksa
takuk sau
takk unani</w>
tak unnaq
taimai gasu
taimaatsi aq</w>
taima inginn
taima atsa
taij aujuq</w>
taakkun unnga</w>
t ters</w>
t ries</w>
t inginnullu</w>
t ga
t anginni</w>
symb ols</w>
suungu vu</w>
survi ve</w>
sur urn
suli kk
sukkaju urutaa</w>
su tigu</w>
su res</w>
su mmat</w>
su mman</w>
su minga
stu ff</w>
statements 4</w>
statements 3</w>
st res
speak ers</w>
smo o
sme ll</w>
sivun iksaq
sivullir mik</w>
siv utit</w>
sita manik</w>
simp ly</w>
simp li
simanngin akkit</w>
simanir mik</w>
siman irmut</w>
simalir mangaata</w>
simaliq tugut</w>
simaliq puq</w>
simaliq pata</w>
simaju up</w>
simaju kkut</w>
sima tuinn
sima gapta</w>
silattusarvi mmi</w>
silata an
si i
sh ared</w>
sele ction</w>
see med</w>
se curi
securi ty</w>
saqq itta
saqq ini
sann aju
sannaju lirijikkunnit</w>
sanirajang mi</w>
sani ani</w>
sanav alli
san am
sallir ni</w>
sa ma
s pon
s aujuni</w>
rij ikkut</w>
ri ed</w>
ri a</w>
remin der</w>
rel atives</w>
reiter ate</w>
regul atory</w>
recru its</w>
reco r
reali zed</w>
re payment</w>
ra am
qupp irn
quppirn iliit</w>
quo ta</w>
qujan ami
questions 9</w>
questions 8</w>
questions 7</w>
questions 5</w>
que be
quebe c</w>
qu li
qitsu alik</w>
qitirmi unut</w>
qitingmi uni</w>
qiti anut</w>
qimirruv allutik</w>
qimirr unirmik</w>
qil an
qikiq tani</w>
qautama amut</w>
qaujis arnirmi</w>
qaujis arni</w>
qaujis aqtiit</w>
qaujis aqta
qaujis akkanir
qaujimajatu qangat</w>
qaujimaj avut</w>
qaujikka igutit</w>
qaujigiaruti t</w>
qauj ini
qauj in
qauj ik
qatta qullugit</w>
qanuqtu ur
qanuili urumaliq
qanui titti
qangata suu
qangata juu
qan irmit</w>
q qauj
pura avin
pula arvi
pula ari
pu ters</w>
pu igu
pronoun ce</w>
program ming</w>
prof it</w>
proc esses</w>
pro motion</w>
pre vent</w>
pray er
prayer 2</w>
pp a</w>
possi bilities</w>
po se</w>
piviq aqtitau
pisugunnangit tuqsi
pir u
piqujivunga arutinit</w>
piqujiv ung
piquj arjuaq</w>
piqqusituqalirij init</w>
piqatigi lugit</w>
piqasi ujj
piq tu
pinnguaqtu liriniq</w>
pingaju ani</w>
piliriq ata
pilirij ingit</w>
piliriarij avut</w>
piliriaq aruma
piliriaq arni
piliriang ujut</w>
pili mma
pijunn auti
pijitsir utiit</w>
pijarial innit</w>
pijari iqta
pigiaqti ttini
pigiaqti tt
pie ces</w>
pie ce</w>
pic ture</w>
pi sii</w>
pi n</w>
photo graph
petiti on
petition s
per cent</w>
peop les</w>
pat h</w>
parnau tinit</w>
parn apalli
pap put</w>
pangniq tu
pa anik</w>
p lo
p ita</w>
p it
p anik
overcrow ding</w>
opini on</w>
on e-
off ered</w>
nunavu mmut</w>
nunaliquti ttinni</w>
nunagij attinni</w>
nun atta</w>
nuli ara</w>
nu vi
nu u
no min
niru aqtu
niqtun aqtu</w>
ng inni</w>
negoti ating</w>
nau kku
nar whals</w>
nani tuinnaq</w>
namminiq aqtut</w>
nam mini
nalunaiq siq
nalunaijaqtu simajuit</w>
nalli uniq
nalli annik</w>
naliraras aujunit</w>
naliira ar
nalautsaaqtau majut</w>
nakurmi ir
nak i
naammasan gittuit</w>
naammas aqtulimaat</w>
naammas aqtuit</w>
naamma ks
na ittumik</w>
n u</w>
n esses</w>
muse um</w>
mu uq
mor tga
monit or</w>
mma uk</w>
mista ken</w>
minit sinik</w>
min es</w>
mili an
mik ittunit</w>
mij unga</w>
mij ak</w>
mi jugut</w>
mean ing</w>
me ly</w>
matuiq tillugu</w>
marru unnut</w>
mappig armi</w>
mann auju</w>
manir mit</w>
man it</w>
man ce</w>
mami attunga</w>
maligaq tigut</w>
maligaliuqti uqat
maligaliuqti uju</w>
mal s</w>
makru uri</w>
makpir tur
makkuktulirijin illu</w>
makimainn aqtut</w>
mak pi
majirala at</w>
maj uni</w>
maannauju kkut</w>
maann ama
maani tuuv
ma s</w>
ma atin</w>
m uq
m rs</w>
llu gillu</w>
lirijikk unnu</w>
lir inikkut</w>
liq tut</w>
liq pugut</w>
lima angit</w>
lima amik</w>
lima a</w>
ligh tly</w>
li ty</w>
li qullugit</w>
li lauq
li e</w>
le tters</w>
la ws</w>
la it</w>
l lugulu</w>
kuapuriis akkunnut</w>
ku su
kk uv
kiujjuti k</w>
kiinaujaqturuti ksaq</w>
kiinaujaqta aruti
kiinaujaq taq
kiinaujalir inirmik</w>
kiinauj ar
kiinauj aq</w>
katujjiq at
katimavi ju
katimajjuti ksaq</w>
katimaj juti</w>
katimaj inu</w>
katima uti
kati ppalli
kanngunaqtu lirinirmullu</w>
kangiqtugaapi mmi</w>
kangiqtugaap ingmi
kan tur
kamp ani
kamisan aup</w>
kamaj unn
kamagijaq anirmut</w>
kamagij aujuq</w>
kamagij aks
kamagij a
kajusin iqatti
kajusi junnaq
kaantura aq
kaan tur
k ul
k pat</w>
k ik
juuni vaasi
juuni mi</w>
juma tuinnaqtunga</w>
ju si
jo int</w>
ji tigut</w>
j on
j an
ittu up</w>
itta riaq
itta ilima
it innu
isumaqsaqsi uq
isumali rij
isumagij aujuq</w>
isumaal utiq
iqqaqtuiji lirijinit</w>
iqqanaijaqtu lirinirmut</w>
iqqanaijaqtu lirijikkunnit</w>
iqqanaijaqti t</w>
iqqanaijaqti gij
iqqanaij ari
iqq at</w>
iqaluttuutti aq</w>
iqaluttu ti
iqalu gas
ipp aksaq</w>
inv en
inuk suk</w>
introduc tion</w>
introduc ing</w>
inter esting</w>
inten tion</w>
innga aqtut</w>
inn gin
inn arasu
inir nit</w>
iniaqta tinni</w>
ingirrajuu lirinirmut</w>
ingirrajuu lirijikkunni</w>
ingirraju lirijinillu</w>
ingirr ati
ing mu
informa tional</w>
influ ence</w>
indi c
in uqut
in ts</w>
in stitute</w>
in curred</w>
in ci
in atta</w>
imp acted</w>
immi k
immaq aqai</w>
ilul ingita</w>
illuq arvi
illu tillu</w>
illu mi
ill uqaqti
ill unit</w>
ilits innut</w>
ilitari jumajakka</w>
ilitar ilugit</w>
ilitaqsijuma mmijunga</w>
ilisaij inut</w>
iliqusi ujumit</w>
iliqqusi lirijikkut</w>
iliqqus inga</w>
iliqqu sing
ilinniaqtulirij inut</w>
ilinniaqtulirij ingit</w>
ili si
ilagiaq sinirmut</w>
ilaann ikkun</w>
il asi
il anganni</w>
ikupivvi lirijikkunnit</w>
ikkalu aqtillugu</w>
ikarr anik</w>
ikajuuti tsait</w>
iglu lirinirmi</w>
iglu lirijiqju
iglu lirijinit</w>
igl uquti
iga mik</w>
i tuinn
i siq
i mar
i gatta</w>
i bc</w>
hol ding</w>
ho od</w>
hel ped</w>
harvest ers</w>
harv esting</w>
han dle</w>
haam lat
gu uq</w>
gu mani
gu k</w>
gra p
gr ati
giv ak
gittu kkut</w>
git tauq</w>
git sugu</w>
git si</w>
gil luunniit</w>
gil luta</w>
gil ara</w>
gij juti
gener ation</w>
gener ally</w>
gavamalirijikk unnut</w>
gavamalirij init</w>
gavamali ma
gavama un
gavama ujut</w>
gavama tta</w>
gap tigu</w>
gall er
galler y6</w>
gal ak</w>
ga asi
g lutik</w>
g lu
for med</w>
fi es</w>
f ast</w>
extre mely</w>
exten sive</w>
experien ced</w>
experi ences</w>
exp and</w>
ev ent</w>
es sing</w>
equ ity</w>
equ i
en ter</w>
elec toral</w>
e tc</w>
e igh
dre am</w>
docu ments
divisi ons</w>
distri bution</w>
direc tors</w>
dialec ts</w>
dialec t</w>
di tionally</w>
di plo
des er
denti al</w>
demon str
deb ate</w>
de fini
de cl
de als</w>
d a
d -
constru ct</w>
confli ct</w>
conf used</w>
conduc ting</w>
concep t</w>
con sum
communi cate</w>
committe es
com puters</w>
com pri
com b
cle arer</w>
ci ally</w>
chur ch
church ill</w>
char ged</w>
char ac
c bc</w>
bro ther</w>
break water</w>
bo dies</w>
bir th</w>
be side</w>
be auti
balan ced</w>
b arri
avittuqsimajuquti vut</w>
aviktuq simajuni</w>
avi mmi</w>
av is
auv attunik</w>
aulattij inut</w>
aulattij inillu</w>
aulatsi ji
aulainnatitsi guti
aukak tuq</w>
au to
au tinit</w>
au tinik</w>
atuqtuk sanik</w>
atuq taun
atuq taulauq
atuq taujarial
atuinnaun inginnut</w>
atuinnar uq
atuinn arunn
atuinn aru
atuag arnit</w>
atuag armit</w>
atu tti
atti u</w>
atten tion</w>
atten ded</w>
attar niq</w>
attani armata</w>
atsi uk</w>
ati ru
ati li
ati gullu</w>
atau tti
atau tsi
atangi uma
at -
asunni aqpunga</w>
asunn irmut</w>
asir uq
asi uji
asi maliq
asi a</w>
as si</w>
as sent</w>
arvi lir
arvi gij
arunn ani
arra g
armi jugut</w>
armi j
armanga a</w>
arma ri
arij angit</w>
ariaq arninganik</w>
ariali vut</w>
ari vut</w>
ari simaj
ari gunn
ara ma
ar uluk</w>
ar ujji
ar tillugu</w>
ar inasu
ar i</w>
ar en</w>
ar d
ar atsi</w>
aquti ttinnit</w>
aquti kuta
aqtu tsau
aqtu inn
aqtu gillugit</w>
aqti ti
aqti taujut</w>
aqti llunga</w>
aqti gu</w>
aqta ulluni</w>
aqquti it</w>
aqq ita</w>
aqq it</w>
aqattar mata</w>
aq ulluta</w>
aq tinit</w>
aq sugu</w>
aq au
appropri ately</w>
appl au
apirijuma llugu</w>
apiri gumajunga</w>
apir iq
apiqusi ujuq</w>
apiqsu rn
apiqquti tsa
apiqquti kkanniit</w>
apiqquti gilauq
apiqqusir a</w>
apiqqu siq
anticip ated</w>
answer ing</w>
anniasi uqti
anni aqtu
anni ami</w>
anir sau
anir ni
anig uqti
ani ujunit</w>
ani mals</w>
angn gittunga</w>
angit ti
angir utik</w>
angir ram
angiqatigiing uti
anginngittuq aqpaa</w>
anginn ullu</w>
angilli gi
angi ppat</w>
angajuqqaaq arvingmi</w>
angajuqqaaq arvi
anga jut</w>
ang ulluta</w>
ang uju</w>
ang mari
an uruaq</w>
ami llu</w>
am bul
altern ative</w>
allu ta</w>
allu ataq
allo wing</w>
alle vi
all ak
aliq puq</w>
alauq tugut</w>
alauq ta</w>
ala ang
al innut</w>
akunn ingani</w>
aksuru uti
akkaniq qiit</w>
akiraqtur niq</w>
akiq angittuq</w>
akiliksa li
akili ini
akaunngi liur
ak tunit</w>
ak san
ak inginnut</w>
ak ata
ajuruti linnut</w>
ajur unniir
ajj inginnit</w>
ajj inganik</w>
aj unut</w>
aj unnginn
aj unit</w>
aj ungi
aj u</w>
aittuin aqtuni</w>
aippiqta ullunga</w>
aippa ani</w>
ainn ari
aglu ukkaq</w>
agl attiu</w>
aga su
aga it</w>
ag gu
ag ency</w>
affor d
advi sor
adver ti
adop tion</w>
address 10</w>
accor d</w>
accep t</w>
ac knowled
abo li
aaqqik siman
aanniasiuqti q
aanni arvili
a unginn
a tunn
a ili
a giaq
a ati
>> ></w>
9 7</w>
8 n
8 9</w>
8 6</w>
7 6</w>
6 6</w>
5 %</w>
3 19</w>
1999- 2000mi</w>
16 3</w>
15 -
/ 99</w>
& unga</w>
& a</w>
$4 00</w>
$ 7</w>
$ 250</w>
$ 12</w>
{ b</w>
z z
z 8
z8 a
z8a 6
z8a6 g
z8a6g 5</w>
y k
yk os
ykos 60/005</w>
y i
yi b
yib w
yibw 5</w>
x 9
x9 m
x9m 0
x9m0 /
x9m0/ 00</w>
willi ams</w>
wher ever</w>
wh ite</w>
well ness</w>
we st
w ro
wro te</w>
w m
wm b</w>
w d/
wd/ sym
wd/sym j
wd/symj 5</w>
w 8n
w8n 7m
w8n7m 35</w>
vi uv
vi lirijikkut</w>
ver b
vehic les</w>
valli anirmut</w>
va in</w>
v n
vn bo
vnbo cu
vnbocu 4</w>
v ammata</w>
uv iti</w>
uv angalu</w>
utirvigi lugu</w>
utin u</w>
utin gitta</w>
utili zing</w>
utigij unn
uti ta
uti gu</w>
uti g
ut /
usi j
urai as</w>
ur ama</w>
uquti vut</w>
uqtu tik</w>
uqtu mik</w>
uqsuqtu urmi</w>
uqsuqtu uq</w>
uqsualu ttaq
uqausitsaq aqtuq
uqausitsaq aqpit</w>
uqausiri jumatuinn
uqausi sa
uqaujji junn
uqati kka</w>
uqar avit</w>
uqaqatigi ig
uqaqatigi guti
uqaq atta
uqaq a</w>
uqalimaq tauningit</w>
uqalima agaq
uqa taujut</w>
uq tunga</w>
uq attarni
uq alaurama</w>
uppirusu k
unniiq tuq
unngin akku</w>
unng inir
unnaq sila
uniq sau
unikkaaliari simajangit</w>
uni on</w>
ungn ik</w>
ungi mmat</w>
ungata ani
ungasiktu kkut</w>
understand able</w>
under taking</w>
un uq
un inginnit</w>
un employment</w>
un aj
ullu gillu</w>
ull unit</w>
ulaur atta</w>
ulauq puq</w>
ul lugi</w>
ul ar</w>
uki unik</w>
uki atsa
uk unani</w>
uji vut</w>
ujararni aqti
u {b</w>
u ta</w>
tw ice</w>
tutsi ra
tutsau galu
tut sanik</w>
tusauma q
tusaqsa unngittuq</w>
tusaq taujuksa
tusaqtaujuksa lirinirmut</w>
tusaajitiguur unniiqtuq</w>
tusaajitiguur niq</w>
tus arvigi
tus ariaksaq</w>
turaanga jumik</w>
tuq ungaju
tuq tuit</w>
tuq aqtillugu</w>
tunir r
tungngavi gijau
tul attar
tukisikkaniruti ksa
tukisi av
tukiliuq taujuq</w>
tuki siv
tuki sini
tujurmi viq
tuinn atakka</w>
tuinn arnik</w>
tuar uttigu</w>
tu ti</w>
tu armi</w>
ttu ma
tti aqtunik</w>
tti aqtuni</w>
tta lu</w>
tta innaq</w>
tta ili
tt inirmik</w>
tsu ta</w>
tsan ullu</w>
tru mp
trump er</w>
treat ment</w>
trans lat
tra des</w>
tra de</w>
to p</w>
to co
toco l</w>
titiraq simajuq</w>
titiqq aqta
titau giaq
tin gita</w>
timiuju up</w>
timi qut
time ly</w>
tik inn
ti ta
ti liuq
ti cs</w>
thousan ds</w>
thor ough</w>
ther ners</w>
th ro
te x
tavv anngat</w>
tauvak puq</w>
tauv attunik</w>
tauni armata</w>
taulaur mata</w>
taulauq tumik</w>
taulauq puq</w>
taul utit</w>
taujunn aqtunit</w>
taujunn aqtunik</w>
tauj ariiq
tar rij
taqq it</w>
tap vani</w>
tam man
talliman ik</w>
tal ks</w>
takuk sautitti
tak unasu
tak ula
taimanng anik</w>
taimann alu</w>
taimaatsa innaq</w>
taima it
taik ua</w>
tag es</w>
taat sumunga</w>
taann asainnaq</w>
taann alu</w>
taakku ali</w>
ta unginn
ta rnik</w>
ta qangan</w>
ta pe</w>
ta mmar
t tom</w>
t siv
t anginnut</w>
swe ar</w>
survi val</w>
suppor ts</w>
supp lies</w>
suli ju
sugges tions</w>
su tillu</w>
su ra
struc ting</w>
stre am
strategi c</w>
sta n</w>
sta ges</w>
speciali st</w>
spe lling</w>
so ld</w>
sivunir ij
sivuni agu</w>
sivulliuq ti</w>
sivulliqpa arij
sivuliuq tinut</w>
sivuliqti vut</w>
sivuliqti up</w>
sivuliq tinut</w>
sivu uqtuq
siqinngujaq arniq</w>
simangn gi
siman inginnik</w>
simalir akta</w>
simali ri
sima qqu
sima gakkit</w>
silar ju
siamma kti
si tes</w>
si si
si riji
si qu
sho uldn</w>
sh ar
ser vation</w>
sen ding</w>
se tt
se lling</w>
schedul ed</w>
sc 60/
sc60/ 00</w>
saqqi tau
saqq ir
sap ujji
sap ujjau
sanngin iq
sanaasa lirijikkunnut</w>
sana giaq
sa m
sa amut</w>
s uqti
s ports</w>
s inirmi</w>
s aujunn
s ara
s alli
ro y
ro ll</w>
relation ships</w>
relat ing</w>
reco rd</w>
re plac
re move</w>
re ly</w>
re located</w>
re ak</w>
quvvas inniq
quvia gijara</w>
quti ttinnit</w>
qula ani</w>
quj ara</w>
quali fied</w>
qu q</w>
qu o</w>
qiniq ti
qimirruni q</w>
qimirruj auningit</w>
qikiqtar juaq</w>
qikiqtaalung mut</w>
qik akainn
qaujis arniq
qaujis aqtauni
qaujiman irij
qaujimajuinnau gatta</w>
qaujima titsi
qaujima quv
qaujima qu
qaujima lu
qaujima llar
qaujikkaqtauj jutiginiaqpara</w>
qau gavit</w>
qatsi ummangaata</w>
qatsi ugaj
qatannguti giit</w>
qanu ittunit</w>
qanu itt
qanu ippalli
qanu iksan
qanu ig
qani gija
qan aij
qaiq ullugu</w>
q u</w>
q aq
q alun
q aksi
q aki
qaki manasu
q a</w>
pursu ing</w>
puriimmi amut</w>
pu gu</w>
provi ders</w>
pro tocol</w>
pro active</w>
priv il
privil e
practi ces</w>
practi ce</w>
pr or
popul ations</w>
poin ted</w>
po st-
piusi rij
piula amik</w>
piuju mmari
pitaq arni
pita lity</w>
pisima tti
piraj ak
pir ur
piqujivungaaruti mut</w>
piqujivung arutiit</w>
piqujavunga arut</w>
piqujavumar u</w>
piqujav uma
piquj aksa
pinngu arvik</w>
pingasuuj uqtut</w>
pingasun u</w>
pinga tti
pinasuarusi ik</w>
pinasuaru sirmi</w>
pinasu k
pilirivi limaamut</w>
piliriqatigi it
piliriqati gitti
pilirip viit</w>
pilirij iq
piliriat saq
piliriat sait</w>
piliriassa i</w>
pilirias sait</w>
piliri valli
piliri juma
piliri avut</w>
piliri amut</w>
piliri aksa
pil aur
pijunn atitt
pijjutiq aqtumik</w>
pijju si
pijitsir uti
pijariiq tau
pijariatu ju
pijari iqsi
pij ik
pijik ata
pigiaruti i</w>
pigiaqti tausimajuq</w>
pigiaqti tau
pigiali rata
pi tuinn
pi s
person nel</w>
perfor mance</w>
per s</w>
per mi
pay roll</w>
parnatau majut</w>
parna simaj
parn ag
pair ivi
paippa at</w>
pa r</w>
pa akkut</w>
p utit</w>
p aq
p an
p alla
out standing</w>
our ing</w>
orien ted</w>
ori es</w>
organi zed</w>
ong st</w>
on to</w>
off set</w>
occ ur</w>
o o
o ath</w>
nuta ap</w>
nuta anut</w>
nunavut miut</w>
nunavu mmu</w>
nunavu mik</w>
nunatti aq</w>
nunatsi aq</w>
nunassi armi</w>
nunali up</w>
nunal inginni</w>
nun gutiq
nun amit</w>
nun akinniq
nukti r
nui titti
north west
niur rutiq
niru aqtaun
niriugij aq
ngu mmata</w>
ngu liqpat</w>
ng innik</w>
new ly</w>
negoti ated</w>
nauja ani</w>
nan ij
namminiq utigij
namma s
nami tuinnaq</w>
nam unng
nam u
nam ed</w>
nalunairsi git</w>
nalunairi akkannir
nalunair uma
naluna itti
naluna ikku
nalu junga</w>
nak si
naamma tsi
naamma gij
naalauti kkut</w>
muunga jut</w>
muunga junik</w>
mul ti
mu ur
mu ung
mozos 60/005</w>
mozos 3
mozos3 =
mozos3= 1
mozos3=1 z8a6g5</w>
mon thly</w>
mmi gama</w>
mmari alu
ministarij aujuq</w>
minista unirnut</w>
minista u</w>
min ster</w>
min amik</w>
mij akka</w>
mid- year</w>
mi& ta</w>
mi ikkatta</w>
mes sage</w>
mechanis m</w>
mechani c</w>
mat na</w>
mar k</w>
mangn gi
manag ed</w>
man ut</w>
man inganik</w>
man age</w>
maligaliuqti ulluta</w>
maligaliuqti ujumut</w>
maligaliuq t
malig aujuq</w>
malig arnut</w>
malig armi</w>
malig anginnit</w>
makpi gaq</w>
makita junn
makimajjutituq armik</w>
maannauju mi</w>
maannama akkut</w>
ma i
ma git</w>
ma an
m ulluunniit</w>
lu tta
lo west</w>
lo ts</w>
lo ss</w>
lo ria</w>
lo b
llu ti</w>
ll unilu</w>
liriniq tigut</w>
lirini ujumi</w>
liriji mut</w>
liriji mmari
lir luni</w>
liq tuni</w>
liq tavut</w>
liq pata</w>
lima ani</w>
licen sing</w>
li uqtiit</w>
li qullugu</w>
li k
li ghts</w>
li ability</w>
li a</w>
le y</w>
law yer</w>
laur it</w>
lauq tugut</w>
la is
l unilu</w>
l innik</w>
l eng
l as
kk unni</w>
kk ullu</w>
kk an
kivallir mi
kiujunn aqtuq</w>
kiuj auj
kir t</w>
king ngu
killi sini
kikku limaat</w>
kiinaujj as
kiinaujaqturuti ksaup</w>
kigga tu
ki uti
katujjiq atiq
katiq atigi
katimavi mmi</w>
katimatuinn aqtillugit</w>
katimani ujuq</w>
katimajiralaangukainn aqtunut</w>
katimajirala anik</w>
katimajir juat</w>
katimajir al
katimaji ujut</w>
katimaji i</w>
katimaj i</w>
kangiq& inirmut</w>
kangiq& inir
kamagijaun ir
kamagijarial inni</w>
kama ju
kama ginasu
kajutti ti
kajusi la
k tut</w>
k ki
k angi
junnaq ulluta</w>
jud ges</w>
ju ugaluaq</w>
ju tau
ju man
jjuti gi
jariaq aratta</w>
j uni
j irala
j ir
iv att
iv a</w>
it tigut</w>
it sivau
it siv
isumatsaq siur
isumaq sur
isumagi lugu</w>
isumaalun aqtu
is t</w>
is siva
ir nir
iqsau qullugit</w>
iqqaqtu iv
iqqanaijarti it</w>
iqqanaijaqtu lirijikkut</w>
iqqanaijaqtita aqpalli
iqqanaijaqti lima
iqqanaijaqt inginnut</w>
iqqanaija ari
iqqanaija aq</w>
iqqanaija anut</w>
iqqanaija anit</w>
iqqanaija aksait</w>
iqqan a
iqarri alu</w>
iq ullugu</w>
iq atiq
ipp ut</w>
inuun asunni
inutuq avut</w>
inuliriji illu</w>
inu ktu
inu illu</w>
inu giaq
inter ests</w>
inten ded</w>
inni aqtut</w>
innatuq arnik</w>
innatuq alir
inn ingit</w>
inn arni
inn ari
iniq si
iniar akku</w>
ingn ga</w>
ing iniq
indi an</w>
in stru
in stances</w>
in spe
in quir
in ju
in git
imp acts</w>
imi al
im mangaaq</w>
im ma</w>
ilu ta</w>
ilu li
illuli mmu
illu tigu</w>
illu mu
illu lirijikkut</w>
illu kiks
ilis ari
iliq tugut</w>
ilinniarvi ujuni</w>
ilinniarv ik
ilinniartu lirijirju
ilinniar atsanik</w>
ilinniaqti tti
ilinniaqti t</w>
ilinni avit
ilinni aru
ilinni aqt
ilauq tavut</w>
ilauq puq</w>
ilaakk uungaju
ila aqta
il ini
il es</w>
il auj
ikupirvi lirijikkunnut</w>
ikupiktu lirinirmik</w>
ikummaqquti lirijikkunnut</w>
iku piqtu
iksiv ap
ikkarrialu up</w>
ikarra annik</w>
ikajuutauj unullu</w>
ikaju utinit</w>
ikaju uta
ikaju riaq
ik ar
iglu liuq
iglu lirinirmuunga
identi fying</w>
i simaj
i san</w>
hos pitality</w>
ho c
hoc key</w>
headquar ter</w>
he ating</w>
he art</w>
ha mal
h ton</w>
h ill</w>
h ance</w>
h ammal
gunn aqtut</w>
gui de</w>
gran ular</w>
git sugit</w>
gini aqpavut</w>
gij aq
gial innik</w>
gi vunga</w>
gi jumik</w>
gi akkannirunn
gi 5</w>
ge o
ge ment</w>
gavamar alaaq
gavamakkung anni</w>
gasu annirmut</w>
galu arama</w>
gaangi uti
ga in</w>
g utinik</w>
g unnaqsi
g ula
g loria</w>
g ju
g ir
g iqqa
g ingngi
finan cially</w>
fi x</w>
fe els</w>
fe asi
f ting</w>
f s</w>
extra cted</w>
exten ded</w>
expen ded</w>
exp an
excell ent</w>
ex tent</w>
ex pir
ex ist</w>
escor ts</w>
eri can</w>
environ mental</w>
enti re</w>
en jo
en hance</w>
en ess</w>
en e</w>
en ding</w>
en able</w>
empha size</w>
e e</w>
dra w</w>
documen tation</w>
do wns</w>
dist in
disa bled</w>
dis rup
develop ments</w>
deter mining</w>
dem and</w>
defini tion</w>
de e
d ying</w>
d est</w>
d an
cul tur
cre te</w>
counc ill
cor oner</w>
conta ct</w>
constitu encies</w>
con crete</w>
co-ordin ate</w>
co ff
clari fied</w>
clar ity</w>
cho ices</w>
child hood</w>
che ck</w>
char ts</w>
char ge</w>
chair s</w>
celebr ate</w>
c wd/symj5</w>
broug hton</w>
brief ing</w>
bor ro
bo ttom</w>
bills 19</w>
beauti ful</w>
be low</w>
be gan</w>
av ullu</w>
auq atau
aun inganik</w>
aulaur mata</w>
aulatt inirmullu</w>
aulanir ij
aulainnatitsi gutitsait</w>
aul ausi
auj uq
au vut</w>
au su
au lu
au liqtuq</w>
atur unniir
atuqtuk sanut</w>
atuqtu arutinit</w>
atuqtu aruti
atuqtu arnirmut</w>
atuq tauniaqtut</w>
atuq attaq
atuliq titau
atuinn auni
atu uti
atti kku</w>
attemp t</w>
atir a</w>
atiliurutau ma
ati tsinirmut</w>
ati rnik</w>
atausi ulinga
ata ttinnit</w>
at- arms</w>
asuungu mmata</w>
asijji i
asi anu
as suming</w>
arvi up</w>
arunnaq ulluta</w>
aru vigit</w>
aru tauju
aru mang
arraaguula aqtumut</w>
arraagu ttinnut</w>
arnit innut</w>
arnir mit</w>
arniq sauni
arniar akkit</w>
arni arasu
arn ik
arn au
armi unut</w>
armanga akku</w>
arlu talu</w>
arl unilu</w>
arij auni
ariaqarni aqtut</w>
ariaqarni aqtugut</w>
arial innut</w>
ari ar
ar uv
ar ru
ar reak</w>
ar aviuk</w>
ar attigut</w>
aqtung alu</w>
aqtu tigut</w>
aqtitti junn
aqtitti ji
aqtau valli
aqtau ju
aqta ullutik</w>
aqta minik</w>
aqt anginnut</w>
aqsu ta</w>
aqqi simajuq</w>
aqqau juq</w>
aqq aun
aqq auj
aqpi taa</w>
aqatta langa
aq ugut</w>
aq simajunut</w>
aq ita</w>
apologi es</w>
apirij unga</w>
apiri jumavunga</w>
apiri jumajakka</w>
apiquti ga</w>
apiqsuqtau vimmu
apiqqutiq arama</w>
apiqqutigij ait</w>
apiqquti ik</w>
apiqqusi rnut</w>
apiqqu tii</w>
apiqqu taujuq</w>
ap ali
any way</w>
anniasi uq
anniaqarnangitu lirinirmu</w>
anni a</w>
anngit tugut</w>
ann illu</w>
ann ikittu
ann gittumik</w>
anir nit</w>
anir mullu</w>
anir millu</w>
aniq sa
anik tuq</w>
aniaq ugut</w>
ani vut</w>
ani arngata</w>
ani armangaata</w>
ani aqput</w>
angu gaj
angir uta
angir nirmut</w>
angiqti taunirmit</w>
angiqpi siuk</w>
angiqatigii gut</w>
angiqati git</w>
angijuqqa arju
angijuqqa aq
angi tigut</w>
angi mman</w>
angajuqqa aq</w>
anga tigut</w>
anga gut</w>
ang ulauqtuq</w>
ang uj
ang mat</w>
ang inir
ang ali</w>
an yone</w>
an tly</w>
an ittinnit</w>
an auta
ammar inni
amisu unirij
amisu uni
ami arik
ambul ance</w>
am ullu</w>
am ongst</w>
am mangaaq</w>
am inut</w>
am erican</w>
alu ti</w>
allaij ut</w>
all unga</w>
all atti
alirijikk unnut</w>
alir mi
alir lutik</w>
alir ama</w>
aliq tunga</w>
aliq pat</w>
alima aq</w>
alianai gusu
alaurn inginnut</w>
alaurn gata</w>
alauq simajut</w>
alaunngi tillugu</w>
ala unngittuq</w>
al ties</w>
al ang
aksaq taq
akkannir aj
akituju utiit</w>
aki aq</w>
akaniq in</w>
akail liur
ak uni</w>
ak tuq</w>
ak au
ajur unniiq
ajuqs arunniiq
ajji li
air lines</w>
aglav ingmut</w>
agla an</w>
afford able</w>
ad m</w>
achie ving</w>
ach ing</w>
accoun ting</w>
aboli shing</w>
ab i
aaqqit si
aaqqigiar lugu</w>
aanniqtu lirinirmut</w>
aanniaqtu liri
aanni aqarn
aa h
a taujariaq
a illu</w>
a arju
>> short</w>
>> maligaliuqtiit</w>
>> igl
9- mi</w>
9 4</w>
9 3</w>
8 25</w>
8 1</w>
7 69</w>
7 0-
6 1</w>
51 %</w>
5 6</w>
5 0-
4 1</w>
33 7</w>
29 th</w>
2 0-
1998 -mi</w>
16 4</w>
10 4</w>
1 4-
1 10</w>
000- nik</w>
00 muaqtillugu</w>
00 muaqpat</w>
0 1-1</w>
$ 63</w>
$ 60</w>
$ 6
$ 200</w>
$ 2
y ers</w>
x -
wor th</w>
who m</w>
who ever</w>
w are
w age</w>
vv iq
volunte er</w>
visi ons</w>
ving mi
ving anni</w>
vi mmik</w>
verb al</w>
va k</w>
va gi
va ati</w>
v inni</w>
v inir
v ini
v iksaq
v ative</w>
v aktu
uvu gut</w>
uvatt innu
uva aluunniit</w>
uv inir
uv attut</w>
uv attu
uv attinni</w>
uv aluunniit</w>
uummaquti lirinirmut</w>
uumaju rni
uu maj
utu pirimi</w>
utti uk</w>
utiqaqp allutik</w>
utin gillu</w>
utigij avut</w>
uti gu
uti es</w>
utaqqi tuinn
utaqq ij
uta aq</w>
ut si</w>
urn inga</w>
ur mata</w>
uqumaittu rni
uqsuqtu urmi
uqsuqtu ur
uqsualu mmut</w>
uqsa titsi
uqautijunn aqp
uqautigumaj akka</w>
uqausirij avut</w>
uqausiri sa
uqausir iq
uqausiq arni
uqausiq aqtunga</w>
uqausiks akka</w>
uqausi tuinnau
uqausi lu
uqaus inginni</w>
uqaujj aulaur
uqau sin
uqaqsima vuq</w>
uqaqau gama</w>
uqaqatigi igu
uqaq puq</w>
uqalimaari ur
uqalimaaqtauj unnaqsi
uq tinut</w>
uq sau
uq qi
uq atsi
uq ati</w>
uq arviq
uq aqtunga</w>
uq akkann
uppir us
upi gu
upi gitti
up inn
unnir mik</w>
unni ik</w>
unn ala
unikka anik</w>
unikka amik</w>
uni armata</w>
uni armat</w>
uni aqtillugit</w>
ungata anu
ungasiktu mut</w>
unga taanut</w>
ung mik</w>
und aries</w>
un uqtunik</w>
un uk</w>
un auvuq</w>
ullumi ujuq</w>
ullu talu</w>
ullu it</w>
uliq tu
ul uri
ukun anngat</w>
uki ut</w>
uju tigut</w>
ujararni anirmut</w>
ujar angni
uj ju
uj ara</w>
ugli vingmut</w>
ugaj aqtuq</w>
uatti aq</w>
u tar
u sin
u mmi
u ini
u ati
tw el
twel ve</w>
tusaqti ttunn
tusaqti gunn
tusaq tauti
tusaq atta
tusaaji it</w>
tus arutinut</w>
turam pa</w>
turaakauti gijumik</w>
tunngavikk unnit</w>
tunirruti tsaillu</w>
tunij aujuni</w>
tunga anut</w>
tung alu</w>
tun nel</w>
tun ini
tun gasu
tukisititau gi
tukisij akkut</w>
tukisigiarv itsait</w>
tukisi junga</w>
tukimuatti tsi
tukimu ak
tuinn arata
tuga ap
tuavirnaqtuliri utiq
tu tillu</w>
tu ally</w>
tti aqtunga</w>
tta u</w>
tsi aq
ts innut</w>
ts ani</w>
tr a</w>
tou ch</w>
total s</w>
titti ji
titiqq aq
titiq qa
tisa mat</w>
timmijuuqsi ummik</w>
timi ujumit</w>
tili urij
tikkuaq siniq</w>
ti c</w>
th r
tex t</w>
ter ed</w>
teen ak</w>
tauvak tuq</w>
tauvak tunik</w>
tauv ammata</w>
tautug aq
tausan taal
tauq si
tauni arlutik</w>
taujunn armangaata</w>
tauj unillu</w>
tauj ju
tau yok</w>
tau sanit</w>
tas ks</w>
tas ked</w>
tar ni
tar gets</w>
taqqi uniaqtuni</w>
taqq inut</w>
taq alaurmat</w>
tamakkun ani</w>
tamakku alimaat</w>
tamak ununga</w>
tama unga</w>
talli mmiq</w>
talli mat</w>
tali manut</w>
takumin aqtu
taku guma
taimannail inga
taimaitu mit</w>
taima qai</w>
taima iq
taima inn
taima il
taik unga</w>
taann ali</w>
taakku anguvut</w>
ta unngi
ta unn
ta ullunilu</w>
ta ttauq</w>
ta q</w>
ta mp
tamp san</w>
ta luunniit</w>
ta an
t rib
t inginnit</w>
t ingi</w>
t anut</w>
t ant</w>
t ann
t anginnik</w>
t anganut</w>
t anganik</w>
surn ame</w>
super inten
superinten dent</w>
sullu lik</w>
suliri amut</w>
sukk ali
sugges tion</w>
succ e
succe ed</w>
subsi di
su u</w>
su mmari
su g
stru gg
stri p</w>
sto ve</w>
sto red</w>
stan ts</w>
sta ble</w>
st ory</w>
st ories</w>
st en
specific ations</w>
spe lled</w>
soli c
snowmob iles</w>
slo tted</w>
ski do
six teen</w>
sivunitti atinni</w>
sivuniksa tinni</w>
sivumu arniq
sita mmi
sisi miut</w>
siq ing
sin i</w>
sin asu
simann git
simani vut</w>
siman ingi</w>
siman inganut</w>
siman inganik</w>
siman gittuq</w>
siman gimmata</w>
simali rn
simaj ariaq
sima vavut</w>
sima vara</w>
sima vakka</w>
sima va</w>
sima mmanga
sima luni</w>
sima llugu</w>
sima la
silattus arvik</w>
silattuqs arvimmi</w>
silattuqs arv
silata anik</w>
sikitu ut</w>
sijj asuk
signific antly</w>
si ura
si tive</w>
si ksi
siksi an</w>
serv ants</w>
serge an
sen sitive</w>
see teenak</w>
seal skin</w>
seal ing</w>
se cur
scal e</w>
sauju mut</w>
satis fied</w>
saqqitta it</w>
saqqi tauni
saqq iqta
sanngi jumik</w>
saniraj armi</w>
sanaj aksa
san anirmut</w>
salu ma
saamu aqtaujuq</w>
sa taq
sa jitigut</w>
sa ami</w>
sa alauq
s ni</w>
s aujut</w>
s aujunut</w>
ru sirmi</w>
ru k</w>
roy alties</w>
ro utes</w>
rij ait</w>
riali it</w>
revi sed</w>
respe cted</w>
represen tation</w>
repatri ate</w>
remain ing</w>
regist ries</w>
recru it</w>
reas on
re tro
re tained</w>
re solved</w>
re new
re lev
re la
re be
rebe cc
rebecc a</w>
re ached</w>
rais ing</w>
raam stan</w>
r un
r in
quviasu ktunga</w>
quti kka</w>
qull uqtu
quki utinu
qujann ami</w>
qujagij aq
quali ties</w>
qu pir
qitiqqu u</w>
qimirr uqullugit</w>
qilami ujunn
qil ammi
qikiqtaalung miut</w>
qikiqtaalu mmi
qikiq taq
qaujis ariaq
qaujimani tu
qaujiman iq
qaujiman gi
qaujimaju mmari
qaujimaj anginnit</w>
qaujima mmari
qauji titti
qauji mang
qattiinn aru
qaritauj ait</w>
qanuqtu urunn
qanuittu mik</w>
qanuinni ujuq</w>
qanu ittut</w>
qanu ittuni</w>
qangatuinn akkut</w>
qangatajuu liri
qanga tuinnaq</w>
qanga ta</w>
qan it</w>
qan gaj
qalluna anut</w>
qa itsi
q unga
q ti
q attariaq
q ata</w>
puriimmiangul aukaktuq</w>
puig uq
pu uta
pu san</w>
pu ij
promi sed</w>
projec ted</w>
professi onal</w>
pro spects</w>
presen tations</w>
premi ums</w>
pra c
prac titi
ppo in
po the
pla ys</w>
piviq arn
pivalliatitti lutik</w>
pivallianginnarunn aqtu
pivalliaj au
piva allir
piv itsaq
piv iksa
piusiva alli
piusi tuq
piuniq sau
pitaqarunniiq titauninginnut</w>
pitaqaqtiti junn
pis nas
piruqpalli ajju
piruqpalli aj
piri p</w>
pir lu
piquti lirijikkut</w>
piqujivungaarutitaq aqtuq</w>
piqujivungaaru mmut</w>
piqujivunga aqtuq
piquji vu
piqujali ur
piquj aksanik</w>
piqasiuti vut</w>
piqasiuti lugit</w>
piqasi ujji
piq utigij
pinngu arv
pinngu arlugu</w>
pingaju ksa
pinasuarusi up</w>
pin asunni
pin as
pilirivi ujunut</w>
piliriv viit</w>
piliriv ingit</w>
piliriqatigi it</w>
piliriq atta
pilirijiquti tit</w>
pilirij ikka</w>
piliriarini aqpavut</w>
piliri ju
piliri angujuq</w>
piliri anginnut</w>
piliri aksait</w>
pilir in
pil es</w>
pikku gi
pijunn atsi
pijjutiq aqtunga</w>
pijjuti liit</w>
pijittirau tinullu</w>
pijittirau tinginnullu</w>
pijitsiq tiit</w>
pijariir uma
pijariiq sima
pij jutinga</w>
pij a
pigiaqti tak
pigiaqti jumaj
pigiali sa
pi utti
pi unir
pi simang
pi simajut</w>
pi mmar
pi ml
pi liq
pi gumaj
photograph s</w>
pha sing</w>
pha se</w>
per form</w>
pe ace</w>
particip ants</w>
parnauti t</w>
parnau tik</w>
parna ani</w>
panniqtu umi</w>
pang mata</w>
pairivi it</w>
pack age</w>
p u</w>
p sy
p illatta
p illari
p hon
p atik</w>
over view</w>
over looked</w>
os cience</w>
offici ally</w>
objec tives</w>
ob serv
o vative</w>
o h</w>
o h
oh sni</w>
nuttiq tau
nutara a</w>
nuqqanga akainn
nunavumi uta
nunavumi unik</w>
nunavu limaamut</w>
nunav v
nunaqaqqa aqsimajut</w>
nunam inni</w>
nunali ujuq</w>
nunali li
nunali gij
nun aup</w>
nun anngu
nun anganni</w>
nun amut</w>
nu mer
numer ous</w>
nor therners</w>
nomin ations</w>
niruaqti gisimaj
niqi ta
ninni ur
ning iq
ni giit</w>
ne igh
nati rmi
nanisiv ik</w>
namminirij aujut</w>
namminiq arnir
nam ut</w>
nam ung
nalunaiq tausima
nalliukkuma aqta
nalira aruti
nalauksa aqtau
nal unngilanga</w>
nakk ajja
nak s
nak it</w>
nak inga
naina aq
naamman a
naamma gijau
n wmb</w>
n uv
n or</w>
n app
n ajuq
mu uqtillugu</w>
mo der
mmi mmata</w>
mmari uvuq</w>
mis sing</w>
minisitarij aujuup</w>
minisitarij aujuit</w>
min ingit</w>
min illu</w>
mili ani</w>
mij u</w>
mij avut</w>
mig ta</w>
mi v
mi tted</w>
mi tta
mi ss</w>
mi si
mi mmat</w>
mi ip
metho d</w>
memoran du
memorandu m</w>
matuiruti mut</w>
matuiruti giqqauj
matuir utiq
matuiqsi qullugu</w>
materi al</w>
mar ked</w>
mappi ti
manir minik</w>
manir mi</w>
manag er</w>
maligaliuqti ujunut</w>
maligaliuqti mik</w>
maligaliuqti lu</w>
malig lugit</w>
mali pali
mali gial
makkuttu it</w>
makkuktu qutivut</w>
makku tunit</w>
makk uqtunit</w>
makiumainn aruti
mak uninga</w>
ma tive</w>
ma ija
ma ce</w>
ma at
ma ak</w>
m minit</w>
luukta aq</w>
lu tigu</w>
lo se</w>
lo cate</w>
lirijikk unullu</w>
lirijikk u</w>
lir n
lir lutik</w>
lir a</w>
lima allu</w>
li ke
li br
libr ary</w>
leng thy</w>
le ases</w>
law yers</w>
laurn gan</w>
lauq tunga</w>
kuapuriis akkunnit</w>
ku ut</w>
ks angit</w>
kku ma</w>
kkann ila
kkalu armangaata</w>
kk uni</w>
kivallir miut</w>
kiujjuti q
kiujju ti</w>
kiuj auningit</w>
kiugunn aqtut</w>
kisu tuinnait</w>
kis ut</w>
kinguv ariaq
king ulir
kil o
kikku limaanut</w>
kiinaujj atsa
kiinaujaqtuuti ksat</w>
kiinaujaqturutiksa mut</w>
kiinaujaqturutiksa mik</w>
kiinaujaqturuti ksait</w>
kiinaujali uruti
kiggaqtu iji
ki uqqau
ki mir
katiq sui
katiq su
katimaq ata
katimani up</w>
katimajirala aq
katimajirala anu
katimaji ujunit</w>
kas uqsima
kangir& inirmi</w>
kangiq& inirmi
kanata miut</w>
kan ann
kamisin aup</w>
kamagijaq aqput</w>
kamagij aujariaq
kamagij as
kama gin
kam anasu
kajusi gunn
kajung ir
kaju sivalli
kaanturaak tauma
kaantura at</w>
k uluk</w>
k ua</w>
jut sanut</w>
jut inginnut</w>
jut inganik</w>
jumang mijara</w>
juma llugu</w>
juma aqtuq</w>
ju umi</w>
ju min
ju mann
ju maliq
ji itigut</w>
jariaq aqpugut</w>
jai l</w>
ja ils</w>
ja i</w>
j a</w>
iv ikkun</w>
iv ak
itu aju
ittu gut</w>
ittarnis aq
ittanis aujunit</w>
it tutsaugalu
isumaqsaqsiur utiqaqpallutik</w>
isumaqsa siurniq</w>
isumaq suq
isumaq qaugama</w>
isumanammari ttuni</w>
isumagij auq
isumagij ariaq
isumagij angit</w>
isumaalu gu
isuli ppuq</w>
issu ed</w>
issivau taup</w>
is ol
is innik</w>
iqqau mmat</w>
iqqaqtu i
iqqanaijaq tinu</w>
iqqanaija anik</w>
iqqanaij arv
iqq ai</w>
iqaluliri vik</w>
iqaluktu utti
iqaluktu utsi
iqal unnit</w>
iq uli
iq atau
ip ru
invol ving</w>
inven tory</w>
inutti tuuliq
inugi atigu
inu mmari
inu lirijikkullu</w>
innatuq annut</w>
inn ovative</w>
inn ingani</w>
inn aqutivut</w>
inn agit</w>
inju red</w>
iniq ti
iniar utta</w>
iniaqt anginni</w>
ini gij
ingn it</w>
ingirr av
ingirr atsi
ingi k</w>
in unn
in struc
in ittinni</w>
in inga</w>
in ak</w>
imann ali</w>
imann ail
ima ittutsaugalu
ima ili
im pres
iluunn ata</w>
illuli mmi</w>
illu rusi
illu kiaq</w>
ilits innik</w>
ilitari jumaj
ilinniatitsi jiit</w>
ilinniaqtulirijimmari it</w>
ilinni arni</w>
ilinni aqtut</w>
ilinni aqtau
ilinni aqsima
ilinga jut</w>
ili sar
ilauq ata
ilann arij
ilagij auti
ilaakkuunga jun
il ag
ikummaqquti q
iku mut</w>
iku mma
iks angit</w>
iks anganut</w>
ikk anniq
ikarra it</w>
ikajuu tauvaktut</w>
ikajuqti q
ikajuq paktut</w>
ikaju utau
ikaju si
ikaju ruma
ik tut</w>
ik i
iglu ta
iglu lirinir
i ul</w>
i uk</w>
i iq
i ipru
i ilaa</w>
i aluk</w>
hy pothe
ho pes</w>
histori cal</w>
histori c</w>
harv est</w>
har d
haam lait</w>
h at
gumaj avut</w>
gu utsi
gu aran
great ly</w>
gre w</w>
grati tude</w>
gr ate
grate ful</w>
gini aqtara</w>
gini aqpara</w>
gini aq
gin akku</w>
gillu tigu</w>
gillarik tara</w>
gilauq tara</w>
gijau tti
gij unnaq
gij ju
gij anik</w>
giali vut</w>
gi simajavut</w>
gi ft</w>
gi angng
ge oscience</w>
gavamakkung innik</w>
gavamakk u</w>
gavama ttinni</w>
gavama tigut</w>
gavama ta
gavam angani</w>
gav ama</w>
gau thier</w>
gar b
garb age</w>
galu at</w>
galu armangaata</w>
gaj aqtara</w>
gaakkanni agut</w>
ga viuk</w>
ga me</w>
ga arju
g uttigu</w>
g ul
g ga
g aksa
fur s</w>
fri end
friend ly</w>
fran kly</w>
fit ting</w>
fer ring</w>
feder ation</w>
feasi bility</w>
fe el
fami li
fac es</w>
f le
f all
fall s</w>
experien cing</w>
exam ining</w>
ex tra</w>
even tually</w>
ev a</w>
equi table</w>
epidemi ologi
enti tled</w>
empha si
emb arra
eli min
el a
ela ine</w>
educ ating</w>
e yes</w>
e ating</w>
e arn
e a
dra wn</w>
do g</w>
disa ppoin
dis solved</w>
di versity</w>
deser ve</w>
des cri
depen ding</w>
de man
de ad
d lo
custo ms</w>
cultur ally</w>
correc tly</w>
continu ed</w>
contain ed</w>
conne cted</w>
confi dence</w>
conc ise</w>
con sumption</w>
con structing</w>
con dition</w>
con cen
concen tr
comple ment</w>
comp la
comm on</w>
com memor
coff ee</w>
co-ordin ating</w>
co-oper ative</w>
co rn
clo sed</w>
cli ents</w>
cle an
circum polar</w>
challeng ed</w>
ch ann
certi fication</w>
cen sus</w>
care ful</w>
canc ers</w>
c ity</w>
c ause</w>
c ash</w>
c ade
cade t</w>
c a
bus y</w>
burn er</w>
bure au</w>
bo undaries</w>
blu e
bin ders</w>
bin der</w>
belie fs</w>
barri ers</w>
b lo
awar eness</w>
avati lirinirmut</w>
av vi
av igit</w>
auti gij
auti gi
aur mata</w>
aulan ingit</w>
aul unga</w>
aul atitti
auju llu</w>
auju ksau
atur lugu</w>
atuqtut sama
atuqtau giaq
atuliquj iqullugit</w>
atuinnauti tti
atuinnar uqti
atuinn aujuni</w>
atuinn arialik</w>
atuag aup</w>
atuag anginnik</w>
attuq tauniq
atti git</w>
atti aqtuq</w>
attani aqtut</w>
att anginnik</w>
atiliur viu
ati ttini
atausi un
atausi inn
atangir lugu</w>
ata r
ata lu</w>
ata g
ata an
at tra
at ri
at inut</w>
asuungu mmat</w>
asunn inganut</w>
assist ed</w>
assi sting</w>
assi stants</w>
asse t</w>
asijjir ni
asa aq</w>
as sur
arvili jju
arvi ujunn
arvi liq
arunni i
arunnaqsi lauq
arunn angi
aruma viit</w>
arujj aujut</w>
aru kta</w>
arti stic</w>
arti cul
arragu mi</w>
arraagu uni
arraagu uk</w>
arraag up
arraag ujumi</w>
arra agut</w>
arniq pata</w>
arni arnir
arni armijuq</w>
arni aqtumik</w>
arni aqpat</w>
arni aliq
arnak tauyok</w>
arn u</w>
arn ingi</w>
arn ingata</w>
arn ingat</w>
arn iksamik</w>
arn anut</w>
armi mmat</w>
armi gatta</w>
arma gu</w>
arlu gillu</w>
arij aujuq</w>
ariaq arattigu</w>
ari aqtu
ari a</w>
araj armangaaq</w>
ara angata</w>
ar utinik</w>
ar si
ar puq</w>
ar iniq</w>
ar ch
aqtuq taq
aqtung ali</w>
aqtu tigu</w>
aqtitau gama</w>
aqti taulauq
aqtaun inganut</w>
aqta ulauqtuq</w>
aqta tta</w>
aqta tinnik</w>
aqta tinni</w>
aqta rnik</w>
aqt anginni</w>
aqsimang mata</w>
aqsima gatta</w>
aqpu si</w>
aqpalli anirmut</w>
aqp attu
aqp angimmata</w>
aqatigi innirmut</w>
aq taujunit</w>
aq sini
aq ata</w>
aq &utik</w>
appl ying</w>
apir ilaq
apir ila
apiqusi mit</w>
apiqqutitsaq aqtunga</w>
apiqquti kkanniq</w>
apiqquti g
apiqqusi ujuq</w>
apiqqu tinnik</w>
apiqqu tausimavuq</w>
apiqqu s
apiq utiq
apiq utigi
apiq usi</w>
ap u
ap ta</w>
ap put</w>
ap pat</w>
anticip ate</w>
annir ij
anngit tunut</w>
ann uk</w>
ann auma
anir mu</w>
ani ittuq</w>
ani armata</w>
ani aqtuit</w>
ani aqpugut</w>
ani aqarnangittu
angu mmata</w>
angli can</w>
angittu mi</w>
angit tunut</w>
angit tuni</w>
angiruti mik</w>
angirutau rataarnikuunngittut</w>
angiqtaujuma vuq</w>
angiq taunirmut</w>
anginn ir
anginn akku</w>
angi ppata</w>
anga ti
ang ut</w>
ang uq
ang uniaqtut</w>
ang ulluni</w>
ang mar
ang anu</w>
an inganit</w>
amisur uqpalli
amisuk al
amisu ulu
amisu aqti
amisu alu
am mik</w>
am mijut</w>
am mangaatta</w>
am manga
allav v
allau liqtuq</w>
alla it</w>
alir mangaaq</w>
ali ur
alauq sima
ala unngil
ala unginn
aktu mik</w>
aks aujunit</w>
akkannir i
akkanni it</w>
akk unni</w>
akk atta</w>
akitu junit</w>
akiliri aq
akiliqtuq tau
akiliksa illu</w>
akili utauni
akik inniq
akik illigi
akik ila
akaunngiliuru taujuq</w>
akanni it</w>
akail liuru
ak unni
ak ulu
ak tinnut</w>
ak sau
ak is
ak inganik</w>
ak asa
ak ann
ajuq si
ajjigiin gittuit</w>
ajjigii titti
ajji palu
aj unngi
air i
aipp iq
ai puru</w>
aglukk aaq</w>
aglat tii</w>
agguq sima
aggiq tuni</w>
ag alait</w>
affir mative</w>
ade mi
ad ded</w>
accoun ta
accompli shed</w>
accompli sh</w>
ac ks</w>
ac ademi
aaqqit tausima
aaqqigiar inirmik</w>
aanniqtu lirijikkunnut</w>
aanniaqtu lirijiit</w>
aanniaqarnangittu lirijikkunni</w>
aanni avi
aaaaaaaa aaaaaaaa
a th
a taujut</w>
a mat</w>
a gi
a anti
a ann
a agg
>> ill
8 mi</w>
8 71</w>
7- ng
7 9</w>
7 4</w>
7 3</w>
6 mik</w>
5 3
4 %</w>
30 mi</w>
3- mut</w>
3 1
29 0</w>
27 8</w>
2- mit</w>
2 -mi</w>
1999/ 2000mi</w>
19 6
18 8</w>
17 4</w>
13 3</w>
12 5</w>
10 3</w>
1 mik</w>
1 20</w>
1 17</w>
1 00
0 6</w>
0 5</w>
0 4</w>
0 3-1</w>
0 2-1</w>
-- applause</w>
& i
$4 40</w>
$3 6</w>
$3 3</w>
$ 67</w>
$ 100</w>
y uk
yuk on</w>
worksho p</w>
wit nesses</w>
whole 21</w>
we ar</w>
wat t</w>
wat ching</w>
wal king</w>
w inn
vu ari</w>
visnas liit</w>
ving mit</w>
vi ol
ver ty</w>
ver the
verthe less</w>
ver s
valliaga tta</w>
valli aliq
va ju
va an
vaan av
v jit</w>
uvi uk</w>
uv va</w>
uv attunik</w>
uv angali</w>
uv agu</w>
uv ag
uut tur
uunga juq</w>
uumma ti
uumaju lirijirju
uumaju lirijiqju
uu majunut</w>
utiq arni
utili dor</w>
uti tsanik</w>
uti mik</w>
uti j
utau simajut</w>
ut y</w>
ut ti</w>
ut suni</w>
ut inginnillu</w>
ut ing</w>
ut anit</w>
usi q
uras unni
ur atta</w>
uqumaitturni utinik</w>
uqsualu up</w>
uqqu uji
uqqi ta
uqausisa tuinn
uqausis sangit</w>
uqausiriq auj
uqausiri tti
uqausiri jumajara</w>
uqausir ini
uqausiqaruma gama</w>
uqausiq arumajunga</w>
uqausiq armat</w>
uqausiq alauq
uqausilu ataujuit</w>
uqausi uqq
uqausi uningit</w>
uqausi u
uqausi tuinn
uqausi l
uqausi ksaq</w>
uqaus inginnik</w>
uqatta rn
uqarunn armangaaq</w>
uqarunn arama</w>
uqaruma mmijunga</w>
uqar lunga</w>
uqaqti mik</w>
uqaqau mman</w>
uqaq ullugu</w>
uqaq titti
uqaq tiit</w>
uqaq qa
uqall aqati
uqalimaariur sanirmut</w>
uqalima arviit</w>
uqalima aqtauq
uqakkannirunn aruviuk</w>
uq qanaij
uq ju
uq atiq
uq aqtuni</w>
uq akainn
uq ak
upp at</w>
upigus unniq</w>
upigi mmari
upak simajut</w>
up valu</w>
up li
unnir minut</w>
unngit tunit</w>
unnginir ni</w>
unngi si
unnaq an</w>
unn gittunga</w>
unikka ami</w>
unikka alauk
uni q</w>
uni armangaata</w>
uni armangaaq</w>
uni aqtara</w>
ungn gittut</w>
unginn ingani</w>
ungi mman</w>
ungasi ttumi</w>
unga t</w>
ung mut</w>
ung mangaata</w>
ung ma
ung innit</w>
un uqti
un uqsi
un inginnik</w>
un dance</w>
un ali
uma ju
ulu aq</w>
ulluru mi
ullu unnik</w>
ull ungani</w>
ulauq simajuq</w>
ul ajuk</w>
ukiuqtaqtu up</w>
ukiuqtaqtu mi
uki uk
uju i</w>
ujj iq
ujararni arvi
ujaraqsiur nirmik</w>
uj aq
ugalu aqpat</w>
uattiaru kkanniq</w>
u tuq
u tauniq
u taujunit</w>
u piq
u mik</w>
u mani
u igu
u i
u gu
u ff
tuttar vini</w>
tusauma ti
tusau ti
tusaqtitti junn
tusagaksa tuinnait</w>
tusag aksait</w>
tusaajiq arniq</w>
tusaaj ikut</w>
turn ed</w>
turaaqt ini
turaag arinasu
tura ar
tura aqtitau
tura aqtar
tunnirij auni
tunngasutti tti
tunngasutti arit
tunngasukti tau
tunnga vigij
tunijauni aqtut</w>
tunij unn
tuni siv
tungn gi
tungili anut</w>
tungi lirij
tun gaj
tuksirautiliuquj iniq</w>
tuksirauti q
tuksi ra
tukita aruti
tukisikkaniruti ksanit</w>
tukisigiaruti tuinnaq</w>
tukisigiar utini</w>
tukisianiq aqpunga</w>
tukisi tigi
tukisi liq
tukisi atti
tuinna unngittuq</w>
tuinn aqtuq</w>
tuinn anga</w>
tuinn a</w>
tuavirnaqtu lirinirmut</w>
tu lat
tu king
tu jiitigut</w>
ttu ti</w>
tt inni
tsu tillu</w>
tsu tigu</w>
tra ditionally</w>
tittini it</w>
titti juq</w>
titiq ait</w>
titi ri
tisa manik</w>
timigij atta</w>
time table</w>
tillu gik</w>
tiliuri vingmut</w>
tiliur utiq
tilisi jjuti
tilij aujuq</w>
tili sini
til lutit</w>
tikku aqtauj
tikir arju
tiki sai
tik ittunn
ti tus</w>
ti tauni
ti t
ti ma
ti cally</w>
thirty- two</w>
ther wise</w>
tern s</w>
ter is
teris tics</w>
ten der</w>
techno logi
te sted</w>
tav va
tav ani
tauv ann
tauq qaujuq</w>
taunir mik</w>
tauni aqtunit</w>
tauni aqtuni</w>
taun ingita</w>
taun iksanginnut</w>
taulu ti</w>
tauju tsat</w>
tauju tsanik</w>
tauju majunga</w>
tau tin
tau simaju</w>
tar get</w>
taqqa ani</w>
taqq inik</w>
taq qut</w>
tan ts</w>
tan ks</w>
tamas suminga</w>
tamann attauq</w>
tamann ali</w>
tal lirmi
takus sautitti
takus sau
takunn aqtugu</w>
takujagaq arvi
takugi akkanirni
taku giarni
taku gasu
taki ju
tak utitti
tak ulaur
taisumanituq aq</w>
taimanna ittut</w>
taimanna ittuq
taimanna ittumik</w>
taimanna ikkaluaqtillugu</w>
taimann au
taimaipp at</w>
taimai tunit</w>
taima ini
taima imma</w>
taima ig
taikk uninga</w>
tai tas</w>
tag v
taak ua</w>
ta ttinnit</w>
ta ttinnik</w>
ta si</w>
ta ppa
ta piri
ta innar
ta anu
taanu l</w>
t- at-arms</w>
t tar
t our</w>
t ing
suung ullutik</w>
surusiq tauti
surusi rni</w>
suqqui maniq
suqqui maj
supp li
sump tions</w>
sum innga</w>
sull ul
sulirivi ujuq</w>
sui ji
suff ici
sub division</w>
su k
su e</w>
stres sed</w>
streng ths</w>
stream line</w>
sti cally</w>
sten tions</w>
stati sti
sta ke
stake hol
stakehol ders</w>
st ress</w>
st ration</w>
spon so
sponso red</w>
some what</w>
slee p</w>
six ty</w>
sivunir iniaqtatinni</w>
sivunir ilauqtatinni</w>
sivun itsa
sivun ik
sivulliuti j
sivulli uj
sivuliuqti it</w>
sivuli uri
siti piri</w>
sir inirmut</w>
siqinnguj armik</w>
siq tigut</w>
siq attaq
sin itti
simann gimmata</w>
simann gimmat</w>
simann gilat</w>
siman irnut</w>
siman inginni</w>
simaliq tuni</w>
simaliq tavut</w>
sima mmari
sima mmangaata</w>
sima llutit</w>
sima gi
sila taanut</w>
sij auta
si utinit</w>
si uq
si tama
si lak
si k
si junn
si gn</w>
sho ws</w>
sh uff
seri es</w>
sear ching</w>
se ll</w>
se a</w>
scho ol
sauq atta
saqqija aqtitti
saqq iqti
saqq ila
sanikilu armut</w>
sananngu ag
sanajaun inginnu</w>
san aug
sallir mi</w>
sai mmati
saamu aqtitti
saal aq
sa uniaqtuq</w>
sa m</w>
sa ij
sa ali</w>
s unga</w>
s tation</w>
s si</w>
s ha
s ari
ruuti ul
ru cial</w>
rij avut</w>
ri aksaq</w>
revie ws</w>
return ing</w>
return ed</w>
respe cting</w>
renew able</w>
relev ant</w>
regul arly</w>
reduc tions</w>
rec esses</w>
reason able</w>
re tain</w>
re tail</w>
re placed</w>
re place</w>
re pair
re main</w>
re location</w>
re lie
re ci
reci pi
rati onal
rational e</w>
ras unn
r li</w>
quvvasi liri
quviasu g
quti tta</w>
qupp irniq</w>
qul angittunga</w>
qujannamiir umajakka</w>
qujanami it</w>
qujana aqtauqullugu</w>
qujali jumavunga</w>
qujagi jumajara</w>
quja gijara</w>
quali fy</w>
qu tingit</w>
qu lugit</w>
qu gut</w>
qiturnga tinnik</w>
qit ingmiut</w>
qimiru arunn
qimiru anirmit</w>
qimirrujaun inginnut</w>
qimirruj unn
qilan aaqq
qilanaaqq ut</w>
qil uqqita
qikirtaalu mmi
qi mat
qaujisaqtaun iq
qaujis arnirmut</w>
qaujis anni
qaujimann ginnama</w>
qaujimanitu qangat</w>
qaujimaju mmar
qaujimajatuq anginnut</w>
qaujimaj ut</w>
qaujima vut</w>
qaujima v
qaujima mmar
qaujikkaij jut</w>
qaujij aujut</w>
qauji tittiniit</w>
qauji titau
qauji maliq
qau pp
qau mman</w>
qattiinnaru ri
qatsi uningit</w>
qat tin
qanutigi mut</w>
qanuqtu urni
qanuitu mit</w>
qanuittu uninganik</w>
qanuinn inginnut</w>
qanuiliurumaliq pisi</w>
qanuilingan inginnut</w>
qanuili ur
qanu ittaili
qanu it
qalluna an
qaj annamiik</w>
qaij unnaq
qaij unit</w>
qa ini
qa ig
q tu
q isi</w>
purcha ses</w>
pulaarvi mi
pulaarv ingmi</w>
psy chi
psychi atri
provin ce</w>
prote ct</w>
proc essing</w>
pro spe
princip als</w>
princip al</w>
preven tative</w>
pres sure</w>
pre serve</w>
pre di
pra y</w>
post- secondary</w>
po verty</w>
po t</w>
plac ements</w>
pla ying</w>
piviqaqti taun
pivalliati tsi
pivalliasi manirmik</w>
pivalliaju liriniq</w>
piva alliq
piv allir
piusi tigi
pitaqarunn iqti
pitaq arialiit</w>
pitaq angngittuq</w>
pitaq angi</w>
pisnas inut</w>
piruqpalli an
pir uri
pir rulu
piqujivungaaru mmik</w>
piqujivunga arutinut</w>
piqujali uqti
piqju angun
pinnguav ijju
pingajuksa anik</w>
pinasuarusi ttinni</w>
pinasuarusi rni</w>
pinasuaru sir
pinasuag aq
pin aup</w>
pimmari ujut</w>
pimmari ujunit</w>
piml ari
piliriv ingat</w>
piliriqatiq arni
piliriqatigi igiaq
pilirip vik</w>
pilirip vi
pilirijiquti kka</w>
pilirij ingillu</w>
piliriat sa
piliriarij unn
piliriari giaq
piliriang ujunut</w>
piliri vingmi</w>
piliri viit</w>
piliri amik</w>
pijuti gillugu</w>
pijunnaq sivalli
pijuma guvit</w>
piju man
pijjuti gilugu</w>
pijariir ni
pijariaq aqtu
pijariaq aqtitau
pijariaqaqtitau mman</w>
pijarial ingit</w>
pijar iq
pij itt
pij iq
pij arnir
pij ariaqarni
piij aqtaun
pii 3</w>
pigij auniq
pigiaruti q
pigiaqtitti jjuti
pigiaqtit sivunga</w>
pigiaqti tsi
pigi arunnaqsi
pigi arn
pigi akkann
pi ujuq</w>
pi simannginakkit</w>
pi si
pi jutiq
pi iq
pi gaj
petitions 11</w>
permi ts</w>
per mit</w>
per mission</w>
per man
perman ent</w>
pen n
penn er</w>
pe land</w>
pat terns</w>
part y</w>
parn asi
pap atti
pap ati
palli atillugit</w>
palli ani
paippa anit</w>
paan ap
paanap as</w>
p ull
p inn
p attu
p ari
pari sh</w>
p ancy</w>
p alung
p ala
p ads</w>
overcrow ded</w>
over sight</w>
out come</w>
or se</w>
op tion</w>
on ie</w>
occur red</w>
observ ations</w>
o therwise</w>
nuvi piri</w>
nuttiq tauningit</w>
nutti ri
nutara it</w>
nunavutmi unik</w>
nunavummi utait</w>
nunavumi unit</w>
nunavu ta
nunatt inni
nunaqaqqa aqtu
nunaliquti ttinnut</w>
nunalinnu ang
nunalili quti
nunali mmi
nunali i</w>
nu unni
northwest el</w>
nor mally</w>
niru arniq</w>
niriu gijavut</w>
nillir viksaq
nil liq
niaq unngu
ni pi
ng innit</w>
ne vertheless</w>
naukku tuinnaq</w>
natsi q</w>
nanurn ut</w>
nanu up</w>
nan ul
nalunaiqsi tti
nalunaiq tausimajut</w>
nalunaiq simatti
nalunaikk uta
nalunaij aqsima
naluna is
nalliukkuma aq
nalli annut</w>
naliqq anganik</w>
nali mu
naksi ujj
nakkajja u</w>
naki tuinnaq</w>
nag gaj
naasauti q
naammasanngittuq aqpaa</w>
naammaks aqtut</w>
naammak tunik</w>
naamma ktumik</w>
n ullu</w>
n ti
n in
n av
n ap
n ani</w>
n angi
n all
n al</w>
n aj
motions 17</w>
motions 15</w>
moder n</w>
mo ves</w>
mo di
mmij ungattauq</w>
mmari ttuq</w>
mmar inni
mmanga ataluunniit</w>
mmanga aqpit</w>
miv ta</w>
mis sed</w>
ministauju mu</w>
minista ullutit</w>
minis mit</w>
minis mik</w>
mini mum</w>
mini g
mili anik</w>
mik ittunut</w>
mi ttuq</w>
mi cro
me asu
measu res</w>
matuinga jumik</w>
matu m
mati c</w>
mar ine</w>
mappiti gaq</w>
mappig armut</w>
mann iq
man ingit</w>
malir ama</w>
malik lugit</w>
maligatsa mik</w>
maligarala at</w>
maligaliuqti kkut</w>
maligalirij jutinut</w>
maligak samik</w>
malig aqtaq
malig angat</w>
malig anganut</w>
mali tuinn
mali ttugu</w>
mali giali
mak un
mak u
maann aruluk</w>
maann am
ma unga</w>
ma lu</w>
ma iku</w>
ma ga
ma ana</w>
ma ajji
m unga
m uk</w>
m my</w>
m inni
m inirmik</w>
m ers</w>
m erc
luutta amik</w>
luukta ap</w>
lu ck</w>
logi stics</w>
lo ve</w>
lo sing</w>
lo ad</w>
ll ership</w>
lirinir mi
lirini tigut</w>
lirij jutinut</w>
lirij juti
lin k
like ly</w>
lauq tunit</w>
lauq qut</w>
lauq punga</w>
lar ga</w>
lais an
lai d</w>
l ying</w>
l y
l angaj
ku ri
ksaq taq
ks avut</w>
knowled ge
knowledge able</w>
kkannir i
kk unnit</w>
kivalli up</w>
kiujuma guviuk</w>
kiujjuti gij
kiujau viit</w>
kiuj jutinga</w>
kiugunn aqtuq</w>
kiu gasu
kisu mu
kis unit</w>
kinguv alu
kinguni agullu</w>
kingul liq</w>
kingngu uma
king uvi
king u
kin au
kin amut</w>
kin a
kilo watt</w>
killi liuq
kiinaujaqturuti t</w>
kiinaujaliurasu arnirmut</w>
kiinaujaliurasu aqti
kiinaujaliur nirmut</w>
kiinaujalirij i</w>
kiinaujalir inirmi</w>
kiinaujakku vi
kiinauj ata
kiinauj ai</w>
kiin aij
kiggatuq t
kig gusi
ki ulugu</w>
ki sull
ki p
katujj auluni</w>
katu j
katsunga iq
katimavi ujumi</w>
katimani aqput</w>
katiman ingannut</w>
katiman ik
katimali jirala
katimalijirala a</w>
katimajjutiksa tinni</w>
katimajiuqatau jumik</w>
katimajirala atigut</w>
katimajirala anu</w>
katimajirala anginnut</w>
katimajirala akkut</w>
katimajir ama
katimaji uqataujut</w>
katimaji ujunut</w>
katimaji tuinnarnut</w>
katimaj inik</w>
katima tilluta</w>
katima rju
kasuqsima uqatigi
kangiq sinirmi</w>
kan arn
kamisan aukainn
kamagijaunir mullu</w>
kamagijaq aqtut</w>
kamagij arialiit</w>
kamagij aksa
kamagi giaq
kam ani
kajusin iq
kajusigiarunn aqtutit</w>
kajusi tinni
kajusi ju</w>
kajusi jja
kajungir tu
kajung iq
kainn arunn
ka tak
ka su
k uma
k ujannamiik</w>
k tinnit</w>
k innga
k anni
juu ti</w>
juti gi
junnaq ullugit</w>
jun ction</w>
juma lluni</w>
ju una</w>
ju uk</w>
ju ugaluat</w>
ju mmat</w>
ju mani
ju guttauq</w>
ju dge</w>
ju ang
jon ah</w>
jo ined</w>
jialun aiv
jan e</w>
jalun aiv
j iq
j er
j arianga</w>
ituaju k
ittu ma
ittanis aujuit</w>
itt inu
ittinu ar</w>
its innut</w>
itinnu aq</w>
iti q
it saq</w>
it sanik</w>
it /
isumatsaqsiur utiq
isumali uq
isuma ta
isuma gillugit</w>
isu maliq
isir unn
irn gata</w>
ir s</w>
ir niq
ir iaq
iqtu gu</w>
iqqaqtuij irala
iqqanaijaqti taugiaq
iqqanaijaqti taq
iqqanaijaqt inginnit</w>
iqqanaija atsaq
iqqanaija atsanik</w>
iqqanaija ats
iqqan aj
iqqai titti
iqqai tigi
iqq asa
iqalung miut</w>
iq sauni
ippi giq
invest ments</w>
inuusi q
inuusi lirinikkut</w>
inuuj unniiqtuq
inutuq ait</w>
inugiaq sivalli
inu uvi
inu lirinirmillu</w>
inu is
inu inn
inter views</w>
integr ated</w>
inni aqtuit</w>
innga a</w>
innatuq aujunit</w>
innatuq aqutivut</w>
innatuq aq</w>
innatuq ai</w>
innar lu</w>
inn ik
inn gittunga</w>
inn gittu
inn gimmata</w>
inn arnu</w>
inn arnik</w>
inir nik</w>
ini aqtavut</w>
ini aqpugut</w>
ingn gu
ingn ga
ingirra jjuti
ingirr atti
ingi mmat</w>
indi cating</w>
ina de
inade quate</w>
in ut
in sta
in side</w>
in mut</w>
in inganut</w>
in gittuq</w>
in c</w>
in aj
immini ir
imiq tar
imi r
imar miuta
ima iq
iluunn anginnik</w>
iluanngi liur
illu liur
illu lirij
ill unik</w>
ill ungit</w>
ill i</w>
ilitarijuma llugit</w>
ilitarij auj
iliqu sir
iliqu s
iliqqusir mik</w>
iliqqusing annik</w>
iliqqu sivut</w>
ilinniav im
ilinniarv ini</w>
ilinniarv ingmut</w>
ilinniarv ingmi</w>
ilinniaratsau ti
ilinniaqtulirij iq
ilinniaqtulirij inik</w>
ilinniaqtulirij inginnut</w>
ilinniaqtulirij inginnik</w>
ilinniaqti tsi
ilinniaq tini</w>
ilinni arutiit</w>
ilinni arnirmut</w>
ilinni anirmi</w>
ili sima
ili ks
ilaur ama</w>
ilauq tinnagu</w>
ilaq aqtutik</w>
ilann ikkut</w>
ilaj au
ilagili ujj
ilagijauq atau
ilagiaruti t</w>
ilagi it</w>
ilagi aqtittinirmut</w>
ilaakkuungajun illu</w>
ilaakkuunga junit</w>
ila uniq
ila inna
ila anni</w>
il uv
il innit</w>
il aujut</w>
il aujunn
il a</w>
ikummaqquti lirijikkut</w>
ikummaqqu tinut</w>
iku mali
ikpi gusu
ikkarri ialuk</w>
ikk unnit</w>
ikk unnik</w>
ikk ama</w>
ikajuqtui vut</w>
ikajuqtu ijju
ikajuq tauniq
ikajuq suq
ikaju utinillu</w>
ik uma
ik ittuq
ij iq
ii puru</w>
igluq arv
iglul ingmu
iglul ingmi
iglu mut</w>
iglu mi</w>
iglu liriniqtigut</w>
iglu kiks
igl unik</w>
ic s</w>
i valli
i iva</w>
home ownership</w>
ho li
histori cally</w>
hel ps</w>
haviuj ak</w>
hand ling</w>
han di
handi cap
handicap ped</w>
hammal akkun</w>
haaml akk
h o</w>
h n
h mma
h it</w>
guutsi jai</w>
gu tauni
gu p
gu ests</w>
gu arlugu</w>
gro unds</w>
great est</w>
gre en
grap hi
grand children</w>
gradu ation</w>
giv u</w>
gini arlugit</w>
gini arattigu</w>
gin inganik</w>
gillu tikku</w>
gillu gillu</w>
gilauq para</w>
gil lugulu</w>
gikk uvit</w>
gijunn aqtara</w>
gijau vut</w>
gij aujunut</w>
gij aujunit</w>
gij attinni</w>
giaq aqtugut</w>
gi visiuk</w>
gi aru
gi amik</w>
gavamatuqakk unnik</w>
gavamakk ungitta</w>
gavama mut</w>
gavam anit</w>
gather ing</w>
gasu arlugit</w>
gaj aqtunik</w>
gaj aqtu
ga ining</w>
g rise</w>
g akkut</w>
fun d
fund amen
fundamen tal</w>
for gotten</w>
for getting</w>
follo ws</w>
fo ster</w>
fo rec
fo cus
fle xi
fi or
fe wer</w>
fac ed</w>
f ru
f our
f its</w>
f ello
fello w</w>
exten sion</w>
expres sing</w>
expl oring</w>
exper ts</w>
expe di
excep t</w>
exc ited</w>
exam ples</w>
evi dent</w>
evalu ate</w>
en ro
en acted</w>
ele ven</w>
el led</w>
el l</w>
educ ate</w>
economi es</w>
ea stern</w>
dru g</w>
dro p</w>
dre w</w>
dra fting</w>
documents 14</w>
discre pancy</w>
diplo ma</w>
differ ently</w>
di ag
diag no
deduc tions</w>
deb t</w>
deb ata
debata ble</w>
dead line</w>
de mo
de layed</w>
de fer</w>
de as</w>
da y
d uty</w>
d uties</w>
d ri
d ences</w>
d au
d ang
curricul a</w>
cur ley</w>
contro lled</w>
congra tulat
con nec
con junction</w>
comptro llership</w>
comptro ller</w>
comple tion</w>
compla ints</w>
compe te</w>
committees 12</w>
commer ce</w>
commen d</w>
com promise</w>
co-ordin ated</w>
co peland</w>
co des</w>
ci ous</w>
ci an</w>
charac teristics</w>
chann el</w>
cha e
ch an
certi fic
centrali zed</w>
carv ings</w>
canadi ans</w>
call ing</w>
c rucial</w>
c k
c es
c ents</w>
c at
bro ken</w>
break downs</w>
boo ks</w>
bo ss</w>
blue prints</w>
bills 18</w>
bills 16</w>
bills 13</w>
bi d</w>
b one</w>
b ilingual</w>
aw arding</w>
avittuqsimajuquti si</w>
avittuqsimaj uni
avittuq sima
avit tu
av ung
auv a</w>
auqqu urmat</w>
auq ata
auniq sait</w>
aun iqsau
aulla aqtau
aulauq tumi</w>
aulattijjuti ksait</w>
aulan its
aulan inga</w>
aulaj jutingit</w>
aulainn arju
aul t</w>
aul auti
aul aunngi
aul aun
auk auti
aujunn aqtunik</w>
auj unillu</w>
auj aulauqtuq</w>
auj akkun</w>
aug uni</w>
au tillugu</w>
au d
atur unniiq
atuqtut sat</w>
atuqtu atitt
atuqtu arutit</w>
atuq tut</w>
atuq attar
atuniiq tar
atuliquj aujut</w>
atuli qu
atuinnaq arnirmik</w>
atuinn aujut</w>
atuinn ait</w>
atu ras
atu q</w>
atu lu
atu la
atu kkut</w>
atu in
atu ar
attarni aratta</w>
attar mata</w>
attanaqtu mu
attanaqtaili manir
atta ri
atta ili
atta ched</w>
att anirmut</w>
ati vely</w>
ati tau
atausir mu</w>
ataq tuit</w>
atangiq tumik</w>
atag ga</w>
at taut
at innut</w>
at inginnik</w>
at anirmit</w>
asu illaak</w>
assess ment</w>
asses sing</w>
ass ess</w>
asi limaangit</w>
asi gi
asi attauq</w>
asi ani
asi ag
as sumptions</w>
as inginni
as ingi
arvigi juma
arv iqaq
arunn atitsinirmut</w>
arunn aqtugut</w>
aruma vakka</w>
aruma v
aruma llutit</w>
aruma gama</w>
aru manirmut</w>
aru ksi</w>
arti tsi
arraagup tinni</w>
arraag utta</w>
arnit inni</w>
arnir minit</w>
arnir aqtuni
arniq s
arni ujuq</w>
arni arninganik</w>
arni armangaata</w>
arni aqtuni</w>
arni aqtunga</w>
arn ullu</w>
arn ingitigut</w>
arn aujuq</w>
armi mmata</w>
armi gattigu</w>
armi gama</w>
armanga ta</w>
arma git</w>
arm ingmata</w>
arij ara</w>
ariaq arniq</w>
ariaq aqpavut</w>
ari vunga</w>
ari vugut</w>
ari simajavut</w>
ari se</w>
arasu gij
arasu gi
aralu aqtugut</w>
aralu aqtillugu</w>
arai mmata</w>
ara al
ar tumik</w>
ar tavut</w>
ar pugut</w>
ar iniaqta
ar ilauq
ar chae
ar asunn
ar akkut</w>
aqutikuta amit</w>
aqtun ullu</w>
aqtu uja
aqtu uj
aqtu gillugu</w>
aqtu gi</w>
aqtitti j
aqti tut</w>
aqti llusi</w>
aqti llugi</w>
aqta tit</w>
aqta riaq
aqta minnik</w>
aqt innut</w>
aqt innagu</w>
aqt angani</w>
aqsu tigu</w>
aqsimaj ariaq
aqsima mmat</w>
aqqutiq ju
aqqu tit</w>
aqqi tau
aqqi si
aqqau gavit</w>
aqq it
aqpi siuk</w>
aqpi si</w>
aqpa atigut</w>
aqp attuq</w>
aqp attunik</w>
aqp aksi</w>
aqju aq</w>
aqattarn inginnut</w>
aqattar niq</w>
aqattar mat</w>
aq unga</w>
aq tin
aq taujunut</w>
aq sugit</w>
aq simajuni</w>
aq simaju
aq ataujunn
aq a
appreci ative</w>
appre nti
applau d</w>
appe ar</w>
app ungalu</w>
apirikkannir uma
apirij au
apir ig
apiqqutiq aqpunga</w>
apiqqutiksaq arama</w>
apiqqutigij arali</w>
apiqquti ts
apiqquti ks
apiqquti kkannir
apiqqut inganut</w>
apiqqusissaq akkaniqqiit</w>
apiqqu tauj
apiq utiit</w>
ap pata</w>
ap er</w>
anull atsi
annikittu r
anniaqarnangittu lirini
anniaqarn angit
anniaq anngittu
anni tuinnaq</w>
anni aqtunik</w>
anngit ti
anng uqti
anng inirmut</w>
aniktu it</w>
ani armangaaq</w>
anguni aqtunit</w>
anguju up</w>
angu liqpat</w>
angn gat</w>
angit tunit</w>
angiruti mi</w>
angir utaujuq</w>
angiqtu limaat</w>
angiqtaun iqsi
angiqtau vuq</w>
angiqatigi ippi
angiq tuinnau
anginn avit</w>
anginn attigu</w>
angin gittut</w>
angijuqqaarju anga</w>
angijualu mmik</w>
angiju utinut</w>
angij uqq
angajuqqa arijaujut</w>
angajuqqa aquti
angajuqqa ang
angaj uqq
ang ujumik</w>
ang mik</w>
ang anni
an ikk
an drew</w>
ammari mmat</w>
ammal uqai</w>
amma ttau</w>
amisuun ingi</w>
amisur uq
amisu uvut</w>
amisu gala
amis ungngu
ami ali
am mangaat</w>
alu ta</w>
alu git</w>
alu anngu
allu tit</w>
allo cating</w>
allevi ate</w>
allar it
allar inni
allaij ara</w>
all i</w>
alira immata</w>
aliq tillugu</w>
ali ru
ali qullugu</w>
ali n</w>
ali kut</w>
alaur mita</w>
alauq tutik</w>
alauq tara</w>
alauq punga</w>
alaungi mmata</w>
alauk ak
ala unngittut</w>
ala ungittuq</w>
ala aq</w>
al inni</w>
al ari
akunik allauliqtuq</w>
aksuru utigij
akkanniq piit</w>
akk anniq</w>
akk alu</w>
akitujunuunga jutsanik</w>
akitujun u
akiliu taujut</w>
akiliqsuriali t</w>
akili ksan
aki ujunit</w>
aki ujuit</w>
akaungi liuru
ak uk
ak tinnik</w>
ak su
ak saujuit</w>
ak as
ajuqsaqtu lirijikkunnut</w>
ajjiginngit anga</w>
ajji g
ajj ingit</w>
ajauq tinut</w>
aj aur
aiv ani
aiv ajju
aippi ijuq</w>
ainn auj
agguq tau
aga j
ag al
adjust ments</w>
ade qu
ad ults</w>
ad here</w>
ab undance</w>
ab stentions</w>
aaqqit sui
aaqqigi ari
aaqqigi aqta
aaqqi ijunn
aanniq tuqaqtuminiutillugu</w>
aanniasiuq tinik</w>
aanniaqtulirijiqju at</w>
aanni aqtaili
aajiir utiq
aagga aqtuq
a tungngi
a itsuni</w>
a arlu
a ariaq</w>
a -</w>
>>igl aqtut</w>
99 8</w>
9 60</w>
8- 4</w>
8 70</w>
8 2</w>
8 0
7 8</w>
7 64</w>
7 -mi</w>
6 mi</w>
50 6</w>
50 %</w>
5 mi</w>
5 53</w>
5 45</w>
5 22</w>
5 1-mik</w>
47 5</w>
4- nik</w>
4 98</w>
4 48</w>
4 -mi</w>
30- pat</w>
30 th</w>
3 18</w>
3 11</w>
29 7</w>
27 th</w>
24 mi</w>
24 0</w>
20 th</w>
2- mut</w>
2 13</w>
1999/ 2000mut</w>
1999/ 2000-mut</w>
1999/ 2000-mi</w>
19 0</w>
16 1</w>
15 -mi</w>
12- mut</w>
10- 3</w>
10 8</w>
10 1</w>
1- mit</w>
1 9-
1 15</w>
1 -</w>
00- mut</w>
0 95</w>
0 7-1</w>
0 6-1</w>
0 5-1</w>
0 4-1</w>
- ngit</w>
- mut</w>
- maligaksaq</w>
- -</w>
& &
$ 27</w>
$ 13</w>
$ 10-
z ine</w>
z er</w>
y uk</w>
y nami
y back</w>
xi mum</w>
x- ray</w>
x imi
wis ely</w>
well -
we aring</w>
ware house</w>
war t</w>
wan ting</w>
w ings</w>
w in</w>
vv ingmi</w>
vu una</w>
vu raij
vu guttauq</w>
vu gullu</w>
vu arimi</w>
visnasq arunnatitsinirmut</w>
viol ence</w>
ving anut</w>
victi ms</w>
vi v
viv vuarimi</w>
vi tal</w>
vi taa</w>
vi i</w>
vi ga</w>
versi ties</w>
vers ary</w>
valliaj avut</w>
valli avut</w>
valli anirmik</w>
valli ammata</w>
va giiq
v iniq</w>
v ingata</w>
v illu
v attu
v all
v alir
uvatsi aru
uvanga ttauq</w>
uv v
uv atti
uv at
uv anni</w>
uv aktu
uv agu
uuttuuti ttiav
uummaquti lirijikkunnut</w>
uumaju lirinirmut</w>
uuma quti
uu tu
utiq titti
utiq titsi
utiq aratta</w>
utigu una</w>
uti vut</w>
uti ru
uti riaq
uti q</w>
uti ksanik</w>
uti ksa
uti gin
utau gaj
utaq ivi
ut ingani</w>
ut ely</w>
usu ungu
usi ur
usa tuinn
usa jut</w>
usa ge</w>
us es</w>
ur nirmut</w>
uqsuqtuu mit</w>
uqsuqtuu mi
uqsualu lirijikkut</w>
uqsual unnut</w>
uqsa ti
uqauti gi
uqausiuqqau mmat</w>
uqausiriqqauj ara</w>
uqausiriqqauj anga</w>
uqausirijumatuinn arata
uqausirij aulauqtuq</w>
uqausirij arianga</w>
uqausirij akka</w>
uqausiri kkannir
uqausiri kainn
uqausiri jumaj
uqausir iqqau
uqausir ilauqt
uqausiqaqqau mmat</w>
uqausiq ari
uqausiq aqpugut</w>
uqausiq aq
uqausiks alluunniit</w>
uqausi ujuq</w>
uqausi tuq
uqausi lirijiujuit</w>
uqausi it</w>
uqaus inginnut</w>
uqaujjaulauq tut</w>
uqauj ju
uqau tilauq
uqau jigi
uqat ingit</w>
uqarunn atuinnaqtunga</w>
uqarunn aqpaa</w>
uqarunn aqpa</w>
uqarunn angittunga</w>
uqar ai
uqaqti mut</w>
uqaqsima vut</w>
uqaqsima ttiaqtuni</w>
uqaqati giq
uqaq simajuq</w>
uqaq pat</w>
uqaq attaq
uqaq ata
uqalimaar inirmik</w>
uqalimaagaq arvi
uqalimaaga q</w>
uqalimaaga li
uqalima gunn
uqalima aqta
uqakkannir umajunga</w>
uqakkann ikainn
uq sanir
uq atuinn
uq arv
uq alaurngan</w>
uq akkanir
upigusu mmari
upd ating</w>
up valu
up lugu</w>
up inng
upinng aksa
unuqtu mmari
unngit tuni</w>
unnginn avit</w>
unngikkalu aqtunga</w>
unngi tillugit</w>
unng ali</w>
unnaq ullunga</w>
unnaq quuq
unnaq iuk</w>
unn ullu</w>
unn armangaata</w>
unn aqtuq</w>
unn aqtavut</w>
unn ani
unikkaaliangu simajut</w>
unikka ani</w>
unikka anginni</w>
unikka angannik</w>
unikka angani</w>
uni versities</w>
uni fied</w>
uni arluni</w>
uni arakku</w>
uni aqtuup</w>
uni aqtu
uni aqput</w>
ungn it</w>
unginn inginni</w>
unginn ama</w>
ungin inni</w>
ungi tavut</w>
unga tuinnaq</w>
unga tsainnaq</w>
unga s
under stands</w>
unasu k
un uqtut</w>
un inganit</w>
un expected</w>
un employed</w>
un clear</w>
un available</w>
un agit</w>
umiarju at</w>
ullu tuinnaq</w>
ullatta aq</w>
ullar ik</w>
ull unik</w>
uliq tuni</w>
uliq pat</w>
ulaur ngan</w>
ulauqtu up</w>
ulauq tumik</w>
ulauq tillugu</w>
ulauq simammat</w>
ulauq qut</w>
ula aqtuq</w>
ula aq</w>
ula aju</w>
ula aju
ul usiur
ul tima
ultima tely</w>
ul n
ul anga
ul ak
ukiuqtaqtu miunut</w>
uki san</w>
ukainn aqtut</w>
uk uma
uk ausi
uju llu</w>
uju gut</w>
uji mmat</w>
uj unullu</w>
ugalu aqpata</w>
ugaal ausi
ug uni</w>
uatti asaaq</w>
uann a
uaj amu
u uk
u ti</w>
u sima
u minga</w>
u m
u lirinirmullu</w>
u im
u gianga</w>
u gaq</w>
u as
twen ty-
tuv sajitigut</w>
tuttar vigij
tutsi anikkut</w>
tut sat</w>
tut sa
tusauma titsi
tusauma titau
tusar atsa
tusaqti tauqatta
tusaqti taulauqput</w>
tusaq tini
tusaq attaq
tusaaji unirmut</w>
tusaaj juti
tus aqtittini
tus annginnama</w>
tus alaur
turaaqt inni
tura aqpalli
tura angajunit</w>
tur unn
tur niq
tur mut</w>
tur aqtuq</w>
tuq q
tunnirijauni aqpuq</w>
tunngasuttiarit ti</w>
tunngasukti tsi
tunis inirmi</w>
tunirruti tsait</w>
tunirr utinit</w>
tunijauv aktut</w>
tunijaulauq tuit</w>
tunij auvattut</w>
tunij auq
tunij aulauqtuq</w>
tunij auju
tunij auj
tuni uqa
tuni siqatta
tungngavigijau tsutik</w>
tungngav iq
tungil ingit</w>
tungil inganut</w>
tun iniaq
tumi it</w>
tuksirau taujuq</w>
tukisiumaqat taut
tukisinaqsi tittinirmut</w>
tukisigiaruti q
tukisigiar ut</w>
tukisiav unga</w>
tukisi titti
tukisi junn
tukiq armat</w>
tuking anik</w>
tukimu aqtittiji
tukiliur utinut</w>
tuk unga
tuk iqaqpuq</w>
tuk inga</w>
tuk illu
tuinnau mmata</w>
tuinn aujuq</w>
tuinn aujariaq
tuinn arialik</w>
tuinn aq
tuga q</w>
tug lia</w>
tuav iq
tuap alirinirmut</w>
tu tuup</w>
tu ru
tu red</w>
tu in
tu avi
tu arutta</w>
tu aqpata</w>
ttu mut</w>
ttu mik</w>
ttiav angmari
tti ar
tti aqullugit</w>
tt inasu
tsin ikkut</w>
tsan illu</w>
tsa uniaqtillugit</w>
ts unga</w>
ts inir
ts auj
tri ps</w>
transpor t</w>
transl ations</w>
tran si
transi tional</w>
tra p
trap pers</w>
tra in
tr ary</w>
tou ri
topi cs</w>
to ta
tiurituarij ami</w>
titirarv inga</w>
titirarv iksa
titirari anng
titiraqtau majut</w>
titiraq simajunit</w>
titiraq simajumik</w>
titiraq simaju
titir ausi
titir aqq
titiraqq ait</w>
titiqqau p</w>
titiqan it</w>
tisa mmi
tisammi rmi</w>
tisa manit</w>
tir li
tirli titaugiaq
tion ing</w>
tinn ata</w>
timmiju unut</w>
timiquti gij
timiqu tinga</w>
timi up</w>
timi ujumik</w>
timi ttinni</w>
timi gijavut</w>
til luti</w>
tikku aqtauqullugu</w>
tiki ti
tiki simatillugu</w>
tiki sa
tik innasu
ti up</w>
ti tu
ti piq
ti mut</w>
ti giaq
ti ed</w>
thr one</w>
tem pl
tele -
te p</w>
te ams</w>
tauvak tunit</w>
tauvak put</w>
tauv anni
tausima mmangaata</w>
tauni armat</w>
tauni aqput</w>
taulauq tumut</w>
taulauq tillugit</w>
taulauq simajuq</w>
taula unnginninginni</w>
taujuq ariaq
taujunn araj
tauju tsanut</w>
tauj jutiq
tauj arialik</w>
tau sanut</w>
tau gi
tau gajaqtut</w>
tatati r
tas suma</w>
taqqi up</w>
taq ariaq
taq aqullugu</w>
taq aqpat</w>
tamma tuinnariaq
tamma ruma</w>
tamat sumunga</w>
tamat suma</w>
tamann a
tamainnu ulinga
tama innit</w>
tam manna</w>
takutsuga liuqtiit</w>
takutsuga lirijiit</w>
takus sauniq
takuk sar
taku gumaj
taku giarlugu</w>
tak uv
tak uqatta
tainn alu</w>
taimanna ittunit</w>
taimann asa
taima ittailima
taima ik
taili manirmut</w>
taikkun anngat</w>
taikk ununga</w>
taik su
taigu usi
tai mali
tag ga
taaqqa ung
taan ult</w>
taam san
taaksiij auti
taaksi ija
taakkun angat</w>
ta uqqa
ta ullutillu</w>
ta tinnut</w>
ta tinnit</w>
ta ries</w>
ta maj
ta liqp
ta j
ta issu
ta i</w>
ta git</w>
ta as
ta ani</w>
t v</w>
t tuq
t tauti
t tau
t tara</w>
t sugit</w>
t on
t inirmit</w>
t iniar
t inganut</w>
t ingani</w>
t est</w>
sy llab
surusiqtauti q
suru sila
suru si</w>
sur ak
suqquiq titau
suliri juti
suliri aq</w>
suliri anut</w>
suliri angujuit</w>
suli i</w>
sui table</w>
sug ge
sub stan
sub mitted</w>
su tuu
su manngat</w>
su kku
stu dying</w>
struc turing</w>
struc tures</w>
strong er</w>
streng th
stra ight</w>
sti pul
sti ck</w>
ste wart</w>
stati stic</w>
sta gg
sta bility</w>
st op
stop ped</w>
st one</w>
ssa i</w>
spe ed</w>
sp ills</w>
so oner</w>
so le</w>
snowmob ile</w>
smoo th</w>
sk ill</w>
sivuv ari
sivunitsa tinni</w>
sivunirij attinni</w>
sivuniks avut</w>
sivun its
sivun iktinni</w>
sivumu aqpalli
sivulliuti simaj
sivulliqpa at</w>
sivullipa atsi
sivuliuqti t</w>
sivuli arut
sivuliarut anit</w>
sivu ra
sivu liur
sivu lirij
sivata arvingmi</w>
siv ely</w>
siur ni
siq qa
sing ing</w>
sin aj
sin a
simpli fy</w>
simp le</w>
simann ir
simanir mi</w>
siman iq</w>
siman gittut</w>
simaju uk</w>
simaju innau
simaj ja
simaj anginni</w>
sima t
sima llunga</w>
sima l
silattusarvi tigut</w>
silattuqs arvi
silar juarmi</w>
sila tunir
siiti inak</w>
si n</w>
si ju
si ck</w>
shor t-
seven ty-
seven th</w>
sett lement</w>
ses sions</w>
sergean t-at-arms</w>
ser ving</w>
self-reli ant</w>
secur e</w>
se ts</w>
se qu
school ing</w>
scho las
scholas tic</w>
scho lar
sc re
sav ing</w>
sauni armata</w>
sau v
sau minni</w>
saqqii juma
saqqi tausimajut</w>
saqq itsi
sapujj inirmut</w>
sap uti
sap unni
sanngi ju
saniraj aup</w>
sani va
sanaju lirijikkunnit</w>
sanajaulauq simajuq</w>
sanajau simajut</w>
sanajaksa lirijikkut</w>
sanaj auju
san gata</w>
san ga
sam ples</w>
salu mmaq
salu mma
sai mma
saamu aqtau
sa saij
sa pu
sa o</w>
sa innarlu</w>
sa inirmut</w>
sa an
sa ami
sa am</w>
s saq
s pre
spre ad</w>
s lightly</w>
s light</w>
s kin
skin s</w>
s innik</w>
s cience</w>
s all
rulu uj
ru maj
ru ju
ro yed</w>
rij ain
rib ed</w>
ri ch</w>
ri ch
ri alik</w>
respon sive</w>
resi dential</w>
resi dences</w>
res ul
requir ing</w>
repor ted</w>
repair s</w>
renov ated</w>
ren ts</w>
remain der</w>
rel ay</w>
regul ation</w>
reg ina</w>
recti fied</w>
rec all</w>
reas sure</w>
reali sed</w>
read ily</w>
re visit</w>
re structuring</w>
re stored</w>
re le
ram ulirinirmullu</w>
rais es</w>
ra pi
ra p
ra f
raf ter</w>
ra av
ra as</w>
r uri</w>
r munut</w>
r inirmut</w>
quvvasinn iliit</w>
quviasummari ppunga</w>
quviasu uti
quviasu ttunga</w>
quvia givara</w>
quvia gi
quvi ak
quvi ag
qurluqtu umi</w>
qula an
qujannamiiruma vara</w>
qujannamiiruma vagit</w>
qujannamiir a
qujannamiira aluk</w>
qujann aq
qujal in
qujagij auningit</w>
qujagi juma
quj aujut</w>
quj akka</w>
quan aq</w>
qu uqtuq</w>
qu tsi
qu mmu
qu gu</w>
qiturng aq
qiturn gi
qiti ra
qisi gaj
qinir ni
qimiru anirmut</w>
qimiru ani
qimirrun arnirmik</w>
qimirru gi
qilami ujuq</w>
qilami kkut</w>
qilalu g
qikiqtaalu mi</w>
qi tunng
qi m
qaujisaqti mi</w>
qaujis arunn
qaujis anniq</w>
qaujimann gikkaluaqtunga</w>
qaujimann gi
qaujimani ujunit</w>
qaujimani tuqangit</w>
qaujiman gittugut</w>
qaujimalli ta
qaujimajuinn auqqu
qaujimajuinn aujugut</w>
qaujimaji tuqangit</w>
qaujima gavit</w>
qaujilauq tunga</w>
qaujikkaqtauj juti
qaujijuma llunga</w>
qaujij angit</w>
qaujigiarvi giq
qauji sanirmut</w>
qauji jariaq
qauji jam
qauji guma
qauj ara</w>
qau mmat</w>
qau galu
qatti riji
qatsiugaj arningit</w>
qat sinik</w>
qat anng
qanuqtu urasu
qanuqtu uq
qanuittu tuinnarni</w>
qanuittu mit</w>
qanuinni ujumit</w>
qanuinn irij
qanuilingan ingit</w>
qanuiling anirij
qanuili urunn
qanu kiaq</w>
qanu innir
qanima ta
qanigij angani</w>
qangiq& inirmi</w>
qangatasuuq utiq
qangatasu unut</w>
qang akiaq</w>
qan ittu
qan itsan
qan iks
qan gimman</w>
qamanittu aq</w>
qamaniqtu armik</w>
qalluna ani</w>
qalluna ani
qaij uni</w>
qa angi
qaangi uti
q is
q ata
q ann
puuta mi</w>
purcha sed</w>
puq q
puq irn
pulaariaq simajunik</w>
pula aqti
puki tali
publi shed</w>
pu uq
pu ukisan</w>
psychiatri c</w>
propo se</w>
pronoun ced</w>
produc ed</w>
procee dings</w>
proce dur
procedur e</w>
proc essed</w>
priv ati
priori ti
pri ces</w>
presen ting</w>
pres sures</w>
pres ence</w>
pre ference</w>
pray ers</w>
piviq aqtitti
pivalliatitt inirmi</w>
pivalliaj ai
piv iqaq
piusirij auqattaq
piuniq samik</w>
piu li
piu gijara</w>
pitaqariaq arningi</w>
pitaqaqtitti luti</w>
pitaq armat</w>
pitaq aqtuq</w>
pitaq aqtitau
pitaq angng
pisimaj au
piruri aqti
piruqpalliajjuti vut</w>
piruqpalliajjuti tta</w>
piquti minituq
piqujivunga ali
piquji vut</w>
piqujalima aru
piqqu s
piqju angummat</w>
piqju amik</w>
piqasiuti lugi</w>
piqasi ut
piqasi ujjau
piq utingit</w>
piq utinginnik</w>
pinnguaqtu liriji
pingatsi rmi</w>
pingatsi q</w>
pingasuuj uqtunut</w>
pinasuarusiuju juq</w>
pinasu aqatigiinnirmut</w>
pimmari ummat</w>
pimmari ujuni</w>
pimmari ujumik</w>
pilirivv itta</w>
pilirivv itinni</w>
pilirivv ingat</w>
piliriving annut</w>
pilirivi mmik</w>
pilirivi ga</w>
piliriv iquti
piliriv iqaqtut</w>
piliriv iktinni</w>
piliriqatiq aruma
piliriqati giniaqtavut</w>
piliriq ullugit</w>
piliriq atau
pilirip v
pilirini aqpugut</w>
piliriat sangit</w>
pilirias sani</w>
piliriang uqullugu</w>
piliri vingmut</w>
piliri vik</w>
piliri jju
piliri anginni</w>
piliri amit</w>
piliri ami</w>
piliri ali
piliri aksanut</w>
piliri aksanik</w>
pilimma ksau
pikku gij
pik a</w>
pijunn atitti
pijunn aruti
pijunn arnir
pijjutiq armat</w>
pijjutiq aqtutik</w>
pijjutiq aqtut</w>
pijjutiq aqtuni</w>
pijjutiq aqpuq</w>
pijjutiq alu
pijitti ruti
pijarnir niq
pijariir i
pijari ila
pijari atun
pij aulaur
pij atsaq
pij arni
pigiaqtitti simajuqarmat</w>
pigiaqtitti junn
pigiaqti taujunut</w>
pigiaqti taujunit</w>
pigiaqti tangit</w>
pigi it</w>
pigi arunnaq
pigi aru
pigi ariaq
pigi alauq
pig gusi
pig ann
pig an
pic tures</w>
pic ked</w>
pi unngi
pi ujumit</w>
pi uj
pi simann
pi simajavut</w>
pi simajakka</w>
pi iqsi
pi gunn
phon es</w>
percen tages</w>
patta vut</w>
pati ence</w>
pat si</w>
partn er</w>
parnauti liuq
parnatau ma
parnaij au
parna simajavut</w>
parn agu
par li
papati ji
panniqtuu mut</w>
pangniqtu urmi</w>
paliis ingat</w>
pair itti
paippa aquti
pai mi</w>
pa ys</w>
pa ik
pa atta
paatta tuqtut</w>
pa asiq
p pugut</w>
p pugu</w>
p layed</w>
p it</w>
p ina
p av
p anniq</w>
p al
p -
out board</w>
ot le
otle gg
oper ates</w>
open ness</w>
open ly</w>
oi d</w>
occ asi
obvi ous</w>
ob taining</w>
o se</w>
nuttir vi
nuttiq tauvalli
nutti rni
nutaqq at</w>
nutaq qan
nutaang uniq
nuta angujuq</w>
nut titiri
nuqqangaalauk anni
nuq ang
nunavv up</w>
nunavuu limaamut</w>
nunavut miunut</w>
nunavumi lu</w>
nunav u</w>
nunatt innu
nunata arasu
nunasiuti it</w>
nunasi armi</w>
nunaqqati kka</w>
nunaliralaanguniq sani</w>
nunaliralaanguniq sait</w>
nunalirala anut</w>
nunalinni i
nunalingn ik</w>
nunalikinniq sait</w>
nunali uju
nunali ttigut</w>
nunali lirijikkut</w>
nunali illu</w>
nunal ingni
nunal ingit</w>
nunal inginnut</w>
nuna gijavut</w>
nun attinnik</w>
nun asi</w>
nun a</w>
nu ki
nu it
niuvi aksait</w>
niruaqtu lirijimmari
niruaqtauvigisimaj anni</w>
niruaqtauv inni</w>
niruaqtau vigi
niruaqtau simav
niruaq tinit</w>
niru arvi
niru aqtauj
niriunniq atti
niriun aqtuq</w>
niri ut
niri uk
niri ug
niqi taaruti
niqi liri
ni us
ni it</w>
ni gi
ng ulauqtinnagu</w>
neigh b
ne west</w>
nav canada</w>
nauja at</w>
nauja armi
natti l
nati rmi</w>
nangiqsi junn
nan is
namminirij aujunit</w>
namminir lu</w>
namminiqarnir mullu</w>
nami ik</w>
nalunair unn
nalunaiqsi lauqtuq</w>
nalunaiq siv
nalunaiq sini
nalun aruju
nalun anngi
nalun angittu
nalu lir
nalu li
nalu gama</w>
nalliukkuma at</w>
nalli atuinnaq</w>
nalautsaaqtau simajut</w>
nalautatauluataq tuit</w>
nalauta talu
nalauksa aqtaujut</w>
nalauksa agait</w>
nal unngil
nakinnga armangaaqpit</w>
naina arlugu</w>
nagli ak</w>
naasauti lik</w>
[...]
