#version: 0.2
a n
t i
i n
t h
t u
t a
m a
u n
a q
l i
a r
u t</w>
m i
s i
a u
e r
n i
a l
o n</w>
th e</w>
g i
u q
r e
q u
p i
a k
r i
a v
e r</w>
an n
i t</w>
m r</w>
e n
j i
t o</w>
a t</w>
s t
j u
a i
c o
a t
u l
s a
y o
o f</w>
a ti
in i
i l
in g</w>
i t
aq tu
yo u</w>
a m
i k</w>
a mi
s u
g a
ti on</w>
an d</w>
l u
p e
o r
o n
k i
qu j
e d</w>
in n
i s</w>
k k
th an
v i
than k</w>
quj ann
qujann ami
g ut</w>
m en
e s</w>
n un
qujannami ik</w>
i q
th at</w>
si v
i n</w>
an g
aq ti
u ti
s pe
st a</w>
u r
q tu
in g
c h
r o
p re
m ini
t er
co m
a q</w>
e s
l u</w>
ak er</w>
ta u
o r</w>
a s
spe aker</w>
un n
gi t</w>
mi sta</w>
i k
ti gut</w>
li ri
r a
ta tion</w>
a ji
nun av
in ter
men t</w>
tu sa
ai r
a s</w>
tusa aji
si ma
l e
ti n
au ta
inter pre
al u
interpre tation</w>
d e
m ut</w>
tusaaji tigut</w>
w e</w>
un i
siv auta
g a</w>
ch air
ma li
m an
a n</w>
p er
aqtu q</w>
o u
t o
m i</w>
s on</w>
f or</w>
h av
t a</w>
a li
k ati
a l</w>
w h
au j
t e
qtu n
t s</w>
a pi
mi k</w>
t i</w>
ni qtun
p ro
in ni
niqtun aqtuq</w>
a g
ar i
on s</w>
l e</w>
p u
e n</w>
e m
q an
n o
i r
ar e</w>
i li
hav e</w>
nunav ut</w>
ak k
a tu
per son</w>
s ta
d i
b e</w>
l y</w>
th is</w>
g o
p ar
b e
er s</w>
uq aq
ul d</w>
v er
qu es
chair person</w>
ar ni
uq aqti
a k</w>
mini st
t ti
co n
ai j
c e</w>
an gi
kati ma
a j
er e</w>
mali ga
il l</w>
q qu
it tu
m ma
am ma
q au
pi liri
uqaqti i</w>
s an
e l
j un
ik sivauta
g av
s e</w>
uq au
em b
a ma
k e</w>
maliga li
r u
a c
o uld</w>
w ill</w>
a an
uqaq ti</w>
th e
l lu
a b
ni t</w>
ki in
uqau si
kiin auj
p p
minist er</w>
t tu
m ann
m e</w>
v e</w>
w ould</w>
com mi
q i
ar u
in u
li r
l o
ini r
s t</w>
ti ons</w>
c i
aq p
a d
ati on</w>
j ut</w>
api qqu
g u
amma lu</w>
t te
ou r</w>
h on</w>
s o
uq ti
s aq
un ga</w>
qau ji
m emb
w it
gi j
an i</w>
o p
wit h</w>
ta ma
men ts</w>
au l
g u</w>
i s
e t</w>
ver n
go vern
kk ut</w>
a y</w>
katima ji
ju q</w>
ul lu
ques tion</w>
par t
n u
a ju
commi tte
u p</w>
ni k</w>
govern ment</w>
p o
f f
gav ama
de part
m o
n ut</w>
ta i
n g</w>
i su
r e</w>
apiqqu ti
ma n</w>
th o
s e
d ing</w>
au q
e x
r al
u j
ar v
liri ji
li ke</w>
ta q
9 9
nunav u
com m
th ere</w>
maligali uqti
re s
b u
ju ti
a si
0 0
iq qan
alu k</w>
katimaji ral
an i
a p
ki si
iqqan aij
li q
al u</w>
c es</w>
memb ers</w>
f or
aq ta
th er</w>
inn ut</w>
au ti
man ga
l lu</w>
l l
s o</w>
at ti
sa q</w>
al li
w as</w>
ju ma
a su
t ed</w>
to o
p or
tu t
i f</w>
to o</w>
m a</w>
committe e</w>
un ni
tu inn
pi j
at ta
e m</w>
t y</w>
d o
iksivauta aq</w>
chair man</w>
t h</w>
m y</w>
no w</w>
al l</w>
a at</w>
tu n
too too</w>
al l
ta mann
inir mut</w>
a ta
the y</w>
in git</w>
ar n
i g
g et</w>
an ni
no t</w>
al un
n e
u v
q sima
depart ment</w>
p a
d er
b ri
tut u</w>
n ak</w>
tamann a</w>
an ut</w>
w or
s er
o ut</w>
iksivauta q</w>
t ra
uni kk
it em</w>
p l
ti ti
d u
mini sta</w>
gi ttu
ari aq
il inni
ar uti
v ut</w>
tin g</w>
ques tions</w>
a aq
av ittu
a r</w>
un i</w>
n g
ar ri
b y</w>
u q</w>
m e
h e
au r
s h
ou s
f ro
fro m</w>
at a</w>
d s</w>
c an</w>
ti es</w>
ul lu</w>
yo u
t er</w>
kk u
it sivauta
c t</w>
bri en</w>
ta l</w>
mini sta
a w
en t</w>
d ay</w>
isu ma
q q
q ati
piliri at
mma t</w>
m u
pe op
t si
avittu qsima
un it
un g
peop le</w>
sa n</w>
on e</w>
an ik</w>
d e</w>
aqtu t</w>
pi gi
i kk
ser vi
nu ta
i c
iq aq
at e</w>
n a
ati ons</w>
1 99
wh at</w>
inn i</w>
t r
m p
ur aij
h o
am ma</w>
p on
h as</w>
st an
am a</w>
b ut</w>
ar ma
sa it</w>
you r</w>
y e
un ga
n alun
k ing</w>
katimajiral aat</w>
piliriat saq</w>
m mi
j unn
f in
at ta</w>
as s
aq pu
tu ra
n i</w>
mali g
iqaq ri
l li
k u
inni t</w>
be en</w>
v uraij
nun al
iqaqri alu</w>
ab le</w>
p in
un ing
pi qu
an ir
s ti
il l
llu git</w>
g h
vuraij an</w>
iq alu
00 0</w>
vi n</w>
u k</w>
res pon
ar d</w>
pro g
k aju
u p
r uti
m s</w>
a d</w>
g ni
sta te
servi ces</w>
re c
es s</w>
ittu q</w>
o ther</w>
k ama
ikk arri
ar vi
bu d
iqqanaij aqti
ar manga
s i</w>
n ga</w>
il a
v alli
re co
an s
at tu
ai n</w>
j a
ann a</w>
ti me</w>
re por
inni k</w>
am p
ak ili
reco gni
du c
ann u
ag re
tu ni
i r</w>
gi l
comm uni
uq tu
the ir</w>
m or
inu it</w>
o l
lir inirmut</w>
d ers</w>
aq sima
t san
ci al</w>
au se</w>
an ce</w>
p uq
k sa
k s
j au
go ing</w>
ar lu
ul a
tho se</w>
iqalu it</w>
au qtu
llu gu</w>
t or
mp son</w>
iq q
bud get</w>
b o
an t</w>
tho mpson</w>
t s
siv ul
p ut</w>
aw ak</w>
av ut</w>
an awak</w>
tama tu
in gi
ang u
siv u
m in
ju st</w>
f ir
ang a</w>
an il
a tau
unit y</w>
ti t</w>
r mik</w>
qauji ma
comm unity</w>
a pp
so me</w>
qan u
li ma
al ak
a it</w>
si man
q ta
ikkarri aluk</w>
pp or
il u
c c
an it</w>
pro vi
ami k</w>
p ri
kiinauj aqtu
d o</w>
v unga</w>
ar unn
an aru
ti k</w>
tau sima
o ff
nun ali
at ed</w>
ac k</w>
aan ni
h ous
c le
on al</w>
k el
emb ly</w>
ass embly</w>
as e</w>
an ga
maligali ur
at si
mor e</w>
kel vin</w>
kaju si
d ed</w>
c l
ar s</w>
akk u
a m</w>
tti ni
p le
fir st</w>
ab out</w>
ali ma
un ingit</w>
tu s
f e
alak annu
ver y</w>
v er</w>
titi r
puq iq
wh o</w>
puqiq nak</w>
mi lli
kk unn
anaru aq</w>
am i</w>
v ing
jun it</w>
t tin
p en
milli on</w>
j uq
c u
c en
s ed</w>
si b
r ni
r mut</w>
pi ji
ki uj
hous ing</w>
z e</w>
uq alima
ta b
mi li
l l</w>
is sivauta
communi ties</w>
tu q
mma ta</w>
jun ut</w>
ju mik</w>
gh t</w>
vi si
tu kisi
ma k
ul l
state ments</w>
al so</w>
stan ding</w>
mo tion</w>
kama gij
aqtu nga</w>
tu t</w>
ma t
com e</w>
an y</w>
unni it</w>
pin asu
or al</w>
o k</w>
liq pa
w ere</w>
angi q
> >
piqu ji
liri j
akk ut</w>
s in
kiinaujaqtu ruti
gav am
u k
pi q
ar a</w>
aqp ut</w>
unikk a
tu re</w>
tai mann
pu ki
maligaliuqti it</w>
k now</w>
ini q</w>
anil i</w>
wh en</w>
ik aj
d er</w>
0 0</w>
tin ut</w>
st u</w>
re ad
mi stu</w>
kisi anili</w>
ing a</w>
al ly</w>
s l
w e
tu r
ma ke</w>
be c
v el
qati gi
ni ru
m cle
ak i
wor k</w>
th in
ta v
ta amp
f f</w>
es e</w>
ati ve</w>
taamp san</w>
mcle an</w>
arv aluk</w>
ar ra
th ese</w>
tamatu m
re g
r ru
j o
he al
h e</w>
aru ma
ri j
pi cc
picc o</w>
e ment</w>
b ill
an iq
w el
off i
vi e
le gi
legi sl
itsivauta aq</w>
f un
ali r
memb er</w>
katima j
ili taq
f u
thin k</w>
e duc
c h</w>
bec ause</w>
aqpu gut</w>
apiqquti it</w>
ye ar</w>
ta k
t en
s ul
repor t</w>
qi mi
pi valli
k s</w>
do ll
u g
inn ga</w>
h ere</w>
c al</w>
u ju
par n
n am
mi t</w>
man i
heal th</w>
arv a
an git</w>
agre ed</w>
the m</w>
nalun ai
de vel
bill s</w>
as k</w>
u s</w>
tai ma
t ta</w>
itsivauta q</w>
gi aq
doll ars</w>
co uld</w>
res s</w>
puki r
ne w</w>
arn ing
api ri
wh ic
whic h</w>
uti q
tsan git</w>
ma y</w>
g o</w>
es t</w>
ullu mi</w>
liriji kkut</w>
g e</w>
atu inn
y ing</w>
re s</w>
pukir ng
piquji v
in for
un der
pre s
ig lu
e c
aj ji
uqausi tsangit</w>
ta anna</w>
sta ff</w>
re vie
o per
com ments</w>
co r
a inn
/ 2
pukirng nak</w>
ma ann
kku a</w>
k san
tin g
saq qi
piqujiv unga
piji tti
pigi aqti
nunal inni</w>
li ur
kk un
k attu
gavama kkut</w>
ag u
ta ul
re f
q it
mak l
le t</w>
i m
h ad</w>
con tra
c api
capi tal</w>
b li
unikk aan
su k</w>
makl ain</w>
un it</w>
liriji kkunn
k tu
is su
d on</w>
c y</w>
al auq
aki tu
to tal</w>
su ppor
s au
pu ri
mma ri
maligaliuqti t</w>
v ed</w>
respon sib
pro c
malig ak
k ing
k aan
uqausi kkut</w>
tav v
lir inir
kk anni
g e
e suk</w>
arma ta</w>
al lu
ak esuk</w>
a a</w>
ta uni
r am
jun ga</w>
ik aju
depart ments</w>
as t</w>
arma t</w>
al s</w>
a ff
199 9
ta akku
s ai
in to</w>
il lu
educ ation</w>
t ly</w>
su r
s uq
qtu t</w>
qq ut</w>
nunavu mi</w>
ni ri
m mi</w>
legisl ative</w>
l a
ho w</w>
con c
api qqut</w>
ann g
199 9</w>
w ant</w>
tor s</w>
tau v
pre mi
pi k
o k
ma t</w>
k an
in i</w>
g n
ex pen
committe es</w>
wh o
tau q</w>
recogni ze</w>
ple ase</w>
hav i
g ama</w>
ullu git</w>
pik u</w>
k ti
ili qqu
en ce</w>
atu q
uti t</w>
revie w</w>
r y</w>
q arni
infor ma
h is</w>
ga su
en ts</w>
devel op
ar ds</w>
th ing</w>
q ittuq</w>
pu bli
pijitti r
man it
katimajiral aan
ir qittuq</w>
in di
at tin
w i
re d</w>
ga j
e k</w>
al au
2 0</w>
tr ans
ta ke</w>
qan uq</w>
po si
p ula
gittu q</w>
gavam ang
g alu
atu qtu
angi ttu
u ki
su re</w>
minista mut</w>
f ac
alakannu ar
akk anni
z ed</w>
unikkaan git</w>
u tau
tun n
t ta
se con
read ing</w>
nuta ra
kiuj juti
ju sti
i j
f i
alakannuar k</w>
t sa
so ur
qu ti
publi c</w>
pu q</w>
o un
kaan tura
co un
y es</w>
who le</w>
taakku a</w>
t ro
sul i</w>
r r
q a
prog ram
o o
n or
n o</w>
minist ers</w>
g all
gall er
aqpu q</w>
ag e</w>
u juq</w>
suppor t</w>
premi er</w>
nutara k</w>
li k</w>
j ji
for e</w>
en ing</w>
develop ment</w>
ali k</w>
u si
to day</w>
si l
q il
program s</w>
justi ce</w>
jun i</w>
galler y</w>
ann gi
s si
ou se</w>
maligali uq
li e
h ouse</w>
cen tra
an s</w>
ak isu
aaq qi
a p</w>
a a
w n</w>
w er</w>
v u
uq s
tu k
sivu liq
q aq
m ullu</w>
in v
expen di
ati gut</w>
ar ti
ap pro
titi qq
t w
so cial</w>
k e
j ack</w>
informa tion</w>
ili ty</w>
h u
be lie
ad d
1 0</w>
/2 000</w>
re spe
po li
p pi
maligaliur ving
e l</w>
v es</w>
s y
s ing</w>
re sour
re gi
r an
na as
mili an</w>
di rec
c ated</w>
belie ve</w>
b ack</w>
al aur
a gut</w>
uni aqtu
th ro
sivul liqpa
nam mini
in c
di s
bu il
au juq</w>
ann ut</w>
akk a</w>
1 3</w>
uq ta
t e</w>
pij unn
pij ari
on g</w>
ma mi
m on
issivauta q</w>
ini q
h on
f ic
con si
aqp unga</w>
tama kkua</w>
si r
s ch
respe ct</w>
mo ve</w>
manit ok</w>
ma ta</w>
m b
le c
k saq
ing innut</w>
il lu</w>
el ders</w>
an nik</w>
1 1</w>
tamatum innga</w>
sivul li
re tur
p ur
o ri
m manga
kattu k</w>
in ga
g ra
fin ance</w>
centra li
avittuqsima jut</w>
arra agu
ari j
a ga
tw o</w>
tu ki
ter s</w>
ra m</w>
provi de</w>
prog ram</w>
pro b
me e
anir mut</w>
akisu k</w>
ti li
ti gu
t ter</w>
t saq
t ang
sh ould</w>
o ur
em p
de pu
aq pi
w ay</w>
uq su
titir aqsima
ter ri
o ver</w>
nalunai q
kiinauj aq
k il
i i</w>
gu ma
fe der
do cu
depu ty</w>
be ing</w>
aq tau
al lo
w ri
w on
visi tors</w>
v uq</w>
uqalima aqta
ul u
ti onal</w>
th ous
thous and</w>
se e</w>
s es</w>
r unn
naas auti
lirij ini</w>
jun ik</w>
c an
atti gu</w>
al a
y s</w>
v ing</w>
ur a
st and</w>
ri ght</w>
ref er
pl a
n uq
kisi ani</w>
ing innit</w>
de centrali
b r
arlu k</w>
ar mi</w>
ar e
un iq
ta ri
ta l
si on</w>
pula aqti
oper ations</w>
nu mb
lo o
iliqqu si
auj ut</w>
vi q
un a</w>
u u
r a</w>
ppor tuni
pi r
or ders</w>
o pportuni
n s</w>
iqq aqtu
ig l
arva arluk</w>
armanga ata</w>
resour ces</w>
qi ki
p atta
lu git</w>
j ariaq
issivauta aq</w>
iqq ittuq</w>
i mma
ar aj
add ress</w>
aaq qit
wh ere</w>
v it</w>
v ik</w>
tu res</w>
tr ying</w>
ta il
t sait</w>
repor ts</w>
recogni tion</w>
q am
piqujivunga aruti
pij juti
mo tions</w>
malig at
ma tu
ma in
j am
it s</w>
iqqanaij a
g in
feder al</w>
auqtu q</w>
as unni
app l
alakannu aq</w>
1 2</w>
w t</w>
v alu
v a
u ri
qimi rru
pl ans</w>
offi ce</w>
ma rru
ma anna</w>
k ed</w>
ilinni aqtu
h i
gavama tuq
g al
fin an
expendi tures</w>
emp lo
di ff
aul atti
aqtu nut</w>
00 0
uqausi q
un ut</w>
un nik</w>
tte n</w>
si d
s iniq</w>
pu gut</w>
mami an
maligaliuq ti</w>
lirijikkunn i</w>
l aur
issu e</w>
ar mi
ang inn
akk u</w>
ajji gi
ai r</w>
wel come</w>
th er
pro j
posi tions</w>
op ening</w>
o in
nunavu u
mat es</w>
m u</w>
l ak
aq si
z ek</w>
tau juq</w>
ra zek</w>
r mi
parn auti
m razek</w>
l in
katimajiralaan ut</w>
k ami
i ma
hu man</w>
g i</w>
contra ct</w>
conc er
atu ag
ar asu
ai v
wel l</w>
unn gi
ug h</w>
tab l
t ting</w>
st ru
sima j
qu llugit</w>
po s
pla ce</w>
minista it</w>
kiinauj alir
c ul
be fore</w>
b aker</w>
appl ause</w>
ans wer</w>
a f
vu gut</w>
tukisi gi
tin u
tin nut</w>
s ini
r ra
numb er</w>
mini s
lak e</w>
k in
inu kti
ikaj uq
f ur
em s</w>
de tail
cl er
aqtu mik</w>
an u
am ut</w>
ac t</w>
wri tten</w>
wor ks</w>
ti ve</w>
thro ugh</w>
sy st
re n
qiki qta
piq asi
patta tu
our able</w>
nun atti
j ju
il ang
gittu t</w>
consi der
commi t
commi ssi
ar ding</w>
ar atta</w>
aq qu
ai l
- 1</w>
v en</w>
uk ali
u ma
tau jut</w>
re p
qu vi
poli cy</w>
piliri p
ok alik</w>
mee ting</w>
kiinauj ait</w>
kiinauj a
iqqaqtu i
inv ol
ilitaq si
hon ourable</w>
fu ture</w>
cler k</w>
b ill</w>
at t
arni q</w>
app oin
aanni asi
w is
uq ati
unn ut</w>
ti llu</w>
t tauq</w>
t ri
spe ci
so me
secon d</w>
ru ma
re qu
n alau
lir ini
le v
ingi rra
g en
ar ama</w>
1 4</w>
un gi
stru c
state ment</w>
pl an</w>
opportuni ty</w>
jam es</w>
isuma q
indi cated</w>
ilitaq siniq</w>
es ti
e ar
d ate</w>
bo ard</w>
arni t</w>
aqti tti
ak si
aj a
un ik
ta ku
sti tu
st r
sima jut</w>
sa y</w>
s el
ri aq
on er</w>
no ti
man y</w>
maligak sait</w>
ma i</w>
llu ta</w>
li uq
l auq
ke e
inc lu
h un
h ap
g unn
g inn
ati ng</w>
ann i</w>
an other</w>
2 4</w>
ura aji
uning innut</w>
uj aq</w>
ti ta
si ur
q atta
on ly</w>
mamian aq</w>
m uraaji
lo w
l ast</w>
ki n</w>
juma vunga</w>
inir mik</w>
ing s</w>
fur ther</w>
e i
e ff
diff er
d ge</w>
co ur
c ur
bu sin
as ed</w>
arv ing
apiqquti q
ac h</w>
2 3</w>
wor king</w>
wh e
uqaq qau
ukali q</w>
trans por
tin ni</w>
taimann au
sti ll</w>
por t
pi taq
pattatu qtut</w>
p alli
ou s</w>
o d</w>
nunavu mi
na amma
katimaj juti
katima tuinn
isuma alu
fun ding</w>
finan cial</w>
con tinu
can ad
canad a</w>
aul l
arv ik</w>
apiqquti ga</w>
ann gil
whe ther</w>
uti gi
uning a</w>
under stand</w>
u vi
u jut</w>
tor y</w>
te ch
sch oo
schoo l</w>
s tu
s or
muraaji k</w>
mu ch</w>
maligaliur vi
loo king</w>
ll unga</w>
l and</w>
j juti
inn u
gn wt</w>
di visi
commissi oner</w>
cen t
c re
c arri
carri ed</w>
busin ess</w>
at es</w>
asi jji
arvi at</w>
a ch
1 8</w>
1 7</w>
y ak</w>
wi th
with in</w>
un der</w>
u pi
tuinn aqtunga</w>
ten ance</w>
tau ju
responsib le</w>
respon d</w>
r ini
prog ress</w>
proc ess</w>
pinasu ag
nuta r
n ex
nex t</w>
main tenance</w>
le men
king ul
ki u
juq qa
ji it</w>
e ver
d y</w>
con stitu
cl ari
b ay</w>
av v
auqtu t</w>
aqtu nit</w>
akk un
agre ement</w>
6 7</w>
w ard</w>
unn i</w>
transpor tation</w>
ti ttini
suq qu
qimi rr
puri i
pri ori
o yak</w>
min it</w>
ma in</w>
kati mani
k atu
in let</w>
ila gij
il angit</w>
havi ujaq</w>
havi oyak</w>
armanga aq</w>
angi qtu
angi qatigi
ang innut</w>
ak saq</w>
a ys</w>
1 5</w>
v en
tin nit</w>
tab le</w>
re sid
qauji gi
par a</w>
niri u
naasauti k</w>
ma de</w>
lo ok</w>
im port
esti mates</w>
ec ts</w>
b aff
baff in</w>
av i
as i</w>
ar ju
aniq tu
ag ain</w>
af ter</w>
>> applause</w>
uqausi ri
uq uti
ullu gu</w>
tavv ani</w>
su pp
su li
sta r
st s</w>
ra j
qil avv
q ang
pres ent</w>
pinasu aru
man ag
li qtu
li es</w>
kil ab
kilab uk</w>
ki su
inn u</w>
ili ties</w>
he ad</w>
ex pe
di tional</w>
contra c
com men
ch ang
c lo
arni q
are a</w>
ar mik</w>
an it
ak tu
1999 /2000</w>
z ation</w>
uqsu alu
uqalimaaqta uningit</w>
u m</w>
tunn gasu
tau junn
ta ik
su m
san it</w>
re commen
ran kin</w>
qam aniqtu
provi ded</w>
pos sib
piqasi uti
p au
p age</w>
o t</w>
nutar aq</w>
no w
minist r
ma jut</w>
m ang
lirinir mullu</w>
kk a</w>
kati llugit</w>
ing innik</w>
in ing</w>
gi ve</w>
gen er
g atta</w>
for ward</w>
di d</w>
der ing</w>
d es</w>
com ment</w>
ch air</w>
atau si
ar mut</w>
ami s
ad ministr
9 7
won dering</w>
ul auq
ttin nit</w>
ttin ni</w>
ti tti
ti it</w>
th an</w>
tau p</w>
sa me</w>
retur ns</w>
reg arding</w>
per hap
perhap s</w>
pe ti
pe ter</w>
nunatti ap</w>
n alli
mi llu</w>
l d</w>
inukti tut</w>
ingirra ju
h ig
f t</w>
b i
at e
as si
arn angittu
aq ullugit</w>
>> pattatuqtut</w>
ye ars</w>
u ta
tukisigi aruti
tuk sir
tab li
syst em</w>
qi ti
qanu ittu
q ai
pulaaqti nit</w>
po in
pin ga
nalun aij
n gi
maann aujuq</w>
kingul liqpa
kiinaujalir inirmut</w>
kan ata
juma v
i mp
h an
g ro
es tabli
ear li
e lec
e ct</w>
differ ent</w>
co l
c ations</w>
be tter</w>
au k
ar nut</w>
ar l
aqtu lirinirmut</w>
aqp at</w>
ang innit</w>
1 6</w>
wis h</w>
w est</w>
tu l
tech ni
tak en</w>
taimannau mmat</w>
ta am
rec ei
purii mmi
offi ci
n ur
ks au
j aul
in ut</w>
f ol
docu ments</w>
c ri
c le</w>
av ail
ati liur
aqti ttini
a head</w>
2 1</w>
ul aur
ti on
taam san</w>
sor ry</w>
s es
read y</w>
re e</w>
qauji kk
proc e
prob le
pi viq
p unga</w>
offici als</w>
manag ement</w>
m mik</w>
lu gu</w>
kaantura ak
issu es</w>
ing anik</w>
ga a</w>
g ini
earli er</w>
d ur
av it</w>
aul atsi
ar tu
aq tang
aq q
anir mik</w>
ang at</w>
al lir
aj auq
ai pp
ur ai
uq qu
uni r
un ik</w>
tun gil
ttu q</w>
ti ki
techni cal</w>
tai l</w>
responsib ility</w>
refer ence</w>
qanu il
qan ga
pres en
piqujivungaaruti it</w>
p at</w>
mi ksa
lin e</w>
lima at</w>
ksan git</w>
kami san
juma j
isuma gij
isu li
iq al
inni llu</w>
ilu unn
ili tari
i q</w>
gra tul
gavama kkunn
f is
en e
do wn</w>
detail s</w>
d one</w>
con gratul
com ple
at sa
arti cle</w>
am oun
alun g
akili uti
aanniasi uqti
uq palli
ul ar</w>
u sed</w>
tro le
trole um</w>
terri tory</w>
tama kkun
t su
san ik
sanik ilu
s ou
s en
regi onal</w>
qati q
proj ects</w>
pe troleum</w>
p ra
nunali it</w>
nu tti
n ak
ks at</w>
ki g
iqqanaijaqti it</w>
imma gaa</w>
h el
go od</w>
dur ing</w>
de ci
cent re</w>
b ene
aqtu tit</w>
aqtu nik</w>
aqtu gut</w>
aqta ra</w>
ang anik</w>
ang ani</w>
amma ri
administr ation</w>
9 -
1 9</w>
w an
uti ve</w>
uqau ti
un il
un asu
tsan ik</w>
ti k
taima i
ta lu</w>
si i</w>
ri l</w>
respon se</w>
resid ents</w>
reg ards</w>
re l
r ju
qujannami k</w>
poin t</w>
piqu ti
piq ju
pij ariaq
nunavu mmi</w>
ni llu</w>
ne e
man ir
ma ki
m ma</w>
l ong</w>
kiujjuti t</w>
kamagij aq
iqqaqtui vi
ila akku
ikaj uqtu
h ard</w>
gi li
fol low
ex ec
exec utive</w>
ex amp
examp le</w>
emplo ye
de tail</w>
cur ren
c ation</w>
avail able</w>
arva allu
aqtu ni</w>
aqti tau
appro pri
ap ril</w>
akk it</w>
aj au
ag u</w>
ad vi
ullu ta</w>
titiqq ait</w>
tama innut</w>
sivu mu
ses sion</w>
saq qit
s et</w>
r vi
quj ali
qauji s
pilirip vi
pau l</w>
nunavu t
nalunaiq si
n ed</w>
n ali
men tal</w>
liriji it</w>
k now
k at
it e</w>
h a
f e</w>
f ami
establi sh
decentrali zation</w>
d re
cul ture</w>
cor rec
continu e</w>
com ing</w>
avittuqsima ju
aul an
arvaallu k</w>
arning anik</w>
arni rmik</w>
an y
aj uqs
ai ppi
aanni aq
4 -
uti k</w>
uqs uqtu
uq ullugit</w>
ung alu</w>
u ku
tu u
to ri
th en</w>
te le
tau tu
ta uningit</w>
t u</w>
su b
siman i
s s</w>
r mi</w>
possib le</w>
pir uqpalli
pinasuaru si
pijittir au
pi it
piit a</w>
par t</w>
nun aq
nor th</w>
ni q
ne ed</w>
nalau ksa
mon e
mili anit</w>
mat ter</w>
manga ata</w>
lo t</w>
lirijikkunn ut</w>
katimajjuti tsait</w>
isumaq saq
invol ved</w>
inn au
hav ing</w>
h am
gavama kk
fis cal</w>
en g
employe es</w>
com p
b ro
ati onal</w>
as ked</w>
ar alu
aqp aa</w>
ajjigi inn
97 9-
979- 6
8 67</w>
unil u</w>
un gu
ttin nut</w>
tra ining</w>
tr y</w>
th ou
terri tori
tal king</w>
ta aksi
su uq
su cc
sivulliqpa amik</w>
siv unik
s h</w>
s auj
qu llugu</w>
pro duc
pra y
pijittir auti
ni uvi
mone y</w>
minista a</w>
lu tik</w>
know le
kiinauj anit</w>
katu jji
k angiq
kangiq &
ju gut</w>
in uquti
ili sai
iksivauta a</w>
ik u
ho me</w>
gu su
g re
dis cu
decentrali zed</w>
de al</w>
d n</w>
coun ci
counci l</w>
consider ation</w>
communi cations</w>
b re
aulatti ni
ati n</w>
ar y</w>
aq tausima
amoun t</w>
aanniaq arnangittu
aa aa
3 -
w atin</w>
uqausi ksangit</w>
uq auj
uju mi</w>
tunn gav
tungil inga</w>
tuinn aq</w>
taq qi
st er
some thing</w>
si gn
s ing
re ct</w>
qaujima j
pre ci
p aan
o i
o b
nun atsi
man iq
maligat sait</w>
lo gi
kiujjuti it</w>
kiinaujaqturuti ksa
kee watin</w>
katimatuinn aqtut</w>
ittu t</w>
it ems</w>
import ant</w>
hav en</w>
h al
g l
fe w</w>
f ul
en sure</w>
direc ted</w>
de li
cor por
c au
aq ju
appoin ted</w>
am e</w>
alauq put</w>
ab ly</w>
under standing</w>
un ti
unti l</w>
u s
tus aruma
tele communications</w>
stu d
servi ce</w>
rep lies</w>
re as
r ai
produc ts</w>
prob ably</w>
pivalli aja
n gu
mu st</w>
miksa anut</w>
maligaliurving mi</w>
ll atta
l i</w>
l at
kattu q</w>
inni q
ila gi
il auq
i ji
hal f</w>
gener al</w>
gavamatuq akk
g ani
fun d</w>
follow ing</w>
divisi on</w>
commit ment</w>
c k</w>
buil ding</w>
b arn
barn ab
barnab as</w>
avittuqsima juni</w>
avittuqsima j
atu li
atu aga
at taq
ar at
aqti llugu</w>
aq siman
apiqqu tinut</w>
ap preci
al i</w>
ajuqs aqtu
aaq q
99 /2000</w>
$ 3
uu ttu
ull uni</w>
uku a</w>
u unga
ti m
ter i
te ly</w>
tabl ing</w>
ta akkun
su sta
susta in
sustain able</w>
sh or
sh i
s ent</w>
qu ite</w>
pl ann
piliri vi
piliri ang
pi mmari
ma r
le tter</w>
kk alu
j auj
ini ti
i i
ham let</w>
ha am
en cy</w>
e co
eco no
co st</w>
c e
c ab
bene f
be t
as ingi
as ing
angi ju
ami su
al ready</w>
ak a
aj juti
ag g
$ 4
you th</w>
wan ted</w>
urai an</w>
uq arunn
unn ga</w>
ullu mi
ul auqtu
ug alu
u ji
tuksir auti
tu saq
taimann a
tabl ed</w>
ta ry</w>
t or</w>
su ch</w>
retur n</w>
reg ular</w>
pray er</w>
piji tsi
pi sima
ou t
or gani
nuq q
nee ds</w>
nalun air
lu ta</w>
llu tit</w>
kiinaujaqturuti ksan
ki v
katujji qatigi
inu lima
in et</w>
ilinni aqti
i pp
i mann
i m</w>
h ans
hans ard</w>
gu ess</w>
gi llu</w>
gavamakk ung
ga k</w>
expe c
col le
ci p
ch il
cab inet</w>
bo dy</w>
bo ards</w>
b ased</w>
atiliur utau
assi stan
aru ti</w>
ar r
aqp avut</w>
aq atta
anga juq</w>
ak su
ak sa
ajauq tiit</w>
air s</w>
ai th</w>
aanni aqtulirinirmut</w>
/2 000
$ 4</w>
$ 1</w>
uti ng
uq all
unit s</w>
ti tau
th ir
ta mma
t t
suuq ai
st ri
spe cial</w>
spe ak</w>
sivuliq ti
secon ded</w>
san ik</w>
re ali
qu ir
qq auj
qi ting
q su
pro u
pigi aruti
pi lu
par na
p r
o ver
nunavut mi</w>
minis taup</w>
me et</w>
maki ma
lu unniit</w>
liriji kkun
lev el</w>
katimajiral a
k ainn
it y</w>
iqal unni</w>
inu usi
gij au
gal br
galbr aith</w>
g h</w>
fin d</w>
fic ation</w>
f av
ever y
en ti
e ach</w>
be half</w>
arni rmut</w>
aqtu q
aqtu mi</w>
aq ati
angiq pi
angi juqqa
akitu junut</w>
ak ainn
aff airs</w>
2 2</w>
2 000</w>
y et</w>
y de</w>
won der</w>
w ays</w>
uq atta
u se</w>
u mi
tus aqti
titiraqsima jut</w>
ther n</w>
th ree</w>
th ings</w>
te ach
sivunik sa
sivu li
sai d</w>
s pen
ri ver</w>
r tu
qu ar
qaujikk auta
puriimmi a</w>
puri t</w>
prou d</w>
pigiaqti taujuq</w>
o wn</w>
nunavu mmi
nunal innut</w>
nunal innu
noti ce</w>
ni g
ne go
nego ti
llu unniit</w>
le ad
kiuj unn
k ut</w>
iq qau
ing mi</w>
he ad
h op
h app
gavam anga</w>
fav our</w>
f o
f er
co -
cl yde</w>
c ann
aul anirmut</w>
atu rni
ati ttini
ati k</w>
ar attigu</w>
aq quti
anga jumik</w>
ang anut</w>
amis ut</w>
ali q
ali it</w>
al e</w>
ac tu
w er
vi uk</w>
vi du
va i</w>
uqalima arvik</w>
ullu tit</w>
u gh
tura aqti
tun ga
tra ditional</w>
tor ate</w>
to ge
toge ther</w>
ther e
there fore</w>
te ll</w>
tau san</w>
ta x</w>
st e
si mann
shi p</w>
qilavv aq</w>
qaujikkauta uningit</w>
qan i
provi ding</w>
plann ing</w>
parn aij
par ti
or s</w>
o pe
nor th
n git</w>
mi s</w>
mat ters</w>
knowle dge</w>
k sait</w>
k angiqtu
kangiqtu ga
jumav ara</w>
isumaqsaq siur
inu u
inter im</w>
inn aq</w>
ini up</w>
ing anut</w>
indi vidu
in f
il e</w>
iglu lirinirmut</w>
i v
haam l
h er</w>
h er
gal purit</w>
g ran
g lu
fu l</w>
es s
emplo y
docu ment</w>
do ing</w>
direc torate</w>
de al
conc lu
con tri
c tion</w>
c ti
c er
c ed</w>
b est</w>
au p</w>
as king</w>
arni r
arn i</w>
ang innik</w>
al lu</w>
ak sur
y be</w>
wh y</w>
we en</w>
we ek</w>
vi it</w>
v ol
uv valu
uti gij
ur lu</w>
uqta qtu
uq qau
unn gittuq</w>
uki uqtaqtu
tun g
tt le</w>
tin nik</w>
ti mi
tausima jut</w>
taul auq
tai kkua</w>
suuqai mma</w>
struc ture</w>
sta ff
sivulli uj
siv uni
sin ce</w>
se ver
se ts</w>
s ma
r ul
qil ami
qikiqta alu
pre par
pp at</w>
po logi
piquji vunga</w>
peti tions</w>
p ata</w>
or der</w>
on al
onal d</w>
ol d</w>
nur ses</w>
nunavuu mi</w>
noti ces</w>
manga aq</w>
maligaliurving mut</w>
maligaliuqti mut</w>
maliga q</w>
ma ybe</w>
ma ksa
ma king</w>
m er</w>
li ttle</w>
lev i</w>
l ar
l angu
langu age</w>
jo ur
ja uni
it ta
isuma gi
ir uma
inn ullu</w>
ikkarri alu
ikaj uqti
head quar
gra du
f ri
elec ted</w>
eff or
dre n</w>
do es</w>
d onald</w>
d ations</w>
con sul
cle ar</w>
clari fication</w>
ci es</w>
chil dren</w>
cann ot</w>
bo th</w>
bet ween</w>
b al
aw ay</w>
avittuqsima junut</w>
avittu q
atiliurutau majut</w>
arni k</w>
aqta vut</w>
angi ruti
ak s
ajuqsaqtu lirinirmullu</w>
aaqq ik
3 0</w>
1 2
wh ile</w>
uv ut</w>
uti li
uqausi tsaq
uq aruma
un a
u l</w>
tuk si
thir d</w>
supp lemen
stud ents</w>
sima ju
sever al</w>
sanikilu aq</w>
requ i
qan uqtu
q qau
pro po
priori ties</w>
piliri qatiq
piliri angu
per i
paan ap
p ai
oo d</w>
nammini q</w>
n ess</w>
mo st</w>
mmanga ata</w>
min ut</w>
maksa gak</w>
ma ppi
m mut</w>
kiv allir
kati ttu
kangiq& iniup</w>
kamagij ariaq
kajusi juq</w>
k a
juti t</w>
j ari
in unnik</w>
imp lemen
ilitaqsi juma
glu ktu
gi ven</w>
gavamakkunn ut</w>
fin al</w>
f y</w>
e ven</w>
e st
e ments</w>
e d
cu s</w>
cour se</w>
commit ted</w>
co sts</w>
chang es</w>
ch all
c ally</w>
au ju
atu qta
as sets</w>
as ingit</w>
ak ir
ai ttu
a pologi
1 0
yo n
we e
vol ving</w>
ven u
unn gittu
unn gil
uni rmut</w>
tun ga</w>
ti tauni
ti gu</w>
territori es</w>
tauv ak
tau junut</w>
stan d
speci ally</w>
siv unit
sh e</w>
saq q
s inirmut</w>
re volving</w>
re venu
re ad</w>
qujannami iruma
quir ke</w>
qu tti
qu si
qauji saq
qan git</w>
q all
proce ed</w>
pri v
pri or</w>
posi tion</w>
pi ru
pi ju
pa y
p ang
ous ly</w>
on ce</w>
o sed</w>
n ing</w>
n anu
nanu lik</w>
mi sta
maligak sanit</w>
lirinir mik</w>
king uni
ki uti
ki ul
katimaj ing
jo a</w>
ir e</w>
ing mut</w>
ilinni av
ili s
ikajuq tau
hel p</w>
ge tting</w>
g uti
g joa</w>
fu el</w>
f a
en tly</w>
en d</w>
e specially</w>
di tion</w>
d ra
concer n</w>
br ing</w>
atuqtu aruti
atu utiq
attin nit</w>
at si</w>
asingi llu</w>
aru tta</w>
ariaq arni
apiqquti tsaq
angi r
ang inni</w>
ami ttuq</w>
ak ul
ajjigiinn gittu
a i</w>
7 0</w>
5 -
ye ster
yester day</w>
ving mut</w>
v vi
v i</w>
v avut</w>
uq atau
upi gusu
uning anik</w>
ullu unniit</w>
u sing</w>
tus aruti
tunga agut</w>
tu pi
ti tsi
thou gh</w>
taul aur
ta inn
ta in
t ti</w>
t re
supplemen tary</w>
str ong</w>
sta ted</w>
so ci
sel f</w>
san i
san ders</w>
r nut</w>
r n
qu ji
q ju
puq ir
priori ty</w>
pijjuti gi
pij ju
pi vi
p ass
or y</w>
nunavu up</w>
north west</w>
n gittu
n angiq
mi k
matu ir
ma kku
ma j
ll er</w>
la w</w>
ku gluktu
kugluktu k</w>
ktu q</w>
kin d</w>
kiinauj aqta
ki mmi
katimaji it</w>
kati man
kanata mi</w>
k aiv
j ai
inn gi
ing ani</w>
im pro
i p
hop e</w>
hig h</w>
he ard</w>
gavamatuq akkut</w>
g es</w>
ful ly</w>
er e
employ ment</w>
econo mi
di dn</w>
depart mental</w>
deal ing</w>
con struc
ch ar
c ase</w>
bud ge
ati ves</w>
aqp a</w>
aq t
aq para</w>
apiqquti t</w>
anil lu</w>
angi jumik</w>
ang i</w>
amma ta</w>
ag es</w>
a mali
2 6</w>
1999 /2000
1 st</w>
$ 5</w>
yon e</w>
w ed</w>
uv uq</w>
ur ni
uqaq ati
uq uj
up on</w>
unni iq
unngi mmat</w>
uning anut</w>
unikka ali
ul auqtuq</w>
u junut</w>
u juni</w>
tusaruma tuinnaqtunga</w>
tu q</w>
tu lli
tsu tik</w>
ts at</w>
tion ed</w>
tigu sinirmut</w>
ti kku
ti g
teri a</w>
teach ers</w>
tavv ani
taul uni</w>
taq q
tama ani</w>
ta vut</w>
ta tions</w>
siman ir
si uti
ri s
ra structure</w>
quj al
qu l
qauji mani
puqir nak</w>
proj ect</w>
proble m</w>
pinga ju
pi qqu
pi lirini
pang ni
paanap a
paanapa asi</w>
p y</w>
p ini
organi z
on g
o p</w>
nor thern</w>
niru aqti
niriu gij
ni ur
n gittuq</w>
min d</w>
me an</w>
matu iq
maann akkut</w>
m ul
liriji kk
lir iniq</w>
li q</w>
li ab
lat er</w>
l ed</w>
kiinaujaqturuti ks
kig ga
ki aq</w>
kangiqtuga ap
kan atau
kanatau p</w>
kaiv ainn
jau sima
ingi rr
inf rastructure</w>
in tro
ilinniaqtu lirinirmut</w>
ili ta
ikkarrialu u</w>
ik u</w>
headquar ters</w>
gi arni
g akku</w>
ex pl
ever yone</w>
er ship</w>
dra ft</w>
discu ssi
de fic
cri teria</w>
constitu ency</w>
com es</w>
buil t</w>
b asi
auti gi
atu liq
attin nut</w>
ati tti
ata uni
ata a</w>
at ti</w>
at i</w>
as h</w>
as es</w>
arn ingit</w>
arl uni</w>
ar uni</w>
ar akku</w>
api q
anga juqqa
all atta
akitu jun
aju k</w>
ag l
ac coun
8 7
5 0</w>
3 1</w>
2 6
& u
$ 6
we ver</w>
v ari
v a</w>
uqtu q</w>
uqaqqau gama</w>
unni q
tus au
tura ang
tuq a
tu u</w>
tsan ut</w>
ti cal</w>
th s</w>
tamakkun innga</w>
taimai mmat</w>
ta p
star t</w>
speci fi
specifi c</w>
sivulliqpa ami</w>
si q
san ut</w>
recei ved</w>
re ally</w>
qanuil inga
q ari
pur ch
proble ms</w>
pinga s
pi it</w>
p er</w>
o w
o pp
nunatsi ap</w>
nun iq</w>
niru aqtau
naamma s
mmanga aq</w>
mi jut</w>
men tioned</w>
maligat saq</w>
maligak saq</w>
kkanni ruma
kiul vin</w>
kiinauja lirij
katittu gi</w>
katima vi
ing at</w>
in put</w>
in de
ilu ani</w>
ilinni anirmut</w>
hun ter</w>
ho wever</w>
hig h
hi st
hi m</w>
h all</w>
gre at</w>
gavamang anut</w>
gav amali
galu aqtunga</w>
g y</w>
fun ds</w>
for m</w>
economi c</w>
di rect</w>
d ays</w>
d avi
constitu ents</w>
concer ned</w>
colle agu
clari fy</w>
c s</w>
c ing</w>
aul ajjuti
auk aktu
attin ni</w>
at tauq</w>
aru vit</w>
armanga atta</w>
ar ut</w>
aqpi it</w>
appropri ation</w>
appoin t
apologi ze</w>
apiri juma
apiqquti gi
any thing</w>
anng at</w>
angiqatigi i
angi qati
ang unasu
allu tik</w>
akili utit</w>
ak uni
ad ditional</w>
aaqqi i
4 8</w>
3 3
2 4
2 000
- -
wee ks</w>
v it
unn us
unikk aaq
uju it</w>
uj unn
uj ji
u junit</w>
u ann
tuksirauti liuq
ts ini
ti llugu</w>
tho ri
th y</w>
taik ani</w>
taaksi ij
ta lli
t anna</w>
succ ess</w>
sivuliq ti</w>
sivul lir
siv uq</w>
siv au
si tu
si ons</w>
saqqit tauningit</w>
rtu ng</w>
re presen
qimirr uni
qauji juma
qamaniqtu armi</w>
q auj
q aaq
prepar ed</w>
piliri qatigi
pigiaqti tti
pi juma
pi iku</w>
peti tion</w>
part n
pangni rtung</w>
pa ying</w>
p anni
p aat</w>
o ff</w>
nunalinnu ang
niur ru
nig gi
mini k</w>
mi tsa
marru unnik</w>
marru uk</w>
makima inn
liqtu q</w>
lima ami</w>
li sh</w>
le ga
lega l</w>
kkanni q</w>
kee p</w>
kamagij a
jun ni
ju ksau
jau lutik</w>
j ara</w>
isuli tti
iqqanaijaqti ta
inni r
inn atuq
inir mi</w>
ing inni</w>
individu als</w>
inclu ding</w>
in come</w>
igl uq
i sa
i mi
i d
guma junga</w>
gavama kkun
fami ly</w>
fac tors</w>
f lo
f ar</w>
expendi ture</w>
establish ed</w>
discussi ons</w>
detail ed</w>
defic it</w>
davi d</w>
curren tly</w>
curren t</w>
correc tional</w>
corpor ation</w>
construc tion</w>
congratul ate</w>
c ap
bal ance</w>
aw are</w>
au thori
attu t</w>
attin nik</w>
arning innut</w>
armanga at</w>
arlu ta</w>
arlu git</w>
aqpi t</w>
aq ullugu</w>
annu aq</w>
angiqpi sii</w>
angi ta</w>
angi ru
an u</w>
alaur mat</w>
akul liq</w>
akitu ju
akir aqtu
ak saq
actu ally</w>
a y
> ></w>
4 0</w>
3 0
2 7</w>
2 5</w>
12 00</w>
- mi</w>
x 0
x0 a</w>
wi tho
witho ut</w>
wh ere
vi de</w>
uti rvi
uti ons</w>
ur aan
uqati gi
unn ginn
uni aqtut</w>
ugh out</w>
tun gili
tulli a</w>
tu av
ttu u
ts inirmut</w>
tr av
too k</w>
to ld</w>
titir arvi
tik me
tikme ot</w>
thro ughout</w>
ter ms</w>
ten d</w>
tamatum unga</w>
ta ge</w>
ta ak
t ru
sum mer</w>
su urlu</w>
spen ding</w>
sou th</w>
so on</w>
so lu
sign ed</w>
si tting</w>
si m
shor t</w>
ser i
sel ves</w>
san aju
san ajau
sa mik</w>
s po
requ ire</w>
recogni zed</w>
quj an
qu kiuti
qqu ur
qauji man
qanga ta
q inu
pr in
piqujivunga aruti</w>
piqju ang
pinasu aga
pijari iq
pi qati
pass ed</w>
p at
ori gin
ok ay</w>
o c
niggi ani</w>
nam e</w>
nak ati
n alu
mmi junga</w>
mitsa anut</w>
matuiq si
man i</w>
maligaliurvi a</w>
maj or</w>
lima anit</w>
li ves</w>
li ght</w>
le ase</w>
lauq put</w>
l ess</w>
ksan it</w>
kiu juma
kil li
kiinauj atigut</w>
kiinauj anik</w>
ki tikmeot</w>
ke vin</w>
kajusi gi
kaivainn aqtuq</w>
k saq</w>
ju it</w>
ju innau
jo h
ja an</w>
ja ak</w>
ittu nit</w>
isuma al
iqqau ma
iqqanaija at
inn ar
in asu
implemen tation</w>
ilaakku unga
ila ak</w>
ikaju usi
he ar</w>
h 0</w>
gradu ates</w>
f ini
es n</w>
eng lish</w>
el se</w>
effor ts</w>
e very</w>
e valu
do esn</w>
contri b
contrib utions</w>
congratul ations</w>
comple ted</w>
cau cus</w>
c tions</w>
c am
cam bri
cambri dge</w>
bre ak</w>
benef its</w>
avittuqsima juq
aul anir
auj unit</w>
atuli quj
atuaga q</w>
ate ly</w>
as soci
arr ang
arlu tik</w>
arlu gu</w>
ar it</w>
aqtu mut</w>
aqti tauni
aqti ta
appreci ation</w>
ann gittuq</w>
ang ng
ami g
alau k
al akk
aksu ru
akk anir
ag lu
aaqqi gi
979-6 8
979-68 11</w>
979-6 7
979-67 70</w>
87 7</w>
7 26
726 6</w>
4- 7266</w>
33 4-7266</w>
0 h0</w>
uti tti
uti nit</w>
uqausi ksaq
uqauj jaul
uqau s
uqaqti up</w>
uq ullugu</w>
up i</w>
uniaqtu nit</w>
un asunni
ullumi mut</w>
ull unga</w>
ull a
ul u</w>
ul ation</w>
uki i</w>
u ukii</w>
u mi</w>
tun i</w>
tuinn au
tuinn ariaq
tin git</w>
ti uri
ti liur
ti gi
tauv uq</w>
tauju mut</w>
tau jariaq
tamatum inga</w>
ta in</w>
t y
t es</w>
sy m
su u
star ted</w>
siv e</w>
siv alli
si de</w>
sh o
sa mut</w>
s unni
ro ss</w>
rni q</w>
r l
qu ali
qiting ani
qiti rmi
qimirr un
q auta
qauta ma
pulaaqti nik</w>
po wer</w>
piqu tinut</w>
pijjuti q
pi usi
pi qatigi
pi llugu</w>
parn au
p op
pop ulation</w>
p ay</w>
or d
ope n</w>
ol s</w>
ol ay
olay uk</w>
o vide</w>
nunavumi ut</w>
niru aqta
niriu pp
negoti ations</w>
nalauksa ag
n u</w>
mon ths</w>
mista k
mi ght</w>
ll uni</w>
li vai</w>
kinguni agut</w>
katima uti
kati qati
kangiqtugaap ingmi</w>
kamisan aul
kamisanaul aukaktu
kajusi tti
ju upi</w>
ju tigut</w>
jo b</w>
isu mali
iqqanaij aat</w>
iqalu ttuu
inde ed</w>
in atta</w>
ilinniaqtu liriji
ilinni arvi
il ul
i pur
i e
gu vit</w>
gro w
gil auq
for tun
flo or</w>
fe el</w>
f oun
every body</w>
es ses</w>
en ds</w>
e ast</w>
divisi onal</w>
di es</w>
deli very</w>
de si
d son</w>
d ent</w>
concer ns</w>
con tro
c amp
b le</w>
avittuqsima junit</w>
att ani
att an
as n</w>
arvi gi
arraagu ttinni</w>
arra ag
ari alik</w>
ari aksaq</w>
ar sima
ar avit</w>
ar a
aqti tsi
aqp a
aq uti
aq qa
apiqquti k</w>
api qusi
ann oun
ann gittu
ani q</w>
angiqati qaq
ang ata</w>
amma t</w>
all ai
alakk annuaq</w>
al auqtuq</w>
akkanni runn
ak iq
ak ing</w>
ai qsima
agg uq
ac c
aanniaqarnangittu lirinirmut</w>
aan ut</w>
aaaa aaaa
4 7</w>
$ 5
x ima
wor ked</w>
where as</w>
w ards</w>
vi ously</w>
v ara</w>
v alu</w>
v ak
uv uraian</w>
uunga ju
uti llugu</w>
uri ash</w>
uqtu llu</w>
uqall aqati
uq ata
up valu
uning innit</w>
unga si
ung inn
un gittuq</w>
ull i</w>
ugalu aq</w>
u taqqi
u sa
u ga
u aj
tuu tuu</w>
tusau ma
tus aqtitti
tuqa lirijini</w>
tuni si
tuni jau
tuksirautiliuq uj
tuksi arniq</w>
tuki sin
tuki q
tuki li
trans l
ting s</w>
tin ni
tili uri
ti tut</w>
ti llugit</w>
ter n
tausima junit</w>
tau junit</w>
tamatu ma</w>
tama kku
ta king</w>
staff ed</w>
sta te</w>
sma ller</w>
siman it
sima vut</w>
sima vuq</w>
sil auq
sho w</w>
saqqi titti
sa ying</w>
sa uni
s we
s pi
ro le</w>
ri jau
responsib ilities</w>
recommen dations</w>
recei ve</w>
rec ru
re ques
re mar
remar ks</w>
quvi asu
q n
q at
pur su
provi des</w>
po st</w>
ple ased</w>
piliri ari
pijittirau tinut</w>
pi raj
panni qtu
p ast</w>
p ali
p ages</w>
off en
nunavuu mut</w>
nunal inni
niri unniq
niqtun aqtut</w>
ne w
naammas aqtut</w>
n n
n atti
n an
mo de
mma qqu
mee tings</w>
me di
mani ittuq</w>
ma d
m innik</w>
lu talu</w>
liur ni
li st
li it</w>
l es</w>
l au
kk u</w>
kiuj au
kiinaujaqtu tut
kiinauja liriji
kiinauj j
ki s
kat tung
kaju sini
k p
junn aq
jumaj ara</w>
joh n</w>
jo bi
jobi e</w>
itta rni
iqqaqtui ji
iqqanaija atsa
iqqanaij aqtu
intro duc
inn ga
initi atives</w>
ini k</w>
in unnut</w>
in mates</w>
iluunn atik</w>
illu tsaq
ilisai ji
ili ma
id enti
i de
i ci
hu dson</w>
ho pe
gl en
glen n</w>
gij a
gavamakkunn i</w>
gavama q
gav it</w>
g est</w>
g at</w>
f our</w>
f er</w>
expe ct</w>
e qu
cour t</w>
coun try</w>
correc tions</w>
colleagu es</w>
chang e</w>
chall eng
ce p
buil d</w>
bri e
avittuq simani
aulan ing
auj unn
ati liuq
ar ini
ar ing</w>
aqtu tik</w>
aqti llugit</w>
aq qau
appro xima
ap pe
anngil aq</w>
ann gittut</w>
angiq tausima
ang li
an ik
amma lu
allo cation</w>
alaur mata</w>
al innit</w>
akk aniq
akili qtu
ajjigi i
aj ja
aj j
ai q
agre e</w>
add res
ac ting</w>
ac cor
6 9</w>
1999 mi</w>
$ 20</w>
wh ale</w>
w ai
va git</w>
v akka</w>
utirvi gi
ur red</w>
ur n
ur mi
uqausi rij
uqausi ks
uqaqqau mmat</w>
up uraian</w>
up piru
unnus akkut</w>
unikk aat</w>
un gittut</w>
un gittu
ull atta
ula ajuk</w>
ul uni</w>
ul t</w>
ukiuqtaqtu mi</w>
uk i</w>
uaj am
uajam uungaju
u tauni
u atti
tunngav i
tunngasu tti
tunngasu kti
tuinn a
tsa mut</w>
ts au
titiraqsima junut</w>
tin n
tim es</w>
tili jaulutik</w>
tav vunga</w>
tamatum unnga</w>
taimann ak</w>
ta r
syst ems</w>
sym pa
suqqu i
su tik</w>
stan ds</w>
sivuniksa mi</w>
situ ation</w>
sir mi</w>
sima juq</w>
sima jumik</w>
si ta
si mang
sch o
scho ols</w>
san aj
s ung
s ang
ru tta</w>
ris di
revenu es</w>
regi ons</w>
ref lec
rai sed</w>
r lu</w>
qtun ut</w>
qq a
qi tur
qauji mann
qanuqtu ur
pula arving
pl ac
pivalli aju
piqqu si
piliri ji
piliri aq
pi ula
per s
per ki
perki son</w>
p para</w>
p m</w>
p inn
p h
off ic
nuta angu
ni l
ne c
nammini q
na in
n wt</w>
mor ning</w>
man date</w>
maligaliuqti ujuq</w>
mad ame</w>
m inu
lo cal</w>
llu tik</w>
ll ari
liab ilities</w>
li fe</w>
legisl ation</w>
l s</w>
l ing</w>
ku a
ksaq siur
ksa mik</w>
kkanni runn
kivallir mi</w>
katimatuinn aqtunut</w>
kati manit
kan ann
kami sin
k i</w>
k all
k aj
juq qaaq
jun u</w>
ju risdi
jariaq arni
it ed</w>
iqq ai
inuu su
inclu ded</w>
in it</w>
import ance</w>
illu unniit</w>
ilitaqsi jumavunga</w>
ilaakku uqtullu</w>
il aur
ig ur
i mmat</w>
hun d
hund red</w>
gavama vut</w>
g n</w>
fi ed</w>
fami lies</w>
fac ilities</w>
f ood</w>
ex pres
ex ac
exac tly</w>
devel op</w>
deci sion</w>
de di
cti c</w>
contrac ting</w>
can a
cana di
camp s</w>
c ut</w>
bi p</w>
b er
atu r
at angi
assistan t</w>
asi anik</w>
as unn
ar ctic</w>
aqsiman ingit</w>
aqp ata</w>
aqp aat</w>
aq qi
approxima tely</w>
appropri ate</w>
anngi mmat</w>
ann gij
angiqatiqaq in</w>
angiqatigi ig
an nit</w>
an ittu
allo cated</w>
alauq puq</w>
akkanni ruma
aj ju
aippi tauluni</w>
ad dition</w>
ach ie
ac ross</w>
3 6</w>
3 -1</w>
$ 3</w>
vie w</w>
vel s</w>
v in
uuttu utigi
uti llugit</w>
ur s
uqausi rnut</w>
uq a
up alung
upalung aij
unni ir
uning innu</w>
uni qu
unga ta
u li
tuinn arnut</w>
tu s</w>
tu ju
tti gu</w>
to wards</w>
tiuri tu
tion s
tin u</w>
tin ga</w>
tiki r
tavv u
tama innik</w>
ta it</w>
sympa thy</w>
su ungu
str ate
sta tus</w>
solu tion</w>
sima mmata</w>
sima lir
sh ed</w>
se ni
seni or</w>
san aja
s pa
spa ce</w>
s innut</w>
s auti
s at</w>
ro w</w>
refer red</w>
recommen ds</w>
re st</w>
re present</w>
r on
r inirmut</w>
quj a
qu llu
qu ic
qtu q</w>
qn aq</w>
qautama at</w>
qanu inn
q sau
puki qnaq</w>
pro pos
propos als</w>
priv ate</w>
poli cies</w>
pivalli aj
piq ata
pilu aqtumi</w>
piliri j
pijittirau tin
pi uniq
pi kku
pi ij
p avut</w>
p as
ow n
over all</w>
oun d</w>
origin al</w>
ord in
opportuni ties</w>
opp osed</w>
ok i</w>
offi cial</w>
nuta amik</w>
nuq qang
nunavu mut</w>
ni lu</w>
ne y</w>
na am
n aittu
mmi ut</w>
mma ti
minista mik</w>
mi si</w>
mi s
mi j
mann gat</w>
maligaliurvi up</w>
maligaliur vik</w>
mali giaq
mak li
lu ti</w>
loo lik</w>
lirijikkun nit</w>
lima anut</w>
li mit</w>
li min
li gh
lead er</w>
le vels</w>
kiinaujaqtutut sait</w>
kiinaujaq arvik</w>
kig g
kamisan a</w>
kaju sivuq</w>
kaantura amik</w>
k ami</w>
jun e</w>
jour ney</w>
jju tinut</w>
jai misi</w>
j j
j avut</w>
isuma ksaqsiur
is ul
ir n
iqqanaijaqti nut</w>
iqq atu
invol ve</w>
inulima anut</w>
ingirraju u
ingirraju lirinirmut</w>
ilita rij
ili manir
ikaju uti
ikaju rni
ik siv
iglu it</w>
ig loolik</w>
hous es</w>
her i
haaml akkut</w>
h ar
gu n</w>
govern mental</w>
go es</w>
gil anga</w>
gij unn
gi tti</w>
ga q</w>
ga angi
g ulu</w>
g r
for mul
fer ence</w>
fac t</w>
fac ility</w>
expl ain</w>
expec tations</w>
establish ing</w>
est ed</w>
en oki</w>
en ces</w>
dis solution</w>
d ings</w>
d ation</w>
cre ation</w>
cor rect</w>
com mo
co- ordin
cl ai
cer tain
cap ac
capac ity</w>
benef it</w>
be ach</w>
b it</w>
b er</w>
aull uni</w>
aulanir nut</w>
aulaning innu</w>
aul auq
auju mi</w>
atuq tau
atuli quji
atuinn au
at saq
as inginnik</w>
arvi ani</w>
arra agu</w>
armanga attigu</w>
arlu tit</w>
ar ound</w>
ar ms</w>
aqtu qaq
aqpi uk</w>
ann gu
aniq sau
anga juqqaaq
an ta
ami t</w>
ami akk
allo w</w>
al though</w>
al tern
al auqtut</w>
akkun nit</w>
akk unnut</w>
akili utau
ak ik
ai llu</w>
af ter
advi sed</w>
ad op
ac commo
aaqqit tau
aan i</w>
a ag
5 0
4 -1</w>
3 4</w>
$ 1
z ing</w>
wit ness</w>
w ait</w>
v o
uvvalu unniit</w>
uv annik</w>
utirvigi lugit</w>
uti ttini
uti gut</w>
urs day</w>
uq arasu
unn g
unikka aq</w>
un d</w>
ul dn</w>
u liqtu
u kk
u gaj
tura ag
tunn ga
tuki mu
tuav irn
tu aq</w>
ts uni</w>
titiqq at</w>
tikir arju
ti q
ti cs</w>
th ursday</w>
th ers</w>
ter m</w>
te l</w>
tavvu una</w>
tautu g
tau jumik</w>
tal k</w>
tak es</w>
taimanna uninganut</w>
ta x
ta un
ta s
succ ess
sub si
su me</w>
stand ards</w>
stan ces</w>
st re
spo ke</w>
spe aking</w>
sivuli uqti
sivu liqpa
sivuliqpa ami</w>
sivau taup</w>
siv ut</w>
siv unga</w>
sima vugut</w>
sim on</w>
sil ata
si tion</w>
si s</w>
si ki
sen d</w>
se ems</w>
saqq iq
san ir
san i</w>
sai man</w>
sa l</w>
sa innaq</w>
sa alak
saalak s
s p
s k
rul es</w>
rul e</w>
ri t</w>
requi red</w>
regi on</w>
re se
re mind</w>
r mit</w>
r ing</w>
qu lluta</w>
qiti ani</w>
qimirru v
qikiqta aluk</w>
qaujima vunga</w>
qaujima junga</w>
qaujigi arni
qanuilinga lir
qan gi
qam anittu
q tau
q atti
pro mo
pp ut</w>
po wer
po se</w>
pivalli asi
piqujivunga arut</w>
piq atau
pilu aqtumik</w>
pi junit</w>
peri od</w>
pas s</w>
parti cul
parti cip
pa al</w>
oper ation</w>
ong er</w>
offen ders</w>
ob viously</w>
nuq qanga
nunavumi unut</w>
nun ata
niru aq
ni u
natti lik</w>
nammini qarni
nalunai qta
nali qq
nalau tsa
n ullu</w>
n atsi
n ani
mu anga
mode l</w>
mistak es</w>
minis taujuq</w>
mi qqu
mi lu</w>
me ans</w>
matuiqsi jjutinut</w>
maligaliuqti uqati
maligaliuqti nit</w>
maligali rini
ma ij
m l
m ed</w>
lirinir mu</w>
lirijikkun nik</w>
liq pat</w>
lima aq</w>
li t</w>
li qu
li angu
legisl atu
le ct</w>
la g</w>
kkalu aqtunga</w>
kingulliqpa amik</w>
kigg aqtu
ki kku
kati tsutik</w>
kaj ungi
k ata
k am
it su
iqqanaijaqti nik</w>
ipur ul</w>
inukti tuu
inter governmental</w>
inn ammari
inn ait</w>
iniq sau
ingi ta</w>
ing ng
ing inn
inclu des</w>
in st</w>
imma n</w>
ima imman</w>
ilisai jiit</w>
ilang at</w>
iku mmaqqu
ikajuqtau vi
ii puri
igl unit</w>
heri tage</w>
han ta</w>
h r
grow th</w>
gran ts</w>
go t</w>
gili n</w>
gij avut</w>
g akkit</w>
finan cing</w>
f lag</w>
f ill
f air</w>
ex peri
es day</w>
em power
direc tly</w>
d ai
dai ly</w>
contrac ted</w>
col lec
co ve</w>
co py</w>
certain ly</w>
cent res</w>
c are</w>
c ar
bre ak
avittuqsimajuq uti
auti t</w>
aul aur
auj a
au galu
au d
atuq taujunn
atuinn auti
atu ni</w>
atu ni
atti it</w>
ati u</w>
ati tut</w>
ati tsi
atausi q</w>
asunni rmik</w>
assistan ce</w>
asi q
aruti it</w>
arunn aqtu
arning innit</w>
ari iq
are as</w>
ar tut</w>
ar it
aqtu gu</w>
aqtittini rmik</w>
aqq aaq
aq u
api rini
ans wer
ani g
angiju tinu</w>
angi qtut</w>
angi qta
an ullu</w>
alun nit</w>
alu unniit</w>
al ang
al ain</w>
akitujun uunga
akitu juq
akili ks
ajjigiinngittu nit</w>
aga inst</w>
ag o</w>
ad jour
ac ti
ac knowledge</w>
ac cep
aanniasi ur
aan it</w>
8 3</w>
2 7
1 4
1 -
$4 7</w>
yo r</w>
wor ld</w>
wor k
wi de</w>
w ing</w>
visi on</w>
vari ous</w>
v v
v e
v at</w>
uvvalu kiaq</w>
uqauti junn
uqausi uninginnut</w>
uqausi qaq
uq ittuq</w>
uq ar
uppiru su
upi gu
upalungaij arsima
unni r
unngil aq</w>
uniqu e</w>
unikka angat</w>
uni aqtuq</w>
un nit</w>
un ani
un aj
ullu tillu</w>
ul au
u su
tut si
tuni jauj
tun nuniq</w>
tuinn ait</w>
tu qangit</w>
ttin nik</w>
tsi de</w>
tsi aq</w>
tru st</w>
tri ed</w>
trav el
to ber</w>
tittini rmik</w>
titir aqsimaningit</w>
tili jaul
tilijaul uni</w>
tigu jau
ti lluta</w>
territori al</w>
ten ti
tari o</w>
tamatu mani</w>
tamatu ma
tamatuma up</w>
tama kk
taku min
tai vit</w>
ta ra</w>
ta g
ta anut</w>
t taq
t ent</w>
suu san</w>
suqqu iq
suqqu ima
stu dy</w>
sou th
so line</w>
sivuni ani</w>
siki tu
si lu</w>
si gni
sh are</w>
ser ge
serge ant</w>
sen se</w>
se tting</w>
saqqi ja
sani raj
sa anta
saanta s</w>
runn ing</w>
ro o
rni rmut</w>
resour ce</w>
ref er</w>
reas ons</w>
reali ze</w>
ra l</w>
r ut</w>
r nit</w>
qutti ktuq</w>
qtun i</w>
qiting ani</w>
qikiqta alung
qaujimaj atu
qauji mang
qauji gumajunga</w>
qatta uti
qanuil ing
qall una
q aij
puri is
propo sal</w>
pro vin
pivalli anginn
piliripvi mmi</w>
pilirip ving
piliri qati
piju mali
pijumali rnirmut</w>
pijjutigi llugu</w>
pigiaqti taujumut</w>
pigi aruti</w>
pi li
pay ments</w>
pali is
pa a</w>
p aipp
out post</w>
ou tside</w>
ou ght</w>
organiz ational</w>
on tario</w>
oi l</w>
oc tober</w>
nunaq aqqaaq
nunali ral
no thing</w>
no on</w>
niru aqtausima
nangiq si
nammini rij
nalauksaag allatta
naamma tti
na ys</w>
n aju
mon th</w>
mi tti
mi ta</w>
mi killi
mi juq</w>
maligaliurving mit</w>
maligaliuq tinut</w>
maliga lirij
makku ktu
ma yor</w>
m ous</w>
m et</w>
m el
llu tillu</w>
liqu or</w>
laur mata</w>
l ab
kua puriis
kk uni</w>
kk anir
king uv
kimmi rut</w>
kimmi ru
kiinaujj as
kiinaujaqturuti ksat</w>
kiinaujaqturuti ksaq
katimani q</w>
katimajiralaan it</w>
katimaj ingit</w>
kaju s
kaantura ak</w>
k ul
k ly</w>
ju d
jo b
job s</w>
j akka</w>
ittu q
it ti
isumaalu uti
iqqanaijaqti quti
iqqanaijaatsa lirijikkut</w>
inu gi
inir mu</w>
informa tics</w>
inc re
in kami</w>
in ed</w>
in corpor
imann ak</w>
ilu anngij
ill uqaqti
ilitaqsijuma gama</w>
ilinniaqti it</w>
ilinni arni
ili saq
il i</w>
iipuri ili</w>
ig h
i vi
i gi
ho l
hist ory</w>
happ y</w>
happ ening</w>
go al</w>
gi n</w>
gavamang annut</w>
gavamali rinirmut</w>
ga soline</w>
g ulu
g ullu</w>
g attigu</w>
fu r</w>
fri day</w>
fortun ately</w>
formul a</w>
fin e</w>
fic ations</w>
fi ve</w>
fac ts</w>
evalu ation</w>
es sed</w>
en cies</w>
empower ment</w>
elec tion</w>
eff ec
ear ly</w>
e ver</w>
e sts</w>
diff ic
di sa
di al
deci sions</w>
d a</w>
consider ed</w>
consi der</w>
con fi
con ference</w>
comp tro
clo ck</w>
challeng es</w>
c ement</w>
buil dings</w>
be gin</w>
basi cally</w>
b our</w>
b ought</w>
avittuqsimani rij
av in</w>
auqtu nit</w>
aulattini rmik</w>
aulatsi ji
atuinn aq
atuinn a
ati li
at ors</w>
asu re</w>
as inginnit</w>
aruma vunga</w>
arning innik</w>
ari anng
aqp utit</w>
aqp alli
appreci ate</w>
appoint ment</w>
apiqquti kkanni
anngil agut</w>
anngi mmata</w>
angu ju
angi tta</w>
anga jut</w>
anga junit</w>
ang uvut</w>
ang annut</w>
amma r
akitujunuunga jut</w>
akiliuti nut</w>
ak ittu
aju ri
ai p
after noon</w>
advi ce</w>
ac tion</w>
ab original</w>
aaqqit tausima
a sa
9 1</w>
5 00</w>
3 9</w>
2 0
2 -1</w>
1 -1</w>
$3 13</w>
z es</w>
w asn</w>
ving mi</w>
vi gi
valli ani
valli aj
v j
v ement</w>
v ar
v aa</w>
uv annut</w>
uv ani
uting innit</w>
uti ksait</w>
usu ally</w>
uraij as</w>
uraan ik
ur g
uqtu t</w>
uqsuqtu umi</w>
uqqu mmiut</w>
uqaqqau gavit</w>
uqalimaaqta uninginnut</w>
uq attaq
upvalu unniit</w>
upalungaijarsima vik</w>
up date</w>
uniq sau
unik s
uniaqtu mi</w>
uni rmik</w>
ungasi ktu
ung ani</w>
unani mous</w>
un illu</w>
un fortunately</w>
umi aqju
ullu si</w>
ull unilu</w>
ulauq puq</w>
ul y</w>
ug unn
u t
u mmangaata</w>
u jumik</w>
u al
tusa g
tukisi uma
tuju rmi
tuinn arni</w>
tuinn arni
to mor
tomor row</w>
tiuritu arij
tittini q</w>
titi q
tin i</w>
tili si
tikirarju aq</w>
tik ittu
ti ves</w>
ti i</w>
taul auqtuq</w>
tau ma
tau giaq
tap v
tama rmik</w>
tama at</w>
tama ani
tak unn
taimanna sainnaq</w>
tai vit
tai gu
tag ga</w>
ta at
suq tau
supp osed</w>
success ful</w>
sub sid
subsid y</w>
su san</w>
su ff
str ation</w>
sti c</w>
st ood</w>
sivullir pa
sivuliq paat</w>
sivuli aru
sivu liuq
siman iq
sima juq
sima junik</w>
signi fic
seri ous</w>
sch ed
sched ul
san git</w>
sa fe
safe ty</w>
s mel
s anngi
s al
requi re
reques t</w>
represen ta
ren t</w>
reg ard</w>
refer ring</w>
rec ently</w>
rai se</w>
qujal iniq</w>
qtun ga</w>
qtu g
qimirruv allutik</w>
qimirrun attiit</w>
qikiqtaalu up</w>
qaujimang ngittu
qaujimajatu qangit</w>
qaujimaj atuq
qari sauj
qan it</w>
qall un
q a</w>
q &
pri me</w>
pre limin
prelimin ary</w>
poli tical</w>
po sed</w>
pivalliasi manir
pivalliaja inirmik</w>
piquti lirijikkunnut</w>
pinasuag arnit</w>
pin gasu
pilirivi ujut</w>
piliri junn
piliri ak
pijjutigi llugit</w>
pij au
pi uju
pi u
pi llugit</w>
per for
p s</w>
p lu
p i</w>
p ati
organiz ations</w>
ope d</w>
o &
o& m</w>
nunali quti
nunali mmi</w>
nec ess
ne ver</w>
nalunair si
nalunaij aqsima
nain a
na al
n ati
n as
n al
n aan
mu angajuq</w>
mo ved</w>
minist angat</w>
min i</w>
mi ut</w>
matu ing
mappi gaq</w>
maligaliuqti ujuit</w>
m inga</w>
lo w</w>
ligh tly</w>
li uqti
li st</w>
li i
lii vai</w>
li gi
legislatu re</w>
le ft</w>
l uni</w>
l onger</w>
l ly</w>
l auqtut</w>
l ai
ksan ut</w>
kk ama</w>
kiinaujaqturutiksan ut</w>
kiinauja lirijikkut</w>
ki vin</w>
ki avin</w>
katimavi up</w>
kanann angani</w>
kan ata</w>
kamagija unir
kama jiit</w>
kama gi
kajusigi arit</w>
kajusi tuinn
kajusi tsi
kajusi git</w>
kaan tur
k en</w>
jun g
ju uraijas</w>
ju si
ja it</w>
ittu nut</w>
ittarni saq
isumaksaqsiur utiksait</w>
ir ing</w>
ir cu
iqqanaijaqti nit</w>
iqqanaij ar
inu uki</w>
inu tuq
inu tu
inu liriji
ing annik</w>
infor m</w>
in uq
in ung
in e</w>
ilul ingit</w>
ilu anngi
illu it</w>
iliqqu s
ilagij au
ila giaq
ikajuq tauv
ikaj uqta
ik tu
igur e</w>
ici ent</w>
i junn
hun ters</w>
hope fully</w>
high way</w>
han tu</w>
h iring</w>
go als</w>
ginn gi
gil aur
gij ara</w>
gi ving</w>
gavam anut</w>
gaj aqtut</w>
ga ma
ga it</w>
fir m</w>
fer red</w>
fac tor</w>
f ree</w>
f oo
f igure</w>
ex tend</w>
en cour
di stri
devel oped</w>
de fini
d le</w>
d es
d ence</w>
cri tical</w>
contrac ts</w>
continu ing</w>
con sent</w>
cau sed</w>
canadi an</w>
c ircu
c all</w>
c all
bro u
bec ame</w>
be come</w>
av ingmut</w>
authori zed</w>
auq atau
aulatsi jiit</w>
aulatsi j
auj unik</w>
atittini rmik</w>
ati t</w>
at h</w>
asu ungu
as inginnut</w>
as ing</w>
arv it
arunn aq
artu q</w>
arti facts</w>
arraagu up</w>
arraagu ula
arni up</w>
arni aqtut</w>
arni aqput</w>
ari jau
ari aliit</w>
arasu gi
ar unniiq
ar t</w>
ar si
ar ly</w>
ar ch</w>
aqtu nillu</w>
aqtang innit</w>
aqta tinnit</w>
aqta ilimanir
appro ved</w>
answer ed</w>
anng inn
angu mmat</w>
angittu t</w>
angiq titauni
angi rr
ang annik</w>
amma ttauq</w>
allo wed</w>
all atti</w>
all ap
ali ur
alauq pugut</w>
ala ung
akkanni q
akili qsu
ak inga</w>
ak autigi
ajuri qsu
aff ir
ad d</w>
accor ding</w>
accommo dations</w>
ab ility</w>
aan ik</w>
a sima
8 mi</w>
6 0</w>
5 5</w>
3 2</w>
2 8</w>
199 8</w>
1 9
- nik</w>
$ 10</w>
y self</w>
wri te</w>
w o
w ent</w>
vv asi
vi si</w>
vi q</w>
vi ani</w>
ver ed</w>
var dy</w>
valli an
v utit</w>
uu viq</w>
utiq aqp
utili ze</w>
utigi simaj
utigisimaj angitta</w>
uti tsi
uti r
utau jut</w>
uta it</w>
urg ent</w>
uqsuqtu ur
uqqu rmi
uqqurmi ut</w>
uqausi ksat</w>
uqausi gi
uqa ala
uqaala ut</w>
uq si
uq ari
up le</w>
up d
up ak
up a</w>
unni inga
unn gin
uning ani</w>
unikka ari
un gav
ulla akkut</w>
ulauq put</w>
ul utik</w>
ul unga</w>
ul ts</w>
ul ing
ul auqtut</w>
ukk aq</w>
uk ainn
uju mut</w>
uj a
uann angani</w>
u u</w>
u tu
u mmata</w>
u mmat</w>
u gi
ty p
typ e</w>
tusaaji tigu
tupi q</w>
tupi k</w>
tuni viani</w>
tuni sini
tuni junn
tun gn
tuinn arnik</w>
tu nuniq</w>
tu ap
ttu t</w>
tr an
to ll
toll -
toll- free</w>
titi qani
titiqani aq
titiqaniaq vi</w>
ti llu
th em
them selves</w>
ter min
ten ts</w>
tech no
tax es</w>
tauvak tut</w>
tauni aqtut</w>
tauju up</w>
tau san
tapv ani</w>
tamann alu</w>
tamakku alu</w>
taku juma
taivit i</w>
tainn a</w>
tai kkun
ta uninginnut</w>
ta a</w>
t si</w>
t saq</w>
t on</w>
t -
swe ar</w>
sur lu</w>
suqqu in
sum unga</w>
suli lu</w>
subsi dies</w>
su kat
sukat u</w>
su g
strate gy</w>
ster n</w>
ste p</w>
staff ing</w>
spe c
sp ent</w>
south -
south- whale</w>
smel l</w>
sma ll</w>
sivunit tinni</w>
sivullirpa ami</w>
sivulliqpa arij
sivulli uti
sivauta q</w>
simann gin
si mi
si ght</w>
sh all</w>
ser ved</w>
se ali
seali ft</w>
se al</w>
sanir v
sa fe</w>
s nas
s ale</w>
ru ta</w>
ro ad</w>
revie wed</w>
revenu e</w>
respon ded</w>
resid ent</w>
requ ested</w>
rep hr
rephr ase</w>
rel ates</w>
regi stration</w>
ref lect</w>
reas on</w>
re duc
ra ther</w>
r ho
rho da</w>
quvi an
qutti ttuq</w>
qullu ktuq</w>
quj au
ques tions
qu vvasi
qilavv a</w>
qikiqtaalu mmi</w>
qiki q
qaujimangngittu nga</w>
qarni q</w>
qamaniqtu aq</w>
qai qullugu</w>
q inir
q atau
q ar
q aqput</w>
q anga</w>
puki san</w>
propo sed</w>
proce du
procedu res</w>
pro per</w>
pro per
presen tation</w>
pl ay</w>
piqujivunga aru
piqu tit</w>
pinn gu
pinasuag arnut</w>
piliripvi it</w>
piliri vvi
piliri v
pijunn arni
pijittirauti t</w>
pijittirauti nit</w>
pijitsi q
pi i</w>
pi g
pi anik
per c
particul ar</w>
parnauti nit</w>
parnau ting
panniqtu uq</w>
paliis inga</w>
p utit</w>
p ul
p alu
p aksaq</w>
our selves</w>
op er</w>
oi c</w>
offic ers</w>
o ath</w>
nutti ti
nuta anit</w>
nur sing</w>
nunavummi ut</w>
nunaq aqqa
numb ers</w>
no v
no ted</w>
niu viq
niruaq tauv
niru aqsi
niri up
new s</w>
natsi lik</w>
nan cy</w>
nam es</w>
nalunairsi git</w>
nalun anngittuq</w>
nali ra
naju uti
naan si</w>
n inginnut</w>
n inganik</w>
n er</w>
n d</w>
n atta
natta q</w>
n ataa</w>
n ami
mmi jut</w>
mmi juq</w>
mma gu</w>
mitti ma
minu tes</w>
minis taujuup</w>
mij ak</w>
mi unut</w>
mi unit</w>
mi d</w>
mi d
mar ch</w>
man ik</w>
mamian augalu
mamianaugalu aq</w>
maligalirij i</w>
mali llugu</w>
mali llugit</w>
makli in</w>
makimainn aqtut</w>
makimainn aqtunut</w>
mak alain</w>
maann amut</w>
maann ali</w>
ma teri
m yself</w>
llu gillu</w>
llu ata
ll ungalu</w>
ll ed</w>
liurni rmik</w>
lirini ujumi</w>
lin es</w>
li ving</w>
li sa
li am
le ment</w>
le arn
laur mat</w>
lar ge</w>
ku upa</w>
ku aq</w>
ksau p</w>
ksa mut</w>
kku ma
kikku tuinnarnik</w>
kiinaujjas sa
kiinaujaqturutiksan it</w>
kiinaujaqta aruti
kiinaujaq arving
kiinaujalir inirmik</w>
kigga tur
ki ju
katimauti nik</w>
katimajjuti tsanut</w>
katimajing anni</w>
katimaj inut</w>
katima utigisimajangitta</w>
kat sung
kamagijariaq aqtu
kamagij au
kamagij arialik</w>
kajus iniq
k ni
k amp
junni iq
jun illu</w>
juma gama</w>
jud ges</w>
jariaq aqpugut</w>
ja uningit</w>
j jau
j aujut</w>
it si
it self</w>
it ors</w>
isumaqsaq si
isumagi lugit</w>
isul inni
iqqatu iji
iqqanaijaqtu lirijikkunni</w>
iqaluttuu tsiaq</w>
iq alung
inuliriji tuq
inuktituu liq
inu unasunni
inu lirij
inu k</w>
inu k
inter est</w>
innir vik</w>
iniq vi</w>
ing ata</w>
inclu de</w>
imma q
ill atta
ilitari jau
ilitaqsijuma mmijunga</w>
ilinniaqtuliriji mmari
ilinni arving
ilinni anirmik</w>
ili ts
ilauq atau
ilang innit</w>
il anng
il ann
ikk atta</w>
ikajuqti it</w>
ik paksaq</w>
ii tuaq</w>
igl ung
i ti
ho ld</w>
hist ori
hel d</w>
har bour</w>
han ds</w>
gre at
gran ular</w>
ginn ing</w>
gi arunn
gi aq</w>
gh ts</w>
gavamakkung innut</w>
gavamakkung inni</w>
gaj aqtuq</w>
ga aq</w>
ga akkanni
g uni</w>
g ed</w>
fa x</w>
f as
fas hi
expec ted</w>
es sing</w>
er ing</w>
en ter
en ge</w>
en a</w>
ed itors</w>
econo my</w>
e p
distri bu
discu ss</w>
defini tely</w>
de termin
cre ate</w>
contri bu
consul tation</w>
consider ing</w>
conclu des</w>
con tents</w>
comp ani
com pe
co uple</w>
co ral</w>
co oper</w>
ci se</w>
chall enge</w>
ch ance</w>
centra l</w>
c ating</w>
c ate</w>
c ame</w>
budge ts</w>
brou ght</w>
brie f</w>
bo x</w>
bill s
be ginning</w>
basi s</w>
b il
b ar
auti nik</w>
aulatti ji
aul ata
aul a
au si
atuqtuaruti nut</w>
atuinn ar
atuaga it</w>
atu ri
atau sirmi</w>
ata ata
at tigut</w>
associ ation</w>
asing innillu</w>
asi uti
as sume</w>
arva allu</w>
aru viuk</w>
aru tau
artu lirinirmut</w>
arrang ements</w>
arni tinnik</w>
ariaq armata</w>
ari aluk</w>
ar illu
ar ik
ar ena</w>
ar ed</w>
aqtu up</w>
aqtu ng
aqt angit</w>
aqt anga</w>
aqsima vut</w>
aqsima mmata</w>
aqsima jut</w>
aqpa git</w>
aqp akka</w>
aq tu</w>
aq su
aq attaq
aq ata
aq ai</w>
appoint ments</w>
apirini aqtara</w>
apiqqu ting
apiq sur
anngil at</w>
anil u</w>
ani ittut</w>
angiqtitauni rmit</w>
angiq tau
angijuqqa arju
angi tu</w>
ang alu</w>
an a</w>
alaur atta</w>
ala ati</w>
al ong</w>
al auqtu
al atiu</w>
akitu lu
akitu jut</w>
akiq angitu</w>
akili q
ajuriqsu iji
aju r
agre ements</w>
aglu ukkaq</w>
aglu kk
agl avingmut</w>
agg uqta
aga it</w>
ag unn
adjour ned</w>
actu al</w>
acc ess</w>
aanniasiuqti q
aanniasiuqti it</w>
aag ga</w>
a taq
a de
8 25</w>
7 69</w>
7 2</w>
6 -
4 0
3 5</w>
3 1
2 nd</w>
1999 -
1 7
& utik</w>
$6 0</w>
yo un
youn g</w>
y el
yel low
yellow kni
yellowkni fe</w>
y ed</w>
work ers</w>
wai ting</w>
w in
win ter</w>
w at
vi ous</w>
vi lirijikkunni</w>
v atsi</w>
uv it</w>
uv attu
uv alu</w>
uu minga</w>
utir luta</w>
utiqaqp allutik</w>
utiq tita
urai as</w>
ur s</w>
uqsualu mmik</w>
uqausiri qqauj
uqausi lirijini</w>
uqaqti t</w>
uq tunga</w>
uq arti
uqarti i</w>
upigu sunni
unnginn ama</w>
unn u
unikka anginnit</w>
uni rij
ungi liur
under stood</w>
under stand
ulu uj
ullu tik</w>
ulauqtu mi</w>
ul i</w>
uk uninga</w>
ugh ton</w>
ugalu at</w>
ug li
uajamuungaju lirijikkunni</w>
u ta</w>
u pigi
u kkuma
u junik</w>
u bli
ubli vik</w>
u a</w>
tut ta
tutta rvi
tusaruti nut</w>
tusaq sa
tus aqtitau
turaaqti ppara</w>
tura aqtuq</w>
tun ng
tun gasu
tukisigiaruti t</w>
tukisi av
tukisi aniq
tuavirn aqtu
tu v
ttini rmut</w>
trans ferred</w>
titir aqti
tita uningit</w>
tinn agu</w>
ting inni</w>
tin na
tim ing</w>
ti sa
ti ni
thin king</w>
ten tion</w>
te n</w>
taulauq put</w>
tau junik</w>
tas k</w>
tamatu manngat</w>
tak ujunn
taimann ai
tai kku
tai jau
taaksiij auti
taakkun innga</w>
ta uqatta
ta ula
ta kkua</w>
ta ann
t ty</w>
t tigut</w>
t anit</w>
suff icient</w>
su s</w>
su mma
summa ry</w>
stri c
stric tly</w>
stre ng
spen d</w>
speci fic
specific ally</w>
sivuliq tinginni</w>
sin asu
siman ingit</w>
sima mmat</w>
sima junut</w>
sil attu
silattu s
sil arju
sikitu ut</w>
si amma
siamma kti
ser ve</w>
se ven</w>
se ly</w>
se lec
se e
se al
sau vut</w>
saqqit tait</w>
saqqi ti
saqqi tauningit</w>
sa ji
sa al
s unn
s ann
sann ajji
sannajji ji
sannajjiji lirijikkunni</w>
ru ma</w>
roo m</w>
ro ll</w>
ri se</w>
ri lauq
ri ji
ri a</w>
rese arch</w>
reflec ts</w>
refer ences</w>
recru it
recruit ment</w>
recogni zes</w>
reali stic</w>
re st
re lo
ra ta
r mullu</w>
r f
rf p</w>
r ate</w>
r ang
qujan ami
qujan a
quic kly</w>
qtu gait</w>
qsima juni</w>
qquur mat</w>
qitur ng
qi si
qaujima ji
qaujima gama</w>
qaujigi aqta
qatta qullugit</w>
qanu it
qanu immat</w>
qang akkut</w>
qan urlu</w>
q ini
q arnangittu
qarnangittu lirijini</w>
q ariaq
q aksi
pursu e</w>
purch ase</w>
pu tting</w>
promo te</w>
prin ts</w>
pri ses</w>
pri ce</w>
pre vious</w>
pre tty</w>
pp ata</w>
pp alli
pon ent</w>
pon d</w>
plu s</w>
plac ed</w>
pl es</w>
pivallianginn arunnaqtu
pivalliaja inirmut</w>
piula amik</w>
piraj ak
pir vilirijikkunni</w>
pir i</w>
piqqusi tuqalirijini</w>
pinasuaga q</w>
piliriang uj
piliri arini
pijittirautin ullu</w>
pijitsi ruti
pijari uq
pijari atu
pijari al
pi ti
pi snas
pi simaj
pi qtugait</w>
pi iku
piiku u</w>
pi es</w>
pers on
perc ent</w>
pe n</w>
pe lly</w>
pay roll</w>
pai d</w>
p c</w>
oper ating</w>
oper ate</w>
on es</w>
oi ces</w>
offi ces</w>
o thers</w>
nuta at</w>
nuta ang
nuta amut</w>
nunavumi u
nunavu limaami</w>
nunav v
nunaq aqtu
niriupp ungalu</w>
niriup pugut</w>
niqtun aqtu</w>
ni l</w>
nee ded</w>
namminiq aqtunut</w>
nalunaiq sil
nalli ukkuma
nakati q
n ti</w>
n nut</w>
n nit</w>
n nik</w>
n inginnik</w>
n ational</w>
n ang
mu aqtillugu</w>
mo ni
mma r
mma n</w>
ml a</w>
me an
materi als</w>
mann gi
mann er</w>
mang ata</w>
maligaliuqti limaat</w>
maliga it</w>
mali tta
makkuktu lirij
makkuktulirij ini
makkuktulirijini lu</w>
mak es</w>
maann aujumi</w>
ma tive</w>
ma ri
ma piqtugait</w>
m stances</w>
m mu
lu u
lu tta
lo ria</w>
ll i</w>
list en</w>
lirijikk ullu</w>
liri iq
liq put</w>
li qtut</w>
lead ers</w>
le ast</w>
le ases</w>
lar gest</w>
lab our</w>
l aw
l auqtuq</w>
l an
lan ds</w>
ku ap
ks anginnut</w>
knowle d
kkunn ut</w>
kiuj ju
kiu guma
kisu tuinn
kingulliqpa aq</w>
kin a</w>
kiinaujaqturutiksa mut</w>
kiinaujaqturutiksa mik</w>
kiinaujaqtu uti
kiinaujaq aqtittini
kiinauja lirijikkunni</w>
kigga tu
ki uni
katu k</w>
katimani tuinnarni</w>
katimajiral aaq
katimaji uqatau
katimaj inginnut</w>
kamisin a</w>
kajusi titsi
kajusi tita
kajusi ti
kaanturaak ta
k mut</w>
k ittu
juti nit</w>
jurisdi ction</w>
juma tuinnaqtunga</w>
juma tuinn
ju k</w>
jo in</w>
ji gi
j uqaq
j ja
j ec
j aq</w>
itsivauta p</w>
it sivautaup</w>
it i</w>
isumaqsaqsiur utiqaqpallutik</w>
isumaqsaqsiur uti
isumagij aq
is ting</w>
is i</w>
iqqatuiji lirijini</w>
iqqanaij arti
iq ta
ip pigi
inulirij in
inulirijin ullu
inu tuqalirijini</w>
innatuq ait</w>
inn g
inn aqtu
inir nit</w>
ingirrajuu lirijini</w>
ingirraju lirinirmullu</w>
ing ngi
ing innillu</w>
ing ing</w>
ing i</w>
in her
inher ited</w>
in attigu</w>
impro ving</w>
imp lement</w>
imp act</w>
iluanngi liur
illutsaq aqti
illu lirijini</w>
iliqqus inga</w>
iliqqu sing
ilinniaqtu lirijini</w>
ilinni aruti
ili jau
ilauq ata
ilagij auqatau
il y</w>
il ali
iku pirvilirijikkunni</w>
iglu liriji
i sivautaq</w>
i gu
i aluk</w>
i &u
he av
hap pen</w>
h es</w>
gu tta</w>
gu ta
gro up</w>
govern ments</w>
gij aul
gij auj
gi simaj
gh ter</w>
gavamaq arvi
gavamang inni</w>
gavamang ata</w>
gavamang anik</w>
gavama lirijini</w>
gavama lirijikkut</w>
gavama lirijikkunni</w>
galu aqpunga</w>
g loria</w>
ful l</w>
for ced</w>
fill ed</w>
fashi on</w>
f ram
expres s</w>
expen sive</w>
ex isting</w>
every thing</w>
er ve</w>
er i
en s</w>
ei ther</w>
effor t</w>
educ ators</w>
educ ational</w>
e v
du ce</w>
di tions</w>
develop ing</w>
desi re</w>
dedi cated</w>
de duc
de b
d ance</w>
conclu de</w>
comp li
comm ons</w>
colle ge</w>
co pies</w>
clo thing</w>
clo se</w>
clai ms</w>
circu mstances</w>
call ed</w>
c tor</w>
budge ted</w>
bu s
bro ughton</w>
br inging</w>
bo arding</w>
ber ta</w>
bene fi
b or
avittuqsimaju tigut</w>
av uq</w>
av in
av ili
av iktu
aulattini q</w>
aulatsij ini</w>
aulan inginnut</w>
aul auqtuq</w>
aul ani
aul ainn
attan aqtailimanir
atitsi guti
ati on
ati gullu</w>
ati gi
at ory</w>
at angiqtu
asi anut</w>
arraagu mi</w>
arni tinnit</w>
arni aqpunga</w>
arni aqpugut</w>
armanga aqpit</w>
arl unga</w>
ari es</w>
ari ali
ari al
ari a</w>
ar pugut</w>
ar p
ar ded</w>
ar ata
ar akkit</w>
aqtitsi ji
aqta it</w>
aq taq
apiri jumavunga</w>
apiri jumavara</w>
apiri jumajara</w>
apiqqutiq aqtunga</w>
apiqqu tinga</w>
apiqqu taujut</w>
apiqqu taujunut</w>
ap alu
any body</w>
anni kittu
anng inatta</w>
ann ura
anit tauq</w>
anit samut</w>
anir millu</w>
ani kkut</w>
ani aqtuq</w>
angunasu kti
angu juq</w>
angu junit</w>
angli can</w>
anginn gittut</w>
anginn ama</w>
angi qsima
angi llu</w>
angajuqqa ang
ang mata</w>
ang in
ang ani
an inga</w>
ami lu</w>
ami akku
alu tta
allu ata
allai juq</w>
alir inirmut</w>
al ways</w>
akkanir ni
aka unngi
aka ungiliur
ak si</w>
ajj i</w>
ajau ri
aj unn
aip anga</w>
affir mative</w>
advi se</w>
addres sed</w>
accoun ting</w>
ac k
ab or
aanni qarnangittulirijini</w>
aaaaaaaa aaaaaaaa
a aq</w>
a al
a ak</w>
99 /2000
8 0
6 5</w>
6 1</w>
5 7</w>
5 3</w>
5 2</w>
4 5</w>
4 2</w>
3 7</w>
1999 -mi</w>
-- applause</w>
& uni</w>
& unga</w>
$4 40</w>
$ 67</w>
$ 2</w>
$ 15</w>
yo ak</w>
y 2
y2 k</w>
wor ds</w>
wis hes</w>
wis do
wisdo m</w>
w on</w>
w il
w are
vj it</w>
vi ties</w>
vi mmi
ver si
va gi
va ati</w>
v ullu</w>
v ements</w>
v anni
v al</w>
v al
uv iti</w>
uuttuutigi llugu</w>
uti nik</w>
uqtu nut</w>
uqsualu mmut</w>
uqs auti
uqausiq aruma
uqausi ts
uqaus ingit</w>
uqaujjaul auq
uqau jigi
uqallaqati gi
uqalima qta
uq asi
uq arni
uq akkanniruma
up valu</w>
unnir minut</w>
unn gini
unikkaan ik</w>
unikka aruma
unikka ang
uniaqtu nik</w>
uniaqtu mik</w>
uni ons</w>
uni cip
uni aqput</w>
ungi mmata</w>
ungi mmat</w>
unga juq</w>
ung ngittuq</w>
un ds</w>
un ch</w>
ull unit</w>
ulaur mat</w>
ul se</w>
ul ingmi</w>
ul ajuk</w>
uj jau
uj j
ual inirmi</w>
tw en
tusauma qattauti
tusaqsa unngittuq</w>
tusaaji kut</w>
tura l</w>
tura angajuq</w>
tura akautigi
tunngav iq
tunngasutti arit
tunngasu gitti</w>
tunijauj uni</w>
tungili anut</w>
tukisi j
tuki ta
tu esday</w>
ttu nga</w>
ttini q</w>
tsu git</w>
tsa inn
ts innut</w>
ts iniq</w>
tri p</w>
tre at</w>
tre al</w>
trav el</w>
transl ation</w>
trans fer</w>
tra ined</w>
too ls</w>
to wn</w>
to tal
tittini rmut</w>
titir arving
titir aqtau
titir aq
titiqq amik</w>
titiqq ak</w>
tinna git</w>
tin gi
tiliuri vingmut</w>
tiliur utit</w>
ti cip
thou ght</w>
than ks</w>
tenti al</w>
techno lo
technolo gy</w>
te en</w>
taul auqtu
tau tuk
tau majut</w>
taq aqpaa</w>
taq anngilaq</w>
tamakkun unnga</w>
tamakk uninga</w>
tama aqta
tamaaqta qtu
talli mi
taku a</w>
taimann a</w>
taima ittu
taima il
taik ani
taakkun ani</w>
taak ua</w>
ta uqullugit</w>
ta uq
ta si
ta lo
talo yoak</w>
ta kka</w>
ta itsu
t ters</w>
t ted</w>
t sivunga</w>
t prints</w>
sur vi
sum inga</w>
suli juq
sug gest</w>
su kk
stud ent</w>
sta ge</w>
sou thern</w>
some one</w>
so ld</w>
so l
sl ated</w>
sivulliuj jau
sivulli uqti
sivuliq tiit</w>
sin it</w>
simann gil
sima junit</w>
sima gama</w>
sil atu
signific ant</w>
ser v
sel f
self -
se ven
se ek</w>
se at</w>
sanirv ai
sanikilu armi
sanaja uninginnu</w>
saji tigut</w>
sa m</w>
s now
snow mo
s innik</w>
s c
s ar
s allir
ron t</w>
rn inginnut</w>
rmi llu</w>
rl uqtu
ri ghts</w>
revie wing</w>
res ults</w>
require ments</w>
rep ulse</w>
rel ations</w>
reg ul
reduc ed</w>
recru i
recrui ting</w>
recommen ded</w>
recommen dation</w>
rec essed</w>
re nov
re form</w>
qul liqpa
qujanami it</w>
qujali jumavunga</w>
quali ty</w>
quali fications</w>
qu ting
qu rluqtu
qu ppi
quppi rniq</w>
qu e
qu ate</w>
qinu isa
qimi ru
qikiqtaalung mi</w>
qaujis arni
qaujimann gilanga</w>
qaujimani tuq
qaujima juinnau
qau ppat</w>
qat tung
qat anng
qarni qsau
qaq ullugit</w>
qanuilingalir mangaaq</w>
qanu inni
q attaq
q atsi
q ata
q ak
pursu ing</w>
purch asing</w>
pulaarving mut</w>
pu ij
provi sion</w>
proc esses</w>
presen ted</w>
pre ven
pre fer</w>
possib ly</w>
posi tive</w>
po tential</w>
ple asure</w>
piviq aqti
pivalliasimanir mik</w>
pivalli ati
pivalli aniq
piusi gi
pitaq arunniiq
pisnas inut</w>
piquti lirijikkut</w>
piqatigi lugit</w>
piqasiuti lugit</w>
pingas ut</w>
pingaju ani</w>
pinasuaru sir
pinasuaga it</w>
pin aup</w>
pilirip vik</w>
piliri arij
pijunn arniq
pijunn aq
pijjuti lik</w>
pijariaq aqtitau
pijariaqaqtitau mman</w>
pijari ir
pigiaruti nit</w>
pigiaqtitti vunga</w>
pigiaqti tsivunga</w>
pigiaqti taujumik</w>
pigi arning
pi va
pi i
pi gasu
pen sa
partn ers</w>
p ing</w>
p ing
p ap
p ak
p a</w>
p 3</w>
own ership</w>
opp o
oppo sition</w>
oper ational</w>
ob jec
o gu
o cc
nutti q
nuqqanga alauk
nuqqang akainn
nuqq aqpuq</w>
nuq ang
nunavummi utait</w>
nunavu ta
nunatsi armi</w>
nunali rju
nunali limaat</w>
nunal innu</w>
nunal innit</w>
nunal innik</w>
nu li
no wn</w>
ni qi
ni q</w>
necess ary</w>
nam ed</w>
nalunaij ai
nalautsa aqtau
najuuti jut</w>
naittu mik</w>
naamma ttu
n t
n ni
n ing
n aksi
mon treal</w>
mmi q</w>
mittima tal
minista mu</w>
mid dle</w>
mi utau
mi ru
mi lluunniit</w>
mi kiju
mi ittu
men ts
mappi qtug
mann a</w>
man tu
maligaliur ti
maligaliuqti up</w>
maligali r
malig aujuq</w>
mali gi
makku k
makima jjuti
ma k</w>
ma ani
ma ajji</w>
m unicip
m m
m en</w>
ll ership</w>
list ening</w>
lir mat</w>
liq puq</w>
liq pata</w>
liab ility</w>
learn ing</w>
le tters</w>
le ts</w>
le br
le ar
lear n</w>
l ack</w>
kk aj
kisi anittauq</w>
kingulliqpa ami</w>
kiinaujaqturuti t</w>
kiinaujaqturuti ksaq</w>
kiinaujaq arvi
kiinauj ani</w>
kiggatur lugit</w>
ki uqqau
ki ugunn
katujjiqatigi ingit</w>
katimanit tinnut</w>
katimani rij
katimajiralaan i</w>
katimajiralaan git</w>
katimajiral aa</w>
kati ppalli
kajungi rtu
k punga</w>
k nown</w>
jurisdi ctions</w>
junnaq ulluta</w>
junn ani
jumav akka</w>
ju uni</w>
ju mani
ju llu</w>
jaul auq
j ail
jail s</w>
isumagij au
isumaal unn
isu man
is n</w>
is lands</w>
is land</w>
iqqaqtuivi lirinirmut</w>
iqqanaijarti it</w>
iqqanaijaat sanik</w>
iqaq puq</w>
iq ata
inv est
inv en
inuu junniiq
inutuq avut</w>
inuquti vut</w>
inuquti tta</w>
inugi atigut</w>
inu gl
innammari it</w>
initi ative</w>
ini aqpugut</w>
ingi tta</w>
ingi tigut</w>
ing u
infor med</w>
individu al</w>
indi an</w>
incorpor ated</w>
inc urred</w>
inc reas
in gittu
imann au
iluunn a
iluunna innut</w>
illu liriji
ilisaq siniq</w>
ilis aij
iliqqusi lirinirmut</w>
ilinniav it
ilinni atitti
ilinni ati
ili qusi
ilann arij
ilagij aujut</w>
ilagiaq si
il aujut</w>
il au
ikummaqqu ti
ikajuqtu i
ikaju runn
ik arr
iglu mi
iglu li
igl uqaqti
igh t</w>
i si
i ra
i ppi
i jut</w>
i ja
ho urs</w>
ho me
h asn</w>
guma arni
gu ttauq</w>
gu i
gr ant</w>
gin inganik</w>
gil a
gija uningit</w>
gij aq
giaq tau
gi aqsima
gi amik</w>
gi aksaq</w>
ge o
gavamatuqakk unnut</w>
gavamatuq akkunnit</w>
gavamakkun nit</w>
gavamakkun git</w>
gavama tigut</w>
galu arama</w>
ga asi
fun ction</w>
foun dation</w>
for mer</w>
for ma
for ce</w>
foo tprints</w>
fo cus</w>
fin ally</w>
fin ali
finali zed</w>
fi f
fe es</w>
fac ing</w>
f ront</w>
f ill</w>
f el
f all</w>
f air
ex pi
establi sh</w>
enter prises</w>
en er
eff ect</w>
e ty</w>
dre am</w>
differ ence</w>
dial ect</w>
desi gn</w>
deli ver</w>
dedi cation</w>
de sign
de pen
cul tural</w>
coun ter
coun c
contro l</w>
consul t</w>
consi st
confi dent</w>
conclu ded</w>
conc ep
con tain
con firm</w>
con ditions</w>
comptro llership</w>
comple x</w>
comple te</w>
compani es</w>
com pensa
collec tive</w>
co uldn</w>
clo sely</w>
ch e
cer tain</w>
ce lebr
car ry</w>
c ate
bro ad
brie f
break down</w>
bi g</w>
be comes</w>
be ar</w>
b ir
b ility</w>
aw arded</w>
av u</w>
av u
av ati
av a
authori ty</w>
aulattini rmut</w>
aulajjuti tsait</w>
atuag armik</w>
atu riaq
atti i</w>
attani armata</w>
att anirmik</w>
atiliuq tausima
ati gu
at s
at or</w>
associ ated</w>
asing innullu</w>
arving mi</w>
aruti k</w>
aru ttigu</w>
aru ma</w>
aru k</w>
arrang ement</w>
arning anut</w>
arni tinnut</w>
armi jut</w>
armanga ar
ari juma
ari amik</w>
aralu ara</w>
araj aqtuq</w>
ar ts</w>
ar asunni
ar ai
aqtu uk</w>
aqtu nilu</w>
aqtu git</w>
aqtittini q</w>
aqti lluta</w>
aqtausima juq</w>
aqtang anik</w>
aqsima vugut</w>
aqq at</w>
aqpu si</w>
aq up
app ut</w>
app unga</w>
apiri junn
apiri guma
apiqqutiq aqpunga</w>
apiqqutiq akkaniq
apiqquti mik</w>
apiq suqtau
api rij
anng iniq
angittu q</w>
angiruti k</w>
angiru taujuq</w>
angiqatigii gut</w>
angijuqqaarju anga</w>
angi la
angi juq
ang uni
ang ngi
ang inni
ang iniq
ang anni</w>
anaru armut</w>
an ticip
an is
an e</w>
an ced</w>
ammar inni
ammalu ttauq</w>
ama t</w>
am u
am mangaata</w>
alu ti</w>
altern ative</w>
all ar
all aij
all aat</w>
ali qtu
ali kut</w>
alauq punga</w>
al one</w>
al berta</w>
al ait</w>
al aat</w>
aksu aluk</w>
akkanni it</w>
akisu u</w>
akili ksaq
akaunngi lu
aka una
ak all
aju rn
ajjigii mik</w>
aipp anga</w>
agl attii</w>
ag uti
ade quate</w>
acti vities</w>
accoun t</w>
accep table</w>
aaqqit suq
aanni aqtu
aan i
aa h
a git</w>
99 8</w>
8 7</w>
50 6</w>
4 6</w>
4 4</w>
4 48</w>
3 8</w>
3 7
27 8</w>
2 9</w>
2 9
2 13</w>
2 -
1999/2000 mi</w>
19 8
- mut</w>
$ 9</w>
$ 12</w>
y m</w>
x -
wo uldn</w>
wi fe</w>
we stern</w>
we d
wed n
wedn esday</w>
wat ch
watch ing</w>
wai ve</w>
w r
wr ong</w>
w ns</w>
w art</w>
ving mik</w>
vi u
vi ron
viron ment</w>
vi jju
versi ty</w>
ver b
verb al</w>
ve ly</w>
vallian inginnut</w>
vak put</w>
v attut</w>
v ali
v aan
uv valu</w>
uv attinnut</w>
uv attinnik</w>
uv anga</w>
uv a</w>
utittini rmi</w>
utiq arni
uting innut</w>
uti ttinnit</w>
uti rni
uti rmi
ut anut</w>
ur uti
ur unn
ur mat</w>
ur li</w>
uqtu nit</w>
uqsuqtu uq</w>
uqsualu up</w>
uqsualu lirijikkut</w>
uqsu al
uqausigi qqauj
uqausi ksait</w>
uqaujjaul aur
uqauj jau
uqau sing
uqati kka</w>
uqaqati q
uqaqati gi
uqalimaaqta uqullugu</w>
uq tuni</w>
uq qa
uq q
uq ju
upigusunni q</w>
unn u</w>
unir nut</w>
uning innik</w>
uniks anginnut</w>
unikkaari junn
unikkaali angu
uniaqtu ni</w>
uni uk</w>
uni artu
ungav vari
ungata ani</w>
unga a</w>
ung ngi
ung inni
understand able</w>
under taken</w>
un unga</w>
un asunn
un able</w>
ulu m</w>
ula aqtumi</w>
ul ak
uki unut</w>
uki unit</w>
uki ung
uki u
uki san</w>
uju mu</w>
uj ini
ugli vingmut</w>
uga alau
uatti asa
uattiasa aq</w>
uatti aru
ty -
tuv sajitigut</w>
tusaq ta
tura aqta
tura angajut</w>
tunngasuttiarit ti</w>
tunngasukti tau
tuni jauni
tun gi
tuksirautiliuquj iniq</w>
tuksir au
tukisigi arut</w>
tukisiav unga</w>
tukisianiq aqpunga</w>
tu nit</w>
ts auti
travel ling</w>
travel led</w>
transl ated</w>
trans f
transf ers</w>
tra dition</w>
tr ain</w>
total ly</w>
to pi
titiraqsima junik</w>
titir arv
titir arianng
titiqq aq</w>
titi ral
ting anik</w>
timi uju
tikku aqta
tikittu gu</w>
tigujau ma
tigu mi
ti z
ti nit</w>
ti me
ti lluunniit</w>
ti c</w>
thou san
ten ders</w>
ten ded</w>
te am</w>
tauvak put</w>
tauvak puq</w>
tausan ta
taulauq puq</w>
taul u
tau juq
tari aq
taq armat</w>
tamakkun unga</w>
tamaaqtaqtu mik</w>
tak uj
taat su
taakkun unga</w>
taakku alu</w>
ta ttauq</w>
ta luunniit</w>
ta lu
ta k</w>
ta ap
t work</w>
t anga</w>
t /
sur ro
sur plus</w>
sur ing</w>
suqqui maniq
suqqui man
suppor ted</w>
supp ly</w>
suli kkanniq</w>
sub j
subj ect</w>
su tuu
su res</w>
su k
stri es</w>
streng th</w>
ste wart</w>
star ting</w>
st y
st ly</w>
st er</w>
st ed</w>
ssi on</w>
sor t</w>
some times</w>
snowmo bil
snowmobil es</w>
sk ill
skill s</w>
sivuniksa tinni</w>
sivumu arniq
sivulli uq
sivuliuq tinut</w>
sivuliqti ukainn
sivul liq
siq ing
sing le</w>
simi l
simil ar</w>
simanngin akkit</w>
simanir mik</w>
siman inginnut</w>
siman inginnit</w>
siman gi
simaj avut</w>
simaj angit</w>
sima vunga</w>
sign atu
sid ent</w>
siammakti rini
si x</w>
si uk</w>
shor tly</w>
serv ations</w>
seri ously</w>
sen sus</w>
seal s
se en</w>
sau juq</w>
saqqi i
sanaju lirijikkunnut</w>
san anngu
sallir mi</w>
sai mmati
sai mma
sa am</w>
s uni</w>
s lightly</w>
ru si
rini ar
riaq aqpugut</w>
ri ty</w>
ri junn
ri c
ric ulum</w>
ri aqtitauni
respon dence</w>
reques ting</w>
representa tives</w>
represen ting</w>
rep ly</w>
rel atives</w>
regi stries</w>
reflec ted</w>
re treat</w>
re ti
re member</w>
re main
re ach</w>
re ach
rang e</w>
ra y</w>
ra ma
r nik</w>
r atta</w>
r alu
quvi as
quvi appunga</w>
quti vut</w>
qujannami iq
qujana aqta
que be
quebe c</w>
qtu git</w>
qta uni
qta ulluni</w>
qju akkut</w>
qimirru jau
qimirru ja
qilami ujunn
qaujimani tuqangit</w>
qaujimaj ara</w>
qaujima juksau
qaujikk ai
qau mmat</w>
qatta riaq
qanuqtu urni
qanuittu q
qanuil in
qanuilin gaj
qanu ili
qanu i
qangi q&
qalluna atitut</w>
puriimmi amut</w>
pul ar
pu ukisan</w>
pu ig
proper ly</w>
proc essing</w>
priv il
privil e
premi ers</w>
pre sident</w>
pp oin
pl ant</w>
pitaq angi</w>
piru riaqtitauni
piqujivungaaruti nit</w>
pingaju at</w>
pingaju annik</w>
pinasuag armik</w>
pin asunni
piliriv ving
piliriat sangit</w>
piliriangu jut</w>
piliri tti
pijunnaq sivalli
piju maniq
pijjuti liit</w>
pijitsi r
pijariuq sa
pijari ali
pij aulaur
pij a
piij aqtau
pii 3</w>
pi v
pi tta
pi llatta
per form</w>
pen ner</w>
pe d</w>
pat h</w>
particip ation</w>
particip ate</w>
parnaij au
parna tauma
par ties</w>
par liam
par ents</w>
our s</w>
ou red</w>
ou gh</w>
organi zation</w>
or d</w>
op tions</w>
on going</w>
on a
ogu e</w>
offic er</w>
off set</w>
ob servations</w>
o ds</w>
o bli
obli g
nutti qta
nur se</w>
nuqang akainn
nunavv up</w>
nunavuu mik</w>
nunavuu limaami</w>
nunavu ut</w>
nunatti armi</w>
nunaqaqqaaq simajut</w>
nunali up</w>
nunali ttinni</w>
nunali k
nunalik inniq
nunal ing
niuvi ak
niruaqti nit</w>
niriupp unga</w>
niriugij a
nil liq
ni rmut</w>
ni r
ni lli
ng utillugu</w>
ng innit</w>
ne l</w>
ne ar</w>
nani si
nalunai ri
nalunai qsima
nalli at</w>
nalauksa aqta
nalau tta
naasauti t</w>
naam man
n inginnit</w>
n au
n akk
n aj
n ai
n ag
n a</w>
mu aqpat</w>
mu angajumik</w>
mon day</w>
mo ving</w>
mo ment</w>
mmi ju
minu te</w>
minist angannut</w>
mini si
mi uta
mi ssion</w>
mi ittunit</w>
men tion</w>
medi a</w>
matuir uta
matuing ati
mat e</w>
mappi g
mantu ri
maligaliurving anni</w>
maligalirini ujuq</w>
malig atigut</w>
mali k
maann a
ma kk
ma ce</w>
m ulluunniit</w>
m mu</w>
lu tit</w>
lu tillu</w>
lu si</w>
lu gi</w>
lu ck</w>
low est</w>
lo st</w>
lo ok
llu si</w>
llu gulu</w>
ll ing</w>
lirinir millu</w>
lirini kkut</w>
lir ni
liqtu nit</w>
liq pugut</w>
lin ed</w>
li ru
li e</w>
le y</w>
le av
le ad</w>
law y
l avut</w>
l ang
ku iq</w>
ktu mik</w>
ktu gi</w>
kkunn i</w>
kk ullu</w>
kk it</w>
kk aniq
kiuguma viuk</w>
kiu tti
kisu mu
kis ut</w>
kin ds</w>
kiinaujaqturutiksa mi</w>
kiinaujaqturuti ksaup</w>
kiinaujaq aqti
kiinaujalirij i</w>
kiinauj at</w>
ki valli
ki miru
ki kp
ki kkut</w>
katujjiqatigi ing
kattung aiqsima
kattung aiq
katsung aiqsima
katimani vut</w>
katiman ingat</w>
katimajiuqatau jut</w>
katimajing i</w>
katimaji rju
kati manir
kati maniq
kati ktugi</w>
kamagijaunir mullu</w>
kamagijariaqaqtu it</w>
kamagijaq aqput</w>
kama ji
kam anir
kajusi junn
kajusi inn
kajungirtu ijut</w>
kaantura aq
k si</w>
k si
k ki
k ap
k angir
juti q
jung attauq</w>
jun ullu</w>
ju mi</w>
ju dge</w>
jauj unn
jari iq
ja uniq
ja inn
jainn ari
j ona
j ane</w>
ittu nik</w>
isumaqsaqsi uq
isumaq suq
isuma vunga</w>
isuma junga</w>
iqqauma juti
iqqaqtu ij
iqqanaijaqti taugiaq
iqqanaijaqti t</w>
iqqanaijaqti nu</w>
iqqanaija ak
iqqai ti
iqq ittu
iqaluttuu tti
iq atau
iq arri
iq arialuk</w>
ipp in
invol vement</w>
inven tory</w>
inv ite</w>
inuusu ttu
inuusu ktu
inutu qati
inulirijinullu s</w>
inugl ak</w>
intro duce</w>
innu t
inn ingani</w>
inn ing
inn atu
ini pai
ini ll
ini it</w>
ingi llu</w>
increas ing</w>
incre ased</w>
in struc
in cen
incen tive</w>
impro vements</w>
impro ve</w>
immaq alu</w>
imi alutta
im mi</w>
iluanngij juti
ilu liq
ilits innik</w>
iliqqusi tuq
ilinniaqti nut</w>
ilinni arat
ilang anik</w>
ila akk
il innut</w>
il ini
ikummaqqu tinut</w>
iksiv a
ikkarri ialuk</w>
ikajuq suq
ij ju
igluq ju
iglung innut</w>
igl unut</w>
igl ulingmi</w>
ide as</w>
ide a</w>
i valli
hun ting</w>
hop ing</w>
hon oured</w>
hon our</w>
hel ping</w>
heav y</w>
h ire</w>
h arv
h and</w>
gulu aria</w>
gu res</w>
gu ma</w>
gro unds</w>
gro und</w>
gran d
gradu ated</w>
go tten</w>
gittu nga</w>
gili an</w>
gij arnit</w>
gi aruma
gi aqtu
geo gra
gavamang annik</w>
gavama ulluta</w>
gavama tsa
gavama it</w>
gavam anit</w>
gav ut</w>
gav e</w>
gaakkanni agut</w>
ga ining</w>
g ym</w>
g ement</w>
fun ded</w>
fun ctions</w>
fri end</w>
fortun ate</w>
forma l</w>
for get</w>
fif teen</w>
fi gures</w>
feder ation</w>
fa ther</w>
experi ence</w>
ex tent</w>
ex p
ev ening</w>
esti mate</w>
eri can</w>
equ al</w>
encour ag
en vironment</w>
en suring</w>
en ough</w>
e ding</w>
e -
du e</w>
do ctor</w>
disa ppoin
diffic ult</w>
diffic ul
di ed</w>
di and</w>
deli vered</w>
deduc tions</w>
de n</w>
de la
d ri
cur riculum</w>
cur ley</w>
cre d
cre ated</w>
cor respondence</w>
constitu ent</w>
concep t</w>
con sensus</w>
con fu
comple tely</w>
comp any</w>
communi cation</w>
com pu
com ponent</w>
clo sing</w>
clo s
clai m</w>
ci tiz
char ts</w>
char t</w>
ch oices</w>
ch ec
centrali zed</w>
c ash</w>
c ases</w>
broad er</w>
bor ro
bo ss</w>
be auti
beauti ful</w>
bar gaining</w>
bal anced</w>
b ran
b ase</w>
b ack
aw arding</w>
avittuqsimaj uni
avittuqsimaj asi</w>
aviktu qsimajuni</w>
av vi
av mik</w>
av a</w>
auq ata
aulatti jiit</w>
aulainn atitsiguti
aul uni</w>
aul la
aul anit
aul aniq
auj uni</w>
auj ariaq
aud it</w>
au di
atuqtu tsat</w>
atuq atta
atuliquji mmata</w>
atuliquj aq</w>
attu q</w>
attu q
atti av
atta uti
atta rni
atsa innaq</w>
atili uqta
atausi unngittu
atausi rmik</w>
atangiqtu mik</w>
atangi uma
ata kka</w>
at s</w>
asu k
assi gn
ass et</w>
asijji q
asi ji
asi gi
asi agut</w>
arvi armi</w>
arunn aru
arraagu mut</w>
arni kkut</w>
arni arama</w>
arn inga</w>
arn aujuq</w>
armi juq</w>
arma tik</w>
arma ri
arlu talu</w>
arij aujut</w>
ari alinnit</w>
aralu aqtunga</w>
ara ang
ar unniir
ar ru
aquti vut</w>
aqtuqaq qa</w>
aqtu tigut</w>
aqtu ti</w>
aqtu si</w>
aqtu llu</w>
aqti tausima
aqti t</w>
aqti it</w>
aqti gininganik</w>
aqta uningit</w>
aqqu ur
aqqu uqtuq</w>
aqqu uqtunga</w>
aqqu uqtu
aqpi ta</w>
aqp attut</w>
aqatta rni
aq ulluta</w>
aq uji
aq siv
appe ared</w>
apiri kkannirunn
apiqsur unn
apiqquti ksaq
apiqqu tinnut</w>
apiqqu ta
anu angajumik</w>
annu al</w>
announ cement</w>
announ ced</w>
annikittu r
anni q</w>
annginn ama</w>
anngil anga</w>
anng in
anit tinnut</w>
anir nit</w>
anir mi
anil luunniit</w>
angu mmati
angu jut</w>
angu jumik</w>
angittu nga</w>
angiqpi si</w>
angiqatigii gu
anginn u</w>
angijuqqa aq</w>
angi runn
angi mmata</w>
angi mmat</w>
ang uti
ang ngittuq</w>
an mut</w>
an iqaq
an aan
amoun ts</w>
ammalu isumaqsaqsiurutiqaqpallutik</w>
amis unit</w>
amiakk ung
ami ttu
am mi
am innik</w>
am erican</w>
alun ai
allap vit
alir mata</w>
aliq pugut</w>
ali rutta</w>
ali ra
ali lauq
alaur ama</w>
akuni aluk</w>
aks at</w>
akkanni r
akitu junit</w>
akittu ri
akili utauni
akili u
akili ksa
akik ila
akik il
aki tuni
aki liri
ak u
ak ingit</w>
ak auti
ajji ginngi
aj ut</w>
aj u</w>
aippi qtaulluni</w>
adop ted</w>
administr ative</w>
achie ved</w>
ac knowled
ac compli
aaqqik simani
aanniasiur vi
aanni avili
>> prayer</w>
>> maligaliuqtiit</w>
9 9</w>
6 0
5 1</w>
2000 mut</w>
2000 mi</w>
20 th</w>
2 50</w>
2 00
1999- 2000</w>
1 mi</w>
000 nit</w>
00 muaqtillugu</w>
- mu
&u ta</w>
$ 13</w>
z er
zer o</w>
yo ung
y -
x- ray</w>
wi ce</w>
we st
ware house</w>
wan ts</w>
w s</w>
w ro
wro te</w>
w inn
w ill
will ing</w>
w ers</w>
w al
w a</w>
vo ted</w>
visi ting</w>
vi git</w>
vi cti
ver ing</w>
valli ati
vaan av
v ti</w>
v ity</w>
v ers</w>
v at
v ast</w>
uvi junn
uvijunn aqti
uvijunnaqti ulutik</w>
uvani ittu
uv uraij
uvuraij an</w>
uv u
uv angalu</w>
uuttuutigi lugu</w>
utu ag
utitsi av
utirmi luta</w>
utili zed</w>
utigij unn
utigi qqauj
utigi mut</w>
uti mik</w>
uti llu</w>
uti laur
uti gin
uti gi</w>
urmi ik</w>
uri aq
uraanik sima
ura aq</w>
ur u
uqtu q
uqti llugu</w>
uqta ra</w>
uqsuqtuur mi</w>
uqsauti it</w>
uqqu uqtuq</w>
uqqau juq</w>
uqauti juma
uqausiq arunn
uqausiq aqpugut</w>
uqausiq aliq
uqattaq simajut</w>
uqatigi it</w>
uqatau vuq</w>
uqatau juq</w>
uqarunn aqpaa</w>
uqaqqau gama
uqaq vti</w>
uqaq qu
uqaq atta
uqall ati
uqalima arunn
uqalima arnirmik</w>
uq qi
uqqi ta
uq qauj
uq atti
uq ali
uq alauqtuq</w>
uq akkannirunn
uq akkanni
upi qtu
upd ates</w>
upd ated</w>
up s</w>
up innar
upinnar ani</w>
unniinga aqtuq</w>
unngin atta</w>
unngi tillugu</w>
uning inni</w>
uning i</w>
uning anillu</w>
unikka alauk
uniaqtu tit</w>
ungittu mik</w>
ungata ani
ungasiktu mut</w>
una git</w>
un iqaq
un ding</w>
ullatta aq</w>
ulla aq</w>
ull ungani</w>
ull ar
ulaur mata</w>
ulauqtu mik</w>
ula unngi
ula aju</w>
ula aju
ul inga
ul g
ulg ence</w>
uki aksa
uk un
uk tu
uju mit</w>
ugaalau si
ugaalausi riji
u tupi
utupi ri
u tti
u tra
utra l</w>
u ms</w>
u liqtuq</w>
u junu</w>
u ili
u angajumik</w>
twen ty</w>
tutsi arniq</w>
tusaajitigu ur
tus si
tus arvigi
turaaqti ni
turaakautigi jumik</w>
tura agait</w>
tur day</w>
tuq armik</w>
tunngav ikk
tunngasu git</w>
tunnga suq
tunnga s
tuni jausima
tuni jaujut</w>
tungili a</w>
tungasu tti
tun ullu</w>
tukisigiaruti tuinnaq</w>
tukisigiaruti qarni
tukisigiaruti nit</w>
tukisigi arvit
tukisigiarvit sait</w>
tukisi titau
tuki siv
tuinna unngittuq</w>
tuinn aujuq</w>
tuap alirinirmut</w>
tu qq
tu qau
tu avi
ttu ni</w>
ttini rmik</w>
tti uk</w>
tta wa</w>
tta riaq
tta lu</w>
tta aq</w>
tsi kkut</w>
tsi aqp
tsaq siur
tsan i</w>
ts unga</w>
ts inirmik</w>
ts auj
tru e</w>
tran sition</w>
tra ck</w>
tr uly</w>
topi c</w>
tiurituarij ami</w>
titirarianng aqsimajut</w>
titiral aur
titiqq aqta
titiq qan
tita uninginnut</w>
tiq tauju
tion ing</w>
ting innullu</w>
tin ullu</w>
time table</w>
tillu gi</w>
tili jauningit</w>
tig ullu</w>
ti tu
ti tsini
ti t
ti s
ti kku</w>
thousan ds</w>
thir ty</w>
the w</w>
th i
ter ac
terac y</w>
teach er</w>
tavv au
tavv a</w>
tav ani</w>
tauv ali
tauv aktu
tautu ktu
tausima juq</w>
tausanta alait</w>
tauni aqput</w>
taul au
tau mmat</w>
tar nik</w>
tap vunga</w>
tamakkun anngat</w>
tama tsu
tama innu
talli man
tal ked</w>
takumin aqtu
tak utittinirmi</w>
tak uni
taimann aittu
taimann ail
taimail inga
taima li</w>
taima ini
taima inginn
taima atsi
taikkun anngat</w>
taijau juq</w>
tai ma</w>
tai jaulutik</w>
taatsu ma</w>
taaksi ija
ta ulluni</w>
ta tinnut</w>
ta rr
ta li
ta ining</w>
ta ilima
ta av
ta akk
t wice</w>
t led</w>
sutuu at</w>
surro unding</w>
sur ance</w>
suqquiq titau
suqquima tti
suppor tive</w>
suppor ting</w>
sulijuq s
su mp
stru g
strate gi
sti cs</w>
ste ad</w>
state ments
sta n</w>
sta ges</w>
st en
sten tions</w>
spo ken</w>
spi ll
spill s</w>
spec ts</w>
spe e
spee ch</w>
sour ces</w>
solu tions</w>
sol ve</w>
soci ety</w>
sivunit sa
sivunit s
sivumu tti
sivulliuqti it</w>
sivulliuq ti</w>
sivulliuj j
sivuliuqti t</w>
sivuliaru tanit</w>
sivuliaru ta
siv ata
simang ngi
siman inganik</w>
simaj ara</w>
sima vavut</w>
sima v
sima llutit</w>
sima jugut</w>
sima jam
sim anginn
silattus arvi
sil au
sil aqju
signatu res</w>
si x
si ti
si t</w>
si sis</w>
si qullugit</w>
si e</w>
si aru
sh aring</w>
selec ted</w>
sel ling</w>
secon der</w>
seals kin</w>
se em</w>
se cu
secu rity</w>
se ats</w>
se ated</w>
se as
seas on</w>
sauti llugu</w>
sauj unit</w>
sauj ariaqarni
sau p</w>
saqqi tita
sanaju lirinirmut</w>
sanaju lirijikkut</w>
sanaj auj
san ani
sal es</w>
saimmati mut</w>
sa turday</w>
sa pu
sa liangu
sa inn
sa ge</w>
s si</w>
s lo
s ki
ski do
s inn
s inir
s angi
ru n</w>
ru cial</w>
ru ary</w>
rini aqta
rij angit</w>
ri tti
respon ding</w>
respe c
res ult</w>
res erve</w>
requ ests</w>
representa tive</w>
rel ation</w>
rel ation
relation ship</w>
recogni zing</w>
recei ving</w>
rec esses</w>
rec ent</w>
reali ty</w>
re tention</w>
re pe
repe at</w>
re -
ra su
ra in
r s</w>
r minut</w>
r mat</w>
r iniq</w>
r ates</w>
r as
quvi at
quviat tunga</w>
quvi a
qurluqtu umi</w>
qukiuti liriniujumi</w>
qujannamiiruma vakka</w>
qujann avmik</w>
qujali juma
quja gi
quic k</w>
qu lli
qu ki
qu an
quan aq</w>
qtu it</w>
qqu uqtuq</w>
qqauj unga</w>
qitur n
qiturn gavut</w>
qitirmi ut</w>
qiti qqu
qiti q&
qiti anut</w>
qisi raj
qimirruni q</w>
qimirru vugut</w>
qimirru jauni
qilavv ak</w>
qil uqqita
qikiqta it</w>
qaujisaq ta
qaujis ari
qaujimanituq angat</w>
qaujimajatuq anginnit</w>
qaujima vugut</w>
qaujima g
qauji jjuti
qauji jau
qauji j
qauji giaq
qau tsi
qau gama</w>
qarni rmik</w>
qaq ju
qanuittu ma
qanuittuma vat</w>
qanuinn gittuq</w>
qanuilingalir mangaata</w>
qanuilingaj juti
qanu limaaq</w>
qanu itta
qanu inngi
qanuinngi si
qanu ilu
qani mani
qangata suuq
qangata su
qang ngi
qang au
qan utigimut</w>
qan utigi</w>
qan urli</w>
qan ittu
qamanittu armi</w>
qamaniqtu armik</w>
qallun aanut</w>
qaij unit</w>
qai q
qa i</w>
q sauni
q s
q iniq
q at</w>
q arunn
q armat</w>
q aratta</w>
q anngilagut</w>
q alun
q alaat</w>
purch ases</w>
pur a
pura avin
pula arvi
puij ini
publi c
pu igur
provin cial</w>
promo ting</w>
proce eding</w>
pro mi
pro f
prin cip
prin ci
princi ples</w>
pri ces</w>
presen tations</w>
pres ents</w>
pra cti
pr or
pp unga</w>
pp a
port fo
portfo li
por tion</w>
poin ted</w>
po t</w>
plann ed</w>
pla ined</w>
pivi ks
pivalliaj ai
pivalli atittini
pivalli ajau
piuniq sa
piruqpalli ani
piruqpalli aju
piruqpalli ajjuti
piruqpalli ajju
piqujivungaaruti nut</w>
piqjuang uvuq</w>
piqjuang uninganillu</w>
piqju anit</w>
piqju angummat</w>
piqati vut</w>
piqasi ullugit</w>
pinngu arvik</w>
ping atsi
pinasuarusi up</w>
pinasuarusi ulauqtumi</w>
pinasuarusi ik</w>
pilirivi ujunut</w>
pilirivi /
piliriqati qarni
pilirini aqpugut</w>
piliriat saq
piliri ving
piliri qju
piliri jiit</w>
piliri aq</w>
pikku gi
pijunn atsi
pijunn atittini
pijittirautin gillu</w>
pijitti rni
pijitsiruti nik</w>
pijariuqsa titsi
pijari alinnit</w>
pigiaruti i</w>
pigiarning ani</w>
pigiaqti tsi
pigi ala
pi uqsu
pi tsi
pi t</w>
pi simannginakkit</w>
pi sii</w>
pi quj
pi llari
pi lir
pi lauq
pi kkun
pi jumaj
pi gusu
person nel</w>
perfor med</w>
perfor man
performan ce</w>
per mission</w>
pe ni
peni tenti
pati ent</w>
pass ing</w>
partn ership</w>
parnauting innik</w>
parnauti t</w>
parnaijau tausima
parnaij autit</w>
pap er</w>
paipp a
pa asiq
pa asi
p hi
p ari
pari sh</w>
p allu
p akka</w>
own ers</w>
ow ned</w>
over sight</w>
out lined</w>
ou b
origin ally</w>
on y</w>
ok ak
okak ti</w>
off er</w>
oblig ations</w>
objec tives</w>
o ttawa</w>
o s</w>
nuta ami</w>
nuta a
nutaa _
nuqq aqtita
nunavuu mit</w>
nunavumiu limaanut</w>
nunavumi unit</w>
nunata arnirmut</w>
nunaliral aanit</w>
nunalinnuang atittinirmik</w>
nunalinnuang atittini
nunali ujut</w>
nunali ttin
nunali qu
nunali lima
nunali gij
nun attinni</w>
nun ami</w>
nun a
nu utau
nu taqq
nu at</w>
nt pc</w>
north west
no tes</w>
no te</w>
niruaqti gisimaj
niru arni
niru anngittut</w>
niri un
nil lir
ng inni</w>
ne utral</w>
ne twork</w>
nau kkut</w>
nang mini
namminiqarni rmullu</w>
nam mini</w>
nalunairi akkannirunn
nalunai gi
nalu junga</w>
nalautsaaqtau majut</w>
nakati qta
nak urmiik</w>
naittu kul
nain aaq
nag li
naasauti lik</w>
na pp
n inganut</w>
n gittut</w>
n ga
n auj
n amma
municip al</w>
mul ated</w>
muanga jutigut</w>
mu ang
mo tions
mo ther</w>
mmi kku
mmi jungattauq</w>
mmi jugut</w>
mmi jara</w>
mmanga q</w>
mmanga at</w>
mma q
ml as</w>
mittimatal ingmut</w>
mistak en</w>
mista ke</w>
minista mi</w>
mini it</w>
min e</w>
mili anut</w>
mik inniq
mi sisis</w>
medi cal</w>
medi ately</w>
me tho
me ch
mech anis
me at</w>
me asure</w>
matuir utigiqqauj
matuir uti
maniq sau
manga atta</w>
mami s
maligiaq aqtumut</w>
maligat saliangu
maligaliurvi ujuq</w>
maligaliuqtiuqati kka</w>
maligaliuqti uju
maligaliuqti tuinnait</w>
maligalir inirmu</w>
malig arni</w>
malig armik</w>
mali tsugit</w>
mali t
mali r
maki ta
main tain</w>
main ly</w>
maann au
ma x
ma le</w>
ma l
ma juq</w>
ma ani</w>
m rs</w>
m my</w>
m innut</w>
m es</w>
lu mi</w>
lu it</w>
lu gillu</w>
look ed</w>
loo ks</w>
logi stics</w>
lo wer</w>
lo sing</w>
lo cally</w>
llu tigu</w>
llu talu</w>
llu gi</w>
lirinir mi</w>
lirijikkunn u</w>
lirij inut</w>
lirij inginnut</w>
lir tuq</w>
lir mi
lir ju
lima allu</w>
li ve</w>
li teracy</w>
li ra
li mi
li fe
life sty
lead ing</w>
le vi
laur tut</w>
lar g
larg er</w>
l ay</w>
l auqtu
kuapuriis akkut</w>
ku vi
ku uli</w>
ku uki</w>
ku mak</w>
ku a</w>
ks auti
ks anginnit</w>
kkun nit</w>
kku t
kkanni q
kk uvit</w>
kk ulluunniit</w>
kk aa</w>
kivalli q</w>
kiv alir
kiujjuti k</w>
kiujau viit</w>
kis unit</w>
kingulliqpa amilu</w>
king uvijunnaqtiulutik</w>
kin s</w>
kimmiru mmi</w>
kil liq
kikp ak</w>
kiinaujjassa anut</w>
kiinaujaqtuuti ksat</w>
kiinaujaq aqtitau
kiinaujalirij jusi
kigga tuq
ki uq
ki i
kattung air
katsungaiqsima tti
katiqati qarni
katiqati gini
katimani ujuq</w>
katimaji qalaat</w>
katima qatiq
katima qatigi
kati qatigi
kangiqtugaap ing
kangiqtuga api
kangiq& inirmi</w>
kanata lutta
kanata limaami</w>
kamp ani
kamisanaulaukaktu lirijikkut</w>
kamanir nullu</w>
kamagijariaq aqtunit</w>
kamagijaq aqtut</w>
kamagij atsaq
kall au
kajusitti aruti
kajusiniq atti
kajusi titau
kajusi tinni
kaanturaak titti
k put</w>
junnaq sini
junn aqsi
junn aqp
juma junga</w>
ju uk</w>
ju tinut</w>
ju si</w>
ju mut</w>
jo e</w>
jjuti mik</w>
jaul auqtut</w>
jariaqarni aqput</w>
jariaq armata</w>
j e
j anginnik</w>
it tauq</w>
isumaqsuq putit</w>
isumaqsaqsiuruti tsait</w>
isumaqsaqsiur utau
isumaq su
isumagij a
isumagi llugu</w>
isumaalu utiq
isuma tsaqsiur
isuma ta
isulitti junit</w>
issivauta unirmut</w>
is sivautaup</w>
ir ni
iqqaqtuivi lirijikkut</w>
iqqanaijaqtitaugiaq arninginnut</w>
iqqanaija ak</w>
iqqanaij aaq
iqq a
iqal unnut</w>
iq ittuq</w>
ipur u</w>
ipp aksaq</w>
ip pugut</w>
inuusi lirinirmut</w>
inuujunniiq tuq
inuquti tsinnut</w>
inung nut</w>
inuk suk</w>
inu us
inu unasu
inu ki</w>
inu innaqtu
inu giaq
inugiaq sivalli
introduc tory</w>
introduc tion</w>
introduc ing</w>
inter n
innga aqtut</w>
inn gu
inn arnit</w>
inn a
ini ttinni</w>
ini kkut</w>
ingu al</w>
ing ngittu
ing atigut</w>
inf lu
indi cate</w>
incre ase</w>
in uqaq
in tent</w>
in surance</w>
in stitu
in stead</w>
in stances</w>
in quir
in d
ind ulgence</w>
in as
implemen ting</w>
imialutta arvi
imi alun
imialun nik</w>
ima immat</w>
ima i
im mediately</w>
iluanngij ju
ilu unniit</w>
ilu li
illutsaqaqti tsinirmut</w>
illuqaqti tsinirmut</w>
ill unik</w>
ill uni</w>
ill aak</w>
ilitari jumavara</w>
ilitari juma
ilisaij inut</w>
ilisai vjit</w>
iliqqusi rmik</w>
iliqqusi llatta
ilinniav innut</w>
ilinniaqtu lirinirmu</w>
ilinniaqti t</w>
ilinni artulirinirmut</w>
ilinni arniq</w>
ilinni aqsima
ilinni anir
ilauq puq</w>
ilang ng
ilang inni</w>
ilang i</w>
ilaakkuunga jutigut</w>
ilaakkuunga junillu</w>
ilaakk uqtunut</w>
il unn
il angillu</w>
il aja
il aanni
ikk a</w>
ikajuusi anit</w>
ikajuqtu ij
ikaju utit</w>
ikaju utau
ikaju ruti
ik upiqtu
iji mik</w>
ij ja
ii pur
ig alu
identi fied</w>
ide lines</w>
i tin
i table</w>
i siq
i mmikku
hun t</w>
hol ds</w>
hol ding</w>
ho ok</w>
high light</w>
hi red</w>
headquar ter</w>
ham lets</w>
haam lat
h ic
h en
h at
hat san</w>
h asi
guti tsanik</w>
gunn aq
guma jakka</w>
gu mi</w>
gu idelines</w>
grow ing</w>
gro w</w>
great ly</w>
great er</w>
go ri
go ods</w>
ginn ama</w>
gin gittu
gilauq para</w>
gij atta</w>
gij ariaq
giaq arningit</w>
gi ul
gi tsi</w>
gi angng
gi angit</w>
gi aliit</w>
geogra ph
gener ally</w>
ge ts</w>
gavamatuqakk unnik</w>
gavamatuqakk unni</w>
gavamatuqakk unni
gavamatsa liriji
gavamang innut</w>
gavamang i</w>
gavamang ani</w>
gavama kku
gavam angita</w>
gav iq
gav innga</w>
galu armat</w>
gal i</w>
gaj aqtara</w>
ga sunni
ga i</w>
g utik</w>
g ulli</w>
g one</w>
g ative</w>
g ata</w>
g aksi</w>
g ai
fur s</w>
fri ends</w>
fram e</w>
for ty</w>
follow ed</w>
fol low</w>
fini shed</w>
fill ing</w>
fe b
feb ruary</w>
fair ly</w>
fa ce</w>
f re
expres sed</w>
expl or
experi en
ex plained</w>
ex er
exer cise</w>
ex am
establish ment</w>
es sib
ere av
ereav ed</w>
ener gy</w>
en ed</w>
en ded</w>
en d
en able</w>
employ ed</w>
emp ty</w>
emp hasi
em or
em ony</w>
em er
em ed</w>
el s</w>
el der</w>
el abor
elabor ate</w>
effec ted</w>
e yes</w>
e ly</w>
e ligi
e ight</w>
e as
eas y</w>
e a
doll ar</w>
do wns</w>
distribu tion</w>
distribu ted</w>
discu s
dis tin
dis pu
dis cre
discre tion</w>
difficul ties</w>
di vi
di versity</w>
di se
depen ds</w>
dela yed</w>
deci ding</w>
deci ded</w>
deal t</w>
de signed</w>
de a
d ru
d oub
d consider</w>
d ates</w>
d ated</w>
cu mulated</w>
cred it</w>
counc il
contro lled</w>
contribu tion</w>
contribu te</w>
contrac tor</w>
consul ted</w>
conc urred</w>
con ven
con nec
con duc
con cise</w>
con cen
concen tr
compu ters</w>
comptro ller</w>
compensa tion</w>
commissi on</w>
colleagu e</w>
co-ordin ator</w>
co- op</w>
co- chairperson</w>
co vers</w>
clos er</w>
ci dent</w>
char ged</w>
chang ing</w>
cer emony</w>
cate gori
canadi ans</w>
c rucial</w>
c ro
c king</w>
c k
c el
c c</w>
c are
bu y</w>
bu s</w>
bro ad</w>
brief ly</w>
break downs</w>
bran ch</w>
bo ok</w>
be low</w>
back ground</w>
b one</w>
b ereaved</w>
aw ard</w>
avittuqsimajuni inngaaqtut</w>
avittuqsimaj u</w>
avittuqsimaj anginnut</w>
avittuq siman
avi ation</w>
avail ability</w>
av at</w>
av alli
auq atta
aulauq put</w>
aulauq puq</w>
aulanit s
aulani rij
aulajjuti tsat</w>
aul auqtu
aul atau
aul at
aul ajunn
aul ajju
auj unut</w>
auj ji
auj arialik</w>
aud it
aturi k</w>
atuqtuaruti t</w>
atuqta uni
atuni iqta
atuliq tita
atuinnar uq
atuinn aru
atuag aup</w>
atu uti
atu runn
atu ru
atu qsima
atu laur
attu rni
attu nik</w>
atti git</w>
atti aqput</w>
atta innaq</w>
atta ilima
att anirmut</w>
atsi uk</w>
atiliur viu
ati q
ati nga</w>
ati i</w>
atauni rmik</w>
ata luunniit</w>
at tend</w>
at angir
asu ung
ass i</w>
asing inni</w>
asing inni
asing i</w>
asijji ruti
asi uji
asi ttinnut</w>
as sure</w>
arvi lirju
arva aluk</w>
aruti nit</w>
arunn armangaata</w>
aruma anni
aru kku</w>
arri ved</w>
arraaguula aqtuq</w>
arraag ur
arra g
arra ani</w>
arnir mit</w>
arni qarni
arni armata</w>
arni ari
armi ut</w>
arlu tillu</w>
arl i</w>
ariaq aqpavut</w>
arat tigut</w>
arat ti</w>
arasu k
arasu aqsima
aralu armangaata</w>
araj aqtut</w>
ar tau
ar tara</w>
ar ruti
ar mit</w>
ar i</w>
ar atsa
ar aqta
ar ak
ar aan
aqup lugu</w>
aqtung ali</w>
aqtu talu</w>
aqtu ta</w>
aqtu ni
aqtu ksau
aqtitti vuq</w>
aqti taujut</w>
aqtausima jut</w>
aqtau jut</w>
aqtang innillu</w>
aqtang i</w>
aqta si</w>
aqta rnit</w>
aqta minit</w>
aqta kka</w>
aqsima mmat</w>
aqsima lir
aqsima junit</w>
aqsi tigi
aqsi jutit</w>
aqquti qju
aqq it</w>
aqp apput</w>
aqati gi
aq ullusi</w>
aq uj
aq suni</w>
aq i
appro val</w>
appro ach</w>
appoin t</w>
appl au
app li
apologi es</w>
apiri jumaj
apiqusi rmut</w>
apiqqutitsaq aqtunga</w>
apiqqutiqakkaniq piit</w>
apiqqutiq alaurama</w>
api qsu
anu ung
announ ce</w>
anngittu nit</w>
anngil auk
ann ur
ann ingit</w>
ann ami
annami ik</w>
anit tinnit</w>
anit tinnik</w>
ani ujuq</w>
ani ittunut</w>
ani ar
angu mmata</w>
angli k
angiruti mi</w>
angiqtu innau
angiqtausima juq</w>
angiqta uqullugit</w>
angiq tauv
anginn ullu</w>
anginn gittu
anginn avit</w>
angajuqqa aq</w>
ang mangaata</w>
ang atigut</w>
an uraaq</w>
an dconsider</w>
an auta
an al
anal y
amma sulikkanniq</w>
amis unik</w>
ami arik
ama l
am anga
alu armata</w>
altern ates</w>
allo cations</w>
allo cating</w>
all au
all atti
all a
alir mat</w>
ali ty</w>
ali qta
alauq simavuq</w>
alang anir
aksuru utiq
aksur unn
akkanniq piit</w>
akk unnik</w>
akk ullu</w>
akk a
akitujuq siuti
akitujuq ju
akitujun u
akituju uti
akiraqtu qtut</w>
akiliutau junit</w>
akiliks aillu</w>
akili ksan
akili iv
akili g
ak unn
ak sanit</w>
ak put</w>
ak as
ajjigiinn gittut</w>
air line</w>
aippi q</w>
aipp aanik</w>
aipp aani</w>
aij unn
ai sima
agu ma
aglukk aaq</w>
aff ord</w>
aff ects</w>
adop tion</w>
addres s
ad ver
ad s</w>
achie ve</w>
accep t</w>
acc essib
ac cumulated</w>
ac cident</w>
ab stentions</w>
ab sent</w>
aaqqittau simaniq
aaqqit sima
aaqqik su
aaqqi ini
aaqqi giaqtau
aaq qu
aanniasiuqti tsanik</w>
aanniasiuqti ta
aanniasiuqti nik</w>
aanniaqarnangittu lirijikkut</w>
aanniaqarnangittu lirijikkunni</w>
aanni aju
aan nik</w>
a giaq</w>
a gasu
a aji
>> tuksiarniq</w>
9 26</w>
9 0
90 1</w>
8 th</w>
8 9</w>
8 65</w>
7 mi</w>
6 87</w>
6 2</w>
5 ngu
5 4</w>
5 48</w>
4 9</w>
4 1</w>
30 th</w>
3 52</w>
3 3</w>
3 17</w>
3 13</w>
3 11</w>
29 th</w>
24 mi</w>
2 36</w>
2 3-
2 23</w>
1999/2000 mut</w>
1999/2000 -mi</w>
199 8mi</w>
10 -
1 mik</w>
1 97
1 /
/ ng
$5 10</w>
$3 7</w>
$3 6</w>
$1 30</w>
$ 825</w>
$ 72</w>
$ 27</w>
$ 14</w>
young er</w>
y uk
yuk on</w>
y d</w>
y all</w>
wor th</w>
wo men</w>
wit z</w>
wil liam
william s</w>
wi se</w>
who m</w>
wh it</w>
wh ate
whate ver</w>
wee k
week end</w>
we aring</w>
w t
wt ts</w>
w pc</w>
w inni
winni pe
winnipe g</w>
w ages</w>
w age</w>
vvi gi
vu una</w>
vu ttauq</w>
vu guttauq</w>
vu ari</w>
vo te</w>
victi m</w>
vi tation</w>
vi gij
vi a</w>
valu e</w>
valliaj ut</w>
valli avut</w>
valli ammata</w>
valli ammat</w>
vagi iq
vaanav as</w>
v vingmi</w>
v u</w>
v innga</w>
v inipai
v ini</w>
v iluunniit</w>
v ative</w>
v an
v allaijuq</w>
v allaij
v alirmata</w>
v aktu
uvu uk</w>
uvi valu</w>
uvattu nik</w>
uv vi
uv attinni</w>
uv atsi
uv ati
uv at</w>
uv at
uv ara</w>
uv anni
uv ani</w>
uv ang
uv aluunniit</w>
uv alunnit</w>
uv aktu
uv agut</w>
uuttu utitsiav
uunga junik</w>
uu mma
utupiri mi</w>
utiqtita uqullugit</w>
utili ties</w>
utilaur mita</w>
uti ti
uti ruma
uti kkanniruma
uti junn
uti it</w>
uti es</w>
usa mi</w>
us ari
urn ga
urnga gut</w>
ur ata
ur ama</w>
uqtu mik</w>
uqti ti
uqti llugit</w>
uqsuqtu urmi
uqsuqtu q</w>
uqsualu tta
uqsualu it</w>
uqsual unnut</w>
uqsu alunnit</w>
uqsu aluk</w>
uqqu usi
uqauti gunn
uqausitsaq aqtuqaqqa</w>
uqausits akka</w>
uqausiri sa
uqausiri junn
uqausiri jumajara</w>
uqausiqaq qau
uqausiqaliq pata</w>
uqausing annik</w>
uqausiks angi</w>
uqausiks akkanniit</w>
uqausi uningit</w>
uqausi uju
uqausi q</w>
uqausi lirinirmut</w>
uqausi ksa
uqaus ingillu</w>
uqaujjaulaur mijut</w>
uqaujjaulauq put</w>
uqaujjaul auqtut</w>
uqatigi i
uqarunn armangaaq</w>
uqaruma vunga</w>
uqaruma tuinnaqtunga</w>
uqar as
uqar ai
uqaqti mik</w>
uqaqqaugama ilaak</w>
uqaqati qarni
uqaq paa</w>
uqalima r
uqalimar tauningit</w>
uq tausima
uq taujunn
uq qaq
uq ariaksaq</w>
uq alaurmat</w>
uq alauqpuq</w>
uq akainn
upigusu utimik</w>
upigusu tsi
upigusu mmari
up inn
up coming</w>
up aguti
unniiq tuq</w>
unni ik</w>
unnginn ingani</w>
unnginn avit</w>
unngini ttinni</w>
unngil at</w>
unngi tillugit</w>
unn usami</w>
unit tinnit</w>
unit s
unir mi</w>
unir ai
unikkaaq ulluta</w>
unikkaan i</w>
unikkaali at</w>
unikkaali ari
unikka arij
unikka anga</w>
unikka amut</w>
unikka amik</w>
uniartu nut</w>
uniaqtu tillu</w>
uniaqtu nut</w>
uniaqtu mut</w>
uniaqtu gut</w>
uni q</w>
uni on</w>
uni git</w>
uni artut</w>
uni armat</w>
uni armangaata</w>
uni armangaaq</w>
uni arakku</w>
unginni ttinnit</w>
ungi qtu
ungi kkuni</w>
ungasi ttu
unga jut</w>
unga jumik</w>
ung mik</w>
ung mat</w>
ung innik</w>
ung at</w>
ung anni</w>
un uqtu
un ullu</w>
un u</w>
un gil
un fo
unfo rese
unforese en</w>
un dance</w>
un d
umiaqju alir
ulu ti</w>
ulu ri
ulu angittu
ullumi ujuq</w>
ull uqsi
ull uq
uliqtu uk</w>
uli sa
ulaur mangaata</w>
ulaur mangaaq</w>
ulauqtu up</w>
ulauq tinnagu</w>
ulauq simammat</w>
ulauq paat</w>
ulau kattuq</w>
ulak siv
ul unilu</w>
ul ingit</w>
ul auk
ulauk aqullugu</w>
ukun anngat</w>
ukiaksa ang
uki uq</w>
uki uk
uk aan
uju llu</w>
ujji ru
ujji ri
uj ja
uj aq
uili am</w>
ug uni</w>
uattiaru kkanniq</w>
u ttauq</w>
u taq
u rij
u mmik</w>
u min
u liqpat</w>
u ivi
tut e</w>
tusaumaqattauti lirinirmut</w>
tusaqtitau juma
tusaqti tauqatta
tusaqti taulauqput</w>
tusaq attauti
tusag aksaq
tusag aksa
tusaajitiguur unniiqtuq</w>
tusaaji tigu</w>
tusaaji qarniq</w>
tusa lisa
tusa aj
tus auti
tus aru
tus aqtittini
turaaqti tauvuq</w>
turaang aniqsau
tura anga
tur ang
tunngavikk unnit</w>
tunngavi kkut</w>
tunngasutti arit</w>
tunngasuktitau lit</w>
tunngasukti tsi
tunisi junn
tuni j
tungn gasu
tungil ingata</w>
tungi lirij
tunga anut</w>
tung aniq
tun u</w>
tuksirautiliuquj iniit</w>
tuksirau taujut</w>
tuksi aquplugu</w>
tukisigiaruti lirijikkut</w>
tukisi tsi
tukisi tigi
tukisi juma
tukisi ag
tukili aqtumik</w>
tuinnau mmata</w>
tuinn arnit</w>
tuinn aqtungali</w>
tu up</w>
tu tuup</w>
tu tuu</w>
tu ral
tural ly</w>
tu qu
tu pur
tupur ai
tu mini
tu llu</w>
tu aqpat</w>
ttu tik</w>
ttu nn
ttini aqpugut</w>
ttin asu
tti jumavunga</w>
tti arnirmik</w>
tti aqullugit</w>
tti aniq
tsini k</w>
tsi aqtigininganik</w>
tsan ullu</w>
tsa mik</w>
tsa ma
ts anginnik</w>
tri ps</w>
tri bu
tribu te</w>
tre men
tremen d
transpor t</w>
tran si
transi tional</w>
tra des</w>
tor ing</w>
tor al</w>
to p</w>
tittini rmi</w>
titirarvi ks
titirarviks aillu</w>
titiraqsima jumik</w>
titiralaur ama</w>
titir aqta
titiqqan ik</w>
titiq qanit</w>
titi qtug
titi on
tita uqatta
tingi tta</w>
ting innut</w>
ting innit</w>
timi up</w>
timi ullu</w>
timi quti
tilisi jju
tili sini
tikku ar
tikku aqsi
tikittu nn
tiki titti
tiki tau
tigu si
tig ating</w>
ti ttinasu
ti se</w>
ti al</w>
thi er</w>
ther ed</w>
te m
tem por
tempor ary</w>
tavv atu
tauv angmangaata</w>
tautug aq
tausima jumik</w>
tauq uji
tauni armangaata</w>
tauni aqpuq</w>
taulaur tut</w>
taulaur mat</w>
taulauqtu mik</w>
taul utit</w>
taul auqtut</w>
taujunn araj
tau vut</w>
tau sauvut</w>
tau lir
tau gajaqtut</w>
tarr aqtu
tarraqtu ijimik</w>
tari es</w>
tar alu
taqqi tamaat</w>
taqq aani
taq ju
taq arni
taq armangaaq</w>
taq aqullugu</w>
taq aqpuq</w>
taq ak
tap vuuna</w>
tang innut</w>
tang inni</w>
tang at</w>
tamma ruma</w>
tamma kata
tamatu mu
tamatumu una</w>
tamatsu manngat</w>
tama unnga</w>
tama tta</w>
tama kki
talu rju
tallimi rmi</w>
talliman ut</w>
talli mmiq</w>
tal uqju
taku tsauti
taku ju
tak utitti
tak uti
tak uninga</w>
tainn alu</w>
taimannau guni</w>
taimann alu</w>
taima k</w>
taima it
taima inning
taimainning anu</w>
taima a</w>
tail inirmut</w>
tai su
taat sumunga</w>
taaksiij autit</w>
taaksi t</w>
taakkun anngat</w>
taakku anguvut</w>
ta uniq
ta tive</w>
ta ti
ta suminga</w>
ta qau
ta min
ta ili
ta as
ta angu
t mat</w>
t annit</w>
t ani</w>
t angi
swe aring</w>
suuqai mma
suuqaimma li</w>
suungu mmata</w>
survi ve</w>
sur aqatta
sur ak
suqquimaniq aqpunga</w>
supp li
sump tion</w>
sum innga</w>
suli ttauq</w>
succ e
succe ed</w>
subsi di
sub stan
su per</w>
stu dies</w>
stri king</w>
strategi c</w>
sti tute</w>
sta y</w>
sta ble</w>
sta bility</w>
st ry</w>
st or
st one</w>
spi rit</w>
spec tive</w>
sour ce</w>
some where</w>
some time</w>
so und</w>
so red</w>
so li
six ty</w>
sivunitsa tinni</w>
sivuni agut</w>
sivullir mik</w>
sivullir mi</w>
sivulliqpaarij angannik</w>
sivulliqpa ang
sivulliqpa amit</w>
sivulli q</w>
sivulli pa
sivullipa atsi
sivuliqti vut</w>
sivuliq tit</w>
sivuliq tinut</w>
sivuli uri
sivu gut</w>
sivata arvi
siuti mik</w>
sita mmi
sita aqtitsiji
sir nit</w>
siqing ngu
sing ing</w>
sin aj
simanngil at</w>
simann gilanga</w>
simann gi
simanir nit</w>
siman iq</w>
siman ingata</w>
simalir mata</w>
simaju tigut</w>
simaju mit</w>
simaj ja
sima vara</w>
sima tti
sima tsi
sima lluni</w>
sima gatta</w>
silauq put</w>
silau rit</w>
silatu n
silattusarvi mmi</w>
silata ani
silarju armi</w>
sil ence</w>
sil aur
sil atuni
si te</w>
si mp
si gn</w>
shor tage</w>
shor t-
ses sions</w>
sen tial</w>
sen ding</w>
see king</w>
see ing</w>
se tt
se qu
se par
se cre
schedul es</w>
schedul ed</w>
schedul e</w>
sc ale</w>
sauj unut</w>
sauj unn
sauj unik</w>
sau mmangaq</w>
saqqit taujuq</w>
saqqi tittinirmik</w>
saqqi titauningit</w>
saqqi ta
sapu jjau
saniraj armi</w>
saniraj ang
sani ra
san sitaaqtitsiji
san iq
san asima
san anirmut</w>
san aji
saimma tinga</w>
sai ma
saalaks aru
saal iniqsau
sa ini
sa armat</w>
sa ang
sa ali</w>
s pon
spon sored</w>
s kins</w>
s inni</w>
s ingit</w>
s den</w>
s aul
s anngij
sanngij juti
s anng
s alu
salu mmaq
s a</w>
rvi gi
ruti k</w>
ruti gi
ruma arni
ru p
rr ulu
ro ads</w>
rni rmik</w>
rmi k
rl unga</w>
rju aq</w>
rju akkut</w>
ris k</w>
riniar attigit</w>
rijau juq</w>
rij anga</w>
ri vanni
ri ck</w>
ri ch</w>
ri anga</w>
ri aksaq</w>
reti en</w>
rest o
resto red</w>
respec ted</w>
res cu
rescu e</w>
require ment</w>
repor ting</w>
renov ated</w>
ren ts</w>
ren ch</w>
remain ing</w>
relo cation</w>
rel ated</w>
regul ations</w>
recommen d</w>
reas on
reason able</w>
reali zation</w>
reach ed</w>
re sume</w>
re solve</w>
re presents</w>
re memb
re li
reli ant</w>
re in
re h
reh ab
re be
rebe cc
rebecc a</w>
re al</w>
ras er</w>
ran kly</w>
ram sden</w>
ral auq
rain ts</w>
ra jait</w>
ra di
radi o</w>
ra as</w>
ra am
raam stan</w>
r mu</w>
r minit</w>
r lugit</w>
r inir
r ati
quviasu ttunga</w>
quviasu mmari
quvi asunni
quti ttinnut</w>
quti ttinnit</w>
quti tta</w>
qul anngilanga</w>
qukiuti lirinirmu</w>
qujannamiiruma vagit</w>
qujannamiiruma jara</w>
qujannami itsu
qujannamiitsu ma
qujannami i</w>
qujali vunga</w>
quja gijauningit</w>
quj juk</w>
quj akka</w>
qu vakka</w>
qu tingit</w>
qu p
qu llunga</w>
qu ll
qull uqtu
qu liri
qtu ti
qtu q
qquur avit</w>
qqau gama</w>
qitirmi uni</w>
qisi rajait</w>
qimirru jiit</w>
qilamiujunn aqtumik</w>
qilami ulu
qilami kkut</w>
qil auj
qilauj j
qikiqtaalu mmi
qikiqta rju
qikiq taqju
qikiq tani</w>
qi ma
qaujisaq tau
qaujis arniq
qaujis aqti
qaujimann gi
qaujiman gittunga</w>
qaujimaj avut</w>
qaujima tti
qaujima lu
qaujima llatta
qaujimallatta angi
qaujijuma llunga</w>
qaujigiaqta uqullugit</w>
qaujigi arunn
qauji ti
qauj unga</w>
qau si
qattung aiqsima
qatta rni
qatsi ummangaata</w>
qatigi inni
qarniqsau juma
qarni armata</w>
qarisauj ait</w>
qanuqtuur unn
qanuittu uninganik</w>
qanu ik
qani mat
qangau gaj
qangata tti
qangata suu
qanga tuinnaq</w>
qan ima
qamanittu armut</w>
qamaniqtu armi
qalluna ati
qallun auj
qaksi llatta
qai tti
qai tsi
qai ji
q tausima
q asi
q arvi
q araj
puriimmi at</w>
purii mi
pur po
purpo ses</w>
pulaarving mi</w>
pulaaqti it</w>
pu uta
pu uq
provin ces</w>
provin ce</w>
propo sing</w>
proj ec
prof es
profes si
pro te
privile ges</w>
princip le</w>
preven tion</w>
premi ums</w>
premi er
premier -
premier- e
premier-e lect</w>
pre viously</w>
pre served</w>
pre ll
prell witz</w>
pr on
pron oun
ppa allir
possib ility</w>
ple dge</w>
piviq aqtitti
piviq aqtitauni
piviq aqtitau
pivi ksaq</w>
pivalliasimanir mut</w>
pivallianiq arnirmik</w>
pivalliaja in
piva allir
piva alli
piuqsu aqtu
piula angujumik</w>
piu siv
pitaq ariaq
pitaq anngilat</w>
pitaq aj
pitaqaj aa</w>
pisima jau
pisima gatta</w>
pir uq
piquti nit</w>
piquti lirijikkunnit</w>
piqujivungaaru mmut</w>
piqju amik</w>
piqati qarni
piqati ga</w>
piqasiuti vut</w>
piqasiuti vuq</w>
piqasiuti mmat</w>
piqasiuti jut</w>
piq atauni
piq anngi
piqanngi kainn
piq ann
pingas unut</w>
pingas unit</w>
pingas unik</w>
pingaju anni</w>
pinasuarusi ujumit</w>
pinasuag avut</w>
pin as
pimmari uti
pimmari uninga</w>
pimmari ujuni</w>
piliriving a</w>
piliripvi up</w>
pilirini aqput</w>
piliriat sat</w>
piliriat sa
piliriari vavut</w>
pilirianguj ariaq
piliriangujariaq aqpuq</w>
piliriangu juq</w>
piliri tsiaqtigininganik</w>
piliri qatta
piliri lu
piliri ani</w>
piliri anginnut</w>
pili mma
pikku gijauningit</w>
pijunnatsi aqtunik</w>
pijunn auti
pijunn atittinirmik</w>
pijjuti l
pijittirau tinginnullu</w>
pijittir arnirmut</w>
piji quti
pijau sima
pijariaq arni
pijariaq aqti
pijarial innut</w>
pij aksaq
pij aks
piijaqtau vallianinginnut</w>
piij aqta
pigiaruti it</w>
pigiaqti tausimajunit</w>
pigiaqti ta
pigiaqti ppara</w>
pigi arni
pig g
pianik si
pi usari
pi uninga</w>
pi ulu
pi tuqa
pi ta</w>
pi si</w>
pi rrulu
pi ri
pi qujali
pi mmi
pi lluata
pi laurmat</w>
pi ku
pi an
ph one</w>
person ally</w>
pers ons</w>
pers onal</w>
per tise</w>
per spective</w>
penitenti aries</w>
pen sion</w>
pe tition
pattatu qtuit</w>
pat rick</w>
partn ering</w>
partn er</w>
particul arly</w>
parnauti mik</w>
parnauti k</w>
parna tausimajut</w>
parna taumajut</w>
parna simavugut</w>
parn ata
par ts</w>
par rijunn
pallu q</w>
paanap as</w>
paan ik</w>
pa aturik</w>
pa anga</w>
pa ang
p wtts</w>
p unch</w>
p raise</w>
p puq</w>
p hon
p aq
p alung
p allai
over view</w>
out line</w>
organi zed</w>
ong st</w>
on e-
oi ce</w>
occ urred</w>
ob tain</w>
o ve</w>
o vative</w>
o h</w>
nuttiti rini
nuttiq tauju
nutti tiqtauju
nutti rni
nutti qtau
nutaa_ r
nuta ap</w>
nuta anik</w>
nuqq aqtunut</w>
nuqq aqti
nuq qausi
nunavummi utau
nunavummi unik</w>
nunavumi lu</w>
nunavu ts</w>
nunav ing
nunav ik</w>
nunatti aq</w>
nunata aruti
nunaqaqqa aqtulirinirmut</w>
nunaq qati
nunaling nit</w>
nunalikinniq sait</w>
nunali ujuni</w>
nunali mmi
nun ngu
nunngu ani</w>
nun gu
nun g
nun asiuti
nun anngu
nun amut</w>
nun amik</w>
nun ami
nu uta
nu taq
nu ittu
nu i
nu hr
nuhr ds</w>
nu as
nu ara</w>
nu ar
no min
no body</w>
niuviq attanirmut</w>
niuviak sanut</w>
niuvi atsaq
niuviatsaq arunn
niuviatsaqarunn autinik</w>
niurru ta
niu /
niruaqtauv innik</w>
niruaqtau ving
niruaqtau vimmi
niru arat
niriunniq atsi
niriugij avut</w>
niriugij aujut</w>
niri ugunn
ning anit</w>
nillir vi
ni uv
ni piqanngikainn
ni gi
ni aqtut</w>
ng ata</w>
new ly</w>
negoti ation</w>
negoti ating</w>
negoti ated</w>
necess ar
necessar ily</w>
ne igh
ne gative</w>
nati rmi</w>
nati rmi
namminirij aujunit</w>
namminiqarni rmut</w>
nammini rlu</w>
nammini ri
nami tuinnaq</w>
nalunair u
nalunaiqsil auqtuq</w>
nalunaiqsi jumatuinnaqtunga</w>
nalunaiq tausimajut</w>
nalunaiq sin
nalunaij aqsiman
nalunaij a
nalunai kkannirunn
nalun angittuq</w>
nalu gama</w>
nalli uniq
nalli annik</w>
nalira aruti
nalautsa aqtanginnillu</w>
nalauksa agait</w>
nal unngil
nakk ajja
nakati qtau
naittukul ungmik</w>
naas au
naam mann
naal auti
na ak</w>
n one</w>
n esses</w>
n ers</w>
mu m</w>
moni toring</w>
moni tor</w>
mo stly</w>
mo der
moder n</w>
mmiju guttauq</w>
mmi t</w>
mmi jakka</w>
mmi ittu
mmari ulaur
mmari it</w>
mmanga atti</w>
mmanga armik</w>
mma uk</w>
mma tik</w>
mis sing</w>
miqqu lit</w>
minista unir
minista illu</w>
mini tsinik</w>
mini rnut</w>
min ullu</w>
mili an
mili ait</w>
miksa ani</w>
mik ittu
mik ila
mi tigating</w>
mi sis</w>
mi mmata</w>
mi li</w>
mi ke</w>
mi ittut</w>
mi ippugut</w>
mi ili
mi ikkatta</w>
metho d</w>
mean time</w>
mean ing</w>
me ant</w>
max imi
maximi ze</w>
matuiruta ani</w>
matu inga
mat tauq</w>
marru uvuuk</w>
marru ri
mar k
mark et</w>
manturi ami</w>
mann aujumi</w>
manir mut</w>
manga q</w>
manga ataa</w>
manga at</w>
manag es</w>
man ingit</w>
maligiaq aqtunut</w>
maligatsaliangu majut</w>
maligat saujunik</w>
maligat sanik</w>
maligaliurving annut</w>
maligaliur tit</w>
maligaliuqti ulluta</w>
maligaliuqti kkut</w>
maligaliuqti illu</w>
maligalirini ujumi</w>
maligali angunasu
maligaliangunasu aqtunillu</w>
maligak saup</w>
maliga lirijiit</w>
malig arnut</w>
malig angit</w>
mali q
makli n</w>
makkuk tut</w>
makk alain</w>
ma tattauq</w>
ma p</w>
ma atiu</w>
ma anni
ma ana</w>
ma ag
m mangata</w>
m inni
minni g
m ing</w>
m ing
m es
mes sage</w>
m emor
memor an
memoran du
memorandu m</w>
m anga</w>
luu si</w>
lu cy</w>
lo yd</w>
lo se</w>
lo cations</w>
llu ti</w>
ll ar
ll abor
llabor ation</w>
ll aak</w>
liru ttigu</w>
lirini up</w>
lirini tigut</w>
lirini k
lirijikk utigut</w>
liriji kkut
lir mi</w>
lir luni</w>
liq tavut</w>
limi ted</w>
lima anik</w>
lima anginnut</w>
liangu simajuq</w>
li ved</w>
li u</w>
li jju
li ct</w>
li cen
licen sing</w>
li ang
leav e</w>
le n</w>
le ments</w>
lawy ers</w>
laur mijut</w>
laur ma
lau rit</w>
lau qtunga</w>
lau ghter</w>
lai sansitaaqtitsiji
lai d</w>
la ung
la i</w>
l ying</w>
l yall</w>
l unilu</w>
l loyd</w>
l innit</w>
l auqtunit</w>
l auk
l as
l anga
l a</w>
kul uk</w>
kuapuriis akkunnut</w>
kua purii
ku ritti
ku ak</w>
kti llugit</w>
ksan ik</w>
ks auta
kkun nik</w>
kku ur
kku k</w>
kkanni rni
kkaj aqtuq</w>
kk anningit</w>
kk alu</w>
kivallir mut</w>
kivalir mi</w>
kiuq uni
kiujunn aqpiit</w>
kiujunn anngilauk
kiujunnanngilauk ak
kiujuma viit</w>
kiuj jut</w>
kiuj ariaq
kisutuinn arnit</w>
kisutuinn armik</w>
kisu ummangaata</w>
kisu illu</w>
kinguv vi
kinguni ani</w>
kin auj
kin au
kimmiru mmiut</w>
killi liangusimajuq</w>
kikku tuinnarnut</w>
kiinaujjassa atigut</w>
kiinaujj ass
kiinaujaqturutiksaq aqput</w>
kiinaujaqturutiksan i
kiinaujaqturutiksa minit</w>
kiinaujaqturutiks angat</w>
kiinaujaqturutiks anganik</w>
kiinaujaqturutiks ang
kiinaujaqturuti ksait</w>
kiinaujaqarving mut</w>
kiinaujaqarving mik</w>
kiinaujaqarvi up</w>
kiinaujaq aqtitti
kiinaujaq aqtitauni
kiinaujaliriji mmari
kiinaujalir ini
kiinaujalirini tigut</w>
kiinauj aup</w>
kiinauj angit</w>
kiinauj aliur
kiinauj akkanir
ki unasu
ki ula
ki ukainn
ki uk
ki sini
ki liu</w>
ki d
ke y</w>
katujjiqatigi it</w>
katujjiqatigi inginnut</w>
kattungaiqsima vugut</w>
katsung ai
katsungai tsi
katittu git</w>
katiqati gila
katippalli aju
katippalliaju ulluni</w>
katimanit tinni</w>
katimani up</w>
katimani ujumi</w>
katiman ingit</w>
katiman ing
katimajiralaan ik</w>
katimajirala angujunit</w>
katimajirala angu
katimajirala anginnut</w>
katimajirala ammari
katimajiral at</w>
katimajing inni</w>
katimajing annut</w>
katimaji uqati
katimaji ujuit</w>
katimaji rama
katimaj ingitta</w>
katimaj ingita</w>
katimaj inginnit</w>
katima vvi
katima vingmut</w>
kati mali
kangir &
kangir& iniq</w>
kangiqtugaapi mmi</w>
kangiq& inir
kanata miut</w>
kamisan auk
kamisanauk ainn
kamisanaukainn aqtuup</w>
kamagijariaqaqtu mit</w>
kamagijariaq aqtuq</w>
kamagij ar
kamagij al
kamagij aksa
kamagi giaq
kama tti
kama qatau
kama gini
kall a
kajusitti arning
kajusitsi arni
kajusigi arunn
kajusi tsainn
kaju sivalli
kainn arunn
kaantura ang
ka api
k unnut</w>
k tut</w>
k ri
k puq</w>
k pata</w>
k o
k new</w>
k ill
kill inga</w>
k auti
k anni
junn atsi
jun u
jun illuunniit</w>
jumaj attinnit</w>
juma mmijunga</w>
juma jut</w>
juma arni
juma anni
juinnau vut</w>
ju uni
ju umi
ju ukaan
ju rlu</w>
ju mu</w>
ju mit</w>
ju manngi
ju ly</w>
ju limaat</w>
ju lai</w>
jo in
jjuti t</w>
jjuti nit</w>
jju k</w>
ji mmy</w>
je an</w>
jausima lluni</w>
jausima juq</w>
jauj ariaq
jari amik</w>
jari aliit</w>
ja uninga</w>
j uni
j inik</w>
j arnit</w>
j alunai
j ak</w>
j ain</w>
j aan
iv vit</w>
iv ali
ittuq siuti
ittarnisaq utittinnit</w>
itin nu
isumatsaqsiur utiq
isumali ur
isumagijau giaqsima
isumagi lugu</w>
isumaalu utit</w>
isumaalu u
isumaal uti
isuma v
isuli vvi
is u</w>
ir ngu
iqqaqtuivi liriniujumi</w>
iqqaqtuivi liriniq</w>
iqqaqtuiji ral
iqqanaijaqti vut</w>
iqqanaijaqti tti
iqqanaijaqti tsinirmut</w>
iqqanaijaqti tit</w>
iqqanaijaqti ngit</w>
iqqanaijaqti ng
iqqanaijaqti lirinirmut</w>
iqqanaijaat sat</w>
iqqanaija angu
iqqanaija aksat</w>
iqqanaij artulirinirmut</w>
iqqanaij aq
iqqanaij aanut</w>
iqqanaij aanit</w>
iqqai titti
iqarri alu</w>
iqalung mi
iqalu ktu
iqal unni
iq qu
iq atta
iq ati
ipp ut</w>
invest ment</w>
inv ited</w>
inuusi lirinikkut</w>
inuunasunni up</w>
inuunasunni q</w>
inuquti ttinnut</w>
inuquti ttinnit</w>
inulirijituq akkut</w>
inulima atigut</w>
inulima anit</w>
inulima ani</w>
inu lirinirmullu</w>
inu limaat</w>
inu giarni
interpre ters</w>
interpre ter</w>
intern et</w>
institu tions</w>
inquir e</w>
innir sanit</w>
inniq sau
inni rmik</w>
inngi mmata</w>
innatu qanit</w>
inn ovative</w>
inn auj
inn arnut</w>
inn aq
initi ate</w>
initi al</w>
inill ang
ini gij
ini ar
ini aqtuq</w>
ini aqtang
ini aqput</w>
ingirr atsi
ingirr anit
ingirranit tinni</w>
ing innu
ing in
influ ence</w>
inde pen
in vitation</w>
in unnu</w>
in unni</w>
in ullu</w>
in u</w>
in tupurai
in tun
in tended</w>
in te
in stitute</w>
in es</w>
in du
indu stry</w>
in audi
inaudi ble</w>
in atuq
in asunni
immaq aa</w>
imann aittu
im pres
iluunn anginnut</w>
ilul inginnit</w>
ilu aq
illu lirijikkut</w>
ill uquti
ill uq
ill ness</w>
ilitarij aujarialik</w>
ilitaq sivut</w>
ilita riniarattigit</w>
ilita r
ilisaq si
iliqqusing annik</w>
ilinniavit tinnut</w>
ilinniav inni</w>
ilinniarvi up</w>
ilinniaqtulirijimmari kkut</w>
ilinniaqtulirijimmari it</w>
ilinniaqtuliriji qjuakkut</w>
ilinniaqtu lirijikkut</w>
ilinniaqtu lirijiit</w>
ilinni arv
ilinni aru
ilinniaru si
ilinni arning
ili si
ili q
ili ppaallir
ilaur mata</w>
ilauqatau junn
ilang atigut</w>
ilang annik</w>
ilang anni</w>
ilagij auj
ilagij a
ilagiaqsi juma
ilagi lugu</w>
ilagi arutiit</w>
ilagi arni
ilaanni kkut</w>
ilaakkuunga junit</w>
ila atigut</w>
ila akkut</w>
il ungiqtu
il auti
il auqtunit</w>
il aq
il akkut</w>
il ajau
ikupiqtu lirinirmut</w>
iku mali
iksivauta rmut</w>
ikk aj
ikarr anik</w>
ikajuuti mik</w>
ikajuqtui vut</w>
ikajuqti unirmut</w>
ikajuqtauvi liriniq</w>
ikajuqtauv ini</w>
ikaju utinit</w>
ikaju r
ikaju inn
ikaj uqsu
ij ariaq
iipur ul</w>
iglumi uqati
iglu lirinirmik</w>
igalu aqpata</w>
identi fy</w>
i vuq</w>
i uv
i kkut</w>
i juq</w>
i gaj
i deal</w>
i a</w>
hope s</w>
home ownership</w>
ho les</w>
histori cal</w>
high est</w>
heal thy</w>
heal thier</w>
he aring</w>
he ar
happ ens</w>
han dle</w>
han d
hand led</w>
haaml akkunnit</w>
h our</w>
h in
h ill</w>
guma tuinnaqtunga</w>
gui de</w>
gu ys</w>
gu y</w>
gu ttigu</w>
gu st</w>
gu si
gu ests</w>
gittu gut</w>
gini aqtatinnit</w>
gingittu ni</w>
gil ara</w>
gil agut</w>
gijau vut</w>
gij ju
gij aujuq</w>
gij anut</w>
gij anik</w>
giaq alir
gi tti
gi qatta
gi lir
gi k</w>
gi anga</w>
gi ali
gi al
geograph y</w>
gener ations</w>
gen der</w>
gen cy</w>
gavamatuqakk unniinga
gavamang innu</w>
gavamang at</w>
gavamang annit</w>
gavamang anni</w>
gavamali ma
gavama up</w>
gavama ta
gavama mut</w>
gavama mik</w>
gavama ksa
gav ama</w>
gama tion</w>
galu armangaata</w>
gaj aqtunik</w>
ga sunn
ga s</w>
ga n</w>
ga mattauq</w>
ga angiqtu
g utigi
g uq
g ulluunniit</w>
g ree</w>
g inniq
g iniq
g atsi</w>
fun c
ful filling</w>
foun ders</w>
for cement</w>
fo re
fi x</w>
fi es</w>
ff e
ffe e</w>
fel t</w>
fami li
f rench</w>
f raser</w>
f rankly</w>
f lict</w>
f all
fall s</w>
expl an
experien ced</w>
expen ses</w>
expen d</w>
expec tation</w>
exp an
ex ten
ex position</w>
ex pertise</w>
every where</w>
est er</w>
es sential</w>
er al</w>
encour age</w>
en ter</w>
en sures</w>
en forcement</w>
emphasi ze</w>
emb er</w>
emb arr
embarr ass
effec tive</w>
eff ici
eff ects</w>
educ ate</w>
ea stern</w>
e p</w>
e limin
e ating</w>
e asi
e arn
dre am
divi ded</w>
distin ction</w>
dise ases</w>
discus sing</w>
disa p
direc tion</w>
dial ogue</w>
determin ing</w>
design ate</w>
des erve</w>
deci de</w>
deb t</w>
de ni
de mo
de cl
de als</w>
d w
d uly</w>
d en
cur ate</w>
cul turally</w>
cre ating</w>
counter parts</w>
counter part</w>
council s</w>
cor ner</w>
conven e</w>
contro ls</w>
contrac tors</w>
contain s</w>
contain ed</w>
consul ting</w>
construc ting</w>
consist ency</w>
connec ted</w>
confi dence</w>
concentr ating</w>
con tamin
con sumption</w>
con flict</w>
compe ten
commissi on
commi t</w>
com pri
com petition</w>
com for
collec tion</w>
co-ordin ate</w>
co- oper
co llaboration</w>
co ffee</w>
cle o</w>
clari fied</w>
cl ar
clar ity</w>
citiz ens</w>
chil d</w>
chec k</w>
char ac
challeng ing</w>
ch retien</w>
ch ed</w>
cau ses</w>
categori es</w>
cap e</w>
c ause</w>
c arv
carv ers</w>
bus sing</w>
budge tary</w>
bro ken</w>
bri ghter</w>
bre aking</w>
borro wing</w>
bir th</w>
bir th
benefi ci
b ur
b ul
b in
b c</w>
avu gut</w>
avittuqsimanirij aniittunut</w>
avittuqsimanirij ani</w>
avittuqsimanirij ami</w>
avittuqsimani vut</w>
avittuqsiman isi</w>
avittuqsimajuquti vut</w>
avittuqsimajuquti si</w>
avittuqsimaju llu</w>
av ig
auti gij
aull unilu</w>
aull aqti
aulaur tut</w>
aulatti j
aulatsiji kkut</w>
aulat sini
aulanir nit</w>
aulan inginnit</w>
aulan inganik</w>
aul ati
aul aju
auja uniaqtuq</w>
auj unillu</w>
auj unga</w>
auj au
auj aq</w>
au simajunik</w>
au k</w>
au jutit</w>
au gust</w>
atuutiq arniq
atuqtuaruti it</w>
atuqtu san
atuqtu s
atuqtu ks
atuqtu arat
atuq tauju
atuliquj aujunik</w>
atuliq tittinirmut</w>
atuliq tauquji
atuinnar uqta
atuinn aqtunga</w>
atuinn aqta
atuinn aq</w>
atuag at
atuag arnik</w>
atuag arn
atuagarn ullu</w>
atuag anginnit</w>
atuag anginnik</w>
atuag amit</w>
atu t</w>
atu raj
atu kkut</w>
atu ariaq
atu a
attu qta
attu iniq
attin nu
atti ar
atti aqullugit</w>
attani aqtut</w>
atta rvi
atta qtut</w>
atta lu</w>
atta a</w>
att anir
atsa inn
atiliurutau majuq</w>
ati rnit</w>
ati ngit</w>
atau tsikkut</w>
ata mi</w>
ata ani</w>
ata ani
at sutik</w>
at su
at saq</w>
at sanik</w>
assistan ts</w>
assign ed</w>
assi st</w>
ass ess</w>
ass es</w>
ass ent</w>
asingi ttauq</w>
asijji ru
asijji i
asi ujini
asi tta</w>
asi kkanningit</w>
asi atigut</w>
asi anu</w>
asi anu
asi ani</w>
as tic</w>
arvi lijju
arvi it</w>
arvi armut</w>
arvi armi
aruti nut</w>
arunn auti
arunn aqullugit</w>
artu mit</w>
arti sts</w>
arraaguula aqtumut</w>
arraagu ttinnut</w>
arraagu tama
arraag ungani</w>
arra gumi</w>
arra ani
arnir minit</w>
arniq sau
arning innillu</w>
arni vut</w>
arni ksamik</w>
arni armat</w>
arni ariaksaq</w>
arni arattigu</w>
arni aqtavut</w>
arni aqpuq</w>
arn innik</w>
arn ingi
arn gata</w>
arn gan</w>
arn aujutit</w>
armi junga</w>
armi gama</w>
armangaar ma</w>
armanga ataa</w>
armanga agu</w>
arlu ti</w>
arlu silu</w>
arlu si</w>
arl unilu</w>
arillu tigu</w>
arij attinnut</w>
arij atta</w>
ariaq arnirmik</w>
ariaq aqput</w>
ari vut</w>
ari simaj
ari anga</w>
arat si</w>
arat sautillugu</w>
arasu gij
arasu arni
araj aqtunga</w>
ar pavut</w>
ar lu</w>
ar ilu
ar er</w>
ar av
ar ali</w>
aquti ttinnit</w>
aquj iniq</w>
aqtung alu</w>
aqtu rju
aqtu qangngi
aqtu it</w>
aqtu innau
aqtittini rmut</w>
aqtitti junn
aqtitau mmata</w>
aqtita uninginnut</w>
aqtita ullutit</w>
aqti taul
aqti gut</w>
aqtang at</w>
aqta uqullugit</w>
aqta uninga</w>
aqta tinnut</w>
aqta ili
aqta git</w>
aqsiman it
aqsima juq</w>
aqsima junik</w>
aqquuqtu gut</w>
aqqu tingit</w>
aqq ut</w>
aqq a</w>
aqpi siuk</w>
aqpa atit</w>
aqpa atigut</w>
aqp ammata</w>
aqp amma</w>
aqp aluunniit</w>
aqattaq sima
aqatta rn
aq uv
aq un
aq ullunga</w>
aq sutik</w>
aq ausi
aq atau
aq aqpugut</w>
aq &utik</w>
aq &
appropri ations</w>
appro ving</w>
appro ve</w>
appro ach
appli cation</w>
appe ars</w>
appe ar
apirijuma gama</w>
apiri kainn
apiqusi ujumut</w>
apiqusi mut</w>
apiqqutitsaq aqpit</w>
apiqqutitsaq akkanni
apiqqutiq arama</w>
apiqqutiq akkanni
apiqqutikkanni it</w>
apiqquti vit</w>
apiqquti tsait</w>
apiqquti tsa
apiqquti ts
apiqquti mut</w>
apiqquti ksat</w>
apiqquti kkanniq</w>
apiqquti gij
apiqqu tinnik</w>
apiqqu taujumut</w>
apiq suq
api r
api k</w>
ap uti
any where</w>
any way</w>
anu gaaq</w>
ans wers</w>
annura attiav
annikittur vik</w>
anni rmut</w>
anni llu</w>
anngittu nga</w>
anngin akku</w>
anngi kkalu
ann uraan
anir mu</w>
ani arattigu</w>
ani aqtut</w>
ani aqpunga</w>
ani aqpugut</w>
angunasu tti
anguju up</w>
anguju llu</w>
anglik akkunnut</w>
angittu gut</w>
angiqtu gut</w>
angiqtauv utit</w>
angiqtausima jumik</w>
angiqtau juma
angiqpi it</w>
angiqatigiig utinit</w>
angiqatigiig uti
angiqatigi ik
angiq ti
angiq pugut</w>
anginngittu q
anginiq pa
angin gittut</w>
angijuqqa aqta
angijuqqa ang
angiju alu
angi l
angajuqqaaq uti
angajuqqaaq arvingmi</w>
angajuqqaaq arvi
ang uniaqtut</w>
ang unasunni
ang ngittu
ang nga</w>
ang innillu</w>
ang inatta</w>
ang anullu</w>
anaru ak</w>
analy sis</w>
an ull
an ingit</w>
an anganut</w>
ammar ing
amittu rmut</w>
amisu ru
amisu kkanni
amiarik ami</w>
ami unit</w>
ami sur
ami llu</w>
amal gamation</w>
ama ta</w>
am ullu</w>
am ongst</w>
am ong</w>
am mijut</w>
am mangaaq</w>
am init</w>
am inik</w>
alun i</w>
alu it</w>
alu aqtuni</w>
alu aqtillugu</w>
allu unniit</w>
allu tit</w>
allo tted</w>
allatti up</w>
all unilu</w>
all avvi
alira ang
aliq pat</w>
alima at</w>
alaur mita</w>
alauq ta</w>
alauq ta
alau qtunut</w>
ala unngitillugu</w>
al utik</w>
al most</w>
akunn ingani</w>
aksuru utigij
aksur urn
aksur ur
akkanni riaq
akkanni q</w>
akk an
akitujun ullu</w>
akisu uk</w>
akir aqtuq
akiliutau jut</w>
akiliqtu ini
akili ini
akili ijunn
akikila ang
akikil ligi
aki aq</w>
akaunngilu taq
akaungiliur utiq
akauna arniq
ak uni</w>
ak isu</w>
ak ai
akai lli
ajur unniir
ajur unniiq
ajuqs aqtulirinirmut</w>
ajjigiinngittu nik</w>
ajji q
ajji gingittuni</w>
ajji g
ajauq tinut</w>
aiv aqati
aiv anirnit</w>
aiv aniq
aiv ani
aiv ajjuti
air por
aippi taulluni</w>
ai llaak</w>
agguq tau
agguq simajumit</w>
ag lat
ag ency</w>
ag encies</w>
aff ord
aff ect</w>
advi sor
addres sing</w>
ad ult</w>
ad minister</w>
ad her
acti vity</w>
acknowled ged</w>
accor dance</w>
accompli shed</w>
accommo date</w>
accessib le</w>
ac tions</w>
ac curate</w>
ab undance</w>
aaqqit ta
aaqqit su
aaqqik simanirnit</w>
aaqqii junn
aaqqigi ar
aaqqi suq
aanni avi
aan tiuri
aaji ir
aah aillaak</w>
aaaaaaaaaaaaaaaa aaaaaaaaaaaaaaaa
a siv
a giaq
a atua
a ati
a arju
>> opening</w>
>> katimajiralaat</w>
>> igl
>> house</w>
>> committee</w>
99/2000 mi</w>
97 4</w>
80 7</w>
8 0</w>
7 -mi</w>
6 nit</w>
6 8</w>
6 4</w>
6 3</w>
50 %</w>
5- minisi
5- 3</w>
5- 11</w>
5 9</w>
5 8</w>
5 6</w>
4 4
4 3</w>
31 3
30 muaqpat</w>
3- 9</w>
3- 4</w>
3- 4
24 mut</w>
2 8
2 4-
2 15</w>
1999/2000 -mut</w>
199 7</w>
199 5</w>
197 0</w>
10 8</w>
1 16</w>
00 nik</w>
00 -
/ 99</w>
-mu uqtillugu</w>
-- pattatuqtut</w>
-- pattatuqtuit</w>
- mik</w>
- maligaksaq</w>
- katimatuinnaqtut</w>
&u git</w>
$6 0
$4 2</w>
$3 9</w>
$3 1</w>
$1 61</w>
$ 18</w>
z z
z u
z one</w>
yon d</w>
yo o
yoo tak</w>
y- products</w>
y cc</w>
y al</w>
y 6</w>
wri ting</w>
wri t</w>
wit nesses</w>
winn ing</w>
wil d
wild life</w>
who se</w>
who le
whole 22</w>
who ever</w>
wer en</w>
wel l
we ig
weig h</w>
we ar</w>
we al
weal th</w>
wat er</w>
wan ting</w>
wal king</w>
vuraij anmut</w>
vuraij a</w>
vu si</w>
vu gu
vugu k</w>
vit saq
visi ts</w>
visi tor</w>
visi ted</w>
viq tau
viq aqtutit</w>
vinipai k
vinipaik mi</w>
ving mu
ving ata</w>
ving ani</w>
vigi juma
vi vuari</w>
vi uvat
viuvat tunu</w>
vi up</w>
vi uniaqtut</w>
vi ulluunniit</w>
vi qu
vi piri</w>
vi mmu
vi mmi</w>
vi g
vi c
ver se</w>
ven tu
ventu ally</w>
ve hic
vehic les</w>
vari ety</w>
valu es</w>
valliati lluta</w>
valliati llugit</w>
valliani aqtuq</w>
valliaj avut</w>
valli anirmut</w>
valli aniq</w>
valli ag
vak puq</w>
va atii</w>
v tit</w>
v ta
v rai
v oices</w>
v ju
v itta
v illu</w>
v ill
v est</w>
v ent</w>
v asi</w>
v ammata</w>
v ac
vac ant</w>
v aat</w>
uvi kk
uvikk a
uvi gi
uvattu nut</w>
uvatsi ar
uvatsiar u</w>
uvati nik</w>
uvanni aqtunik</w>
uvang attauq</w>
uv val
uv atti
uv ami</w>
uv alli
uvalli avut</w>
uv al
uv akput</w>
uv agu
uv agit</w>
uuttu utitti
uuttuutitti av
uuttu utiq
uuttu r
uuttur auti
uu mmati
uu mmaqqu
uu ma
utuag aup</w>
utuag ar
utittini rmik</w>
utitti junn
utittijunn arningit</w>
utirni aqtugut</w>
utirni aqpuq</w>
utiqtita ullunilu</w>
utiq unagit</w>
utiq titti
utiq arvik</w>
utiq arvi
utiq arumavunga</w>
utiq aqput</w>
uting innillu</w>
uting innik</w>
uting i</w>
uting at</w>
utili zing</w>
utikkanniruma junga</w>
utigin ingatigut</w>
utigij avut</w>
utigij aujut</w>
utigij angita</w>
uti tut</w>
uti tuinn
uti tsanik</w>
uti siman
uti q</w>
uti nni
uti niq</w>
uti ni</w>
uti ni
uti ngit</w>
uti n
utin asu
uti lluta</w>
uti llugi</w>
uti junit</w>
uti ju
uti gulli</w>
uti gu</w>
utau mmat</w>
utau liqtuq</w>
utau juq</w>
utaqqi tuinn
utaqqi junn
utaqqi jariaqarni
utaqqijariaqarni aqpugut</w>
utaq qit
uta unngimmat</w>
uta ullutit</w>
usi q
usi n</w>
usi junn
usi g
usig aqta
usa aqtut</w>
usa alauqtu
us er</w>
urn inginnut</w>
uriaq alau
uraaniksima laurmata</w>
uraanik pata</w>
ur umi
urumi ittut</w>
ur ul</w>
ur tut</w>
ur tunit</w>
ur niq
ur mik</w>
ur mata</w>
ur mangaata</w>
ur i</w>
ur ge</w>
ur avit</w>
ur alu
uquti ngit</w>
uquj avut</w>
uquj ara</w>
uquj ai
uqujai taa</w>
uqtuq aqtillugu</w>
uqtu uq</w>
uqtu tit</w>
uqti tauluni</w>
uqti t</w>
uqta uqullugit</w>
uqta riaqaqpugut</w>
uqsuqtuur mut</w>
uqsuqtuur mu
uqsuqtu umi
uqsuqtu u
uqsualu lirinirmut</w>
uqsual uqaqti
uqsualuqaqti ttinirmik</w>
uqsauti tsanik</w>
uqs ung
uqqu uqtut</w>
uqqau ju
uqqau gama</w>
uqq aqta
uqauti qattaq
uqauti ni
uqautini aqpamma</w>
uqauti jumavara</w>
uqausitsaq arvigi
uqausitsaq aqtuqangngi
uqausitsaqaqtuqangngi ppat</w>
uqausitsaq aqtuq
uqausitsaq aqqit</w>
uqausitsaq aqpit</w>
uqausitsaq aarju
uqausirisa aqtangit</w>
uqausiriqqauj anginnut</w>
uqausiri lu
uqausiri liruttigu</w>
uqausiri kkanniruma
uqausiri jumaj
uqausiqaq qu
uqausiq arunnaq
uqausiqarunnaq silauq
uqausiqarunnaqsilauq tinnagit</w>
uqausiq arianng
uqausiq aqtuq</w>
uqausiq aqtunga</w>
uqausiq aqp
uqausiksaq aqtuq
uqausiks alluunniit</w>
uqausiks akka</w>
uqausi usaaqtut</w>
uqausi ungikkuni</w>
uqausi u
uqausi tuinnau
uqausi tuinnaq</w>
uqausi tsa
uqausi rnit</w>
uqausi rnik</w>
uqausi rmik</w>
uqausi quti
uqausi qarni
uqausi lirijiit</w>
uqausi ksan
uqausi kka</w>
uqausi it</w>
uqaus inginnut</w>
uqaus inga</w>
uqaujjaulauq punga</w>
uqauj ju
uqauj ji
uqauj jausima
uqau sivut</w>
uqau lima
uqaulima aqtauningit</w>
uqattaq sima
uqatta qtut</w>
uqatigii tigut</w>
uqati nnik</w>
uqarunn aqsiv
uqarunnaqsiv ungaa</w>
uqarunn aqquuqtunga</w>
uqaruma viit</w>
uqaruma mmijungattauq</w>
uqaruma llunga</w>
uqaruma junga</w>
uqari arunn
uqariarunn armangaaq</w>
uqarasu aqqau
uqaras uqqau
uqarai guma</w>
uqaqti uni
uqaqatta laur
uqaqattalaur ninginnit</w>
uqaqati gilauq
uqaq tang
uqaq ta
uqaq simavut</w>
uqaq simavuq</w>
uqaq simajut</w>
uqaq sima
uqaq ata
uqallati llunga</w>
uqallati llugu</w>
uqallaqati q
uqallaqati gini
uqalimaqta uningit</w>
uqalimaqta uninginnut</w>
uqalimaqta uluni</w>
uqalimaarunn arniup</w>
uqalimaaqta units
uqalimaaqtaunits anginnut</w>
uqalimaaqta uninginnu</w>
uqalimaaqta uluni</w>
uqalimaaqta ulingit</w>
uqalima giaqtu
uqalima ar
uqalima aqtuq
uqalimaaqtuq siuti
uqalima aqtausima
uqalima anniq</w>
uqalima aga
uqakkanniruma viit</w>
uqakkanniruma mmijunga</w>
uq uvara</w>
uq uma
uq u
uq tunullu</w>
uq taujuq
uq tau
uq taq
uq t</w>
uq qaaq
uq atauni
uq asiq
uq arlunga</w>
uq ariaq
uq aravit</w>
uq araj
uq aqtuqaq
uqaqtuqaq qau
uq aqtuni</w>
uq alauqput</w>
uq alauq
uq alauk
uq aju
upvalu kiaq</w>
uppirusu kk
uppirusu k
upigusummari ppunga</w>
upigusu tti
upigusu guma
upi rni
upi gijauj
upalungaij aqsima
upak simallutit</w>
upak simajut</w>
upak simajja
upaksimajja anngimmat</w>
up set</w>
up lumi</w>
up lu</w>
up gra
upgra des</w>
unnus akku
unnusakku n</w>
unnir minullu</w>
unni rmut</w>
unni ilauq
unni i
unngittu nit</w>
unngittu milluunniit</w>
unngittu mik</w>
unngittu gut</w>
unngini ttinnit</w>
unngin akkit</w>
unngil agut</w>
unngi tti
unngi si
unngi mmata</w>
unngi llugu</w>
unngi kkaluaqtunga</w>
unng iniq
unng au
unn uk</w>
unn gittut</w>
unn aqullugit</w>
unn aqsi
unn aqp
unn aq
unit tinni</w>
unit tauq</w>
unirij angi</w>
unirij angani</w>
unirai tsunga</w>
unir nit</w>
unir lu</w>
unir aqtau
uniqu ely</w>
uniqsau qullugit</w>
uniqsau lir
uniq sanit</w>
uniq arunn
uniq arni
uniq alauqput</w>
uning atsainnaq</w>
uning ata</w>
uning at</w>
uning alu</w>
unil ingual</w>
unikkaaruma viit</w>
unikkaaq aqpaat</w>
unikkaan it</w>
unikkaan i
unikkaaliari simajangit</w>
unikkaaliangu simajumik</w>
unikkaali ra
unikkaalira angata</w>
unikkaali aq</w>
unikkaalauk agunn
unikkaalaukagunn armangaata</w>
unikkaalauk aguma
unikka arvi
unikka anginni</w>
unikka angani</w>
unikka ami</w>
unikka akkanniq
unikka akainn
unikk auti
unik samut</w>
uniaqtu up</w>
uniaqtu nillu</w>
uniaqtu llu</w>
uniaqtu git</w>
uni it</w>
uni gi</w>
uni arlutik</w>
uni arluni</w>
uni aqpuq</w>
uni aliqtu
ungu ta
ungu mmata</w>
ungu mmangata</w>
ungngi mmata</w>
ungittu titut</w>
unginn inginnit</w>
unginn inginni</w>
unginn auj
ungi tuinnariaq
ungituinnariaq amat</w>
ungavvari aqta
unga s
ungas inniq
unga li
ung ngu
ungngu ataq
ung mata</w>
ung attainnaq</w>
ung anut</w>
ung ammat</w>
understand ings</w>
under way</w>
under taking</w>
under take</w>
unasunni rmut</w>
unasunn inganut</w>
unaj armangaat</w>
unaj aqtumut</w>
unaj aqpaa</w>
un urtunit</w>
un uqsi
un less</w>
un inga
uninga gut</w>
un illuunniit</w>
un clear</w>
un au
un atu
un ar
umiaqju akkut</w>
uma jara</w>
uluangittu ni</w>
ulu tta
ulu ta</w>
ulu si</w>
ullumi lu</w>
ullumi kkanniq</w>
ullu uniaqtunit</w>
ullu ujuq</w>
ullu mut</w>
ullu gillu</w>
ullatta aqtut</w>
ull unganni</w>
ull est</w>
uliqtu mut</w>
uling ati
uli qtuni</w>
uli pik
ulipik a</w>
ulaur tuq</w>
ulaur mi
ulaur alu
ulauqtu nit</w>
ulauqtu nik</w>
ulauqtu mut</w>
ulauqtu it</w>
ulau taujut</w>
ulau qtunut</w>
ulaksiv ini</w>
ulak annuaq</w>
ula unngilat</w>
ula ung
ula aqtuup</w>
ula ang
ul utit</w>
ul ti
ulti ma
ultima tely</w>
ul ted</w>
ul li
ulli ilaak</w>
ul ingmut</w>
ul aukaktu
ul asi
ul ang
uku ang
uktu utiq
ukiuqtaqtu up</w>
ukiuqtaqtu mut</w>
ukiung ulauqtuq</w>
ukiaksaang uniaqtumi</w>
uki ut</w>
ukali up</w>
ukali rmut</w>
uk inniqsau
ukinniqsau llutit</w>
uk ausi
uk anni
ujunn aqtunit</w>
uju lutta
uju limaat</w>
ujji rij
ujji qsu
ujji q
uji juq</w>
uja aliqpugut</w>
uj annamiik</w>
uivi i
uivii titut</w>
ugi uqsautiit</w>
ugi anganik</w>
ugalu aqpata</w>
ugalu aqpat</w>
ugaj aqtuq</w>
ugaj aqtumut</w>
ugaalausiriji kkut</w>
uga al
ugaal auti
ug atta</w>
uattiaru kallau
uattiarukallau liqtuq</w>
uatti aq</w>
uann anganut</w>
uann aanut</w>
uann aani</w>
uajamuungaju lirinirmut</w>
u unniit</w>
u uktuutiq
u tta</w>
u tav
utav iniq</w>
u taulauqtuq</w>
u taulauq
u taqq
u simajuq</w>
u simaju
usimaju mut</w>
u sima
u si</w>
u r</w>
u pir
u n</w>
u mut</w>
u mmijuq</w>
u mmiju
ummiju ttauq</w>
u mmangaaq</w>
u minga</w>
u mik</w>
u maniq
u liqpa
uliqpa aq</w>
u limaanit</w>
u junni
u juma
u it</w>
u inipai
uinipai mi</w>
u imma
u gutta</w>
u gu
u ck</w>
u asu
uasu ku
u ananganut</w>
ty- two</w>
ty pe
type s</w>
twen ty-
tuttarvi mmi</w>
tuttarvi gij
tutsi arnikkut</w>
tut sanik</w>
tussi aniq</w>
tusaumaqattauti lirijikkut</w>
tusauma jjuti
tusaumajjuti liriji
tusaumajjutiliriji mmar
tusaumajjutilirijimmar i</w>
tusauma jau
tusaumajau lluata
tusarvigi jumatuinn
tusaruti tigut</w>
tusaruti lirinirmut</w>
tusaruti lirijikkut</w>
tusaruma vunga</w>
tusaruma tuinnaqtungali</w>
tusaruma llunga</w>
tusaruma galuaqtunga</w>
tusaru min
tusaqtitti ttiarnirmik</w>
tusaqtitti laurmat</w>
tusaqtitti junnani
tusaqtitauqatta ruma
tusaq tau
tusaq ta</w>
tusag ak
tusagak sait</w>
tusaajitigu k</w>
tusaaj i</w>
tusa aniaqpugut</w>
tusa angng
tus alaur
tusalaur mi
turang ati
turaaqtini arakku</w>
turaaqti guma
turaaqtiguma vara</w>
turaaqta uquj
turaang avuq</w>
turaang ati
tura arvi
tura aqtut</w>
tura aqsima
tura aqpuq</w>
tura akauti
tur y</w>
tur ned</w>
tur aqtuq</w>
tuqau vut</w>
tunngavi gijaul
tunngavigijaul uni</w>
tunngavi gi
tunngav uq</w>
tunngav ik</w>
tunngasuktitau vut</w>
tunngasu tsi
tunngasu gitsi</w>
tunng an
tunisini aqput</w>
tunisi qullugit</w>
tunisi qattaqullugit</w>
tunijunn araj
tunijunn anngin
tunijunnanngin akkit</w>
tunijausima liqput</w>
tunijauni aqput</w>
tunijauj unn
tunijau simajut</w>
tunij auqatta
tuni uqqaqta
tuni uqqaq
tuni siv
tuni silauq
tuni jaulauq
tungngasu gitti</w>
tungn gaviq
tungn ga
tungnga suq
tungngasuq uji
tungasutti guma
tun niri
tun ini
tun gaviq
tungaviq atti
tul lir
tuksirautiliuquj inirnit</w>
tuksirautiliuquj inirmik</w>
tuksirautiliuq uji
tuksirauti li
tukita aruti
tukita aqtittinirmik</w>
tukisiuma j
tukisin atti
tukisin asu
tukisij aksa
tukisijaksa ungittut</w>
tukisij akkut</w>
tukisigiarutiqarni ujullu</w>
tukisigiarutiqarni tigut</w>
tukisi tti
tukisi titsi
tukisititsi gi
tukisititsigi arutiit</w>
tukisi junga</w>
tukisi aj
tukisiaj ara</w>
tukiq atti
tukiq aqpuq</w>
tukiq aqpaa</w>
tukimu aqtitti
tukimuaqtitti ji
tukimu aqtitsiji
tukimuaqtitsiji tta
tukimuaqtitsijitta ala
tukimuaqtitsijittaala arninginnik</w>
tukimu aqtau
tukili aruti
tukili aqsimajunit</w>
tuk inga</w>
tujurmi vik</w>
tujurmi vi
tuinnau juti
tuinnau galu
tuinnarni arakku</w>
tuinnariaq armat</w>
tuinn arluta</w>
tuinn arluni</w>
tuinn arialik</w>
tuinn ari
tuinn arama</w>
tuinn aqtuq</w>
tuinn aqtara</w>
tuinn aqpugut</w>
tuinn aqata
tuinn anginni</w>
tuavirnaqtu liri
tuavirnaqtuliri utiq
tuav inn
tuav in
tu ungngittuq</w>
tu ungittuq</w>
tu ru
tu qta
tu qanit</w>
tu nun
tunun ir
tununir mut</w>
tu nik</w>
tu mit</w>
tu king
tuking anik</w>
tu gut</w>
tu ga
tu g
tu at</w>
tu aruni</w>
tu arama</w>
tu ar
tu ang
tu al</w>
ttu gu</w>
ttin niq
ttin g
tting s</w>
ttin asunnirmik</w>
ttianiq sa
tti tut</w>
tti tti
tti sima
tti junn
tti ava
tti av
tti ariaqarni
tti aqtunga</w>
tti alauqpuq</w>
ttaq arni
ttaq armat</w>
tta ri
tta ra</w>
tsu gu</w>
tsini tsamut</w>
tsini rijau
tsiaqp atsi</w>
tsi k
tsi gi
tsi av
tsi arunn
tsi arni
tsi armut</w>
tsi armat</w>
tsi arlutik</w>
tsi aralu
tsi aqtutik</w>
tsi aqtut</w>
tsi aqtunga</w>
tsi aqpakka</w>
tsan illu</w>
tsan i
tsani inn
tsama anut</w>
tsa ungittut</w>
tsa minnik</w>
ts iniq
ts in
ts avut</w>
ts autigi
ts ar
ts angata</w>
tri cal</w>
tremend ous</w>
tre ated</w>
transl ations</w>
trans lat
tra yal</w>
tra in
train e
traine es</w>
tra de</w>
to ward</w>
to ta
to m</w>
to k</w>
to co
toco l</w>
tiurituarij ata
titu urmat</w>
titu de</w>
tittini it</w>
titsi qattaqullugit</w>
titirarving anik</w>
titirarvi q
titirarvi gini
titirarvigini aqpavut</w>
titirarv innit</w>
titiraqti up</w>
titiraqtau giangng
titiraqsima juq</w>
titiraqsima juq
titiraqsima junit</w>
titiraq ti</w>
titir arnit</w>
titir aqq
titiraqq ait</w>
titiqq amit</w>
titi qqau
titau junit</w>
tita utittijunnarningit</w>
tita uninginnit</w>
tisa ma
tis sin
tion ally</w>
tini s</w>
tini aqpavut</w>
tingi ta</w>
ting ata</w>
ting anut</w>
ting annut</w>
tin ngu
timiuju tigut</w>
timiuju li
timiujuli llu
timiujulillu ma
timiujulilluma allu</w>
timiquti gijauj
timi quting
tim inga</w>
tim ing
tim el
tiliuri vik</w>
tiliur utiqarvik</w>
tiliur uti
tiliur niq
tilisini ujuq</w>
tilisijju tauma
tilisijjutauma junut</w>
tilisi jjuti
tili jauninga</w>
tili jauj
tilijauj ju
tili jau
tikkuar iniq</w>
tikku aqtausimajuq</w>
tikku aqtau
tikku aq
tikitau ttiaqullugit</w>
tiki sima
tik it
tik inn
tik illu
tikillu gu</w>
tigusi jariaqarni
tigusijariaqarni arnitinnut</w>
tigu jaq</w>
tigu anga
tigi lugu</w>
tig ulu</w>
tig ul
tig lu</w>
ti vely</w>
ti unirmik</w>
ti sing</w>
ti p
ti n</w>
ti jumavunga</w>
ti jari
ti gij
ti ally</w>
thro at</w>
ther wise</w>
th re
thre e-
three- four</w>
tern al</w>
ter ns</w>
ter d
terd lik</w>
tele vision</w>
techno logi
te sted</w>
te lling</w>
te e
tee vi</w>
tax ation</w>
tavvani ittut</w>
tavvani iqatau
tavvani inni
tavvani inngi
tavv ung
tavv anngat</w>
tav ung
tauvali asuungu
tauvaktu q</w>
tauv at</w>
tauv anni
tauv a</w>
tautuktu tillu</w>
tautug attinnik</w>
tautu pput</w>
tautu ppi
tautu pp
tautu giaq
tausima vuq</w>
tausima qullugu</w>
tausima mmat</w>
tausima lirmat</w>
tausima liqtut</w>
tausima ju
tauqatta qtu
tauni rmut</w>
tauni armat</w>
tauni aqtunit</w>
tauni aqtumik</w>
taun kut</w>
taun kunnut</w>
taulu ti</w>
taulaur mata</w>
taulauq pat</w>
taulau qtuni</w>
taula unginninginnit</w>
taul auqtunit</w>
taujunn aqtumik</w>
taujunn aqsi
tauju tu
tauju tsau
tau valli
tau sait</w>
tau saaliniqsau
tau mmata</w>
tau juni</w>
tau gi
tau ght</w>
tau galu
tasi uqatigi
tas ked</w>
tari jau
tarijau juit</w>
taralu avut</w>
tar nit</w>
tar ge
targe ted</w>
taqqi uniaqtuup</w>
taqqi uniaqtuni</w>
taqqaani im
taqqaaniim mangaataa</w>
taqq inut</w>
taqq inik</w>
taqq ini</w>
taqak aniq
taq qangatuinnaq</w>
taq araj
taq aqpat</w>
taq anngi
taq alaurmat</w>
taq ala
taq aiq
taqaiq si
taqaiqsi kainn
tang uvanniaqtunik</w>
tang innit</w>
tang innillu</w>
tang anut</w>
tang annik</w>
tang anit</w>
tamma tuinnariaq
tamma rni
tamma r
tamma k
tammak aqt
tammakaqt anikkut</w>
tamatum ungattainnaq</w>
tamann ali</w>
tamakkun ani</w>
tamakku anguvut</w>
tamakku alimaat</w>
tamakki innik</w>
tama ttinnut</w>
talurju armiut</w>
tallimi q</w>
takunn aqsu
takuni aravit</w>
takuminaqtu liuqti
takumin aqtulirinirmut</w>
takujuma gaj
takuju min
taku ksau
tak utitsi
tak uqatta
tak unnginnama</w>
tak un
tak ilu
tak an
taitsu mani
taisu mani</w>
taimannau vaa</w>
taimannaittu nit</w>
taimannail inga
taimannailinga inn
taimannail ing
taimannai lin
taimann g
taimainginn arunn
taimainginnarunn aqtumik</w>
taimailinga inn
taimail ing
taimai pp
taimai junn
taimai guma
taimaatsi aq</w>
taima ingng
taima ili
taima aqpiit</w>
taima ang
taima ak</w>
tail inir
tailinir inirmut</w>
taikkun innga</w>
taikku alu</w>
taik unga</w>
taik suminnga</w>
taik anngat</w>
taik anilu</w>
taijau v
taigu ijunn
tai vik</w>
tai si
tai mali
taimali i</w>
tai kkaa</w>
tai j
tab ility</w>
taas sumunga</w>
taap su
taann attauq</w>
taann alu</w>
taaksiija inirmik</w>
taaksiij aruti
taaksiij ai
taaksi mik</w>
taakkun unnga</w>
taakk uninga</w>
taak sinit</w>
ta utillugu</w>
ta uningi</w>
ta unasu
ta si</w>
ta sa
ta rnut</w>
ta qan
taqan gittuq</w>
ta m
tam man
ta kku
takku aniittut</w>
ta kiju
ta ittu
ta it
ta ges</w>
ta gak</w>
ta arnirmut</w>
ta ari
ta an
ta ama
ta am</w>
ta alauratta</w>
t- namminirij
t-namminirij at</w>
t tu</w>
t terdlik</w>
t t</w>
t res
tres pass</w>
t ou
t ment</w>
t lu</w>
t k
t ant</w>
t anni</w>
t angit</w>
sym bo
sy mb
symb ols</w>
sy ll
syll ab
syllab ic
syllabic s</w>
suungu gatta</w>
survi val</w>
suraqatta rninginnut</w>
surak tauninginnut</w>
sur unn
suqquiqtitau juma
suqquin aqtitti
suqquin aqsitigi
suqquimatti arninginnit</w>
suqquimaniq sauni
suqquiman aqtuq
suqquimanaqtuq annginn
suqquimanaqtuqannginn inganik</w>
suqquima j
suqquimaj aq
suqquimajaq aqpunga</w>
suqqui mani
suqqu itti
suqquitti annginnama</w>
suppor ts</w>
suppli ers</w>
supplemen taries</w>
supp lying</w>
sum ed</w>
sulijuqs armata</w>
suli vutit</w>
suli kk
suli jumik</w>
sul inngi
sul auq
sukk ali
sukk aittu
sukkaittu mik</w>
suk aq
sukaq alu
sug ge
success fully</w>
substan tially</w>
subsidi zed</w>
sub sequ
subsequ ently</w>
su ung
su tillu</w>
su rusi
su red</w>
su mmari
summari es</w>
su m</w>
su ivali
su itable</w>
strug gl
strug g
strugg le</w>
struc k</w>
stre am
str onger</w>
str ai
strai ght</w>
stor age</w>
sti ck</w>
ste p
ste ering</w>
statements 4</w>
statements 3</w>
star ts</w>
stand ard</w>
sta ting</w>
sta tes</w>
st res
st raints</w>
st ors</w>
st op</w>
st oc
stoc k
stock pi
spi tal</w>
spen ce</w>
speci fications</w>
speci ali
spe cti
specti ves</w>
south /
south/ whale</w>
some how</w>
some body</w>
slo tted</w>
skido os</w>
skido o</w>
sk unnik</w>
sivunit samut</w>
sivuniksa tinnit</w>
sivuniksa milu</w>
sivunik saq</w>
sivunik saq
sivunik s
sivuni ri
sivumutti aqujiniq</w>
sivumuarniq alu
sivumuarniqalu anngilaq</w>
sivumu ari
sivumu ar
sivumu app
sivumuapp alli
sivumu aks
sivulliuti taugajaqtut</w>
sivulliuti lugit</w>
sivulliuj ji
sivulliuj jauni
sivulliuj jaujut</w>
sivulliuj arialinnit</w>
sivulliuj ariali
sivulliqpaarij anganni</w>
sivulliqpaang uqatauvuq</w>
sivulliqpa angannik</w>
sivulliq pau
sivulliq paat</w>
sivullipaatsi amik</w>
sivulli uquj
sivulli uqata
sivuliuqti nillu</w>
sivuliuq tingannut</w>
sivuliqtiukainn aqtumut</w>
sivuliqti uniaqtut</w>
sivuliqti ulaukattuq</w>
sivuliqti tinnut</w>
sivuliq p
sivuliaruta t</w>
sivu lir
sivauta aq</w>
sivau tangat</w>
siv utit</w>
siv urngagut</w>
siv un
siv ali
siuti sunni
siur ni
sitammi utillugu</w>
sita mmiq</w>
sita manik</w>
sir mi
siqingngu jaq</w>
siqing ujaq
siq inngu
siqinngu jaq</w>
sini llu</w>
sini kkut</w>
sing i</w>
sing atigut</w>
sing ani</w>
simatti aqput</w>
simanngil agut</w>
simanit tinnut</w>
simanit tinni</w>
simanit sinnut</w>
simanit sangit</w>
simanir nut</w>
simanir minut</w>
simani armat</w>
simangngi tavut</w>
simangi mmata</w>
simangi kkalu
simang ngittu
simang mata</w>
siman inganut</w>
siman ing
siman gittut</w>
siman gittuq</w>
simalir atta</w>
simaj attinnit</w>
simaj arnik</w>
sima visi</w>
sima mmi
sima mmanga
sima lugit</w>
sima llutalu</w>
sima lauqput</w>
sima juni</w>
sima galu
sima gakkit</w>
silauq ta</w>
silattus arving
silata anut</w>
silata anu
silata anik</w>
silarju armut</w>
silaqju armi</w>
sil uni</w>
sil ati
sikitu unut</w>
signific an
significan tly</w>
sign ing</w>
siammaktirini tsaq</w>
siammaktirini tsamut</w>
si ze</w>
si vi
si utit</w>
si ummik</w>
si ttings</w>
si tive</w>
si sa
si n</w>
si lutik</w>
si la
si j
si gi
si ghts</w>
si cal</w>
si arnir
si arlutik</w>
short- term</w>
shi ps</w>
sh ot</w>
sh ment</w>
seven ty</w>
seven ty-two</w>
separ ate</w>
sen sitive</w>
self- sufficient</w>
self- reliant</w>
selec tion</w>
sel l</w>
seal ing</w>
se where</w>
se p
se i
se emed</w>
se ctor</w>
se ctions</w>
se ction</w>
se arch</w>
sch ol
schol astic</w>
saujariaqarni aqpugut</w>
sauj ariaq
sau vattut</w>
sau ti</w>
sau d
saud i</w>
saqqititti qullugit</w>
saqqititti junn
saqqiti jumajattinnit</w>
saqqija anginn
saqqijaanginn arunn
saqqijaanginnarunn aqtunit</w>
saqqi tittini
saqqi titsi
saqqi tinni
saqqi tausimaqullugu</w>
saqqi tauqullugit</w>
saqqi taulauqpuq</w>
saqqi tait</w>
saqqi p
saqqi inasu
saqqi ila
saqq ini
saq taq
saq taili
saq atsi
saqatsi anirmik</w>
saq ariaq
sapujjau qullugit</w>
sanngi junik</w>
sanngi jumik</w>
sanirvai ma
sanirvaima juq
sanirv aqtau
sanirajang mi</w>
saniraj armut</w>
sanira jau
sanirajau p</w>
saniq sau
sanikilu armi</w>
sanikilu ap</w>
sani ani
sangi kkuvit</w>
sang atitti
sangatitti gi
sangatittigi annirmut</w>
sang annik</w>
sananngu aqti
sanajau simajunit</w>
sanajau ju
sanaj unik</w>
san arruti
san ann
san am
sal ary</w>
sal aries</w>
sai l
saalaks aqtuq</w>
sa unaj
sa tis
sa si
sa pili
sapili ju
sa mu
samu ar
sa mm
sa minnik</w>
sa m
sa li
sali gu
saligu utinit</w>
sa jait</w>
sa inirmik</w>
sa at
saat u</w>
sa amu
sa ami</w>
sa ali
sa alauq
s ungummata</w>
s un
s ull
s tation</w>
s sive</w>
s pr
spr ing</w>
s ong
song s</w>
s now</w>
s mo
s low
slow ly</w>
s le
s ingi
s he
she et</w>
s en</w>
s co
s ci
s av
s auq
s aulauqput</w>
s arnut</w>
s ari
s annut</w>
s annginiq
s alli
s ak
s 12</w>
runn araj
ruma vakka</w>
ruma arniaqtut</w>
ru vit</w>
ru uti
ru uta</w>
ru us</w>
ru su
ru pu
ru alik</w>
roo ms</w>
ro up</w>
ro se</w>
rni qsau
rni aqputit</w>
rn inga</w>
rl uni</w>
rl ungalu</w>
rju at</w>
rivanni aqtangit</w>
ris ks</w>
riniaqta tinni</w>
rilauq ta
riji kkunni</w>
rij auluni</w>
rij aujut</w>
rij attinnut</w>
rij attinnik</w>
rij asi</w>
rij anginnik</w>
rij angi</w>
rij angani</w>
riaq arniaqput</w>
riaq armata</w>
riaq aratta</w>
riaq ar
riaq aqtavut</w>
ri vut</w>
ri tti</w>
ri tsi
ri simajangit</w>
ri kami</w>
ri kainn
ri atsaq</w>
ri amik</w>
ri aliq
ri aliit</w>
ri ali
respon ds</w>
res ulted</w>
res hap
res ha
resha ped</w>
requi res</w>
represen ted</w>
repor ter</w>
rep at
repat ri
renov ate</w>
ren tal</w>
rememb ering</w>
remain der</w>
relo cate</w>
rel ating</w>
rein stated</w>
rehab ili
rehabili tation</w>
regul arly</w>
reg roup</w>
ref ers</w>
ref a
refa thers</w>
reco r
recei ves</w>
rec ess</w>
rec all</w>
read ily</w>
reach ing</w>
re sumed</w>
re stri
re placed</w>
re moved</w>
re move</w>
re mo
re min
re lie
re lev
relev ant</w>
re infor
reinfor ce</w>
re for
refor ms</w>
re duce</w>
re convene</w>
re arrang
rearrang ing</w>
re arms</w>
re ak</w>
rata aqtait</w>
ralu akka</w>
ralauq put</w>
rai ses</w>
ra n</w>
ra g
rag unut</w>
ra d
rad or</w>
ra ch
rach el</w>
ra ble</w>
r uluuj
r u</w>
r suivali
r ni</w>
r mulluunniit</w>
r muang
r mini
r lutalu</w>
r ational</w>
quvvasi giaq
quvvasigiaq ullugu</w>
quviasu ksi
quvias ulaunngilat</w>
quvian aq</w>
quvian ammari
quvia gi
quvi asunn
quvi alauqtut</w>
qutti ktumik</w>
qup lugu</w>
qulluqtu mut</w>
qulliqpa aq
qulliqpaaq utinginnillu</w>
qulliqpa ang
quliri ilima
quliriilima anginni
quliriilimaanginni ittut</w>
qul aani</w>
qukiuti ta
qukiuti nu
qukiutinu ungajuq</w>
qukiuti lirinirmi</w>
qukiuti lirini
qujau simajut</w>
qujannamiiruma vara</w>
qujannamiiruma llugit</w>
qujannamiiq p
qujannamiiqp atsi</w>
qujannami ira
qujannamiira aluk</w>
qujannami igi
qujann ami</w>
qujanaaqta uqullugu</w>
qujanaaqta ulaukaqullugu</w>
qujalijuma vagit</w>
qujali mmari
qujali jumavara</w>
qujal nami
qujalnami ik</w>
qujal inirnit</w>
qujal inir
qujalinir nik</w>
qujal in
quj inir
quj in
questions 9</w>
questions 8</w>
questions 7</w>
questions 5</w>
ques tioning</w>
quali ties</w>
qu vagit</w>
qu uqtuq</w>
qu tuinn
qu tinnut</w>
qu llutit</w>
qu la
qula ut</w>
qu gluktu
qtun g
qtung alu</w>
qtu tit</w>
qtu tillu</w>
qtu tigut</w>
qtu qang
qtu mut</w>
qtu lirijikkut</w>
qsima mmata</w>
qsima liqtu
qsima junut</w>
qs ungittu
qquur mata</w>
qquur alu
qqu uqtut</w>
qqu uqtunga</w>
qqu uji
qqau gavit</w>
qqau gavinnga</w>
qqau gakkit</w>
qqa unnginnama</w>
qq unit</w>
qju akk
qitur ngi
qitirmi unu</w>
qitiqqu u</w>
qitiqqu q</w>
qitiq& ik</w>
qitingani ingngittu
qitinganiingngittu nik</w>
qitingani ila
qitinganiila arni
qitingani ijja
qitinganiijja angittu
qitinganiijjaangittu nut</w>
qisiraj arnit</w>
qinu ittu
qinir unn
qinir luta</w>
qini ri
qimirruni ulauqtumik</w>
qimirruni rmik</w>
qimirrujauni arluni</w>
qimirrujau valliammat</w>
qimirru javut</w>
qimirru jauningit</w>
qimirru jaulauq
qimirrujaulauq tillugu</w>
qimirru jariaq
qimirru giaq
qimi r
qilavv armik</w>
qilavv aa</w>
qilamiulu armat</w>
qilamiujunn aqtutigut</w>
qilami kuluk</w>
qil an
qikiqtaqju armi</w>
qikiqtaalung mi
qikiqtaalu p</w>
qikiq tanit</w>
qi tunng
qi mat
qi ju
qiju ttaaq</w>
qi it</w>
qaujisari aqti
qaujisaqta utillugit</w>
qaujisaq tauninginnut</w>
qaujis arniq</w>
qaujis alauqtut</w>
qaujimatti atakka</w>
qaujimann ginnama</w>
qaujiman ingannik</w>
qaujiman asunnirmik</w>
qaujimallattaangi kkaluaqtunga</w>
qaujimajuksau vut</w>
qaujimajuksau vusi</w>
qaujimajuinnau vugut</w>
qaujimajuinnau jugut</w>
qaujimajatuq anginnik</w>
qaujimag ami</w>
qaujima vut</w>
qaujima va</w>
qaujima tuqangit</w>
qaujima titsiqattaqullugit</w>
qaujima titauqatta
qaujima mmata</w>
qaujima lli
qaujima jugut</w>
qaujima ju
qaujima jau
qaujima jariaq
qaujima gi
qaujima galuaqtunga</w>
qaujima aqju
qaujimaaqju kkalu
qaujikkai vunga</w>
qaujikk aij
qaujikkaij jutit</w>
qaujijuma tuinnaqtunga</w>
qaujijuma junga</w>
qaujijuma jun
qaujijuma galuarama</w>
qaujijjuti gi
qaujijau ju
qaujijauju inn
qaujijaujuinn aulauqtuq</w>
qaujij angit</w>
qaujigiarni rmi</w>
qaujigiarni aqpugut</w>
qaujigi aru
qaujigi arlutalu</w>
qaujigi aratsautillugu</w>
qaujigi aratsa
qauji tittiniq</w>
qauji tittiniit</w>
qauji manir
qauji mali
qauji m
qaujim anginnama</w>
qauji lauqput</w>
qauji jju
qauj ini
qau ti
qau pp
qau mma
qattung auti
qattungauti vut</w>
qatti uvat</w>
qatti t</w>
qatta rniq</w>
qatta r
qatta qtut</w>
qatiq arasuaqsima
qatiqarasuaqsima galuaqtunga</w>
qatiq aqtutit</w>
qati qarni
qatau junn
qatanng uti
qarniqsaujuma aqtuq</w>
qarni rmut</w>
qarisauj anut</w>
qari sajait</w>
qar amik</w>
qaqju aqput</w>
qaq ti</w>
qaq pit</w>
qanuqtuur utiq
qanuqtuur utinit</w>
qanuqtuur asu
qanuittuq alir
qanuittu tuinnarni</w>
qanuittu tuinnait</w>
qanuittu t</w>
qanuittu nit</w>
qanuittu nillu</w>
qanuittu nik</w>
qanuittu mik</w>
qanuitta ilimanir
qanuittailimanir mut</w>
qanuitta ilima
qanuit tariaq
qanuit tangi
qanuinn gil
qanuilu ur
qanuilinga jau
qanuiling ava</w>
qanuiling aninga</w>
qanuiling ani
qanuik sangikkuvit</w>
qanu tuinnaq</w>
qanu tuinna
qanu kiaq</w>
qanu ing
qanuing ngittuq</w>
qanu ig
qanuig inn
qanittu mi</w>
qanimat tailinirmut</w>
qanimani it</w>
qanima tailinirinirmut</w>
qani maliq
qanimaliq palli
qani gij
qangiq& inirmi</w>
qangiq& inir
qangi lu
qangatasuu kkut</w>
qangatasu ut</w>
qang akku
qang akk
qang akiaq</w>
qan ullattaaq</w>
qan ik
qanik s
qamanittu amu
qamaniqtu armut</w>
qamaniqtu ar
qamaniqtuar mu
qamaniqtu ami
qam anga
qamanga aq</w>
qalun aati
qallunauj arunn
qallunaujarunn angittu
qaksillatta anit</w>
qak uti
qaiq qujausimajut</w>
qaiq quj
qaiji giarni
qaijigiarni qarniqsaujumaaqtuq</w>
qaij uni</w>
qai ttunn
qai qqu
q ti
q taq
q mi</w>
q ik
q attin
q atauni
qatauni armat</w>
q assi
q aruma
q aqtutit</w>
q aqtuq</w>
q aqtittini
q aqti
q aqpunga</w>
q aqp
q anngimmata</w>
q alirutta</w>
q alaurmata</w>
q aj
qaj annamiik</w>
q -
puriimmi alu</w>
puri lu
puri immi</w>
puraavin si
pur pose</w>
pulaarving miittunit</w>
pulaarvi mi
pulaarvimi iqatau
pul l</w>
pukirng naak</w>
puigur akku</w>
puig uq
public -
public- private</w>
pu uqta
pu bi
pubi c</w>
provi sions</w>
prote ction</w>
pror ogue</w>
proper ty</w>
pronoun ce</w>
promi sed</w>
projec ted</w>
program ming</w>
professi on
produc tive</w>
proce ed
proceed ings</w>
proce dur
procedur e</w>
proc essed</w>
prob ation</w>
pro tocol</w>
pro spects</w>
pro ponent</w>
privile ge</w>
priv ati
privati zed</w>
pri de</w>
preven tative</w>
pres sures</w>
prepar ing</w>
prepar atory</w>
prepar ation</w>
pre vent</w>
pre hen
prehen sive</w>
pre ference</w>
pre di
predi ct</w>
pray ers</w>
pray er
prayer 2</w>
practi ces</w>
ppi sii</w>
portfoli os</w>
portfoli o</w>
por trayal</w>
po o
poo l</w>
plac ing</w>
plac es</w>
plac ement</w>
pla ys</w>
pla ying</w>
pl aqu
plaqu e</w>
pl an
plan es</w>
piviqaqtitauni rni</w>
piviq arvigi
piviqarvigi jumavara</w>
piviq arunn
piviq arumavunga</w>
piviq aqtittini
piviq annginiq
piviqannginiq saulauqput</w>
piviq alaur
piviqalaur matattauq</w>
pivi qarni
pivi lima
pivilima akkut</w>
pivi ksaq
pivalliatittini ujumu</w>
pivalliatittini rmut</w>
pivalliasi maniq
pivallianginnarunnaqtu lirijikkut</w>
pivallianginn arunn
pivallianginnarunn aqtulirinirmut</w>
pivalliaju liuqti
pivalliajuliuqti t</w>
pivalliaju lirinirmik</w>
pivalliaju liriji
pivalliajain asunnirmik</w>
pivalliaja ini
pivalli anit
pivalli aniqaq
pivallianiqaq simanirmik</w>
pivalli ajjuti
pivaalli titsini
piv viq
piusiv aal
piusivaal liq
piusivaalliq ju
piusivaalliqju alauqput</w>
piusigi akkanirni
piusigiakkanirni aqtut</w>
piuniqsa millu</w>
piuniq samik</w>
piuju millu</w>
piu gijara</w>
piti taujunn
pitaqarunniiq titauninginnut</w>
pitaqarunniiq titauni
pitaq arunn
pitaq aqqu
pisimaj akka</w>
pisima tti
pisima junga</w>
pisima juksau
piruqpalliaju lirini
piruqpalliajjuti ks
piruqpalliajju tinut</w>
piruqpalli ati
piruqpalliati tsinirmut</w>
piruqpalli anikkut</w>
piruqpalli an
pirrulu aq
pirajak viuvattunu</w>
pirajak pak
piraj aksi
pir urni
pir auta
pirauta q-
piquti lirinirmut</w>
piquti liriji
piqujivunga aliur
piqujiv uga
piquji luti</w>
piquj aujut</w>
piqu tinginnit</w>
piqqu singi</w>
piqjuang uninginnit</w>
piqju ami</w>
piqatau jumani
piqatau juksau
piqasiuti mmata</w>
piqasi ujjau
piqann arij
piq attarni
piq ataa</w>
pinngu arving
pinn arijaujut</w>
pini arni
pini aqtatinnit</w>
pingatsi rmi</w>
pingatsi q</w>
pingas uni</w>
pinasuarusir ni</w>
pinasuarusir mit</w>
pinasuarusir iniar
pinasuarusi ttinni</w>
pinasuaru sirmi</w>
pinasuaru singani</w>
pinasuag arni</w>
pinasuag armut</w>
pinasuag angit</w>
pinasuag anginnut</w>
pinasuag anginnit</w>
pinasuag ak
pinasu k
pinasu gunn
pinasu arunn
pinasu aqtau
pinasu aqp
pin atu
pin arn
pimmi mmata</w>
pimmari unirijangani</w>
pilu artumit</w>
pillatta angu
pilirivvi anit</w>
pilirivi ujunit</w>
pilirivi ujuni</w>
piliriv ingit</w>
piliriqatiq aruma
piliriqatiq aqput</w>
piliriqatigi ipp
piliriqatigi i
piliriqati qaqullugit</w>
piliripving inni</w>
piliripving at</w>
piliripving anni</w>
piliripvi tinni</w>
pilirip v
pilirijunn armangaatta</w>
piliriji q
piliriji kka</w>
pilirij inik</w>
pilirij ingi
pilirijingi lluunniit</w>
piliriarini arlugit</w>
piliriarini aqtangi</w>
piliriari mmanga
piliriari inn
pilirianguj ariiq
piliriangu juni</w>
piliriangu jumi</w>
piliriang uvalliavut</w>
piliriang uniartut</w>
piliriang ulauqpuq</w>
piliriang inni</w>
piliriak sanut</w>
piliriak sanit</w>
piliri vv
piliri vugut</w>
piliri valli
piliri qullugit</w>
piliri kkanni
piliri juma
piliri ju
piliri jjuti
piliri giaq
piliri avut</w>
piliri ar
piliri aqju
piliri anit</w>
piliri aminnik</w>
piliri am
piliri aksaq
piliri aks
pili p</w>
pikku gusu
pijunnatittini aqpuq</w>
pijunnarni ujunit</w>
pijunnaqsivalli aningit</w>
pijunn atitti
pijunn aqsi
pijunn ani
pijumaj anginnut</w>
pijuma visi</w>
pijuma guvit</w>
piju man
pijjutiq armat</w>
pijjutiq aqtumi</w>
pijjutiq aqpuq</w>
pijjutiq alu
pijjutil inni</w>
pijju tauvuq</w>
pijju taujut</w>
pijju ta
pijittirauti lirijikkut</w>
pijittirauti illu</w>
pijittirau tauvut</w>
pijittir aqtiit</w>
pijittir aqtau
pijittir aqtanginnit</w>
pijittir aqta
pijitti utinginnut</w>
pijitti qn
pijitsiruti it</w>
pijitsi qtugit</w>
piji ttinirmut</w>
piji kata
pijaulaur ninginnit</w>
pijariuqsatitsi guti
pijariir unnaqsi
pijariiq tut</w>
pijariiq sima
pijariatu juq
pijariatujuq ju
pijariatu ju
pijariaq aqtanginnit</w>
pijariaq aqp
pijari uqsautitsanik</w>
pijari tu
pijari atuni
pijari aliit</w>
pijari akittu
pijaksaq aqpugut</w>
pij auti
pij aulauqtuq</w>
pij aulauqtu
pij aulauqpuq</w>
pij auj
pij atsaq
pij ak
piijaqta uninginnut</w>
pigiaruti nut</w>
pigiaqtitti jumavunga</w>
pigiaqti ttiniaqpugut</w>
pigiaqti taujuq
pigiaqti taujunut</w>
pigiaqti taujunit</w>
pigi it</w>
pigi atti
pigi arunnaq
pigi arniq
pigi aqtau
pigi aqta
pigi ali
pigi alaurmat</w>
pigi akkanni
pigiakkanni raj
pigg an
piggan angittu
pig ann
pianiksi jut</w>
pianik piit</w>
pi ul</w>
pi tuq
pi tuinna
pi titau
pi su
pi simann
pi siman
pi simajut</w>
pi lirinir
pi lar
pi la
pi juti
pi iq
pi gu
pi gijau
pi e
pi c
pi amik</w>
pi &
phon es</w>
phi c</w>
petition s12</w>
per spectives</w>
per cen
peop les</w>
pen ners</w>
pe a
pea ce</w>
pay ment</w>
pattatu qta
patta vut</w>
patta ktu
pattaktu qtut</w>
pati ently</w>
pati ence</w>
pat terns</w>
part y</w>
part ly</w>
parrijunn aniq
parnauti vut</w>
parnauti taqanngilaq</w>
parnauti qanngilagut</w>
parnauti q
parnauti mut</w>
parnauti liurnirmik</w>
parnauti li
parnauti illu</w>
parnatauma jutigut</w>
parnatauma juni</w>
parnaijautausima junut</w>
parnaijautausima junik</w>
parnaij autinik</w>
parnaij a
parna tausima
parna simajavut</w>
parna ini
parn ama
parnama uti
parn ai
parliam ent</w>
parliam en
parliamen tary</w>
par mik</w>
par ent</w>
panni q</w>
pangni qtu
palli ajut</w>
pak ta
paipp aat</w>
paipp aaq
pai k</w>
paan i</w>
pa pput</w>
pa per
pa arij
p w</w>
p t</w>
p qmi</w>
p avvi
pavvi saqtaili
p attut</w>
p atik</w>
p ans</w>
p anik</w>
p ack
over looked</w>
over cro
overcro w
out let</w>
out come</w>
ous ness</w>
ou ts</w>
ou i
oui e</w>
or set</w>
or aria</w>
oper ators</w>
on wealth</w>
ol der</w>
oi d</w>
offen ces</w>
occ ur</w>
oc ese</w>
objec tive</w>
o therwise</w>
o sen</w>
o qaqti</w>
o f
of ten</w>
nuuta uningit</w>
nuttiti riniq</w>
nutara a</w>
nutar aup</w>
nutaqq at</w>
nutaangu jumi</w>
nutaangu gatta</w>
nuta atsi
nuta arijatta</w>
nuta aq</w>
nuta anng
nutaanng ur
nuta angng
nuqqaqtita uninginnu</w>
nuqqaqti taulaurmat</w>
nuqqangakainn aqtut</w>
nuqqangaalauk aquji
nuqqangaalaukaquji vunga</w>
nuqqang ati
nuqq aqtuq</w>
nuqq aqput</w>
nuqq akainn
nunavv uq
nunavuu ta
nunavuta arasunni
nunavut miittu
nunavut mi
nunavumi ullu</w>
nunavu mu
nunavu mik</w>
nunaving miunut</w>
nunav vu
nunatti armi
nunattiarmi lu</w>
nunatti akkut</w>
nunatsi ami</w>
nunataaruti mik</w>
nunaqqati kka</w>
nunaqaqqaaq simajunut</w>
nunaqaqqa aqtu
nunalittin ni
nunalirju aq
nunalirjuaq utigijangita</w>
nunaliral aat</w>
nunaliral aanut</w>
nunaliral aani</w>
nunaliquti ttinni</w>
nunaliquti mma</w>
nunaliqu tinni</w>
nunalinnuang anirmik</w>
nunalinnuang aniq</w>
nunalinnuang ani
nunalinnu anga
nunalinni miunut</w>
nunalinni ini
nunalinniini aqtunut</w>
nunalinni inga
nunali vut</w>
nunali ttinnut</w>
nunali tta</w>
nunali tigut</w>
nunali t</w>
nunali minik</w>
nunali limaanut</w>
nunali illu</w>
nunal innullu</w>
nunal ingita</w>
nunal inginnut</w>
nunal inginnit</w>
nunal inginni</w>
nunal inga</w>
nuna gijavut</w>
nun attinnu
nun arju
nu vipiri</w>
nu itti
nu iti
nu it
nu angajuq</w>
nu angajumik</w>
nt c
ntc l</w>
nov ember</w>
northwest tel</w>
northwest el</w>
nor a</w>
nomin ations</w>
nn agu</w>
niuviq atta
niuvi rniq</w>
niuvi rni
niuvi r
niuvi aks
niuv ilaur
niuvilaur tut</w>
niurru taulaunginninginnit</w>
niurru taujunit</w>
niurru simajut</w>
niur ruti
niruaqti nut</w>
niruaqti it</w>
niruaqtauvimmi uquti
niruaqtauv vigij
niruaqtau jju
niruaqtaujju si
niruaqtau gasunni
niruaqtau gasu
niruaqta unasunnirmut</w>
niruaqta ulauq
niruaqsi simammata</w>
niru arvi
niru aruti
niru aru
niru artau
niru arniq</w>
niru arniq
niriupp ut</w>
niriunniqatsi aqpunga</w>
niriunniq attiaqput</w>
niriunniq aqpugut</w>
niriun aqtuq</w>
niriugij aujunn
niriugijaujunn allatta
niriugijaujunnallatta armangaata</w>
niriugij attinnit</w>
niriugij aqaqpugut</w>
niriu gijau
niq ing
nipiqanngikainn arluta</w>
nilliq atau
nilliq ata
nil liriiq
nig inganut</w>
ni pili
ni pi
ni kku
ni k
ni ght</w>
ni ce</w>
ni arruti
ni armangaata</w>
ni aqpara</w>
ngi mmata</w>
ngi lluta</w>
ngi llu</w>
ng l
ngl m
nglm j
ng alu</w>
neigh bour</w>
ne arly</w>
natti l
natsi ujji
natirmi ittu
nangiqsi junn
nangiq sivunga</w>
nangiq silaurit</w>
nangiq silauqta</w>
namminiq aqtut</w>
nammini liur
nami igaluaqpata</w>
nam ing</w>
nalunairiakkannirunn aruvit</w>
nalunair umajara</w>
nalunaiqsin aur
nalunaiqsinaur mijuq</w>
nalunaiqsima tsi
nalunaiqsil auqtut</w>
nalunaiqsi qqaugavit</w>
nalunaiqsi qau
nalunaiqsi junn
nalunaiq tau
nalunaiq siv
nalunaiq sini
nalunaiq sinasu
nalunaikkannirunn aqpiuk</w>
nalunaijaqsiman ingi</w>
nalunaijaqsima junik</w>
nalunaijaqsima juni</w>
nalunaijaqsima jumik</w>
nalunaij aqsimaningit</w>
nalunaij aij
nalunaigi aruti
nalunaigiaruti ujuni</w>
nalunai qsimajuni</w>
nalunai kku
nalun aru
nalunaru ju
nalun anngittunit</w>
nalun anngilaq</w>
nalun anngi
nalun angngittuq</w>
nalliuniq siurni
nalliukkuma anut</w>
nalli unni
nalli annut</w>
nalli annit</w>
nalli anni
nallianni tuinnaq</w>
naliqq anganik</w>
naliqq amik</w>
naliqq ali
nali unir
nali tuinnanginni</w>
nali q
nali atuinnaq</w>
nalautta aqtausimajut</w>
nalautsaaqtau ma
nalauksaaqta ullattaaqtut</w>
nalauksaag anginnit</w>
naksi ujjau
naksi ujj
nakkajja u</w>
nakk aj
nakkaj jau
nakkajjau mi</w>
nakatiq tausima
nakatiq taujut</w>
nak urmik</w>
nak saq
nak it</w>
nak innga
naj uqta
nainaaq simajumik</w>
naina arunn
naina arlugu</w>
nagli ksi</w>
naasauti nit</w>
naasauti llatta
naasauti it</w>
naammattu mik</w>
naammatti tausaaliniqsau
naammann araqta
naam maniqsau
naalauti kkut</w>
naal atti
naal anni
na ama
na ala
naala giaqtu
n y</w>
n or</w>
n ni</w>
n inni
n ingi
n inga</w>
n ine</w>
n gaaq</w>
n er
n e</w>
n cc</w>
n atu
natu ral</w>
n aqtuq</w>
n aq</w>
n angir
n aki
mul titude</w>
mu uq
mu te</w>
mu k</w>
mu angani
motions 18</w>
motions 16</w>
mode lled</w>
mo di
mmi llu</w>
mmi javut</w>
mmi gamattauq</w>
mmari uvut</w>
mmari uvuq</w>
mmari ummata</w>
mmari ummat</w>
mmari ujumik</w>
mmari ttu
mmari pput</w>
mmari mmik</w>
mmar ing
mmanga atta</w>
mmanga ataluunniit</w>
mmanga aqpit</w>
mma git</w>
miutau lirtuq</w>
miuta q</w>
mittimatal ingmi</w>
mittima tali
mis sed</w>
mis leading</w>
miqqu linnit</w>
miqqu liit</w>
minnig ulautaujut</w>
ministaunir mu</w>
minista uti
minista uqatigiit</w>
minista ullutit</w>
minista ulluni</w>
minista ullunga</w>
minista muangajuq</w>
minista ittauq</w>
minist anit</w>
minist anganut</w>
minisi tarijaujuit</w>
minis tauv
minis taujut</w>
minis taujunit</w>
mini ujuq</w>
mini mum</w>
min ga
min d
mind ful</w>
milli ons</w>
mili avut</w>
mili ataq
mili apalu
mili anta
mili anngu
milianngu vut</w>
mili ani
mili allutit</w>
miksa anu
mikinniq sanit</w>
mikila amik</w>
mikiju ummat</w>
mik innirsanit</w>
mik iniq
mid -
mid- year</w>
mi utaujut</w>
mi unillu</w>
mi ss</w>
mi qqunit</w>
mi i
mi g
mi cro
ments 15</w>
men tation</w>
memb ership</w>
mee ts</w>
mechanis ms</w>
mechanis m</w>
mcle ll
mclell an</w>
matuirutigiqqauj anginnit</w>
matuiruta uqqauj
matuir nirmut</w>
matuir ni
matuingati tsini
matuingati taulauq
matu juq</w>
mat na</w>
marruri arlugu</w>
marru unnut</w>
marru unni</w>
marru ullu
marru uliqtuuk</w>
marru liq
marru k</w>
marru ati
mappiqtug armi</w>
mappig aqtigut</w>
mann gilagut</w>
mann akkut</w>
maniq arngata</w>
mani vut</w>
mani ma
mang ng
mang inni
mang at</w>
man it</w>
man gi
man e</w>
man ar
man aqtu
man age</w>
mami attu
mamiattu ma
malitta uqullugit</w>
malit tau
maligiaq arattigu</w>
maligi alik</w>
maligaliurving ata</w>
maligaliurvi mmi</w>
maligaliur tinut</w>
maligaliur /ng
maligaliur/ng mit</w>
maligaliuqtiuqati nnit</w>
maligaliuqtiuqati kkaa</w>
maligaliuqti ullusi</w>
maligaliuqti ujunut</w>
maligaliuqti tuinnarnut</w>
maligaliuqti tuinnarnit</w>
maligaliuqti nillu</w>
maligaliuq vi
maligaliuq tinu
maligaliuq tini</w>
maligalirini ujumu</w>
maligak samik</w>
maligak sa
maliga lirijikkut</w>
maliga liriji
malig aup</w>
malig arnit</w>
malig aq
makkuk tunullu</w>
makita junn
makimajjuti tuq
makimajjuti tsa
mak ununga</w>
mak uninga</w>
mak pi
maij arij
maij anga</w>
maannau jumik</w>
maanna unngittuq</w>
maann aujut</w>
maann auju
maannauju rlu</w>
maann ama
maannama akkut</w>
maann akk
maannakk ulliilaak</w>
ma vagit</w>
ma thew</w>
ma ssive</w>
ma ry</w>
ma ru
ma rniqsau
ma marniqsau
ma llugit</w>
ma llu</w>
ma kua</w>
ma ji
ma ik</w>
ma gu</w>
ma g
ma ck
mack ay</w>
ma ch
ma at
maat j
maatj i</w>
ma arru
ma an
m ur
m p</w>
m on</w>
m minit</w>
m minga
m inni</w>
m innga</w>
m er
m and</w>
lu tigu</w>
lo ut</w>
lo cation</w>
lo cated</w>
lo ad</w>
llu gik</w>
llari ummangaata</w>
llari liq
llariliq qat</w>
ll ut</w>
ll uniuk</w>
ll unilu</w>
liurni tsamut</w>
liur utinik</w>
liur unnaqullugit</w>
lirinir muangajuq</w>
lirijikkunn ullu</w>
lirijikk ullu
lirij it</w>
lir utik</w>
lir unn
lir para</w>
lir mijuq</w>
lir mangaata</w>
lir iniq
lir atta</w>
liqtu nilu</w>
liq tittinasu
liq qa</w>
liq punga</w>
liq pavut</w>
liq pau
liq &unga</w>
lin ked</w>
lima avut</w>
lima attinnit</w>
lima ani</w>
lima amut</w>
lifesty les</w>
lifesty le</w>
li uqtuqaqtillugu</w>
li ttaq
li rutta</w>
li qullugu</w>
li qullugit</w>
li qtuni</w>
li qtunga</w>
li ber
levi es</w>
levi ating</w>
legislatu res</w>
leav ing</w>
le asing</w>
lawy er</w>
law s</w>
laur manga</w>
laung inattigu</w>
lau gh
lang avat</w>
laisansitaaqtitsiji kkunnik</w>
lai ul</w>
lab rador</w>
la unnirminut</w>
la unginninginni</w>
la ap
l unga</w>
l unch</w>
l ouie</w>
l es
l eng
leng thy</w>
l anga</w>
l aaq
kuritti an</w>
kuapuriis akkunnit</w>
ku paik</w>
ku mut</w>
ku im</w>
ktu tillu</w>
ktu llu</w>
ksi kkuur
ksauti llugit</w>
ksauta ullutit</w>
ksaq aqput</w>
ksaq aqpuq</w>
ksan illu</w>
ks aujut</w>
ks aujuq</w>
ks aujuni</w>
ks anganik</w>
kri tterdlik</w>
kp ungalu</w>
kp aktu
ko ana</w>
knowled ge
knowledge able</w>
know ing</w>
kku uq
kku tta</w>
kku ma</w>
kkanniruma viit</w>
kkanni qullugit</w>
kkanni laur
kkanir nit</w>
kkanir ninginnut</w>
kkaniq tittinirmik</w>
kkalu armangaata</w>
kivallir miunit</w>
kiutti arunn
kiuti nni
kiuqqau galu
kiukainn aruk</w>
kiujunn aruviuk</w>
kiujunn ani
kiujuma viuk</w>
kiujuma guvit</w>
kiujuma gu
kiujumagu viuk</w>
kiujjuti qarni
kiujjuti mik</w>
kiujjuti ksaq
kiujau tti
kiujau qquurmat</w>
kiugunn aqpiuk</w>
kiu juti
kiu giarunn
kiu gavinnga</w>
kisumu ung
kisu uva</w>
kisu ummangaaq</w>
kisu tuinnarnut</w>
kisu tuinnait</w>
kisu liriji
kisini li</w>
kisi anilu</w>
kis u</w>
kinguv ari
kingulliqpa atti
kingulliqpa arini
kingulliqpa ari
kingul lirmi</w>
kingul liqpau
king uningani</w>
king un
king uliqpaaq</w>
kin atuinn
kin amut</w>
kin akku
kinakku tuinnarnut</w>
kimiru tauningi</w>
killiq armat</w>
kiinaujjass au
kiinaujaqturutiksaq ariaqarnirmik</w>
kiinaujaqturutiksang anni
kiinaujaqturutiksan u
kiinaujaqturutiksan i</w>
kiinaujaqturutiksa tigut</w>
kiinaujaqturutiks angani</w>
kiinaujaqtaaruti ks
kiinaujaqarvi it</w>
kiinaujaqaqtitauni q</w>
kiinaujaq aqtittinirmik</w>
kiinaujalirijjusi lirijikkut</w>
kiinaujalirijimmari mmut</w>
kiinaujaliriji vut</w>
kiinaujaliriji quti
kiinaujalirij juti
kiinaujalir inirmu</w>
kiinaujalir iniq</w>
kiinaujakkanir nit</w>
kiinauja lirijikkunnit</w>
kiinauj atuqtu
kiinauj atigu
kiinauj anut</w>
kiinauj allatta
kiinauj akkanniit</w>
kiinauj akall
kiggatuq ti
kiggatu qtumut</w>
kiggatu qtugit</w>
kiggaqtu r
kig aqtu
kid juk</w>
ki uv
ki uqullugu</w>
ki uju
ki panik</w>
kel ly</w>
ke yootak</w>
ke pt</w>
katujjiqatigiing ujut</w>
katujjiqatigiing annut</w>
katujjiqatigi ip
katujjiqatigiip vi
katujjiqatigi ikk
katu jj
kattungair niq
kattungaiq simaniq</w>
kattungaiq simaninginnit</w>
katsungaiqsimatti anittinnik</w>
katiqatigila aqtara</w>
katimavvi ujulimaat</w>
katimavi ujuq</w>
katimavi jju
katimauti tsaq</w>
katimauti tsaniinn
katimatuinn aqtuq
katimatuinnaqtuq nut</w>
katimaqatiq alaur
katimaqatigi gasu
katimanit tinnit</w>
katimanirij aulauqtu
katimanirij angannut</w>
katimaning annut</w>
katimani tuinnaq</w>
katiman inginni</w>
katiman ingannik</w>
katiman ik
katimanik sa
katimajirju at</w>
katimajirama at</w>
katimajiralaammari ujunit</w>
katimajirala asi</w>
katimajirala akk
katimajiralaakk unni</w>
katimaji uvvi
katimaji uqatikka</w>
katimaji ujut</w>
katimaji illu</w>
katimaj jutinut</w>
katimaj it</w>
katimaj inik</w>
katima vingmi</w>
katima qju
katima qatauniarmat</w>
katima qata
katima kkanni
kati rsuivali
kati qatiqarasuaqsimagaluaqtunga</w>
kati qatau
kati q
kati mma
kati llugu</w>
kata jj
kap pian
kap aq</w>
kangir l
kangiqtugaaping miut</w>
kanatalutta ami</w>
kanata miutaujut</w>
kan tura
kan arn
kampani it</w>
kamp ani</w>
kamisin aup</w>
kamisin amut</w>
kamisanaulaukaktu lirijikkunnut</w>
kamisanaulaukaktu lirijikkunni</w>
kamisan aull
kamisanaull unga</w>
kami ut</w>
kami ks</w>
kamaji gijaq
kamajigijaq alluata
kamajigijaqalluata qtut</w>
kamagijaunir nut</w>
kamagijaunir nullu</w>
kamagijau giaq
kamagijaq armata</w>
kamagijaq armangaata</w>
kamagijaq aqpuq</w>
kamagijal ingmut</w>
kamagija uninginnut</w>
kamagij auq
kamagijauq attaniaqtut</w>
kamagij aujunn
kamagij ali
kamagijali mmut</w>
kamagij aks
kamagigiaq amig
kamagigiaqamig attigu</w>
kamagi gial
kamagigial inginnik</w>
kam ani
kamani aqtuni</w>
kajusivalli avuq</w>
kajusituinn arunn
kajusituinn arit</w>
kajusittiaruti nga</w>
kajusittiarning ata</w>
kajusitsi arit
kajusitsainn arli</w>
kajusitita utillugit</w>
kajusiniq atsi
kajusini artuq</w>
kajusijunn aqputit</w>
kajusiinn aqti
kajusigiarunn aqtutit</w>
kajusi titauni
kajusi jut</w>
kajusi jja
kajusi in
kajusi giarni
kaivainn aqtut</w>
kainn arumavunga</w>
kainn aruma
kainn arama</w>
kaapi tuq
kaanturaak ti
kaanturaak qattariaq
kaanturaak ngu
kaantura anut</w>
kaantura aksi
kaantur ami</w>
kaantur ak
kaan atami</w>
ka parmik</w>
ka atur
k ulu
k ujannamiik</w>
k mik</w>
k ju
k inng
kinng arni</w>
k autigi
k as
kas aktu
juuni p</w>
juti tut</w>
juti mik</w>
juqaq ullugu</w>
juqaq punga</w>
juq q
juq ariaq
juq alauq
junni ilaur
junnani armangaata</w>
junn aqqu
jun il
jun ction</w>
jumav atsi</w>
jumav akk
jumaj anginnut</w>
juksau vut</w>
juksau vuq</w>
jud gement</w>
ju usi</w>
ju una</w>
ju u</w>
ju tsat</w>
ju mann
ju mang
ju lirijikkut</w>
ju arnit</w>
jona than</w>
jona h</w>
join t</w>
jo yed</w>
jo se</w>
jjuti gi
jju singatigut</w>
jju angani</w>
jj inirmut</w>
ji urumiittut</w>
ji ru</w>
ji mi</w>
ji aqtu
ji alunai
jauni armata</w>
jauni aqtut</w>
jaul aur
jauj unit</w>
jau simajut</w>
jariaq aqquuqtugut</w>
jari alik</w>
jari al
jari aksaq</w>
jam innik</w>
jalunai mi</w>
jai ms</w>
jai m</w>
jai l</w>
ja uninganik</w>
ja git</w>
ja anngi
ja angittut</w>
j p</w>
j angit</w>
j angi
j anga</w>
j ak
ivi lirijikkut</w>
iv vi
iv al
iv ak
ittuq aqp
ittu mit</w>
ittu mik</w>
ittu innau
ittarni sait</w>
itsu uj
itsivauta q
itinnu ar</w>
it ting</w>
it tillugit</w>
it sivautangat</w>
it /
isumaqsaqsiuruti tsa
isumaq surunn
isumali uraan
isumali uq
isumagijaq arniq</w>
isumagija uningit</w>
isumagij avut</w>
isumagij auq
isumagijauq asi
isumagij amik</w>
isumagi vara</w>
isumaaluuti ttinnit</w>
isumaalunn aqtu
isumaalu utigij
isumaalu utau
isumaalu guta
isumaalu gij
isumaal utigij
isuma qarni
isuma llungalu</w>
isuma jugut</w>
isuma ja
isulivvi ksaqaqpuq</w>
isulitti jut</w>
isuli sa
isuli mmat</w>
isuli jut</w>
isul inniq
isu v
isu mmi
is sivau
ir mat</w>
iqqittu uq</w>
iqqaumajuti ksait</w>
iqqau maj
iqqaqtuivi lirinirmu</w>
iqqaqtuivi lirijiit</w>
iqqaqtuivi liri
iqqaqtuiji qangilu
iqqaqtuiji lirijikkut</w>
iqqaqtuij it</w>
iqqaqtuij i</w>
iqqaqtu ili
iqqanaijar tinut</w>
iqqanaijar tinullu</w>
iqqanaijar &uni</w>
iqqanaijaqtita arijau
iqqanaijaqtiquti kka</w>
iqqanaijaqti ttinirmut</w>
iqqanaijaqti taujut</w>
iqqanaijaqti qarnirmik</w>
iqqanaijaqti qaratta</w>
iqqanaijaqti ni</w>
iqqanaijaqti lirijikkunnit</w>
iqqanaijaqti lima
iqqanaijaqti gij
iqqanaijaqtigij avu</w>
iqqanaijaatsa lirijikkunnut</w>
iqqanaijaat sait</w>
iqqanaijaaq tanguvanniaqtunik</w>
iqqanaijaak sanik</w>
iqqanaija ari
iqqanaija aksa
iqqanaij aqp
iqqanaijaqp attunik</w>
iqqanaij aqattaq
iqqanaij aqatigi
iqqanaij ali
iqqaititti jumatuinnaqtunga</w>
iqqaiti jumatuinn
iqqaiti juma
iqq ik
iqqik tuq</w>
iqq auj
iqarri aluk</w>
iqaqri alu
iqaqrialu s</w>
iqaluttuutti armik</w>
iqalungmi ut
iqalung ni</w>
iqalung miutaulirtuq</w>
iqalu mmi
iqal unnu
iq au
iqau ma
iq attanirmik</w>
iq atigi
ippigi qatigi
ippi gusu
ipp alli
ip puq</w>
invol ving</w>
invest ments</w>
inv ested</w>
inuusu ktut</w>
inuusi rminit</w>
inuusi qasi
inuusi lirinitigut</w>
inuusi lirij
inuus inginnit</w>
inutuqati nnik</w>
inuquti minit</w>
inuquti gijauj
inuqutigijauj unut</w>
inuqaq puq</w>
inuq anngittut</w>
inung mik</w>
inung innut</w>
inulirijituq akkunnut</w>
inulirijinullu u</w>
inuktituuliq titautittijunnarningit</w>
inuktituu lir
inuinnaqtu n</w>
inugi arniq
inu ttitut</w>
inu mmik</w>
inu lirijikkut</w>
inu ktullu</w>
inu glu
inuglu k</w>
intupurai sa
introduc ed</w>
inter ests</w>
inter ested</w>
inte gr
instruc tors</w>
instruc tion</w>
innut tauniaqtut</w>
innir aqsu
inniraqsu gu</w>
inni rmut</w>
inni rai
inni aqtut</w>
innatuq aujut</w>
innatuq alirinirmut</w>
innatuq a
innar asunni
innammari lirijiit</w>
inn uk
inn ingi
inn gittu
inn gilanga</w>
inn er</w>
inn arluta</w>
inn ariaq
inn aqti
inn aqput</w>
inn aannik</w>
inn a</w>
inir mullu</w>
inir millu</w>
iniqsau mmat</w>
iniq saunaj
inillang anitsamut</w>
ini llu</w>
ini lik</w>
ini innga
ini aqtavut</w>
ingngi mmanga
ingng inningani</w>
ingittu gu</w>
ingirrajuu lirijikkut</w>
ingirraju lirijikkut</w>
ingirra si
ingirra jjuti
ingirr aninga</w>
ingirr ammat</w>
ingi mmata</w>
ingi mmagu</w>
ingi llusi</w>
ingi kkalu
ingi gunn
ing nga</w>
ing anu</w>
ing anit</w>
indepen dent</w>
incorpor ating</w>
inasu aqtilluta</w>
in unnit</w>
in un
in ullatta
in spi
in spe
in mut</w>
in lu</w>
in inginnut</w>
in inganut</w>
in inga</w>
in ariaq
in ak</w>
impro ved</w>
implemen ted</w>
imp ac
impac ted</w>
imann aqai</w>
ima gin
imagin e</w>
ima ak</w>
im posed</w>
im minik</w>
im mini
im mangaaq</w>
im man
iluunn asi</w>
iluunn as
iluunn ap
iluunnap alutik</w>
iluunn anginnik</w>
iluunn anginni</w>
iluunn aa
iluunnaa gut</w>
iluliq arning
iluliqarning atigut</w>
iluli ksanginnit</w>
iluanngiliur utau
iluanngijju taujut</w>
ilu un
ilu anngittu
ilu aniittut</w>
ilu agut</w>
illutsaq aqtitsiji
illutsaq aqtitsi
illutsaqaqtitsi jinik</w>
illuqaqti ttiniq</w>
illuq utiq
illuliriji rjuakkut</w>
illuliriji gijanut</w>
illu tsait</w>
illu mik</w>
illu miittut</w>
illatta ang
ill unga</w>
ill ung
ill a
illa ut</w>
ilitarijuma llugit</w>
ilitarij aula
ilitari junn
ilitari jumavakka</w>
ilitari jauniq
ilitari jainnari
ilitari guma
ilitar si
ilitaqsi si
ilitaqsi juinnau
ilitaq tijumavunga</w>
ilitaq sini
ilisi jumajunga</w>
ilisaiji unirmut</w>
ilisaiji tsait</w>
ilis arsi
ilis arijuma
ilis ari
ilisari jumajara</w>
iliqusi rmut</w>
iliqusi lirinirmut</w>
iliqqusituq anginnik</w>
iliqqusing innillu</w>
iliqqusillatta ati
iliqqusillattaati gulluunniit</w>
iliqqusi ujumi</w>
iliqqusi rmut</w>
iliqqusi qsungittu
iliqqusi q</w>
iliqqusi q
iliqqusi lirijiit</w>
iliqqusi k</w>
iliqqusi it</w>
iliqqu sivut</w>
iliqqu sirnit</w>
iliqqu sirmi</w>
ilinniavit ta</w>
ilinniav im
ilinniatitti j
ilinniati tsinirijau
ilinniarvi it</w>
ilinniarat sanik</w>
ilinniaqti tsi
ilinniaqsima giaq
ilinnianir mullu</w>
ilinni atittinirmik</w>
ilinni atittini
ilinni arvik</w>
ilinni arunn
ilinni arti
ilinni arnir
ilinni ariiq
ilinniariiq tut</w>
ilinni ar
ilijau simajut</w>
ili ttinnut</w>
ili tsi</w>
ili tsi
ili simaju
ili sa
ili qu
ili kauti
ili jauni
ilannarij attinnut</w>
ilangng aqtunit</w>
ilang innik</w>
ilali uti
ilaja uninga</w>
ilagijauqatau juq</w>
ilagijauj jutiq
ilagijau vuq</w>
ilagij auti
ilagij aujuq</w>
ilagij auju
ilagijauju mu</w>
ilagij anga</w>
ilagiaqsi junn
ilagi aruti
ilagi aruma
ilagi aqta
ilaakkuunga jullu</w>
ilaakku uqtunullu</w>
ilaakku ung
ila unngitillugit</w>
ila a</w>
il ing</w>
il aujunn
ilaujunn aqullugit</w>
il anga</w>
il akka</w>
il aj
ilaj auj
il aiqsima
ilaiqsima vugut</w>
il ai
il a</w>
ikumali ur
iksivauta rmik</w>
iksivauta aq
ikk anni
ikarr avut</w>
ikajuuti nillu</w>
ikajuuti llu</w>
ikajuutau junit</w>
ikajurunn ajja
ikajurni aqput</w>
ikajuqtuij juti
ikajuqtu inirmik</w>
ikajuqti ga</w>
ikajuqtauvi mmi</w>
ikajuqtauv inu</w>
ikajuqtauv i</w>
ikajuq ti</w>
ikaju utiqarni
ikaju utauni
ikaju ru
ikaju rninga</w>
ikaju ri
ik uu
ik ung
ik sivau
ik pigusu
ik autigij
ik autigi
ik as
ik arri
ik arialuk</w>
ik allau
iji gi
ijigi juinnauvut</w>
ij uqaqpaa</w>
ij jutimik</w>
ij jut</w>
ij ariaqarni
ii piri</w>
igu uq</w>
igluqju at</w>
igluqaqti ttinirmut</w>
igluq atti
igluq arvit
igluq anngi
iglung innik</w>
igluliriji qjuakkut</w>
igluli mmi</w>
iglu mut</w>
iglu mit</w>
iglu mik</w>
iglu lirinir
iglu lirijikkut</w>
iglu lirijikkullu</w>
iglu lirijiit</w>
iglu ksanit</w>
igl uling
igi aqti
ig unn
ig lu</w>
ig atta</w>
ie f</w>
identi ty</w>
identi fies</w>
identi f
identif ying</w>
id lout</w>
i&u aq
i ul
i pirautaq-
i piamik</w>
i mmata</w>
i l</w>
i ju
i ilaak</w>
i ga
iga siutisunni
i an</w>
hu mane</w>
hope ful</w>
hon oraria</w>
hon est</w>
home owners</w>
ho spital</w>
ho mes</w>
histori cally</w>
histori c</w>
hin d</w>
high ligh
hig her</w>
hic ks</w>
hi u</w>
hi res</w>
hen ry</w>
heav ily</w>
heal ing</w>
he arts</w>
he art</w>
harv ester</w>
harv es
harves ting</w>
happ ened</w>
han ded</w>
haamlat kut</w>
haaml aujut</w>
haaml akkunnut</w>
haaml akkunnik</w>
h uly</w>
h uli</w>
h ugh</w>
h ing</w>
h ik
h ii</w>
h aqp
haqp i</w>
h amma
guta ulluni</w>
gunnaq silauq
gunn armangaattigu</w>
gunn aqtuq</w>
gunn aqsi
gunn aqq
gunn ala
gunnala aqtait</w>
gumaarni aqsimavugut</w>
gulu unniit</w>
gu ttiuk</w>
gro ups</w>
gre w</w>
gre en
grand fa
grand children</w>
gr ate
grate ful</w>
go d</w>
go alik</w>
gl asses</w>
gl ad</w>
giul huli</w>
gitti k</w>
ginniq alaurmata</w>
ginn ar
gini arlugit</w>
gini arattigu</w>
gini arakku</w>
gin inginnik</w>
gin asunni
gilaur magu</w>
gil huly</w>
gil ber
gilber t</w>
gil auk
gil at</w>
gij attinnit</w>
gij attinnik</w>
gij aqtu
gij annik</w>
giaruma junga</w>
giaq arninginnik</w>
giaq arajaqtut</w>
gi vut</w>
gi vunga</w>
gi ves</w>
gi ssi</w>
gi sima
gi mmat</w>
gi lluunniit</w>
gi llu
gi ksi</w>
gi es</w>
gi aru
gi aqta
gh tly</w>
gh ted</w>
ge ared</w>
gavamatuqakkunni miunit</w>
gavamatuqakk unnu</w>
gavamatuqakk ullu</w>
gavamatuq akku</w>
gavamaksa lirijikkunni</w>
gavamakkung innu</w>
gavamakkung innit</w>
gavamakkung anni</w>
gavamakkun nik</w>
gavamakkun gi
gavamakku t-namminirijat</w>
gavamakku n</w>
gavamakk ullu</w>
gavamakk u</w>
gavama uluta</w>
gavama ujut</w>
gavama ujumik</w>
gavama ujumi</w>
gavama t</w>
gavama rij
gavama qarni
gavama mi</w>
gavama lirijinginnut</w>
gavama liriji
gavama gijavut</w>
gasunn inganut</w>
galu arakku</w>
galu aqpagit</w>
galler y6</w>
gaj arninganik</w>
gaj armata</w>
gaj armangaat</w>
gaj ariamik</w>
gai llutillu</w>
gaasi mik</w>
gaangi utiqunagit</w>
gaangi uti
gaangi aqju
gaakkanni angu
ga thered</w>
ga p
ga jut</w>
ga ju
ga arju
ga aqtuq</w>
ga aa</w>
g utigij
g ri
g ory</w>
g inni
g iniqsau
g ing
g gaillutillu</w>
g atta
g ani</w>
g amik</w>
g alau
g ain</w>
func tioning</w>
fun eral</w>
fri end
friend ly</w>
fri days</w>
fre ight</w>
fre e
fram e
frame work</w>
foun ded</w>
foun d</w>
for um</w>
for th</w>
for gotten</w>
foo ds</w>
fo refathers</w>
fo rec
fis hing</w>
fir ms</w>
fini sh</w>
fin ds</w>
fin dings</w>
fin ding</w>
fi rearms</w>
fi el
fer ring</w>
fe male</w>
fe els</w>
fe asi
famili ari
familiari ze</w>
fair ness</w>
f ullest</w>
f ts</w>
f ru
f itting</w>
f en
fen bro
fenbro ok</w>
f ast</w>
f al
exten sive</w>
expres sing</w>
explor ing</w>
explan atory</w>
expi res</w>
expi red</w>
expi re</w>
experi ences</w>
expec ts</w>
expec ting</w>
exam ples</w>
ex i
ex cep
ex cel
excel l
ex ce
exce ed</w>
ex act</w>
evalu ated</w>
evalu ate</w>
ess ment</w>
es cor
es 13</w>
er y</w>
er ry</w>
er o
er kidjuk</w>
er ed</w>
er age</w>
equ ival
equ ity</w>
equ itable</w>
enti tled</w>
enti re</w>
enti re
enti al</w>
ener gies</w>
encourag ement</w>
encourag ed</w>
en u
en ni
en joyed</w>
en e</w>
en da</w>
employe e</w>
emer gency</w>
embarrass ing</w>
emb ra
elimin ation</w>
eligi ble</w>
eligi bility</w>
elec trical</w>
elec toral</w>
el sewhere</w>
ei a</w>
effici encies</w>
effec tively</w>
eff icient</w>
educ ating</w>
educ ated</w>
economi es</w>
easi ly</w>
earn ers</w>
earli est</w>
e ventually</w>
e ch
ech o</w>
du ct</w>
dru mm
dri ving</w>
dri ed</w>
dream ed</w>
doub ted</w>
doub t</w>
docu ments15</w>
docu mentation</w>
do l
divisi ons</w>
dispu ted</w>
dispu te</w>
discussi on</w>
disappoin tment</w>
disappoin ted</w>
disap pe
dis rup
dis man
direc ting</w>
differ ently</w>
di verse</w>
di tionally</w>
di ocese</w>
di dates</w>
di a
dia bet
diabet es</w>
determin ed</w>
determin e</w>
design ated</w>
des tin
des cri
der by</w>
deni s</w>
demo c
democ rati
deli vering</w>
defic its</w>
decl are</w>
deb ating</w>
dea u</w>
dea f</w>
de mand</w>
de man
de gree</w>
de fine</w>
de ferred</w>
de ep</w>
de emed</w>
de cre
decre ase</w>
de c
d uties</w>
d pw</w>
d orset</w>
d ness</w>
d inner</w>
d der</w>
cri mes</w>
cri me</w>
counc ill
coun t</w>
contro ller</w>
contrac tual</w>
continu ity</w>
continu ation</w>
contamin ation</w>
consul tations</w>
constitu encies</w>
consist ent</w>
consider able</w>
congratul atory</w>
confu sion</w>
confu sed</w>
conduc ting</w>
conduc ted</w>
con straints</w>
con junction</w>
con dition</w>
compri se</w>
compli ant</w>
competen cy</w>
compensa ting</w>
compe ting</w>
communi cating</w>
committe es13</w>
commit ments</w>
commission ers</w>
comm onwealth</w>
comm on</w>
comfor table</w>
com prehensive</w>
com par
collec ted</w>
colle ct</w>
co-ordin ation</w>
co-ordin ated</w>
co-oper ative</w>
co- operation</w>
co vering</w>
co vered</w>
co ver</w>
co usin</w>
co st
co operation</w>
co m</w>
cle arly</w>
cle arer</w>
cle an
cl es</w>
cl ass
class rooms</w>
citiz en</w>
circu it</w>
ci vi
ci ting</w>
chec ks</w>
che w</w>
che ap</w>
charac ter</w>
char lie</w>
chang ed</w>
chair s</w>
chair persons</w>
ch uck</w>
ch osen</w>
ch oice</w>
ch ief</w>
ch es</w>
ch am
cham ber</w>
cen tury</w>
cen sus</w>
celebr ations</w>
celebr ate</w>
cel led</w>
ce stors</w>
cate gory</w>
care er</w>
cann ed</w>
can didates</w>
can celled</w>
c ra
c ght</w>
c es
c bc</w>
c ates</w>
c ari
cari bo
caribo u</w>
c ard</w>
c a</w>
busin esses</w>
bus y</w>
bus ses</w>
bul ance</w>
budge ting</w>
bu g</w>
br ings</w>
br av
brav o</w>
borro wed</w>
birth day</w>
bills 23</w>
bills 17</w>
bills 14</w>
bil ingual</w>
bi dder</w>
bet ty</w>
benefici ary</w>
benefi ting</w>
benefi cial</w>
be yond</w>
be th</w>
be side</w>
be hind</w>
be g</w>
be coming</w>
be at
beat en</w>
b y-products</w>
b l
aw a</w>
avv it
avittuqsimaju vut</w>
avittuqsimaju ttinni</w>
avittuqsimaju limaat</w>
avittuqsimaju limaanut</w>
avittuqsimaju limaanit</w>
avittuqsimaju limaani</w>
avittuqsimaj aquti
avittuqsimajaquti minit</w>
avittuqsimaj anganullu</w>
avittuqsima uqtuni</w>
avittuqsima junu
avittuqsima jumik</w>
avittuq simanir
avili aqsima
aviliaqsima junu</w>
aviktu qsima
avi up</w>
avi ta
avi git</w>
avati nut</w>
ava uniq
av erage</w>
av ani</w>
auti q
auti millu</w>
authori zes</w>
auq atauni
auqatauni aqtuq</w>
aull atitti
aull arni
aull ari
aulauq tinnagu</w>
aulattini rmullu</w>
aulattini rmi</w>
aulatsini rijau
aulatsiji vut</w>
aulatsi jjuti
aulaning annut</w>
aulan ingit</w>
aulan inginni</w>
aulajunn autimillu</w>
aulajju tinut</w>
aul unga</w>
aul atauni
auk auti
aujunn aqtu
aujau juma
auja uningani</w>
auja uniaqtumi</w>
augalu aqpat</w>
audit or</w>
aud la</w>
au palu
au mmat</w>
au g
atuutiqarniq samik</w>
atuutiq arninganik</w>
atuutiq arniariaksaq</w>
atuutiq aqtut</w>
atuutiq ala
atuuti ksaqaqput</w>
aturu min
aturni aqtatinnit</w>
aturni aqput</w>
atur lugit</w>
atuqtusan u</w>
atuqtuaruti nit</w>
atuqtuaruti ngit</w>
atuqtu tsanik</w>
atuqtu tsani</w>
atuqtu tinnit</w>
atuqtu sani</w>
atuqtu sait</w>
atuqtu gut</w>
atuqtu arnirmut</w>
atuqtu arni
atuqtu aqtunut</w>
atuqtaujunn aqtunut</w>
atuqtaujunn aqpaa</w>
atuqtau kkaniqtittinirmik</w>
atuqtau junik</w>
atuqta uquj
atuqta uniaqtunit</w>
atuqatta riaqaqtavut</w>
atuq taujunut</w>
atuq su
atuq attaq
atuq attaniarmata</w>
atuq attani
atuliquji vut</w>
atuliquj ausimajunik</w>
atuliquj aujut</w>
atuliqtita uningata</w>
atuinnauti tsi
atuinnau liqpat</w>
atuinn aukauti
atuinn arunnaqtu
atuinn armata</w>
atuinn ariaq
atuinn arialiit</w>
atuinn aratta</w>
atuinn aqtara</w>
atuariaq aqtunut</w>
atuaga liurnirmik</w>
atuaga liuqtuqaqtillugu</w>
atuag atsa
atuag arnit</w>
atuag armut</w>
atuag aqutivut</w>
atuag angit</w>
atuag alluata
atu tsauj
atu rumaarniaqtut</w>
atu qtut</w>
atu qtunut</w>
atu q</w>
atu lirni
attu ti</w>
attu nut</w>
attu mik</w>
attu mi</w>
attu it</w>
attu gut</w>
attu aguti
attin ni
attiar as
atti armat</w>
atti aqpunga</w>
attanaqtailimanir mut</w>
attanaqtailimanir mullu</w>
attan aqtuq
attan aqtu
att u</w>
atsi aqullugit</w>
atsi aqtut</w>
atiliurviu simajut</w>
atiliur ni
atiliuqtausima juqaqpunga</w>
atiliuqtausima jumik</w>
atiliuqta uraanik
atiliuq tausimajunit</w>
atiliuq taujut</w>
atigi it</w>
atigi i
ati llutit</w>
ati lluta</w>
ati llugit</w>
ati it</w>
ati iguuq</w>
ati gu</w>
ati gi</w>
atausiunngittu nut</w>
atau ksikkuur
atangiuma juti
atangir lugu</w>
atangi kasaktu
ata ttinnit</w>
ata n</w>
ata lu</w>
ata anu
at tuni</w>
at tra
at tention</w>
at tended</w>
at sinnut</w>
at sau
at mut</w>
at angnga</w>
at an
asuungu gatta</w>
asuung ullutik</w>
asunn ingani</w>
asuk &utik</w>
asu kti
asu illaak</w>
associ ations</w>
assign ment</w>
ass essment</w>
ass essing</w>
asiv anirmut</w>
asing inn
asijji rni
asijji qta
asijji ivalli
asijji ijunn
asiji qta
asianu urunn
asi t</w>
asi j
asi de</w>
asi atigullu</w>
asi an
asi a</w>
as ungummangata</w>
arvilirju ami</w>
arvi amut</w>
arv ragunut</w>
arv inullu</w>
arv arluk</w>
aruti tsanik</w>
aruti t</w>
aruti qarni
aruti qar
aruti nik</w>
arunniir mat</w>
arunniir ama</w>
arunnaru vigit</w>
arunn aqtavut</w>
arunn aqpaatigut</w>
arunn angi
aruma vavut</w>
aruma llunga</w>
aruma junga</w>
aruma jugut</w>
aruma guvit</w>
aru vinnga</w>
aru tti</w>
aru taujut</w>
aru taujunn
aru maniq
aru mani
aru jj
artu mut</w>
artu lirijiit</w>
artu gut</w>
arru ugu
arraaguula aqtumi</w>
arraagutama aqsi
arraagur mi</w>
arraagu uk</w>
arraagu tta</w>
arraagu tamaat</w>
arraagu ga
arraag unit</w>
arraag unganut</w>
arraag ukinniqsaullutit</w>
arra angu
arra agut</w>
arp ungaa</w>
arp akka</w>
arnir aqtutik</w>
arnir aqtuni
arniq sauni
arning at</w>
arning annut</w>
arning anit</w>
arni ujumi</w>
arni ttinnik</w>
arni sinnik</w>
arni rmik
arni qaq
arni inga
arni arnitinnit</w>
arni arasu
arni ar
arni aqtugut</w>
arni aqpusi</w>
arni aqpaa</w>
arn angalu</w>
arn ait</w>
arn agit</w>
armi mmata</w>
armi mmat</w>
armi luta</w>
armi gattigu</w>
armi gatta</w>
armangaar lu</w>
armanga q</w>
armanga atti</w>
armanga attaa</w>
arma gu</w>
arma git</w>
arlu gillu</w>
arl anga</w>
arijuma giksi</w>
arijau juq</w>
arij avut</w>
arij aujunit</w>
arij attinnik</w>
arij anik</w>
ariaqarni aqtugut</w>
arial innik</w>
arial inginnik</w>
ari vuttauq</w>
ari vugut</w>
ari vallianirmut</w>
ari sing</w>
ari mi</w>
ari junn
ari jait</w>
ari ipiamik</w>
ari gunn
ari gattigu</w>
ari atta</w>
ari aq</w>
ari ami</w>
arasunni aqpunga</w>
aralu aqtugut</w>
arak ta</w>
araj aru
araj armat</w>
araj aqpugut</w>
araj aqpaat</w>
araang atta</w>
ara angat</w>
ara al
araal unngillugu</w>
ar uluuj
ar tunga</w>
ar reak</w>
ar nu
ar ma</w>
ar jung
ar ilauq
ar di
ar avigit</w>
ar attalu</w>
ar atik</w>
ar asunn
ar assi</w>
ar al
ar aksi</w>
ar ak</w>
ar ab
arab ia</w>
ar &unga</w>
aquji juq</w>
aqu gut</w>
aqturju uja
aqtuqaq q
aqtuq aruni</w>
aqtu ujunit</w>
aqtu ugaluaq</w>
aqtu tillu</w>
aqtu qta
aqtu nu</w>
aqtu ksaujuq</w>
aqtu kkut</w>
aqtu gi</w>
aqtitti jiit</w>
aqtitauni aqpugut</w>
aqti ttugu</w>
aqti nut</w>
aqti nit</w>
aqti llutit</w>
aqti gi
aqtausima tuinnarluni</w>
aqtaq aqpuq</w>
aqtang innut</w>
aqta vu</w>
aqta ulauqtuq</w>
aqta tit</w>
aqsiman ir
aqsiman inginnit</w>
aqsiman inginnik</w>
aqsima vuq</w>
aqsima llutit</w>
aqsima junut</w>
aqsi uv
aqsi manngilagut</w>
aqquur avit</w>
aqqutiqju anganut</w>
aqquti up</w>
aqquti it</w>
aqqu uq
aqqu ulauqtuq</w>
aqqu tik</w>
aqqu si
aqqi uk</w>
aqqi taujunut</w>
aqqi it</w>
aqqau gama</w>
aqq ik
aqq aujunga</w>
aqpu gullu</w>
aqpi tigut</w>
aqpi si</w>
aqpi lluunniit</w>
aqp auk</w>
aqp allaijuq</w>
aqp alauqtuq</w>
aqausi ksangit</w>
aqattarni aratta</w>
aqattarn ingit</w>
aqatta ruti
aqatta rniq</w>
aq ullu
aq tauvaktut</w>
aq qit
aq par
aq junni
aq attani
aq atauni
aq arnirmik</w>
aq aqtitauni
aq aqput</w>
aq agu</w>
approach ing</w>
appro ves</w>
appreci ated</w>
applau ded</w>
applau d</w>
appear an
appearan ces</w>
app ata</w>
apirini aqpara</w>
apirijunn anginnavit</w>
apirijuma llunga</w>
apirijuma llugu</w>
apirijuma gakku</w>
apirij auq
apiriguma jara</w>
apiri viit</w>
apiri tuinnaqtunga</w>
apiri lu
apiri laurmanga</w>
apiri lauq
apiri kkanni
apiri junnaq
apiri gumajunga</w>
apir inas
apiqusi it</w>
apiqsurunn alauqput</w>
apiqsuqtau vingmu
apiqqutitsaqakkanni qquuravit</w>
apiqqutitsaq aqtuqaqq
apiqqutiqakkaniq tunga</w>
apiqqutiq akkanniqpiit</w>
apiqqutiq akk
apiqqutiqakk ann
apiqqutiqakkann inngilanga</w>
apiqquting anut</w>
apiqquting anik</w>
apiqqutikkanni ra</w>
apiqqutigi qqauj
apiqqutigi kkanniruma
apiqqutigi gunnalaaqtait</w>
apiqquti ujuq</w>
apiqquti tsat</w>
apiqquti taq
apiqquti si</w>
apiqquti ni
apiqquti llu</w>
apiqquti ik</w>
apiqquti i</w>
apiqqu ti</w>
apiqqu taulaur
apiqqu q</w>
api qu
ap puq</w>
ap attuti</w>
ap alli
anull atsi
anu t/
anticip ation</w>
anticip ated</w>
answer ing</w>
annuraattiav anillu</w>
annura aliur
annuraaliur usi
annu angajumik</w>
anni rminut</w>
annginn inginnit</w>
anngil aa</w>
anngikkalu armangaaq</w>
anng innar
anng inattigu</w>
anir minit</w>
anir mi</w>
aniqsau gajaqtuq</w>
anil uunniit</w>
anig uqtunit</w>
anig uqtitauluni</w>
ani armangaata</w>
ani armangaaq</w>
ani aqtara</w>
ani aqput</w>
anguni armat</w>
angunasunni rmik</w>
angunasukti nit</w>
angunasu k
anguju mut</w>
angu siqullugit</w>
angu mmangaaq</w>
angngi mmat</w>
angli kamiut</w>
angittu ugaluaq</w>
angittu nik</w>
angiruti mik</w>
angiruti ala
angirutiala aq</w>
angiru tauvuq</w>
angirr aujji
angir manga
angiqtausima vutit</w>
angiqtaujuma vuq</w>
angiqatiqaq isi</w>
angiqatigiigu mmik</w>
angiqatigii ppisii</w>
angiqatigi inni
angiqatigi ing
angiq si
anginni ujuq</w>
anginngittuq taqaqpaa</w>
anginiqpa aq</w>
angin inganik</w>
angila anguni
angila ang
angil at</w>
angijuqqaang unirmut</w>
angijuqqa amik</w>
angijuq qaq
angijualu mmik</w>
angiju utit</w>
angiju uta
angiju millu</w>
angi rra
angi rasu
angi ppat</w>
angi mma</w>
angi lu
angi lli
angani aqput</w>
anga gut</w>
ang uvaktu
ang uniaqtunit</w>
ang ulaur
ang nit</w>
ang nga
ang atta</w>
ang annit</w>
anauta rmik</w>
anauta q</w>
an ulasi
an ts</w>
an n</w>
an ini
an inginnik</w>
an inganik</w>
an cestors</w>
an ai
ammari ttu
ammari mmik</w>
amma ttu
amma tta
amma luunniit</w>
amisuru kkanirninginnut</w>
amisukkanni mmari
amisu uvut</w>
amisu ulu
amisu gal
amisu aqtittugu</w>
amis unut</w>
amis unirijangi</w>
amig aqattarningit</w>
amiakk unit</w>
ami rikami</w>
ami javut</w>
ami akkun
amiakkun git</w>
ama rualik</w>
ama goalik</w>
am uu
am s</w>
am ini</w>
am end
am bulance</w>
alun it</w>
alun aiv
alu git</w>
alu ga</w>
alu ala
altern ate</w>
allu ta</w>
allu git</w>
allu ding</w>
allu ded</w>
allo ws</w>
allo cates</w>
allir unn
allapvit samik</w>
allaij ait</w>
all uni</w>
all i</w>
all avvit
all anga</w>
all ak
alir puq</w>
alir ninganit</w>
alir mijut</w>
alir mijuq</w>
alir mi
alir atta</w>
alir atigu</w>
alir ai
aliqtu gut</w>
aliqta ra</w>
aliq para</w>
alima aq</w>
ali rutik</w>
ali qulluta</w>
ali qullugit</w>
ali qtuq</w>
ali lauqput</w>
alaur ninginnut</w>
alaur ninganut</w>
alaur ninganik</w>
alaur mijut</w>
alauq simajuq</w>
alauq simajumik</w>
alauq sima
alaung ngittuq</w>
alau qtunga</w>
alanganir nik</w>
alang aninginnik</w>
alakannu ap</w>
ala unnirminut</w>
al utit</w>
al together</w>
al leviating</w>
al es</w>
al anga
akuni utiginingatigut</w>
akuni uliqtuq</w>
akul uk</w>
aksuruutigij ariaq
aksuru u
aksur urni
aksur uqju
aksur uq
aksu kall
akkanniruma junga</w>
akkannir unniir
akkanir mi
akk unniingaaqtuq</w>
akk atta</w>
akitujuuti nut</w>
akitujuqsiuti nut</w>
akituju utit</w>
akitu junik</w>
akiraqtuq tinngu
akiraqtu rasu
akiraqtu r
akiraqtu ngittuq</w>
akiliuti nillu</w>
akiliuti ngit</w>
akiliuti liurunnaqullugit</w>
akiliuti limaanit</w>
akiliuti li
akiliuti ksat</w>
akiliuti ksanut</w>
akiliutauni aqtunit</w>
akiliutauni aqtuni</w>
akiliutau junut</w>
akiliri alinnit</w>
akiliri aliit</w>
akiliqtu ingittugu</w>
akiliqsu inirmillu</w>
akiliq tauv
akiliq suqtau
akiliksa li
akiliks aujunnaqtu
akiliiv angmata</w>
akilig aksaq
akili qtau
akili qatta
akili ma
akili ksaq</w>
akili ksanut</w>
akili ksanit</w>
akili ksamut</w>
akikilaang ulauqpaat</w>
akikila angujuq</w>
akikil li
akik ittu
aki ittuq
akaunngilu taujunik</w>
akaungiliur uti
akailli ur
aka i</w>
ak unni
ak ulu
ak tuq
ak s</w>
ak lutik</w>
ak inniq
ak illatta
ak au
ak ata
ak anni
ak ammattu
ajurunniiq tiniaqpavut</w>
ajuriqsuiji rjuaq</w>
aju maanni
ajjiq apalu
ajjiginngi si
ajjigiinngittu nut</w>
ajjigiinn ginniqalaurmata</w>
ajjigiinn gi
ajjigii tittini
ajjigi ingng
ajjigi ikas
ajji unngimmat</w>
ajji ungittumik</w>
ajji palung
ajja anngimmata</w>
ajja anngimmat</w>
ajj inganik</w>
ajauri aqtittijiit</w>
aja uniq
aj unginni
aj aur
aiv anirmik</w>
airpor ts</w>
aippi illuni</w>
aippi ijuqaqpaa</w>
aipp urul</w>
aipp angit</w>
aipp aa</w>
aij aqtu
aij ait</w>
ai tti
ai ri
ai paanik</w>
ai ji
ai d</w>
aglukk aq</w>
aglukk ak</w>
aglat i</w>
agl ati
agl aat</w>
agguqta uninginnit</w>
agg res
aga q</w>
ag ullu</w>
ag lak
ag enda</w>
after wards</w>
afford able</w>
advisor s</w>
adjour n</w>
adher ed</w>
ade mi
address 11</w>
address 10</w>
ad van
ad ults</w>
ad m</w>
ad ded</w>
acti vely</w>
acknowled gement</w>
achie vement</w>
accoun ts</w>
accoun tability</w>
accompli shment</w>
ac t
ac ademi
ab ove</w>
ab ilities</w>
aaqqittausimaniq armata</w>
aaqqitta uraaniksimalaurmata</w>
aaqqit ti
aaqqit tausimajut</w>
aaqqit tausimajunit</w>
aaqqit taujut</w>
aaqqii valli
aaqqii simaj
aaqqi uma
aaqqi jjusingatigut</w>
aaqqi inirmik</w>
aaqqi iniaqpugut</w>
aaqqi gutitsanik</w>
aaqq ittu
aanniavili aqtunu</w>
aanniasiurvi ta
aanniasiur vingmut</w>
aanniasiur vik</w>
aanniasiuqtiq armata</w>
aanniasi urni
aanniasi uq
aanniaqtu lirinirmik</w>
aanniaqtu lirijiit</w>
aanniaqarnangittu lirijiit</w>
aanni av
aanni aqtaili
aan u
aan ti
aan taari
aah illaak</w>
aag ga
a un
a spects</w>
a saq</w>
a pu
a liri
a juq</w>
a h</w>
a atsa
a an</w>
a akka
a agu
>>igl artut</w>
>> tutsiarniq</w>
>> pattaktuqtut</w>
>> laughter</w>
>> assembly</w>
99/2000 mut</w>
99/2000 -mut</w>
97 7</w>
9 6</w>
9 50</w>
9 4</w>
9 1-
91- 4</w>
9 0</w>
87 -
80 -
8 nit</w>
8 ngu
8 mut</w>
8 36</w>
8 35</w>
8 30</w>
8 3
83 6-
836- tausantaalait</w>
8 -
7 80</w>
7 80-
7 48</w>
7 34</w>
7 00</w>
7 0
60 8</w>
6 miikkatta</w>
6 8
6 7
6 6</w>
6 44</w>
6 00</w>
6 /
6/ 1997</w>
5ngu liqtunit</w>
5- 4</w>
5 th</w>
5 mi</w>
5 7mi</w>
5 7-mi</w>
5 47</w>
5 31</w>
5 23</w>
5 1
5 %</w>
44 %</w>
40 t</w>
40 -
40- 4
4 nit</w>
4 7
4 69</w>
4 4-
37 -
37 %</w>
313 tausan</w>
31 1
311 tausan</w>
30 mi</w>
30 -
30 %</w>
3- milian</w>
3- 6miikkatta</w>
3- 6</w>
3 mut</w>
3 mi</w>
3 96</w>
3 69</w>
3 6
3 50</w>
3 20</w>
3 10</w>
3 00</w>
3 00
29 mi</w>
28 1</w>
27 7</w>
24- nik</w>
24 mik</w>
24 1</w>
200 1</w>
2- 2</w>
2 39</w>
2 27</w>
1999/2000 jut</w>
1999- 2000mi</w>
199 8
199 6/1997</w>
199 3</w>
199 0
1990 /2000</w>
198 8mi</w>
198 8</w>
17 -nik</w>
14 mi</w>
14 /99</w>
12 5</w>
10- milian</w>
10 4</w>
10 3</w>
1/ 2</w>
1- mit</w>
1 8th</w>
1 5
1 32</w>
1 20</w>
1 000</w>
1 -mi</w>
1 -</w>
000 vut</w>
00 muaqpat</w>
00 lu
/ng nit</w>
- ni</w>
- kut</w>
- dollar</w>
- -</w>
&u gu</w>
& uta
$60 3</w>
$6 87</w>
$6 87-
$6 10</w>
$5 7</w>
$5 5</w>
$5 53</w>
$5 45</w>
$5 00</w>
$4 99</w>
$4 4</w>
$3 4</w>
$3 00</w>
$1 50</w>
$1 16</w>
$ rupu
$ 94</w>
$ 830</w>
$ 70</w>
$ 3-milian</w>
$ 28</w>
$ 241</w>
$ 215</w>
$ 16</w>
$ 10-milian</w>
