. 1202808
the 943305
, 916266
to 548763
mr. 458938
of 435141
you 395191
and 380071
thank 343226
: 342144
that 341113
i 288301
in 284621
) 265380
( 265232
speaker 214296
a 210399
for 209206
we 199298
is 194738
interpretation 168197
chairman 167665
minister 148769
have 136130
it 134700
are 133575
be 119621
this 116995
on 115947
&apos;s 99661
with 98678
as 91177
will 90613
they 88851
nunavut 84909
@-@ 79606
there 78899
would 76499
hon. 72277
? 67461
at 64691
was 63388
my 62863
our 61441
not 60018
- 58563
can 57585
if 57364
government 56778
or 52486
like 51574
from 50716
question 50270
members 50094
department 47139
has 47110
some 45812
what 45549
an 45243
so 44917
all 44184
do 42008
&quot; 41249
&apos;t 40929
member 40841
community 40756
by 40549
their 39652
but 39196
committee 37284
been 37261
communities 35480
when 34493
very 33350
3 32819
also 31906
people 31862
questions 31668
time 31297
about 31221
services 30794
&gt; 29867
2 29765
just 29497
were 29193
year 28558
going 28355
who 28332
one 28145
your 27926
item 27895
other 27816
those 27631
know 27102
health 26879
1 26366
these 25957
$ 25874
more 25309
them 24573
tootoo 24552
; 24487
any 24317
he 24138
act 23793
out 23729
bill 23711
how 23683
first 23441
up 23234
&apos;re 23150
peterson 23024
work 22996
because 22912
now 22502
housing 22064
program 22037
ms. 21925
get 21579
report 21183
had 20975
chairperson 20223
ends 20144
inuit 19945
4 19938
am 19637
new 19240
agreed 19155
want 19060
don 18960
house 18809
information 18639
think 18624
&apos;m 18557
iqaluit 18545
here 18539
make 18391
go 18314
which 18192
education 18178
me 18125
supplementary 17752
support 17390
his 17374
into 17185
could 17143
funding 17117
curley 16891
corporation 16661
us 16428
today 16361
being 16094
statements 16073
well 16056
review 16048
no 16014
development 15492
where 15405
ask 15378
oral 15315
capital 15243
through 15216
provide 15194
statement 14845
need 14831
bills 14825
able 14684
look 14679
inlet 14595
assembly 14376
over 14359
many 14321
public 14284
much 14220
day 14141
see 14080
million 14063
bay 14052
okalik 13964
motion 13946
whole 13925
picco 13906
under 13879
last 13677
school 13629
responsible 13628
years 13499
plan 13381
issue 13284
staff 13258
working 13239
then 13054
good 13034
social 13026
standing 12969
reading 12870
take 12702
programs 12662
say 12582
two 12565
premier 12503
sure 12331
federal 12134
before 11809
should 11808
number 11690
legislative 11622
again 11310
elliott 11294
may 11266
made 11143
back 11078
budget 10873
comments 10861
canada 10737
training 10690
6 10680
arctic 10655
ed 10650
right 10624
only 10554
applause 10534
process 10437
believe 10429
issues 10427
arvaluk 10425
yes 10275
5 10136
peter 9933
page 9933
elders 9864
forward 9765
money 9677
its 9675
why 9621
lot 9606
agree 9520
looking 9518
students 9470
kilabuk 9389
place 9378
done 9342
during 9313
ministers 9282
within 9269
rankin 9243
does 9208
opening 9160
total 9157
use 8992
project 8941
deputy 8927
second 8899
used 8877
said 8667
operations 8656
language 8547
part 8484
same 8442
response 8431
available 8335
gallery 8323
such 8292
tapardjuk 8289
way 8264
different 8243
whether 8232
table 8186
&apos;ll 8179
paul 8159
business 8144
next 8133
akesuk 8117
did 8062
dollars 8042
come 8032
move 7942
help 7940
give 7930
positions 7916
important 7906
her 7901
transportation 7901
example 7894
nunavummiut 7885
youth 7877
trying 7862
order 7834
even 7770
put 7754
policy 7749
than 7728
please 7717
opportunity 7673
finance 7666
management 7633
things 7628
board 7624
clause 7606
needs 7588
economic 7582
three 7536
ng 7535
centre 7526
tabled 7449
family 7448
something 7446
continue 7437
still 7425
long 7385
enook 7371
iqaqrialu 7363
office 7357
understand 7352
projects 7254
earlier 7123
try 7075
documents 7053
taptuna 7038
fuel 6995
thousand 6993
doing 6984
home 6964
welcome 6923
after 6916
officials 6909
further 6884
she 6858
resources 6854
agreement 6812
care 6811
maintenance 6811
written 6803
general 6789
address 6786
asked 6780
answer 6774
increase 6756
once 6736
facility 6733
honourable 6727
cost 6712
meeting 6711
system 6690
consideration 6646
estimates 6637
motions 6610
another 6548
lake 6534
service 6500
down 6459
quite 6458
each 6442
tabling 6442
orders 6438
future 6420
document 6404
concerns 6394
recognize 6354
building 6354
since 6348
provided 6281
baker 6279
ensure 6269
12 6255
high 6251
justice 6251
wish 6247
pleased 6234
legislation 6217
annual 6214
asking 6172
aware 6144
children 6138
recognition 6103
energy 6097
deal 6086
ell 6082
10 6068
aglukkaq 6030
assistance 6016
clerk 5994
re@@ 5989
stated 5987
departments 5984
rumbolt 5975
kattuk 5974
financial 5952
territory 5936
however 5936
every 5896
colleagues 5876
point 5871
visitors 5828
respond 5828
e 5824
indicated 5817
local 5816
final 5797
college 5787
plans 5785
income 5781
cambridge 5775
angnakak 5772
barnabas 5765
residents 5758
kusugak 5756
keith 5729
council 5720
person 5692
own 5679
him 5662
really 5659
given 5651
reports 5621
fiscal 5610
culture 5600
respect 5573
position 5561
third 5557
15 5557
case 5556
costs 5553
coming 5544
based 5531
mclean 5529
contract 5514
too 5500
environment 5494
amount 5493
travel 5489
find 5488
most 5480
facilities 5470
appropriation 5393
employees 5384
march 5344
13 5322
individuals 5320
committees 5316
past 5299
&amp; 5286
actually 5278
units 5277
&apos;ve 5239
nutarak 5225
having 5218
o 5209
better 5203
especially 5180
medical 5165
planning 5163
level 5150
strategy 5147
funds 5130
north 5119
thompson 5107
already 5105
across 5095
start 5084
set 5077
chair 5061
baffin 5060
wanted 5052
maybe 5022
land 5014
ugyuk 4992
south 4982
hear 4971
terms 4970
ing 4966
arreak 4963
hickes 4939
/ 4922
schools 4903
20 4870
percent 4867
area 4842
talking 4830
haven 4817
workers 4815
together 4791
region 4774
perhaps 4758
proceed 4757
inuktitut 4749
completed 4745
7 4738
getting 4713
wondering 4712
power 4684
mikkungwak 4679
hard 4677
... 4677
simailak 4665
best 4653
list 4648
11 4618
status 4592
while 4591
currently 4563
14 4557
individual 4556
access 4551
update 4508
five 4507
rise 4505
brown 4496
bring 4493
16 4493
tell 4485
matter 4477
shewchuk 4470
current 4465
s 4413
date 4396
between 4390
human 4373
speak 4372
including 4366
around 4360
end 4306
9 4295
infrastructure 4287
week 4284
let 4280
colleague 4274
kitikmeot 4274
arviat 4255
pangnirtung 4254
carried 4243
received 4243
kind 4243
saying 4236
joanasie 4236
following 4234
2010 4220
making 4219
ningark 4214
main 4204
additional 4202
anawak 4194
situation 4187
didn 4186
problems 4180
matters 4176
mike 4168
hamlet 4154
constituents 4151
mentioned 4133
mapsalak 4128
5@@ 4122
equipment 4096
keep 4095
sammurtok 4094
commissioner 4090
savikataaq 4088
progress 4086
concern 4069
providing 4063
aariak 4056
possible 4049
involved 4042
heard 4042
returns 4037
d@@ 4030
little 4028
in@@ 4027
fact 4018
kugluktuk 4016
recommendations 3983
specific 3979
special 3976
until 3974
regarding 3969
notices 3969
18 3954
fund 3944
netser 3939
havioyak 3936
construction 3920
food 3917
read 3915
meet 3912
off 3912
17 3896
change 3891
notice 3884
arms 3881
s@@ 3877
small 3874
employment 3871
organizations 3866
es 3842
george 3836
david 3835
job 3834
williams 3820
kuksuk 3814
er 3812
term 3808
young 3807
always 3800
sergeant 3790
taken 3783
both 3776
using 3776
executive 3771
hope 3757
reason 3755
session 3752
pond 3749
schell 3745
changes 3744
regard 3736
raised 3726
8 3724
approved 3711
opposed 3704
kivalliq 3682
request 3675
few 3672
course 3665
probably 3651
required 3642
2014 3630
olayuk 3625
gn 3623
direct 3619
consent 3615
summer 3613
polar 3613
clear 3609
wildlife 3598
ningeongan 3591
problem 3569
30 3557
nurses 3536
women 3529
irqittuq 3528
pay 3521
quassa 3521
bit 3512
regional 3500
&apos; 3498
although 3461
towards 3460
sitting 3451
initiatives 3447
talk 3445
affairs 3436
b@@ 3435
areas 3431
opportunities 3423
times 3419
comment 3416
un@@ 3409
prayer 3401
19 3396
yesterday 3396
receive 3395
cannot 3389
outside 3374
due 3368
2015 3366
kelvin 3338
days 3329
four 3322
2011 3318
ago 3301
exactly 3301
james 3298
got 3285
2013 3284
puqiqnak 3282
e@@ 3272
proposed 3265
april 3254
aupaluktuq 3252
full 3251
leona 3225
related 3213
taking 3208
old 3205
clarify 3195
works 3185
22 3180
yet 3178
appropriate 3162
child 3160
include 3159
amend 3151
2009 3148
study 3138
2012 3137
teachers 3133
6@@ 3131
particular 3131
cabinet 3130
ted 3127
o@@ 3111
water 3104
qaujimajatuqangit 3103
brought 3098
regards 3098
louis 3093
open 3085
languages 3085
2008 3069
present 3067
student 3059
alagalak 3059
must 3056
priority 3050
understanding 3047
ongoing 3043
c@@ 3030
favour 3026
months 3024
seems 3022
benefits 3006
d 3003
dealing 3002
dis@@ 2994
territorial 2994
names 2991
guess 2984
period 2980
line 2974
alakannuark 2973
call 2972
per 2956
northern 2951
numbers 2951
c 2943
priorities 2943
decision 2943
21 2939
included 2938
might 2938
sanikiluaq 2936
great 2935
group 2922
safety 2919
authority 2918
officers 2917
type 2917
31 2917
happy 2915
fall 2910
unanimous 2910
law 2907
various 2902
complete 2897
anything 2881
parents 2875
contracts 2875
follow 2874
sometimes 2865
action 2855
recently 2855
encourage 2853
division 2843
appreciate 2832
went 2830
develop 2825
patients 2819
build 2808
return 2806
commit 2802
english 2783
rate 2774
tax 2772
2016 2769
cases 2767
basis 2762
ation 2761
responsibility 2755
f@@ 2750
activities 2747
indicate 2746
hunter 2743
population 2742
impact 2730
correct 2727
ting 2720
official 2719
life 2717
assist 2716
without 2714
centres 2704
called 2702
letter 2700
2004 2695
territories 2693
nays 2692
gjoa 2689
allow 2688
association 2684
thing 2682
away 2681
told 2678
winter 2670
private 2667
canadian 2666
2007 2666
airport 2661
t 2660
2002 2660
summary 2658
improve 2657
doesn 2655
rates 2645
24 2643
initiative 2634
june 2632
7@@ 2632
hunters 2629
recent 2625
discussions 2620
throughout 2612
identified 2609
explain 2609
expenditures 2606
mining 2606
ways 2605
increased 2605
non 2589
monica 2585
no. 2585
smaller 2580
feel 2576
certain 2575
river 2572
protection 2570
&apos;d 2563
month 2561
design 2560
worked 2551
heritage 2548
regular 2543
note 2538
role 2528
types 2523
moving 2513
johnny 2512
en@@ 2509
2003 2509
afternoon 2506
rcmp 2503
policies 2496
regulations 2492
consider 2490
de@@ 2490
25 2489
held 2489
proud 2486
branch 2483
came 2480
october 2476
couple 2471
hansard 2469
y 2469
though 2462
families 2460
madam 2458
2006 2456
officer 2451
options 2448
m 2447
learning 2446
november 2446
air 2445
compensation 2443
started 2442
enough 2435
meetings 2434
needed 2433
inform 2432
along 2432
p@@ 2427
benefit 2425
2005 2422
traditional 2421
manitok 2419
reviewing 2419
require 2416
knowledge 2414
several 2414
k@@ 2413
tourism 2410
clarification 2404
left 2402
privacy 2395
ers 2393
eva 2392
co 2390
tagak 2384
2001 2383
bear 2380
morning 2372
witnesses 2365
requirements 2364
far 2353
qulliq 2351
comes 2350
23 2340
capacity 2340
fire 2339
sustainable 2338
suicide 2335
joe 2335
record 2333
intergovernmental 2328
mental 2328
ts 2322
prior 2322
efforts 2322
commitment 2311
else 2309
result 2301
evyagotailak 2301
become 2300
products 2297
lorne 2293
raise 2289
difficult 2287
harbour 2276
research 2276
kanayuk 2274
repulse 2273
municipalities 2271
igloolik 2268
allocated 2258
usually 2257
concerned 2254
delivery 2251
never 2248
state 2246
soon 2241
petitions 2238
according 2234
ahead 2233
contributions 2233
expect 2232
8@@ 2232
living 2225
skills 2222
whale 2221
looked 2221
&apos;brien 2217
emergency 2217
cape 2214
behalf 2212
price 2212
short 2210
2000 2209
jobs 2198
reviewed 2183
early 2179
t@@ 2176
apply 2175
major 2165
previously 2150
l@@ 2149
ottawa 2143
municipal 2140
considered 2128
team 2128
implementation 2125
levinia 2125
means 2124
n@@ 2118
items 2113
fully 2111
previous 2107
informed 2107
provides 2105
talked 2102
least 2099
less 2099
dorset 2098
certainly 2091
co@@ 2091
sorry 2089
rule 2075
homes 2073
states 2070
details 2069
later 2068
run 2067
six 2055
northwest 2043
seen 2038
treatment 2037
le@@ 2033
cove 2032
seeking 2032
section 2025
auditor 2024
prevention 2024
hospital 2024
built 2023
k 2021
caribou 2021
concerning 2018
conclude 2016
someone 2015
name 2015
took 2012
h@@ 2009
1999 2008
february 2004
idea 2003
daniel 2001
goes 2000
coral 1994
break 1993
mandate 1986
senior 1983
boarding 1981
hudson 1979
hamlets 1978
ate 1977
mine 1973
di@@ 1972
everyone 1972
seconded 1970
b 1966
court 1965
28 1960
9@@ 1959
sent 1958
passed 1954
actual 1953
approximately 1952
happen 1947
specifically 1943
escort 1941
search 1941
lack 1937
national 1933
committed 1932
met 1929
legal 1927
laughter 1926
ready 1924
noted 1923
grade 1919
challenges 1916
g 1915
witness 1913
y@@ 1912
houses 1912
ones 1910
age 1910
news 1903
says 1887
companies 1885
ly 1880
businesses 1879
results 1879
bears 1876
spring 1875
organization 1875
shooyook 1873
road 1872
rights 1871
directed 1868
developing 1865
ma@@ 1864
jack 1861
nti 1859
detail 1857
determine 1856
buildings 1854
quttiktuq 1853
share 1852
therefore 1849
administration 1849
includes 1849
hall 1848
1@@ 1848
taloyoak 1846
application 1843
almost 1840
close 1839
closely 1838
properly 1831
ating 1825
either 1825
longer 1823
26 1823
r@@ 1822
interest 1820
experience 1817
september 1815
ated 1813
successful 1811
live 1810
clyde 1810
l 1807
re 1807
world 1802
spent 1802
thought 1802
happening 1799
40 1797
apologize 1795
100 1793
hand 1793
constituency 1792
reasons 1792
won 1791
significant 1791
p 1788
floor 1786
games 1783
n 1780
contribution 1776
4@@ 1775
50 1773
chesterfield 1769
begin 1768
quality 1767
starting 1763
replies 1761
proper 1757
wonder 1755
th 1754
ro@@ 1753
cultural 1750
identify 1749
discuss 1745
potential 1744
stay 1738
space 1738
commission 1737
district 1735
h 1735
john 1729
congratulate 1729
itself 1726
levels 1720
subsidy 1718
often 1717
large 1715
19@@ 1713
everything 1711
addition 1711
paid 1710
indeed 1709
graduates 1709
recommendation 1707
indicates 1701
al 1697
nursing 1695
gasoline 1695
purchase 1693
assistant 1686
ma 1683
hunting 1683
leave 1677
agencies 1668
offices 1666
ak 1664
weeks 1664
introduce 1663
liquor 1660
mean 1659
company 1659
success 1655
worker 1654
proposal 1654
rules 1653
departmental 1644
ch@@ 1644
akoak 1644
moved 1639
ten 1638
consultation 1636
agency 1634
ar@@ 1631
established 1629
materials 1626
force 1620
existing 1614
sector 1613
approach 1612
2@@ 1609
focus 1605
recognized 1605
li@@ 1601
discussion 1601
developed 1599
assessment 1593
kugaaruk 1591
gone 1590
directly 1590
grants 1590
waiting 1586
detailed 1583
responsibilities 1576
hiring 1574
recall 1573
putting 1572
site 1567
w@@ 1566
show 1565
prepared 1564
visit 1563
g@@ 1563
alcohol 1563
country 1559
join 1559
clearly 1559
side 1558
patient 1557
er@@ 1556
standards 1555
remarks 1553
increasing 1549
society 1547
director 1546
rescue 1543
tom 1543
adequate 1541
cgs 1540
quirke 1538
friday 1536
filled 1536
jurisdictions 1535
studies 1535
hopefully 1533
hours 1527
courses 1524
referred 1522
kinds 1521
criteria 1519
ri@@ 1517
seek 1515
safe 1512
claims 1511
technical 1511
regions 1511
prices 1510
necessary 1501
ever 1500
groups 1498
announced 1496
27 1494
mla 1493
wasn 1493
proposals 1492
elected 1489
pages 1487
send 1484
president 1484
december 1482
election 1476
fellow 1475
known 1474
adjourned 1470
healthy 1466
considering 1466
city 1466
responses 1463
everybody 1462
copy 1462
ti@@ 1460
elder 1458
myself 1458
adult 1458
mo@@ 1457
tomorrow 1457
wait 1456
mind 1455
direction 1454
clients 1452
partnership 1450
aboriginal 1448
pre@@ 1445
ability 1443
free 1441
urge 1441
rent 1440
event 1437
continuing 1435
decisions 1434
front 1433
operating 1431
m@@ 1429
remember 1429
themselves 1428
i@@ 1427
control 1425
represent 1421
big 1420
decentralized 1420
improvements 1419
f 1416
others 1413
offer 1413
serious 1412
changed 1412
industry 1408
speaking 1407
acknowledge 1406
whatever 1403
authorized 1403
values 1398
con@@ 1396
seem 1395
2017 1395
against 1394
schedule 1394
867 1392
ta@@ 1392
knows 1391
strong 1390
oshutapik 1389
curriculum 1387
consultations 1386
deliver 1385
face 1383
fisheries 1379
29 1378
ter 1375
negotiations 1375
daily 1372
practices 1371
incorporated 1370
environmental 1365
half 1364
jeannie 1363
3@@ 1361
lo@@ 1360
vote 1360
petroleum 1354
correctional 1353
purpose 1352
ad@@ 1349
behind 1349
comprehensive 1349
credit 1348
employee 1348
hire 1348
found 1347
effective 1346
unit 1346
happened 1345
requested 1343
agreements 1341
60 1341
07 1341
website 1340
giving 1335
reduction 1334
importance 1333
over@@ 1332
makes 1330
attention 1330
implement 1328
interested 1327
lives 1326
partners 1326
similar 1326
funded 1325
staffing 1323
overall 1318
elections 1316
higher 1315
survey 1315
authorities 1314
turn 1313
pro@@ 1312
nni 1311
international 1309
receiving 1308
signed 1304
boards 1304
975 1304
form 1302
discussed 1298
homelessness 1298
stand 1295
hold 1295
conference 1295
representative 1293
referring 1292
reference 1290
grise 1290
eligible 1290
su@@ 1289
abuse 1288
supply 1287
upon 1286
be@@ 1285
corporate 1282
remind 1281
al@@ 1281
madame 1279
insurance 1279
homeowners 1277
pe@@ 1277
teacher 1276
fiord 1273
gas 1273
procedures 1272
ent 1271
increases 1271
audit 1269
lost 1268
draft 1268
attend 1268
goal 1267
minutes 1266
08 1261
po@@ 1260
limited 1258
trust 1257
created 1256
% 1256
requirement 1255
bringing 1255
supposed 1255
subject 1250
january 1249
west 1248
nothing 1248
weather 1245
ding 1243
amendments 1242
approval 1241
oil 1241
article 1239
fill 1239
seeing 1237
caucus 1236
son 1233
on@@ 1230
poverty 1230
create 1228
steps 1228
ds 1227
lead 1226
contractors 1225
hearing 1221
supporting 1219
operation 1217
beneficiaries 1217
personal 1215
immediately 1215
running 1215
okay 1215
lease 1215
directorate 1215
requests 1215
trades 1213
to@@ 1209
resource 1209
yellowknife 1208
vehicles 1204
10@@ 1203
09 1203
top 1200
willing 1199
ship 1199
applications 1199
followed 1198
continues 1198
representatives 1197
learn 1193
wide 1190
wants 1188
patterk 1188
looks 1186
offered 1186
transfer 1186
airlines 1185
decentralization 1184
economy 1184
near 1184
security 1184
mi@@ 1183
formula 1183
nurse 1183
delivered 1181
hired 1181
takes 1179
rest 1179
mayor 1178
write 1178
guidelines 1178
deas 1176
sh@@ 1175
instead 1174
replacement 1174
operate 1171
es@@ 1170
implemented 1170
labour 1169
seven 1168
add 1168
figure 1167
mlas 1166
reduce 1166
headquarters 1166
conditions 1165
aside 1163
practice 1163
tunngavik 1160
particularly 1160
promote 1160
resolute 1159
room 1157
dealt 1157
hockey 1157
violence 1156
expensive 1153
spoke 1151
extra 1151
an@@ 1150
si@@ 1150
addressed 1149
task 1148
radio 1147
ates 1146
wellness 1144
utility 1141
spending 1140
14@@ 1138
planned 1137
spend 1137
le 1137
rather 1136
participate 1136
manitoba 1135
ings 1134
se@@ 1134
counselling 1134
pretty 1133
beach 1133
red 1130
correspondence 1130
ensuring 1129
chief 1129
bo@@ 1128
deficit 1126
ty 1125
contracting 1125
real 1125
15@@ 1123
mis@@ 1123
monday 1121
anyone 1121
green 1121
as@@ 1120
dea 1120
requesting 1118
17@@ 1117
basically 1114
13@@ 1113
wife 1112
ne@@ 1112
vacant 1109
view 1108
27@@ 1108
former 1106
se 1106
18@@ 1105
ant 1104
rfp 1104
thursday 1103
obviously 1103
conduct 1102
06 1102
shortage 1099
ce 1096
marine 1093
crown 1092
positive 1090
gets 1089
pass 1088
assets 1086
establish 1086
appointment 1085
market 1084
self 1083
amittuq 1082
step 1081
amendment 1081
wouldn 1081
announcement 1080
qujannamiik 1077
growth 1076
ments 1075
goals 1074
key 1074
akulliq 1073
j@@ 1073
paying 1072
ac@@ 1070
upcoming 1070
glad 1068
understood 1068
1,@@ 1068
foundation 1067
qikiqtarjuaq 1066
kimmirut 1065
25@@ 1065
tununiq 1065
keyootak 1064
value 1064
renovations 1063
v@@ 1062
tion 1061
phase 1061
statistics 1061
35 1060
notes 1060
congratulations 1059
26@@ 1059
man 1058
input 1057
none 1057
foster 1056
th@@ 1053
ct 1052
finally 1052
activity 1052
ded 1051
inmates 1051
governments 1050
at@@ 1049
nattilik 1048
award 1048
requires 1047
bad 1047
recommends 1044
arena 1043
systems 1043
nanulik 1042
measures 1042
plant 1042
tried 1041
assure 1040
majority 1039
investment 1037
larger 1037
en 1035
ous 1035
nwt 1035
allowed 1035
extremely 1033
assent 1031
difference 1030
raising 1029
closing 1027
contact 1027
minute 1025
extended 1024
realize 1023
effect 1023
contractor 1023
wednesday 1022
isn 1022
amounts 1022
waste 1021
05 1020
appointed 1020
a@@ 1018
somebody 1018
southern 1017
allocation 1017
confirm 1016
ations 1016
sites 1016
growing 1013
healing 1013
20@@ 1010
shall 1009
advice 1009
ze 1008
beginning 1008
manner 1007
factors 1007
stuff 1007
ine 1006
buy 1005
express 1003
fishing 1003
media 1003
career 1001
mention 998
23@@ 996
play 994
helping 993
excellent 993
technology 992
figures 990
16@@ 990
serve 988
contents 987
addressing 987
independent 987
university 987
leader 985
hoping 985
ice 984
komoartok 984
te 983
awarded 982
fair 980
late 979
single 977
appreciation 975
testing 974
production 974
uqaqti 971
critical 969
stands 966
union 966
post 966
elaborate 965
directors 963
evaluation 962
led 960
effort 960
whereas 960
men 959
placed 959
listening 959
data 959
remain 958
winnipeg 958
leadership 957
ra@@ 956
extend 956
completion 956
per@@ 955
happens 955
or@@ 954
climate 953
am@@ 952
affected 952
ters 951
teaching 951
tuesday 950
expenses 950
check 950
qu@@ 949
jurisdiction 948
ex@@ 948
light 946
recessed 946
airline 944
sewage 944
client 944
appointments 943
option 942
approve 942
material 941
applied 941
presented 940
communication 940
z@@ 938
challenge 936
mother 934
eight 934
fish 932
45 931
location 930
24@@ 929
circumstances 928
resumed 928
provisions 927
par@@ 926
pilot 926
tobacco 924
appear 924
dollar 923
roads 921
gave 921
formal 921
shelter 921
places 920
professional 920
ment 919
undertaken 919
devolution 918
participants 917
structure 915
situations 915
sit 914
voted 914
32 913
trained 913
events 913
issued 913
history 912
proceedings 909
accounts 909
reporting 909
night 908
est 907
nutrition 907
scale 906
july 906
advise 905
stage 904
77 904
me@@ 903
keeping 902
tions 902
east 901
base 901
do@@ 901
indeterminate 900
campbell 900
uqqummiut 899
keewatin 899
wrong 899
zed 898
sort 897
operational 897
monies 897
supports 896
forms 894
gi@@ 894
payment 894
scheduled 893
announce 892
model 887
legislature 886
stop 886
writing 886
bilingual 884
relation 883
conservation 883
nancy 881
aren 881
28@@ 881
qirngnuq 881
tra@@ 880
instance 880
huge 879
season 877
true 876
corrections 876
34 875
thinking 875
he@@ 875
basic 874
references 874
brief 874
el@@ 873
integrity 872
corporations 871
suggest 871
quote 871
administrative 870
33 870
transferred 870
recruitment 869
cover 869
kimball 869
tender 864
secondary 862
ying 861
thanks 860
ga@@ 859
41 859
located 859
paper 858
municipality 858
setting 857
monitoring 856
debate 856
wishes 855
concludes 855
maintain 855
creation 853
answers 853
residential 853
undertake 852
seal 851
arts 850
amended 848
risk 847
commercial 846
nice 845
trade 844
procurement 844
quickly 843
# 842
fax 840
revenue 840
als 840
representing 839
36 839
harvest 839
submitted 839
island 838
hasn 838
homeownership 838
reflect 837
okpik 836
separate 835
cut 833
unique 832
expected 831
owned 831
competition 831
occurred 829
cancer 829
unfortunately 828
programming 827
lu@@ 826
responded 826
u@@ 825
childhood 823
.@@ 823
literacy 822
90 822
aq 821
definitely 821
gives 820
sense 819
decrease 817
prepare 817
professionals 816
possibly 815
barriault 815
became 814
town 814
70 813
facing 813
covered 811
leases 811
lower 810
zing 809
vi@@ 809
depending 809
protect 809
casual 809
source 807
daycare 807
felt 806
whenever 806
ms 805
is@@ 805
letters 804
relationship 804
ck 804
00 804
correctly 804
cally 803
release 803
allan 803
levi 800
qualified 800
awareness 800
38 800
implementing 800
continued 800
ity 799
5,000 797
ge@@ 796
field 795
provision 795
toll 794
moment 794
pi@@ 794
supported 792
68 792
ci@@ 791
sport 791
savings 790
sed 790
meat 790
alone 789
resolve 789
qec 789
mar@@ 788
personally 788
achieve 787
st 786
80 785
budgets 784
ali@@ 784
head 784
volunteers 783
attendance 783
complaints 782
finished 779
tel 777
42 777
hour 777
purposes 776
ni@@ 775
dedicated 775
consult 775
provinces 772
principle 772
donald 771
parties 770
carry 769
train 769
pys 769
actions 768
expressed 768
low 767
dog 767
&#93; 766
explanation 765
43 765
&#91; 765
resident 764
37 764
minimum 764
birthday 764
200 763
dy 762
ary 762
ance 761
occur 761
44 761
48 761
fi@@ 760
spoken 760
den@@ 758
quota 758
store 758
vision 757
campaign 757
processes 757
ks 756
riding 756
under@@ 756
leaders 755
cal 755
62 755
account 754
property 754
appearance 754
body 753
strategic 753
improvement 753
disabilities 753
it@@ 752
introduced 751
refer 751
el 751
athletes 751
jobie 750
affordable 750
portion 750
travelling 748
solutions 748
laws 748
interim 748
standard 748
closed 748
ses 747
,@@ 744
trappers 744
box 743
stakeholders 742
essential 741
gnwt 741
manager 741
334 740
collective 740
49 740
obvious 740
relatives 739
size 738
w 737
teach 736
ideas 735
posed 735
feasibility 735
sa@@ 734
cing 733
vehicle 733
min@@ 732
29@@ 732
concluded 732
04 732
secretariat 731
steve 731
broken 730
shared 730
terminal 730
entire 729
ap@@ 729
hearings 729
chance 728
pauloosie 727
payments 726
dental 725
surplus 725
anybody 724
answered 724
seriously 724
rich 723
46 723
heavy 721
listed 721
older 720
nine 720
expand 720
talks 719
inter@@ 718
85 718
words 717
ally 717
advisory 717
doctors 717
framework 716
ful 715
educational 714
j 714
877 713
replace 713
ending 712
inuk 711
rec@@ 711
piece 711
ab@@ 711
sion 710
questioning 710
graduation 710
forth 708
go@@ 707
fe@@ 707
kept 706
charge 706
mayors 706
decided 705
nunavutmiut 705
common 704
bl@@ 703
doctor 702
phone 702
parts 702
class 702
1,000 702
internal 700
active 699
accountability 698
voice 698
30@@ 697
1st 696
conducted 695
efficient 695
treated 695
seconder 694
pleasure 694
we@@ 694
airports 693
weekend 693
cause 693
entities 693
reach 692
fairly 692
easier 692
bu@@ 691
offenders 691
x0a 690
0h0 690
electoral 688
exact 688
op@@ 688
attending 688
recognizes 688
minor 688
mail 688
so@@ 687
kevin 686
counsellors 686
r 686
word 685
manage 684
middle 684
returning 684
decide 684
waive 684
500 684
ction 683
x 683
inuinnaqtun 683
sign 682
associated 682
de 682
enhance 682
councils 681
recognizing 681
accommodations 681
bi@@ 681
51 681
initial 680
tupik 679
ling 679
st@@ 678
kids 678
pre 678
discussing 677
alternative 676
ground 675
0 675
ho@@ 674
helped 674
mary 674
te@@ 673
experienced 672
ves 671
recommended 671
ce@@ 670
smoking 670
7266 669
2,000 669
file 668
75 668
tank 667
fine 666
limit 666
hunt 665
recreation 665
camps 664
french 663
analysis 663
taught 662
citizens 662
average 662
clean 662
becoming 661
core 661
track 661
gh@@ 660
grant 659
finding 658
anywhere 658
opinion 658
determined 657
recommend 657
39 657
improving 657
nhc 657
party 656
creating 655
closer 655
complex 655
49@@ 655
bathurst 654
demand 654
duties 653
affect 653
tive 653
saw 653
taxes 652
establishing 651
unilingual 651
air@@ 650
sealift 650
anticipate 650
whom 649
sources 649
exploration 649
5000 649
ons 648
choice 647
performance 647
reply 647
likely 646
advantage 646
topic 646
nature 646
park 646
shelters 646
pursuant 646
im@@ 645
appeal 645
ble 644
learned 644
hi@@ 644
petition 644
code 644
2,@@ 644
subsidies 643
friend 643
crisis 642
contribute 641
august 641
47 641
5190 641
couldn 638
reviews 638
persons 637
underway 637
appropriations 637
percentage 637
outlined 637
updates 637
immediate 637
interpreters 636
consulting 636
x@@ 636
purchased 636
societal 636
4071 636
outpost 635
1200 634
ru@@ 634
daughter 633
discretion 633
out@@ 633
homeless 633
christmas 633
utilize 632
added 631
www.assembly.nu.ca 630
ties 629
pa@@ 629
greater 629
totally 629
constructed 629
fur 628
simply 628
500,000 628
sta@@ 627
aircraft 627
craft 627
arrangements 626
monitor 626
&apos;clock 625
improved 625
range 625
completely 625
p.m 625
budgeted 624
timely 624
ministerial 623
aspects 623
lots 623
condition 623
cold 623
presentation 622
estimate 622
product 621
la@@ 620
helps 619
leasing 618
updated 618
weren 618
visiting 617
unable 617
records 617
original 616
component 616
assume 616
q 616
cted 614
initiated 614
no@@ 613
somewhere 613
ely 612
investigation 612
the@@ 611
cts 610
sports 609
jo@@ 608
qulaut 608
message 608
investments 607
employed 607
strongly 607
scott 607
applicants 607
03 607
western 606
alberta 605
impacts 605
test 605
snow 604
sho@@ 604
camp 604
repair 604
forum 603
tru@@ 602
father 602
01 602
cents 602
generally 601
ors 601
distribution 601
cting 600
consulted 599
books 599
suggestions 598
associations 598
intent 597
tional 597
02 597
hands 596
lin@@ 596
delivering 596
capable 596
managers 596
submit 596
financing 595
repairs 595
nanisivik 595
&apos;na 595
il@@ 594
ar 594
constituent 594
allowances 594
participation 594
solid 594
rider 594
ence 593
55 593
provincial 593
ang@@ 593
enforcement 593
acts 593
oversight 592
ourselves 591
beyond 591
annually 591
relevant 591
ph@@ 591
delay 591
allows 591
pension 591
harvesters 591
greenland 590
changing 590
prime 589
art 589
communications 589
os@@ 587
utilized 587
65 587
possibility 587
trip 586
op 586
adopted 585
onto 585
sell 585
strengthen 585
enter 583
natural 583
pride 583
fred 583
blais 583
expectations 582
difficulties 582
visited 581
designed 581
volunteer 581
acting 578
loss 578
accommodate 578
expecting 578
seniors 578
awards 578
immigration 578
crime 577
teams 577
statutes 575
objectives 575
highest 575
friends 574
firm 574
qikiqtani 574
52 574
chamber 573
establishment 573
consistent 573
vik 572
cor@@ 572
ces 572
hundred 572
loan 571
appeals 571
watching 570
depends 570
3,000 570
m.l.a. 569
compliance 569
fans 569
ver@@ 568
faced 568
attended 568
breakdown 567
accurate 567
innirvik 567
ps 565
heating 565
released 565
beneficial 564
shows 563
shipping 563
opened 562
publicly 561
incident 561
300 560
ator 560
victims 560
workshop 560
deals 559
describe 559
carefully 559
preparing 558
solution 558
up@@ 557
com@@ 557
for@@ 557
becomes 557
confident 556
advised 556
tanks 556
valuable 555
obligations 555
bodies 555
rebate 555
46@@ 555
balance 554
54 554
der 554
younger 554
numerous 554
100,000 554
addictions 554
intervention 553
47@@ 553
du@@ 552
ter@@ 551
outstanding 551
renovation 551
parks 551
conflict 550
originally 550
supplies 550
ban 550
cooper 549
exercise 549
finish 548
physical 548
mines 548
harvesting 547
lose 547
joint 547
bridge 547
0,000 547
tu@@ 546
instruction 546
reminder 546
counterparts 545
book 544
ak@@ 543
revised 543
tribute 543
remains 543
normally 542
ontario 542
53 542
che@@ 542
participating 541
interesting 541
functions 540
tremendous 539
drug 539
susan 538
visits 538
sions 537
unless 536
sive 536
repeat 536
animals 535
lines 535
portfolio 535
workplace 535
disabled 535
res@@ 534
urgent 534
pl@@ 534
produce 534
ron 534
ok 533
afford 533
qikiqtaaluk 532
expenditure 532
points 531
zes 530
car@@ 530
zone 529
sufficient 529
principles 529
ck@@ 528
cooperation 528
pointed 528
stating 527
participated 527
sole 527
yo@@ 526
mon@@ 526
les 526
invited 525
appears 525
htos 525
3,@@ 525
crafts 524
oo@@ 524
tri@@ 524
recipients 524
ed@@ 523
congratulating 523
save 523
au@@ 522
holding 522
served 521
invite 521
ju@@ 520
graduate 520
permanent 519
ders 519
67 519
construct 519
registered 519
easy 518
relations 518
entered 518
stages 517
absolutely 517
3.@@ 516
passage 516
reported 516
gu@@ 516
obtain 516
bank 516
occasions 516
promotion 515
ced 515
pursue 514
candidates 514
sing 514
pen@@ 514
simple 514
responding 513
passing 513
encourages 512
promoting 511
char@@ 511
59 511
necessarily 511
principal 511
99 509
ships 509
storage 509
certificate 509
ton 508
q@@ 508
recreational 508
harbours 508
niaqunnguu 508
presently 507
workshops 506
pu@@ 506
advance 506
species 506
love 505
ou@@ 504
encouraging 504
king 504
interpreter 504
story 504
roles 503
category 503
drop 503
reality 502
cs 502
rental 502
hto 502
relates 501
accounting 501
facilitate 501
station 500
formally 500
maximum 500
je@@ 499
dedication 499
fees 499
port 499
ten@@ 498
pat 498
computer 498
transport 497
ess 497
58 497
yukon 496
sie 496
beneficiary 496
56 496
interests 495
examples 495
mobile 494
zation 492
incorporate 492
indication 492
eventually 491
adults 491
guide 490
mer@@ 490
quebec 490
assisting 489
negative 489
sound 489
lik 489
tr@@ 489
parent 488
3rd 488
sharing 487
partner 487
collection 487
dangerous 487
akeeagok 487
communicate 487
ry 486
methods 486
institutions 485
boat 485
33@@ 485
advocate 485
ste@@ 484
procedure 484
4,000 484
uni@@ 483
strategies 483
calls 483
resolved 483
listen 482
ked 482
coverage 482
wage 482
foods 482
sp@@ 482
sub@@ 482
honour 481
comp@@ 481
imagine 481
temporary 480
ul@@ 480
relating 480
35@@ 480
above 479
ren@@ 479
privilege 478
cley 478
revenues 478
extension 478
function 478
classroom 478
among 477
sea 477
anniversary 476
fied 476
anymore 476
ve 475
selected 475
fy 475
uses 475
ch 475
man@@ 474
7,000 474
ming 473
internet 473
cks 473
inspections 473
applying 473
grateful 472
ited 472
evaluate 472
undertaking 471
extent 471
assisted 471
66 471
damage 471
allowance 471
alexander 471
ches 470
revolving 470
shortly 469
des@@ 469
collaboration 469
glenn 468
factor 468
occasion 467
57 467
timeline 467
simanek 467
involve 466
workforce 466
applies 466
ol@@ 465
enable 464
negotiating 464
contracted 464
academic 464
multi 464
ki@@ 463
canadians 463
michael 463
mark 463
finalized 463
negotiate 463
wherever 463
tools 462
leading 462
37@@ 461
electronic 461
perspective 460
goods 460
impacted 460
ut@@ 460
95 460
38@@ 460
twenty 459
largest 459
round 459
coalition 459
montreal 458
lagoon 458
stories 458
pping 458
katimajiit 458
knew 457
tour 457
wor@@ 456
electrical 456
retention 456
contained 456
dates 456
ag@@ 456
spe@@ 456
escorts 456
churchill 455
serving 455
prevent 455
coordinator 455
qualify 455
version 455
9,000 455
identifying 454
61 454
insured 454
commitments 453
celebrate 452
personnel 452
ently 452
arrangement 451
4,@@ 451
dust 451
target 451
ut 450
geared 450
tournament 450
lands 449
accept 449
produced 449
ving 449
scope 449
8,000 449
ovide 448
grow 448
73 448
purchasing 448
missing 448
apprenticeship 448
tation 447
atta@@ 447
64 447
gravel 447
licence 447
truly 446
ages 446
5.@@ 446
40@@ 446
assessments 446
copies 445
bid 445
picture 445
cul@@ 445
men@@ 444
allocate 444
sending 444
continually 444
diesel 444
debatable 444
ley 444
aging 444
ined 443
consultants 443
consumer 442
parliament 441
replaced 441
34@@ 441
clothing 441
door 441
claim 440
wing 440
resi@@ 440
ir@@ 440
lobby 439
regulatory 439
outline 439
,000 439
enoki 438
um 438
statutory 438
caused 438
telling 438
accordance 438
completing 438
administered 438
barriers 438
united 437
transition 437
ars 437
noticed 437
ching 437
partnerships 436
focused 436
wishing 436
fast 435
involvement 434
probation 434
occurring 434
dr@@ 434
oceans 433
qualifications 433
sur@@ 433
orientation 433
certified 433
reached 432
translated 432
debt 432
sick 432
degree 432
certification 432
gold 432
uriash 431
computers 431
v 431
ajauqtiit 430
fourth 430
delayed 430
av@@ 430
48@@ 430
represents 429
flo@@ 429
sti@@ 429
kunuk 428
mortgage 428
ad 428
inventory 427
69 427
born 426
mainly 426
quick 426
anticipated 426
primarily 426
45@@ 426
duty 425
salary 425
delays 424
150 424
graduating 424
global 424
brings 423
acceptable 423
ness 423
library 423
boundaries 422
sto@@ 422
worth 422
isaac 422
her@@ 421
enjoy 421
des 421
wonderful 421
expectation 420
bri@@ 420
fix 420
2nd 420
freight 420
graduated 420
retiring 420
electricity 420
rephrase 419
allowing 419
length 419
reducing 419
experiencing 418
translation 418
filling 418
expansion 418
central 417
wind 417
fo@@ 417
250 417
upgrade 417
useful 417
elsewhere 416
tes 416
ta 415
ative 415
payroll 415
tur@@ 414
objective 414
ctions 414
medi@@ 414
alik 413
reali@@ 413
dated 413
expertise 413
monthly 413
game 413
cr@@ 413
ama@@ 412
uk 412
pos@@ 412
vacancies 412
drugs 412
substantiation 412
depend 411
fication 411
missed 411
findings 411
91 411
meaning 411
suggested 411
apparently 411
plane 411
telehealth 411
whose 410
med 410
lhos 410
flight 409
encouraged 409
cur@@ 409
operators 409
shouldn 409
furthermore 409
bus 409
san@@ 409
mrazek 409
6,000 409
gratitude 409
indian 408
98 408
receives 408
aspect 408
plus 408
suvega 408
tony 408
challenging 407
ans 407
72 407
specialized 407
stabilization 407
intended 406
tenants 406
introduction 405
exist 405
ow@@ 405
tend 405
driver 405
simeon 405
ca 404
har@@ 404
generation 404
vardy 404
hr 404
stores 403
ered 403
cbc 403
boats 403
accountable 402
ownership 402
determining 402
stress 402
keenainak 402
bigger 402
ceremony 401
choose 401
ber@@ 401
iq 401
por@@ 401
police 401
feedback 400
distributed 400
accepted 400
87 400
36@@ 400
upgrades 400
ining 400
waters 400
evening 399
projected 399
preliminary 399
forced 399
eia 399
explained 399
meant 398
sale 398
specialist 398
handle 398
charged 398
arrive 398
efficiency 397
collected 397
ku@@ 397
practi@@ 397
commend 397
pieces 396
allocations 396
400 396
whatnot 396
tly 395
represented 395
signing 395
awa 395
preparation 395
96 395
wrote 394
forget 394
folks 394
tunnuniq 393
amongst 393
ering 393
initiate 393
overcrowding 393
thoughts 393
nations 392
rely 392
mr 392
ose 392
et 392
definition 392
edmonton 392
remaining 391
ctive 391
leaving 391
busy 391
p.m. 391
recorded 391
moses 391
stephen 391
otherwise 390
science 390
surveys 390
striking 389
ev@@ 389
ili@@ 389
commence 389
secure 389
turned 388
heart 388
gra@@ 388
effectively 388
lho 388
manual 388
netsilik 388
ched 387
nor 387
confidence 386
powers 386
collect 386
careful 386
aid 386
sessions 386
loans 386
ari@@ 385
.... 385
catch 385
ve@@ 385
fore@@ 384
tan@@ 384
tasiluk 384
concurred 383
proposing 383
licensing 383
63 383
resolution 383
negotiated 382
lived 382
models 382
directing 382
fixed 382
permits 382
film 382
wi@@ 381
familiar 381
experiences 381
submissions 381
adjournment 380
bottom 380
staying 380
eat 380
evident 380
staffed 379
absent 379
availability 379
transparent 379
os 379
press 378
0@@ 378
explore 378
lobbying 378
50,000 378
ke 377
fit 377
mp 376
exciting 376
equal 376
ended 376
74 376
vo@@ 376
71 376
84 376
primary 375
caught 375
ators 374
conducting 374
4.@@ 374
classrooms 374
actively 374
courts 374
gain 374
inspection 374
suggestion 374
ing@@ 373
owners 373
97 373
licensed 373
83 372
ances 372
sealskins 372
categories 372
treat 372
maintaining 371
guys 371
86 371
confused 371
bullying 371
educators 370
app@@ 370
consultant 370
tamapta 370
briefly 369
doubt 369
consumers 369
showing 369
swimming 369
ur@@ 368
sales 368
rafter 368
kindergarten 368
arrived 367
effects 367
relocation 367
ii 367
ntep 367
5,@@ 367
causes 366
sealing 366
! 366
cheaper 366
pool 366
39@@ 366
002 366
adoption 365
estimated 365
mineral 365
diploma 365
analy@@ 365
ved 364
recruiting 364
satisfied 364
92 364
speaks 364
bulk 364
simon 363
choices 363
accordingly 363
alleviate 363
substantial 363
outfitters 363
political 362
began 362
guidance 362
artists 362
unfortunate 362
illness 362
93 362
daycares 362
background 361
89 361
pressure 361
vital 361
licences 361
* 361
entitled 360
alluded 360
ys 360
anti 360
campus 360
marshal 360
successfully 359
removed 359
comfortable 359
pick 359
tags 359
speech 358
compared 358
transparency 358
traditions 358
sister 358
organizational 358
ll@@ 358
ap 358
achieving 357
ged 357
reliance 357
assess 357
indicating 357
license 357
toward 357
ill@@ 357
1.@@ 356
governance 356
biggest 356
advertised 356
78 356
classes 356
motor 356
documentation 355
locally 355
def@@ 355
expired 355
hotel 355
hed 353
protocol 353
ges 353
120 353
briefing 352
reduced 352
regularly 352
allotted 351
resulted 351
significantly 351
supportive 351
terminology 351
watch 350
ge 350
sections 350
200,000 350
innuksuk 349
na 348
agenda 348
homeowner 348
truck 348
88 348
european 348
views 348
bonus 348
cen@@ 347
network 347
appreciated 347
tenant 347
turbot 347
plebiscite 347
panel 347
grandchildren 346
supplement 346
clearer 346
fishery 346
pinksen 346
trans@@ 345
extensive 345
bur@@ 345
flow 345
principals 345
wondered 345
tool 345
trucks 345
dogs 345
symposium 345
modern 344
pose 344
specialists 344
greatly 344
lifestyle 344
developments 344
recruit 344
components 344
chosen 343
instructors 343
ka@@ 343
hospitals 343
paragraph 343
speed 343
midwifery 343
productive 342
knowing 342
back@@ 342
stri@@ 342
ratio 342
usual 342
res 341
deferred 341
bought 341
normal 341
audits 341
spirit 340
starts 340
allen 340
surrounding 340
package 340
lets 340
profit 340
deadline 340
sets 339
interpre@@ 339
usage 339
tests 339
respecting 338
6.@@ 338
reasonable 338
p3 338
via 338
ise 338
utilities 337
twice 337
accommodation 337
artefacts 337
hydro 337
termin@@ 337
revert 337
accessible 336
mistake 336
sealskin 336
commen@@ 336
76 336
candidate 336
eligibility 335
grades 335
decl@@ 334
province 334
premiers 334
strengthening 334
voting 334
understandable 334
walk 334
82 334
requiring 334
fmb 334
complaint 334
helpful 333
affects 333
proactive 333
carryover 333
jet 333
diamond 333
beautiful 332
ously 332
feels 332
shown 332
boo@@ 332
plex 332
fly 332
hine 332
001 332
loc@@ 331
appeared 331
entity 331
imp@@ 331
der@@ 331
ke@@ 331
calling 330
anne 330
death 330
woman 330
dump 330
clarifying 330
too@@ 330
ran@@ 330
empowerment 329
dly 329
designs 329
stations 329
achieved 328
answering 328
administer 328
liability 328
civil 328
intention 328
locations 328
female 328
regardless 328
peace 327
disease 327
devices 327
selection 326
variety 326
prefer 326
coast 326
depen@@ 326
populations 326
dialogue 325
lies 325
coun@@ 325
sectors 325
sold 325
submission 325
sc@@ 325
,8@@ 325
81 325
impossible 325
nwmb 325
resolutions 324
ah 324
welcoming 324
playing 324
fil@@ 324
inten@@ 324
bar@@ 324
buying 324
teen 323
brother 323
tourists 323
laid 322
enti@@ 322
ws 322
representation 322
inadequate 322
identification 322
inf@@ 322
difficulty 322
household 322
birth 321
inherited 321
bro@@ 321
criminal 321
male 321
lawyers 321
incidents 321
recognise 321
incentive 320
79 320
ll 320
wise 320
method 320
guard 320
runway 320
vice 320
dra@@ 319
ruling 319
airstrip 319
church 319
coordinate 319
differences 318
managing 318
comply 318
protected 318
ven@@ 317
94 317
cargo 317
firefighters 317
confusion 316
managed 316
docking 316
achievement 315
integrated 315
highlight 315
apologies 315
selling 315
block 315
countries 315
medal 315
ery 314
ordin@@ 314
relief 314
tic 314
calendar 314
toronto 314
ppd 314
online 314
reflects 313
named 313
cl@@ 313
heat 313
nobody 313
himself 313
follows 313
context 313
liaison 313
sensitive 312
celebrating 312
closure 312
except 312
mb@@ 312
ko@@ 312
attempt 312
tie 312
arrears 312
&apos;arcy 312
orr 312
&apos;@@ 311
organized 311
2018 311
invest 310
salaries 310
conjunction 310
cho@@ 310
ris@@ 309
mission 309
proceeding 309
cycle 309
regulation 309
inu@@ 308
introducing 308
ai@@ 308
ents 308
grand@@ 308
fac@@ 308
shi@@ 308
appendix 308
spaces 308
rooms 308
rebekah 308
aivilik 308
measure 307
title 307
ati@@ 307
wording 307
seemed 307
involving 307
1.5 307
cy 307
,9@@ 307
push 307
additionally 306
ins 306
clarified 306
falls 306
condolences 306
wat@@ 306
stronger 305
reiterate 305
contingency 305
asist 305
divisional 304
clarity 304
slow 304
focusing 304
can@@ 304
uranium 304
ths 303
processing 303
commenced 303
smoke 303
ne 302
bel@@ 302
assistants 302
pri@@ 302
defer 302
offering 302
snowmobiles 302
residence 302
renovate 302
replacing 302
tribunal 302
aggu 302
counsel 301
cmhc 301
cra@@ 301
clock 301
substance 301
bs 301
perform 300
gg@@ 300
prospe@@ 300
lling 300
beer 300
bal@@ 300
ver 300
equally 299
ard 299
,7@@ 299
adequately 299
screening 299
rising 299
generations 298
relationships 298
cash 298
expended 298
elementary 298
see@@ 298
providers 298
memory 298
sovereignty 298
returned 297
plays 297
poor 297
formed 297
10,000 297
distance 297
tenders 297
fee 297
players 297
edward 296
incorporating 296
hopeful 296
ran 296
miss 296
attra@@ 296
finances 296
below 296
aluk 296
institute 296
route 296
mc@@ 296
doors 296
consensus 295
despite 295
played 295
ordered 295
disaster 295
003 295
cour@@ 294
operated 294
iling 294
assuming 294
description 294
beds 294
marketing 294
miscellaneous 294
na@@ 293
nor@@ 293
flights 293
mechanism 293
exists 293
drafting 293
dro@@ 293
appoint 292
cri@@ 292
eli@@ 292
ens 292
cent 292
tangible 292
practical 292
accomplishments 292
,6@@ 292
sinaa 292
chandler 291
007 291
voters 291
urrc 291
examine 290
ther@@ 290
adjustments 290
furniture 290
travelled 289
broad 289
culturally 289
tracking 289
war@@ 288
survive 288
sheet 288
millions 288
tv 288
da 288
4th 288
005 288
coordination 288
losing 287
telephone 287
approached 287
piqqusilirivvik 287
television 286
vers 286
mostly 286
touch 286
animal 286
federation 285
roughly 285
ca@@ 285
gun 285
dry 285
sign@@ 285
casuals 285
counsellor 285
physicians 285
006 285
inac 285
und@@ 284
advocacy 284
af@@ 284
handled 284
800 284
assi@@ 284
004 284
concept 283
meets 283
designated 283
col@@ 283
ants 283
hur@@ 283
renewable 283
mari@@ 282
apik 282
saving 282
innovative 282
retail 282
consumption 282
anyway 282
purchases 282
summit 282
apprentices 282
naujaat 282
wine 282
pr@@ 281
constituencies 281
wal@@ 281
respected 281
fin@@ 281
audited 281
inside 281
satellite 281
engaged 281
demo@@ 280
expanded 280
hing 280
occurs 280
policing 280
drinking 280
emphasis 280
uq 280
don@@ 280
20,000 280
institution 279
u 279
rehabilitation 279
,5@@ 279
den 279
ture 279
subsection 279
volume 278
engagement 278
budgeting 278
mp@@ 278
appearing 278
ram@@ 278
lawyer 278
timeframe 278
tal 278
us@@ 278
realized 277
.5 277
external 277
realistic 277
eye 277
aring 277
yer 277
promise 276
begun 276
ig@@ 276
offset 276
expanding 276
300,000 276
arn@@ 276
ills 276
succeed 275
mid 275
spot 275
ess@@ 275
filed 275
bas@@ 275
cked 275
database 275
sustainability 275
bullet 275
passport 275
taiguusiliuqtiit 275
mover 274
husband 274
700 274
published 274
lunch 274
approving 274
coroner 274
ish@@ 274
upgrading 274
140 274
bed 274
honoured 273
tradition 273
mothers 273
functional 273
causing 273
involves 273
charter 273
harvested 273
carryovers 273
stor@@ 272
forgot 272
adding 272
br@@ 272
determination 271
permission 271
net 271
advertising 271
circumpolar 271
competitions 271
arenas 271
considerable 270
warm 270
retain 270
visitor 270
11@@ 270
ist 270
offers 270
constantly 270
effectiveness 270
internally 270
owner 270
physician 270
50@@ 270
carvers 269
whoever 269
constructing 269
loo@@ 269
stock 269
disclosure 269
presence 268
constitu@@ 268
fulfill 268
hu@@ 268
pp@@ 268
inclusive 268
gathering 267
fa@@ 267
thi@@ 267
understands 267
historical 267
prof@@ 267
cloutier 267
conclusion 267
abstentions 267
yourself 267
7.@@ 267
mor@@ 267
inc@@ 267
coaches 267
retailers 267
draw 266
vari@@ 266
ero@@ 266
servants 266
diseases 266
veri@@ 266
periods 266
carving 266
announcements 266
mould 266
abilities 265
ton@@ 265
ill 265
sk@@ 265
ff 265
ought 265
soccer 265
secret 265
cards 264
tax@@ 264
recovery 264
calcul@@ 264
acquire 264
nonetheless 264
applicant 264
race 264
008 264
voth 264
quotas 263
rose 263
carrying 263
permit 263
paperwork 263
defence 263
renovated 263
preamble 263
25,000 263
fying 262
card 262
suitable 262
breakfast 262
ina 261
demands 261
careers 261
relate 261
plants 261
approaches 261
billion 261
att@@ 261
joamie 261
annie 261
newly 260
utilizing 260
pat@@ 260
keeps 260
accessing 260
directive 260
cg 260
posing 259
flexibility 259
instances 259
assessed 259
registration 259
tou@@ 259
moratorium 259
feeling 258
outcome 258
aged 258
facts 258
disappointed 258
dissolution 258
contributed 258
shipped 258
investigate 258
ass@@ 258
deliberations 257
stone 257
pursuing 257
spread 257
grounds 257
certificates 257
serves 256
survival 256
ased 256
home@@ 256
py 256
compe@@ 256
removal 256
qulliit 256
rin@@ 255
remote 255
white 255
arise 255
decreased 255
skilled 255
tors 255
thro@@ 254
tested 254
ja@@ 254
series 254
remove 254
domestic 254
celebration 253
enter@@ 253
land@@ 253
settlement 253
allocating 253
pressures 253
desire 253
resupply 253
compli@@ 253
garbage 253
versus 253
sivumut 253
ght 252
dialect 252
matic 252
apex 252
earliest 252
judge 252
ceo 252
logi@@ 252
mid@@ 252
yed 252
nbcc 252
strength 251
xi@@ 251
bul@@ 251
turnover 251
reasoning 251
junior 251
deep 250
atory 250
transfers 250
operatives 250
employers 250
sounds 250
alternatives 250
updating 250
profession 250
sum@@ 249
leads 249
nearly 249
educate 249
1998 249
respective 249
ima@@ 249
directives 249
ban@@ 249
ec@@ 249
cre@@ 248
evaluating 248
latest 248
ferris 248
charges 248
listing 248
aw@@ 247
memorandum 247
lar@@ 247
wn 247
renewal 247
competitive 247
content 247
sam@@ 247
lists 247
conta@@ 247
tuktu 247
009 247
fashion 246
alex 246
worried 246
turning 246
itsivautaq 246
customers 246
evidence 246
reflected 245
welcomed 245
ats 245
deserve 245
mou 245
capita 245
standardized 245
new@@ 244
telecommunications 244
ulu@@ 244
awarding 244
harder 244
hardship 244
boardroom 244
mat@@ 243
accomplished 243
2.@@ 243
skins 243
collecting 243
ray 243
protecting 243
projections 243
fundraising 243
str@@ 242
149 242
chambers 242
nav 242
allowable 242
flu 242
glo 242
path 241
ath 241
fundamental 241
thankful 241
firearms 241
arti@@ 241
confidential 241
subsidi@@ 241
denied 241
interviews 241
commerce 241
fortunate 240
cian 240
initially 240
codes 240
avenues 240
experts 240
la 240
exemp@@ 240
atures 239
lighting 239
atively 239
accessed 239
snowmobile 239
sts 239
targeted 239
multi@@ 239
ot 239
relative 239
han@@ 239
hospitality 239
wh@@ 238
gro@@ 238
assigned 238
all@@ 238
lights 238
complicated 238
accreditation 238
count 237
gue 237
attract 237
saturday 237
alternate 237
handling 237
sexual 237
publi@@ 237
math 237
ell@@ 236
seat 236
etc 236
timing 236
touched 236
tele@@ 236
financially 236
uti@@ 236
shortfall 236
blueprint 236
girls 236
outcomes 236
exhi@@ 236
011 236
frontline 236
nunavik 235
retreat 235
newfoundland 235
interview 235
binder 235
cro@@ 235
educator 235
measu@@ 235
assured 234
worry 234
senate 234
-@@ 233
corrected 233
slightly 233
warehouse 233
yak 233
ring 233
0s 233
ark 233
nam@@ 232
incurred 232
translators 232
reco@@ 232
artificial 232
severe 232
somewhat 232
win@@ 232
seals 232
generator 232
supervisor 232
structures 231
targets 231
died 231
intend 231
titles 231
attached 231
deli@@ 231
warming 231
110 231
lap@@ 231
ily 231
wearing 230
geo@@ 230
exploring 230
dence 230
ultimately 230
8.@@ 230
win 230
covers 230
machines 230
asset 230
stand@@ 230
advisor 230
quarterly 230
square 230
suicides 230
canc@@ 230
exchange 230
mentally 230
010 230
tory 229
deemed 229
avoid 229
pricing 229
116 229
leased 229
samples 229
ably 229
preventative 229
surve@@ 229
limits 229
tb 229
ach@@ 229
wa@@ 229
teri@@ 228
demonstrate 228
ur 228
aviation 228
mechanisms 228
outlines 228
photographs 228
contacted 228
credits 228
interdepartmental 228
renewed 228
ey 227
raises 227
creates 227
debts 227
welfare 227
pertaining 227
notified 227
pushing 227
engineering 227
quali@@ 226
aud@@ 226
overview 226
.00 226
easily 226
lou@@ 226
nu@@ 226
master 226
stuck 226
contributing 226
emergencies 226
tour@@ 226
video 226
low@@ 226
kolot 226
membership 225
inuksuk 225
wear 225
ads 225
600 225
maximize 225
advanced 225
gre@@ 225
runs 225
stu@@ 225
kie 225
accomplish 224
tuq 224
mil@@ 224
2.5 224
gr@@ 224
contains 224
fight 224
work@@ 224
host 224
invitation 223
highway 223
sometime 223
tered 223
illnesses 223
ine@@ 223
cross 223
maintained 223
brand 223
authorization 223
danger 223
overtime 223
coordinated 223
gen@@ 222
begins 222
applaud 222
bureau 222
shell 222
reaching 221
hotels 221
there@@ 221
supp@@ 221
concrete 221
urs 221
ake 221
dfo 221
passengers 221
ward 221
negotiation 220
baby 220
bb@@ 220
equity 220
generate 220
fl@@ 220
107 220
ik 220
12@@ 220
kilo@@ 220
cap 220
suffering 220
recycling 220
hear@@ 219
dialects 219
enrolled 219
tonight 219
tering 219
vessel 219
ele@@ 218
thousands 218
presenting 218
ie 218
frame 218
ordinary 218
tendering 218
finalize 218
museum 218
ops 218
contaminated 218
scientific 218
ascertain 218
lan@@ 218
residency 218
sheets 218
faces 217
skill 217
ceremonies 217
prin@@ 217
wed 217
street 217
shortages 217
excellence 217
rep@@ 217
producing 217
iled 217
teiman 217
bonuses 217
baffinland 217
é@@ 216
metal 216
forgotten 216
bargaining 216
artifacts 216
ata@@ 216
timelines 216
checked 216
diabetes 216
mur@@ 216
entirely 216
quit 216
yuk 216
harper 216
stra@@ 216
bra@@ 216
020 216
abluqta 216
ately 215
sen@@ 215
lled 215
promised 215
incarcerated 215
automatically 215
dropped 215
descriptions 215
custody 215
drafted 215
cas@@ 215
habitat 215
ori@@ 214
oc@@ 214
instru@@ 214
9.@@ 214
tor 214
obligation 214
divisions 214
tin@@ 214
ile 214
urges 214
rectify 214
repe@@ 214
fun 214
lottery 214
cal@@ 214
abide 213
outlining 213
hello 213
gym 213
subsidized 213
believes 213
advan@@ 213
breaking 213
pays 213
joined 213
gar@@ 213
pas@@ 213
reimbur@@ 213
cans 213
files 213
expressing 212
tw@@ 212
identity 212
topics 212
gather 212
extreme 212
load 212
mistakes 212
thanking 212
utilidor 212
double 212
nanuq 212
freezers 212
link 211
kilowatt 211
soapstone 211
parliamentary 210
flying 210
holds 210
meaningful 210
meantime 210
described 210
movement 210
channel 210
101 210
moun@@ 210
cheque 210
pres@@ 210
photo 210
juk 209
ay 209
truth 209
emphasize 209
deduc@@ 209
machine 209
sted 209
combined 209
cap@@ 209
dou@@ 209
stan@@ 209
customer 209
addiction 209
cruise 209
visi@@ 208
performed 208
drive 208
whereby 208
wanting 208
loved 208
breakwater 208
vacancy 208
puts 208
employer 208
ikuma 208
scrutiny 207
sat 207
au 207
housed 207
tari@@ 207
inspectors 207
granular 207
expert 207
ened 207
fer@@ 207
cru@@ 207
nutritious 207
married 207
013 207
enjoyed 206
implications 206
tary 206
forecast 206
preserve 206
firstly 206
physically 206
misunderstood 206
disposal 206
em@@ 206
banks 206
22@@ 206
ee 206
disability 206
technologies 205
luck 205
dependent 205
bil@@ 205
quorum 205
acquisition 205
hurt 205
feet 205
102 205
royal 205
125 205
126 205
tuberculosis 205
manufac@@ 205
wards 205
scholarship 205
ticket 205
design@@ 204
guided 204
commons 204
greatest 204
tting 204
connected 204
prize 204
ear@@ 204
chart 204
multiple 204
cancelled 204
scientists 204
dele@@ 204
drivers 204
sou@@ 203
alive 203
stopped 203
ambulance 203
rationale 203
ging 203
ethics 203
600,000 203
manirajak 203
012 203
014 203
adjourn 202
educated 202
readily 202
lyall 202
solve 202
evaluated 202
comple@@ 202
showed 202
sudden 202
enhanced 202
tual 202
250,000 202
reflections 202
guarantee 202
rangers 202
outreach 202
015 202
016 202
diversi@@ 201
differently 201
viable 201
thy 201
friendly 201
stick 201
subsequently 201
garage 201
firms 201
entering 201
ning 201
suffer 201
enacted 201
uqausinginnik 201
ye@@ 200
sil@@ 200
addresses 200
stream 200
cir@@ 200
15,000 200
skin 200
titled 200
damaged 200
ology 200
sandy 200
internship 200
ours 199
everywhere 199
zero 199
ency 199
specifics 199
tal@@ 199
considerations 199
em 199
elderly 199
referral 199
2020 199
deliber@@ 199
narwhal 199
beside 198
resume 198
tak 198
contro@@ 198
papers 198
ntcl 198
plu@@ 198
furn@@ 198
tickets 198
embrace 198
expense 198
spouse 198
exams 198
vulnerable 198
fpt 198
dawe 198
rememb@@ 197
ite 197
continu@@ 197
lowest 197
gap 197
lying 197
shot 197
dents 197
chris 197
mu@@ 197
vancouver 197
achievements 196
stable 196
tun@@ 196
pan 196
earn@@ 196
compete 196
jud@@ 196
defined 196
160 196
agrees 196
dr. 196
economi@@ 196
childcare 196
software 196
winmill 196
akitsiraq 196
ner 195
mous 195
oh 195
overcrowded 195
asing 195
400,000 195
facilita@@ 195
carvings 195
bly 195
enrolment 195
st. 195
markets 195
subsequent 195
acy 195
broadcast 195
60,000 195
earned 195
farms 195
music 195
occupational 195
bags 195
plexes 195
exam 195
glos 195
journey 194
thirty 194
ani@@ 194
faster 194
afterwards 194
affecting 194
enhancing 194
adap@@ 194
surprised 194
sides 194
019 194
od@@ 193
burden 193
seated 193
incentives 193
operates 193
prioritize 193
int 193
observations 193
consequences 193
aries 193
entreprene@@ 193
spill 193
confusing 193
conver@@ 193
175 193
adjustment 193
tte 193
newspaper 193
signs 193
installation 193
tains 193
negotiator 193
greetings 193
nomin@@ 192
urging 192
reform 192
counterpart 192
holiday 192
futures 192
smoothly 192
buses 192
officially 192
tough 192
trips 192
phones 192
deficiencies 192
thorough 192
inter 192
largely 192
accep@@ 192
enfor@@ 192
luk 192
behaviour 192
150,000 192
018 192
wastewater 192
lausman 192
graphy 191
long@@ 191
cking 191
empty 191
expects 191
consistency 191
andrew 191
tent 191
acknowledged 191
dding 191
integration 191
dock 191
inspected 191
governors 191
argu@@ 191
tied 191
hosted 191
tar@@ 191
confirmed 191
appropriated 191
engage 191
sex 191
email 191
heading 190
routes 190
format 190
tude 190
litres 190
nunatsiaq 190
overnight 190
sity 190
tor@@ 190
schooling 190
fifth 190
delegates 190
engines 190
was@@ 190
potentially 190
ature 190
marks 190
expir@@ 190
irniq 189
schedules 189
mer 189
1.2 189
fir@@ 189
wcb 189
conferences 189
prec@@ 189
excited 189
135 189
mandatory 189
off@@ 189
boys 189
generators 189
qam@@ 188
tage 188
hosting 188
lengthy 188
rang@@ 188
shar@@ 188
relocated 188
forecas@@ 188
oni@@ 188
secretary 188
burn@@ 188
bowhead 188
robert 188
scre@@ 188
vac@@ 188
hor@@ 188
granted 188
cu@@ 188
investigations 188
ong 187
cher 187
inci@@ 187
sylvia 187
identifies 187
anticipating 187
costly 187
ns 187
wil@@ 187
prote@@ 187
130 187
installed 187
clark 187
windows 187
prospectors 187
017 187
rowe 187
h1n1 187
launch 186
ish 186
30,000 186
theme 186
regi@@ 186
mps 186
zones 186
diagnosed 186
ball 186
arm 186
billing 186
nam 186
75,000 186
driving 185
wages 185
proponent 185
prev@@ 185
ser@@ 185
hit 185
ards 185
incremental 185
traffic 185
separ@@ 185
simpli@@ 185
indigenous 185
healthcare 185
halls 185
down@@ 185
spi@@ 184
accident 184
sel@@ 184
conveni@@ 184
resear@@ 184
certainty 184
obtaining 184
societies 184
caution 184
eu 184
rever@@ 184
highly 184
nirb 184
winners 184
farm 184
define 183
tain 183
enab@@ 183
lastly 183
integrate 183
operator 183
atti@@ 183
137 183
emphasi@@ 183
offshore 183
frequently 183
licenses 183
tics 183
ists 183
northerners 182
ese 182
stic 182
repatri@@ 182
vol@@ 182
perfect 182
bedroom 182
straight 182
ref@@ 182
litre 182
breast 182
decreasing 182
islands 181
cious 181
31st 181
harvester 181
gak 181
115 181
costing 181
divided 181
tali@@ 181
meadowbank 181
speci@@ 181
hawkins 181
sight 180
ann@@ 180
regul@@ 180
chairs 180
informa@@ 180
judges 180
unemployment 180
studying 180
expedi@@ 180
fr@@ 180
shop 180
hand@@ 180
sees 180
id 180
threshold 180
industries 180
jac@@ 180
stressful 180
fishermen 180
maley 180
quoted 180
inspector 180
advertise 180
ute 179
existence 179
strang@@ 179
informatics 179
sli@@ 179
mped 179
zz@@ 179
tired 179
finalizing 179
cars 179
bids 179
instructor 179
resulting 179
700,000 179
reve@@ 179
mcmullen 179
comm@@ 178
vie@@ 178
formul@@ 178
specifications 178
of@@ 178
contain 178
susta@@ 178
mandated 178
applicable 178
occup@@ 178
pped 178
carriers 178
methodology 178
televised 178
adamee 178
coordinating 178
40,000 178
neighbours 177
ancestors 177
ug@@ 177
adjacent 177
advis@@ 177
fts 177
checks 177
gs 177
tals 177
pressing 177
recipient 177
customs 177
aired 177
emiliano 177
a. 176
winning 176
ils 176
105 176
entry 176
il 176
hypothetical 176
cheques 176
demonstrated 176
sal@@ 176
professions 176
neu 176
021 176
lay 175
miut 175
derby 175
smo@@ 175
lady 175
seats 175
106 175
nihb 175
failed 175
fines 175
sivuniksavut 175
virus 175
free@@ 174
renew 174
ler 174
ford 174
ob@@ 174
reads 174
controls 174
placement 174
awaiting 174
appropriately 174
kooyoo 174
chose 174
heads 174
obje@@ 174
custom 174
medivac 174
trapp@@ 174
collaborate 174
pt 174
21@@ 174
eri@@ 174
traveling 174
jord@@ 174
legisl@@ 173
gener@@ 173
thus 173
progres@@ 173
ss 173
imposed 173
display 173
rosemary 173
communicating 173
adm 173
marked 173
workload 173
cuts 173
psychiatric 173
cate 173
secondly 173
cli@@ 173
cau@@ 173
itors 172
ries 172
eastern 172
hopes 172
investing 172
overcome 172
authori@@ 172
generated 172
administering 172
ences 172
lie 172
ams 172
consistently 172
connection 172
deterior@@ 172
subjects 172
typically 172
broadband 172
ful@@ 171
feed 171
restri@@ 171
iting 171
grew 171
fewer 171
curious 171
architectural 171
nomination 171
delegation 171
nie 171
libraries 171
males 171
earn 170
opinions 170
wel@@ 170
considers 170
obtained 170
broader 170
dep@@ 170
tendered 170
translator 170
retirement 170
aled 170
onie 170
donations 170
209 170
ker 170
labrador 169
crucial 169
hal@@ 169
extra@@ 169
fear 169
vary 169
hazardous 169
retro@@ 169
explaining 169
compare 169
by@@ 169
surely 169
blood 169
sheila 169
vity 168
notify 168
american 168
decides 168
seconds 168
gaps 168
104 168
pull 168
engine 168
dete@@ 168
rivers 168
248 168
inspir@@ 167
sittings 167
nation 167
treat@@ 167
elements 167
len@@ 167
103 167
suf@@ 167
morrison 167
108 167
gor@@ 167
pictures 167
speakers 167
successes 167
fault 167
exception 167
convention 167
searches 167
sh 167
informing 167
sewing 167
center 167
nooshoota 167
dru@@ 166
ee@@ 166
vic@@ 166
opposition 166
cousin 166
excep@@ 166
diligently 166
ines 166
ik@@ 166
deficits 166
vir@@ 166
avenue 166
restricted 166
restructuring 166
driven 166
trend 166
freezer 166
mes 166
warrants 166
refu@@ 166
bir@@ 166
bandwidth 166
preplanning 166
chair@@ 165
saved 165
king@@ 165
expire 165
approaching 165
ums 165
ests 165
amp@@ 165
owns 165
abused 165
sively 165
207 165
spo@@ 165
npc 165
economies 164
fications 164
1.6 164
eliminate 164
moves 164
picked 164
ems 164
foreign 164
twelve 164
117 164
elisapee 164
kers 164
penalties 164
insul@@ 164
remediation 164
tail@@ 163
hires 163
excuse 163
tre@@ 163
tations 163
knowledgeable 163
reti@@ 163
extending 163
develop@@ 163
cities 163
issuing 163
grown 163
viol@@ 163
mechanical 163
yearly 163
afraid 163
osing 163
coach 163
addi@@ 163
with@@ 163
silver 163
022 163
ups 162
frozen 162
relocate 162
endeavour 162
competing 162
refers 162
barrier 162
132 162
aul@@ 162
lessons 162
fol@@ 162
136 162
450 162
164 162
photos 162
reminded 162
refer@@ 162
alaska 162
kathy 162
passports 162
ladies 161
fifteen 161
ensures 161
grizzly 161
hardly 161
cle@@ 161
solely 161
techni@@ 161
tful 161
reas@@ 161
pending 161
wer 161
cated 161
venture 161
bob 161
boil@@ 161
char 161
diagnosis 161
detachment 161
shape 160
governor 160
reliant 160
las@@ 160
denti@@ 160
contest 160
sooner 160
lifestyles 160
lls 160
planes 160
explo@@ 160
evaluations 160
refin@@ 160
iniq 160
split 160
freeze 160
dialysis 160
hezakiah 160
privileges 159
eyes 159
pain@@ 159
presentations 159
cc@@ 159
correction 159
taxation 159
time@@ 159
accumulated 159
classi@@ 159
broke 159
jail 159
apparent 159
decentrali@@ 159
superintendent 159
pitseolak 159
meals 159
suggesting 159
fire@@ 159
laboratory 159
medication 159
9,@@ 159
ality 158
sincerely 158
sad 158
preparations 158
slated 158
administr@@ 158
ption 158
erry 158
anna 158
tirel@@ 158
banking 158
tically 158
servi@@ 158
ga 158
combination 158
clarifies 158
feasible 158
eral 158
mate 158
185 158
chris@@ 158
alle@@ 158
preparedness 158
sarah 158
ases 158
exc@@ 158
kia 158
tables 158
emb@@ 157
influence 157
t. 157
pelly 157
inclusion 157
properties 157
restra@@ 157
complement 157
pot 157
rents 157
outs 157
relatively 157
mitiga@@ 157
eating 157
1,8@@ 157
hab@@ 157
shift 157
7,@@ 157
hau@@ 157
docks 157
143 157
isu@@ 157
illi@@ 157
186 157
reliable 157
lacking 157
pinasuaqtavut 157
quanti@@ 157
falling 157
midwives 157
surface 157
voiced 157
trainers 157
discipline 157
etcetera 157
8,@@ 157
dream 156
ami@@ 156
law@@ 156
amending 156
row 156
mos@@ 156
unacceptable 156
113 156
confidentiality 156
larga 156
administrators 156
210 156
discipl@@ 156
levy 156
auction 156
coordinators 156
historic 155
additions 155
read@@ 155
ongs 155
main@@ 155
ya 155
assessing 155
manag@@ 155
z 155
sal 155
revisit 155
negle@@ 155
auto@@ 155
whitehorse 155
posted 155
pull@@ 155
neces@@ 155
rarely 155
select 155
volunte@@ 155
aimed 155
scheduling 155
nunavummi 155
deduction 155
comb@@ 154
cation 154
six@@ 154
jimmy 154
plastic 154
tty 154
justi@@ 154
breaks 154
bus@@ 154
avi@@ 154
xes 154
hard@@ 154
ona 154
121 154
ney 154
ty@@ 154
178 154
inde@@ 154
proponents 154
iiba 154
koanaqutit 154
1,6@@ 154
saskatchewan 153
desi@@ 153
balanced 153
operative 153
arriving 153
dispute 153
cti@@ 153
ff@@ 153
reli@@ 153
head@@ 153
ure 153
exten@@ 153
die 153
inspect 153
protocols 153
iv@@ 153
118 153
suppose 153
arniq 153
continuous 153
rfps 153
fre@@ 153
monitored 153
mammals 153
francophone 153
pump 153
avik 153
grinnell 153
surgery 153
centrally 153
jen@@ 152
sits 152
vast 152
deser@@ 152
questioned 152
sunday 152
cle 152
cel@@ 152
elizabeth 152
tasked 152
feeding 152
assumed 152
somehow 152
guy 152
shing 152
stically 152
progressing 152
losses 152
ena 152
ening 152
cleanup 152
138 152
tively 152
reser@@ 152
ault 152
proven 152
grandchild 152
volun@@ 152
180 152
environ@@ 152
bad@@ 152
popular 152
lam 152
parental 152
exclu@@ 152
fasd 152
dge 151
elli@@ 151
encies 151
gathered 151
sympa@@ 151
ideal 151
hardships 151
justices 151
nie@@ 151
ints 151
unclear 151
specified 151
misunderstanding 151
bureaucracy 151
book@@ 151
rer 151
interven@@ 151
155 151
ep@@ 151
metres 151
victor 151
249 151
correc@@ 151
shore 151
024 151
025 151
fairness 150
cratic 150
oned 150
cc 150
mature 150
winner 150
conc@@ 150
0.@@ 150
satisfaction 150
valid 150
tion@@ 150
119 150
promoted 150
walrus 150
142 150
kam@@ 150
highlighted 150
barrel 150
crew 150
alism 150
spons@@ 150
sen 150
phases 150
donation 150
030 150
conven@@ 149
ol 149
drawn 149
dest 149
inuk@@ 149
universities 149
sle@@ 149
fields 149
even@@ 149
super@@ 149
excess 149
suppliers 149
consists 149
ial 149
conversations 149
112 149
assionate 149
bcc 149
151 149
157 149
evi@@ 149
locks 149
inviting 149
invoi@@ 149
organizing 149
sec@@ 149
martha 149
listened 148
dea@@ 148
preservation 148
appro@@ 148
risks 148
consolidated 148
strictly 148
covering 148
audience 148
scrutini@@ 148
destination 148
bureau@@ 148
quo@@ 148
qui@@ 148
feelings 148
cat@@ 148
profile 148
consist@@ 148
141 148
distribute 148
juak 148
stre@@ 148
errors 148
contaminants 148
military 148
temper@@ 148
occasionally 148
roundtable 148
esta@@ 147
faith 147
caring 147
quarter 147
announcing 147
whales 147
deciding 147
crimes 147
bootleggers 147
trouble 147
users 147
treating 147
medals 147
1,5@@ 147
026 147
wisdom 146
stood 146
restrictions 146
warrant 146
struck 146
mitted 146
bec@@ 146
audi@@ 146
pur@@ 146
logistics 146
registries 146
revisions 146
par 146
sim@@ 146
adhere 146
joining 146
honor@@ 146
seasonal 146
mel@@ 146
pe 146
123 146
tro@@ 146
willingness 146
134 146
colleges 146
camping 146
thre@@ 146
contrib@@ 146
internationally 146
portable 146
emotional 146
fro@@ 146
performing 146
endangered 146
023 146
acknowled@@ 145
respects 145
encountered 145
tok 145
absen@@ 145
thomas 145
bre@@ 145
comfort 145
any@@ 145
350 145
sentence 145
fies 145
pain 145
transcri@@ 145
breach 145
ared 145
helicop@@ 145
strive 145
.1 145
rela@@ 145
subsi@@ 145
apology 145
ading 145
ere@@ 145
whitworth 145
gift 144
fox 144
els 144
pronoun@@ 144
offence 144
assurance 144
tragedy 144
pris@@ 144
111 144
error 144
opp@@ 144
foundations 144
guiding 144
apologise 144
week@@ 144
lar 144
simul@@ 144
ming@@ 144
drum 143
modi@@ 143
ory 143
capabilities 143
accomplishment 143
168 143
fifty 143
scenario 143
leaves 143
absence 143
terry 143
pan@@ 143
ben@@ 143
kin@@ 143
152 143
159 143
calculated 143
produc@@ 143
lik@@ 143
willi@@ 143
archite@@ 143
quest 143
festival 143
degrees 143
wall 142
mas@@ 142
dreams 142
visible 142
tedly 142
anglican 142
concentrate 142
directions 142
payers 142
145 142
tt@@ 142
disru@@ 142
cadet 142
fires 142
injured 142
shame 142
observe 142
158 142
reje@@ 142
initiating 142
rectified 142
practitioners 142
parameters 142
illegal 142
posters 142
holder 142
rejected 142
seismic 142
rhoda 141
highlights 141
slowly 141
reservoir 141
arry 141
enhancement 141
specify 141
dra 141
sleep 141
belief 141
fri@@ 141
abroad 141
fighting 141
109 141
drawings 141
celebrated 141
inquiry 141
139 141
showcase 141
tells 141
vacs 141
carpentry 141
concur 141
developers 141
cket 141
212 141
merry 141
absta@@ 141
securities 141
citizen 140
frequ@@ 140
pay@@ 140
cutting 140
cies 140
babies 140
walking 140
modul@@ 140
arbitr@@ 140
everyday 140
accus@@ 140
reconsider 140
well@@ 140
gymnasium 140
ung@@ 140
advertisement 140
gn@@ 140
154 140
mentioning 140
window 140
bann@@ 140
roof 140
religi@@ 140
tt 140
ham 140
shouldice 140
rais@@ 140
sitland 140
cameras 140
multiculturalism 140
1,7@@ 140
vandermeulen 140
dupli@@ 139
tasks 139
jonah 139
challenged 139
concentr@@ 139
ets 139
jointly 139
minster 139
ski 139
functioning 139
ism 139
photograp@@ 139
landfill 139
edi@@ 139
archaeological 139
loo 139
128 139
launched 139
survi@@ 139
perfectly 139
6,@@ 139
190 139
text 139
forces 139
makpah 139
roll 139
cessation 139
adaptation 139
pm 138
peoples 138
adopt 138
fathers 138
worthy 138
healthier 138
reserve 138
simi@@ 138
cup 138
131 138
packages 138
disagree 138
she@@ 138
aris@@ 138
ale 138
transferring 138
nowadays 138
nak@@ 138
mac@@ 138
match 138
lau@@ 138
syllabics 138
xing 138
133 138
rel@@ 138
arch@@ 138
124 138
153 138
165 138
acknowledging 138
ffs 138
fos@@ 138
dors 138
resolving 138
vessels 138
marshalling 138
rable 137
bunch 137
prayers 137
comptroller 137
premiums 137
break@@ 137
sao 137
144 137
compar@@ 137
propose 137
tragic 137
spor@@ 137
lift 137
posi@@ 137
170 137
legally 137
fle@@ 137
graves 137
infe@@ 137
aids 137
accommo@@ 137
216 137
pamph@@ 137
mto 137
mrs. 136
map 136
ong@@ 136
foot@@ 136
particip@@ 136
rati@@ 136
gl@@ 136
arrival 136
expen@@ 136
minis@@ 136
undertook 136
sme@@ 136
fun@@ 136
ghter 136
cations 136
crow@@ 136
rating 136
prioritized 136
possibilities 136
wol@@ 136
.0 136
compiled 136
ple 136
initi@@ 136
stret@@ 136
amb@@ 136
basketball 136
028 136
threatened 136
stewart 135
dancing 135
increasingly 135
steering 135
audla 135
outdated 135
gri@@ 135
lena 135
gotten 135
230 135
tag 135
tau@@ 135
renovating 135
gram 135
900 135
exercis@@ 135
diagnostic 135
ash 135
encing 135
determines 135
pelts 135
frustr@@ 135
travels 135
compensated 135
dee 135
collaborative 135
chap@@ 135
ikajuuti 135
supervisors 135
228@@ 135
vacc@@ 135
pools 135
apprehended 135
davis 134
agreeing 134
borro@@ 134
fit@@ 134
occupied 134
relay 134
ky 134
wit@@ 134
1996 134
bid@@ 134
alized 134
pace 134
pandemic 134
elo@@ 134
worthwhile 134
auth@@ 134
proficiency 134
submitting 134
ss@@ 134
aggressive 134
winds 134
noti@@ 134
027 134
clintock 134
demonstr@@ 133
brighter 133
conclu@@ 133
backs 133
karetak 133
studied 133
uting 133
tries 133
cement 133
ological 133
foot 133
recognis@@ 133
varies 133
122 133
127 133
129 133
researchers 133
qa@@ 133
broadcas@@ 133
proceeds 133
complain 133
bition 133
aqsarniit 133
advertisements 133
ned 133
valu@@ 133
brian 133
emissions 133
rural 133
halloween 133
guides 132
patience 132
invested 132
trail 132
british 132
uqqurmiut 132
memor@@ 132
fulfilling 132
hook 132
graphic 132
councillors 132
,000.00 132
plann@@ 132
struggling 132
stayed 132
pointing 132
believed 132
skating 132
eag@@ 132
semin@@ 132
handbook 132
256 132
overwhel@@ 132
birthing 132
champi@@ 132
muni@@ 132
029 132
additive 132
harassment 132
acted 131
furs 131
expires 131
finis@@ 131
motors 131
totalling 131
committing 131
flexible 131
oldest 131
conversation 131
ttle 131
organize 131
engineers 131
188 131
groceries 131
emerging 131
feast 131
harm 131
club 131
transa@@ 131
techniques 131
structural 131
agent 131
251 131
homecare 131
stevens 131
kis@@ 130
donated 130
symb@@ 130
ere 130
unlike 130
tally 130
nan@@ 130
grand 130
sponsored 130
substantially 130
tored 130
divi@@ 130
commented 130
user 130
seven@@ 130
voi@@ 130
frustrated 130
sor@@ 130
confirmation 130
fuels 130
spills 130
handed 130
spouses 130
endor@@ 130
acci@@ 130
sub 130
stored 130
148 130
wo@@ 130
deposits 130
utes 130
pla@@ 130
dual 130
hospi@@ 130
abandoned 130
clendenning 130
refle@@ 129
freedom 129
foun@@ 129
ok@@ 129
sewer 129
heavily 129
recru@@ 129
suppor@@ 129
designing 129
cleaning 129
ft 129
prudent 129
tionally 129
mbling 129
inju@@ 129
reorganization 129
pon@@ 129
debated 129
and@@ 129
forever 129
285 129
sorts 129
moody 129
rink@@ 129
notwithstanding 129
newspapers 129
cuses 129
nangminiqaqtunik 129
stro@@ 129
panels 129
weber 129
mccullock 129
kuglukturmiut 129
strait 128
acade@@ 128
ook 128
processed 128
frankly 128
accountants 128
preven@@ 128
recover 128
fits 128
shut 128
administers 128
147 128
reiter@@ 128
176 128
airplane 128
descri@@ 128
hundreds 128
indi@@ 128
merit 128
ext@@ 128
establish@@ 128
deposit 128
fail 128
failure 128
holidays 128
gin@@ 128
remained 128
031 128
fron@@ 127
fer 127
buil@@ 127
boundary 127
celebrations 127
exceed 127
live@@ 127
hones@@ 127
yok 127
argument 127
forthcoming 127
solic@@ 127
234 127
260 127
consequence 127
suffered 127
retrofit 127
revitali@@ 127
teeth 127
nunasi 127
166 127
equi@@ 127
meeka 127
contrav@@ 127
tho@@ 127
enforce 127
style 126
cont@@ 126
comprised 126
articul@@ 126
unemployed 126
insta@@ 126
repatriate 126
grid 126
consoli@@ 126
163 126
acquired 126
187 126
importantly 126
rough 126
origin@@ 126
stead@@ 126
uncle 126
designation 126
weight 126
flu@@ 126
drink 126
grandson 126
ef 126
blues 126
vel@@ 126
backup 126
discrimination 126
033 126
damages 126
wispinski 126
singing 125
constant 125
artwork 125
victim 125
diand 125
oper@@ 125
ase 125
communicated 125
len 125
encounter 125
discovered 125
ha@@ 125
stressed 125
hot 125
tee@@ 125
deadlines 125
turing 125
pollution 125
statute 125
156 125
tages 125
pharmacy 125
convey 125
pul@@ 125
bachelor 125
amends 125
clauses 125
oppose 125
dating 125
6th 125
lihood 125
absolute 125
mit@@ 125
care@@ 125
communic@@ 125
035 125
atipp 125
testimony 125
histori@@ 124
broughton 124
focuses 124
ord 124
hin@@ 124
fis@@ 124
aqu@@ 124
ables 124
gender 124
agu@@ 124
146 124
cons@@ 124
235 124
picking 124
less@@ 124
mly 124
é 124
cultures 124
secured 124
boating 124
smile 124
govern@@ 124
interviewed 124
sun@@ 124
attri@@ 124
ordering 124
cauti@@ 124
deleted 124
prohibited 124
lifecycle 124
placing 123
frank 123
belong 123
thir@@ 123
insufficient 123
equitable 123
appreciative 123
skido@@ 123
adver@@ 123
thou@@ 123
confli@@ 123
opens 123
flowing 123
240 123
299 123
sick@@ 123
ace 123
181 123
inmate 123
nis 123
colle@@ 123
esa 123
ndc 123
checking 123
warn@@ 123
camera 123
supervis@@ 123
greenhouse 123
inguis@@ 123
032 123
072 123
forfeiture 123
80,000 123
gentle@@ 122
prece@@ 122
charlie 122
koana 122
gement 122
pani@@ 122
angu@@ 122
liber@@ 122
linked 122
maternal 122
briefed 122
differ 122
audio 122
iri@@ 122
queen 122
illustr@@ 122
analyze 122
biologists 122
3.5 122
campuses 122
189 122
worse 122
iness 122
asbestos 122
ly@@ 122
dation 122
complying 122
bed@@ 122
breakwaters 122
90,000 122
chown 122
miles 121
shed 121
conne@@ 121
ela 121
receptive 121
continuation 121
impres@@ 121
vals 121
fers 121
piles 121
ull@@ 121
ann 121
attempts 121
documented 121
shorter 121
slight 121
ocean 121
smith 121
arrange 121
mandates 121
tured 121
ologist 121
itt@@ 121
temporarily 121
politicians 121
contempl@@ 121
246 121
substitu@@ 121
da@@ 121
transmission 121
exemption 121
politi@@ 121
anderson 121
utilization 121
eagle 121
charac@@ 120
sam 120
owe 120
prove 120
cho 120
oo 120
thr@@ 120
medium 120
167 120
laura 120
bc 120
appointing 120
sig@@ 120
reg@@ 120
impressed 120
privately 120
kick 120
rolling 120
pop 120
investigated 120
114 120
prescribed 120
dings 120
brea@@ 120
uk@@ 120
jump 120
indicators 120
dew 120
decline 120
169 120
sol@@ 120
whis@@ 120
bruce 120
fresh 120
aq@@ 120
capability 120
dc 120
oq 120
question@@ 120
holders 120
pin@@ 120
practise 120
ank 120
repeatedly 120
permafrost 120
unsure 120
nominations 119
ny 119
jes@@ 119
utmost 119
161 119
branches 119
offences 119
optimistic 119
chronic 119
adjusted 119
mann@@ 119
letting 119
structured 119
rs 119
08@@ 119
dentist 119
191 119
rolled 119
fossil 119
berg 119
ail@@ 119
tuition 119
gps 119
034 119
036 119
037 119
038 119
06@@ 119
inquest 119
1993 118
struggle 118
hill 118
sional 118
examining 118
sought 118
columbia 118
sco@@ 118
cles 118
tuk 118
forwarded 118
controlled 118
1.1 118
mistaken 118
mak@@ 118
patrick 118
impro@@ 118
assurances 118
delega@@ 118
mers 118
comparison 118
grandparents 118
supplier 118
hunts 118
nas@@ 118
nac 118
escal@@ 118
allegations 118
tus@@ 118
bulbs 118
nirlungayuk 118
agnico 118
sing@@ 117
fell 117
scen@@ 117
attempting 117
indul@@ 117
prefer@@ 117
concep@@ 117
part@@ 117
pursu@@ 117
sake 117
hair 117
outboard 117
plumbing 117
recording 117
oak 117
sincere 117
dor 117
dences 117
agm 117
alls 117
rush 117
binders 117
172 117
179 117
revision 117
landing 117
trial 117
tori@@ 117
drome 117
diving 117
ony@@ 117
clinical 117
cd 117
constables 117
referenced 117
periodi@@ 117
springtime 117
040 117
hydroelectric 117
aspirations 116
governing 116
altern@@ 116
efficiencies 116
whatsoever 116
contr@@ 116
commissioned 116
nationally 116
assignment 116
disclose 116
kil@@ 116
199 116
perception 116
rock 116
shu@@ 116
vas@@ 116
162 116
prescription 116
177 116
impor@@ 116
scared 116
183 116
095 116
202 116
cy@@ 116
life@@ 116
bronze 116
2.8 116
yan 116
maki@@ 116
44@@ 116
lor@@ 115
merc@@ 115
instructions 115
helen 115
hadn 115
electri@@ 115
liabilities 115
contractual 115
tant 115
commissioners 115
dency 115
streamline 115
reflective 115
wis@@ 115
274 115
my@@ 115
distinct 115
practitioner 115
ow 115
blame 115
tap@@ 115
recommending 115
decade 115
tes@@ 115
regret 115
ket 115
gained 115
logistic 115
gging 115
are@@ 115
041 115
sip 115
sivuliqtiksat 115
djuk 114
bles 114
abund@@ 114
strengths 114
ghts 114
convince 114
neighbour@@ 114
one@@ 114
efficiently 114
accru@@ 114
taining 114
frustration 114
high@@ 114
233 114
275 114
bled 114
socio 114
subsidize 114
gni@@ 114
mou@@ 114
spousal 114
permitted 114
registry 114
wood 114
225 114
muskox 114
indic@@ 114
counsel@@ 114
custo@@ 114
straigh@@ 114
undergoing 114
hat 114
diver@@ 114
fu@@ 114
outlook 114
mun@@ 114
show@@ 114
consequ@@ 114
039 114
youngest 113
learners 113
currence 113
sa 113
now@@ 113
stres@@ 113
tackle 113
discrepan@@ 113
provider 113
supplied 113
241 113
red@@ 113
instructed 113
neither 113
stairs 113
orien@@ 113
mic 113
lee@@ 113
stati@@ 113
wri@@ 113
182 113
eding 113
import 113
burned 113
remedi@@ 113
232 113
preventing 113
220 113
val@@ 113
204 113
advoc@@ 113
dum 113
washroom 113
eng@@ 113
grievances 113
parenting 113
ken@@ 112
lic 112
incre@@ 112
govern 112
equality 112
reductions 112
explic@@ 112
hol@@ 112
verb@@ 112
definite 112
winter@@ 112
tin 112
patterns 112
partially 112
thinks 112
searching 112
regime 112
unded 112
continuously 112
trends 112
duci@@ 112
201 112
fing@@ 112
guaranteed 112
193 112
shir@@ 112
blizzard 112
activis@@ 112
208 112
suspended 112
depth 112
800,000 112
duc@@ 112
musk 112
ranking 112
c. 111
responsive 111
calm 111
prince 111
collections 111
translate 111
octane 111
honest 111
leg@@ 111
themes 111
evol@@ 111
wrong@@ 111
rev@@ 111
anis@@ 111
beliefs 111
receipt 111
hoped 111
dangers 111
171 111
minds 111
moderni@@ 111
cleaned 111
preced@@ 111
e.@@ 111
nap@@ 111
install 111
adjust 111
olympic 111
usa@@ 111
hub 111
polling 111
1,500 111
18,000 111
encouragement 110
rapidly 110
traditionally 110
graphi@@ 110
ken 110
m.l.a 110
clinics 110
hazard 110
governmental 110
mixed 110
foo@@ 110
northwestel 110
cha@@ 110
227 110
236 110
arrives 110
defe@@ 110
journey@@ 110
ancy 110
observation 110
lakes 110
pud@@ 110
enhancements 110
circumstance 110
excluded 110
bootlegging 110
tened 110
pushed 110
intimi@@ 110
transporting 110
195 110
inv@@ 110
accurately 110
therapy 110
hanson 110
bor@@ 110
dell 110
export 110
pregnant 110
dn@@ 110
toonik 110
fluent 110
042 110
centers 110
ple@@ 109
mathe@@ 109
intends 109
tures 109
les@@ 109
preserving 109
connections 109
partnering 109
encompas@@ 109
26,000 109
boy 109
naviga@@ 109
astic 109
1997 109
emplo@@ 109
tape 109
situated 109
destroyed 109
dered 109
nowhere 109
capi@@ 109
koo@@ 109
seas@@ 109
paving 109
upgraded 109
ep 109
combat 109
184 109
minerals 109
ement 109
205 109
equipped 109
215 109
vand@@ 109
black 109
credited 109
plebiscites 109
044 109
reconciliation 109
070 109
ox 109
immen@@ 108
binding 108
sever@@ 108
rece@@ 108
expedite 108
aggressively 108
portfolios 108
ana 108
limitations 108
generating 108
invi@@ 108
translations 108
micro@@ 108
airplanes 108
12,@@ 108
demonstrates 108
dark 108
vali@@ 108
rul@@ 108
245 108
lat 108
europe 108
arranged 108
rid 108
exp@@ 108
197 108
mani@@ 108
244 108
medevac 108
innuin@@ 108
dilig@@ 108
tournaments 108
aqtut 108
deb@@ 108
far@@ 108
uptake 108
ilisaqsivik 108
lab@@ 107
essed 107
streamlin@@ 107
applau@@ 107
survivors 107
mode 107
dri@@ 107
tious 107
downs 107
occupancy 107
summari@@ 107
253 107
throw 107
employ 107
wav@@ 107
dicta@@ 107
makers 107
examination 107
predecess@@ 107
edge 107
lif@@ 107
211 107
206 107
tik@@ 107
arjuk 107
volleyball 107
kakivak 107
penalty 107
tak@@ 107
marriage 107
sentences 107
jurisdictional 107
045 107
resort 107
vaccination 107
aerial 107
uly 106
joseph 106
lli@@ 106
elimin@@ 106
who@@ 106
projecting 106
guardi@@ 106
migr@@ 106
tted 106
remainder 106
compensate 106
ousness 106
accoun@@ 106
deeply 106
excee@@ 106
airstrips 106
dal 106
distrib@@ 106
chi@@ 106
fort 106
guideline 106
clu@@ 106
psych@@ 106
exis@@ 106
correspon@@ 106
247 106
stats 106
removing 106
ette 106
cadets 106
map@@ 106
browne 106
desk 106
meal 106
strike 106
compla@@ 106
eco@@ 106
ultimate 106
arvik 106
comparable 106
judicial 106
anyways 106
remand 106
dudding 106
sele@@ 105
voices 105
advancing 105
eness 105
sum 105
politics 105
benefiting 105
generous 105
ast 105
examined 105
eping 105
compliant 105
renting 105
eigh@@ 105
ential 105
connect 105
aim 105
a.m. 105
justify 105
dres@@ 105
mation 105
wers 105
prohi@@ 105
enjo@@ 105
terrain 105
households 105
incorrect 105
192 105
benefited 105
funn@@ 105
judicature 105
landed 105
ala@@ 105
constable 105
repaired 105
wrestling 105
evacu@@ 105
airfare 105
fund@@ 105
parti@@ 104
false 104
predict 104
trainees 104
fram@@ 104
1.4 104
coffee 104
213 104
nar@@ 104
relocating 104
ral 104
embarr@@ 104
sible 104
tain@@ 104
predi@@ 104
medic@@ 104
174 104
joy 104
sons 104
strength@@ 104
ittuq 104
thers 104
223 104
respectful 104
safer 104
web@@ 104
clai@@ 104
tis@@ 104
bury 104
cigarettes 104
agents 104
fencing 104
diagnoses 104
mentions 104
046 104
043 104
sup@@ 104
criterion 104
flag 103
distinguis@@ 103
guests 103
compani@@ 103
settled 103
mill@@ 103
plac@@ 103
prosper@@ 103
obser@@ 103
forty 103
dissolved 103
turns 103
alu@@ 103
star@@ 103
etary 103
print 103
handicapped 103
kelly 103
eas@@ 103
short@@ 103
flown 103
cop@@ 103
d. 103
besides 103
glasses 103
258 103
228 103
263 103
hes 103
hidden 103
mechanic 103
shrimp 103
seas 103
stays 103
nega@@ 103
dy@@ 103
epi@@ 103
patter@@ 103
173 103
dire 103
sak 103
vested 103
ham@@ 103
trigg@@ 103
deliberate 103
ail 103
messages 103
votes 103
kill 103
tle 103
investigating 103
acquiring 103
mart 103
technicians 103
plate 103
cooking 103
int@@ 103
pilo@@ 103
jan@@ 103
maintain@@ 103
cell@@ 103
debates 102
lucky 102
dear 102
dif@@ 102
loy@@ 102
chu@@ 102
oked 102
transi@@ 102
ger@@ 102
pav@@ 102
reassure 102
nevertheless 102
races 102
separately 102
242 102
fares 102
discrimin@@ 102
desperately 102
pip@@ 102
255 102
tioned 102
withdraw 102
tained 102
gan 102
tance 102
shortfalls 102
switch 102
surplu@@ 102
regulated 102
flaherty 102
ports 102
safely 102
amazing 102
051 102
053 102
idlout 101
eric 101
openness 101
duces 101
drawing 101
stability 101
reinfor@@ 101
newest 101
dden@@ 101
unnecessary 101
ls 101
urged 101
suspect 101
nai@@ 101
substances 101
hungry 101
therap@@ 101
publication 101
inuar 101
replied 101
iron 101
radios 101
lon@@ 101
gordon 101
premi@@ 101
enthusi@@ 101
proposes 101
224 101
239 101
spec@@ 101
iqalummiut 101
warranty 101
closures 101
chers 101
oring 101
carrier 101
prioritizing 101
incur 101
collaborating 101
049 101
067 101
04@@ 101
mind@@ 100
tening 100
isolated 100
ner@@ 100
severance 100
cann@@ 100
constra@@ 100
eliminated 100
ility 100
ware@@ 100
equivalent 100
apart 100
killed 100
anxi@@ 100
offender 100
271 100
269 100
dies 100
collaboratively 100
suring 100
uluk 100
stence 100
ack 100
clo@@ 100
tives 100
tele 100
open@@ 100
outlying 100
kitch@@ 100
cares 100
kab@@ 100
terri@@ 100
60s 100
09@@ 100
hend 100
power@@ 100
phrase 100
mentoring 100
iner 100
dictionary 100
mber 100
tern@@ 100
awg 100
transient 100
promotional 100
ckets 100
innov@@ 100
lagoons 100
ortho@@ 100
052 100
054 100
057 100
073 100
lawsuit 100
condomini@@ 100
1,9@@ 100
hearts 99
educating 99
irs 99
god 99
tative 99
inn@@ 99
u.s. 99
syste@@ 99
reminding 99
1995 99
equ@@ 99
stock@@ 99
transported 99
minimize 99
thered 99
burn 99
mechanics 99
bar 99
a.m 99
haz@@ 99
formali@@ 99
legacy 99
lers 99
surprise 99
poo@@ 99
our@@ 99
usel@@ 99
doug 99
lat@@ 99
wheelchair 99
ised 99
instrumental 99
cumberland 99
cable 99
270 99
weak@@ 99
organizers 99
influenza 99
possession 99
suspension 99
066 99
084 99
jay@@ 98
constitutional 98
decades 98
convinced 98
insi@@ 98
constru@@ 98
royalties 98
ene 98
widely 98
wisely 98
ntpc 98
bound 98
centralized 98
figured 98
advising 98
enterprises 98
galbraith 98
concer@@ 98
independently 98
229 98
ury 98
promises 98
literally 98
differ@@ 98
roots 98
blue 98
archae@@ 98
institu@@ 98
cabin@@ 98
ung 98
notification 98
214 98
198 98
delivers 98
suit 98
estima@@ 98
legislated 98
receiv@@ 98
aff@@ 98
legitimate 98
252 98
nakasuk 98
violent 98
quarry 98
endeavours 98
coastal 98
arr@@ 98
eries 98
lifel@@ 98
inciner@@ 98
ilee 98
incumb@@ 98
056 98
directional 98
rojas 98
inuktut 98
asks 97
diverse 97
hos@@ 97
ements 97
1.3 97
accord 97
noah 97
slo@@ 97
4.5 97
capture 97
mping 97
ales 97
entrance 97
tic@@ 97
226 97
bussing 97
warding 97
campaigns 97
barge 97
register 97
burner 97
bidding 97
lessen 97
enro@@ 97
,000,000 97
magazine 97
promotes 97
declining 97
senator 97
sun 97
daughters 97
instruments 97
lynn 97
favouri@@ 97
fluctu@@ 97
203 97
ane 97
050 97
trauma 97
contingent 97
tyme 97
bility 97
reb@@ 97
bell 97
nutri@@ 97
outfitter 97
closes 97
071 97
079 97
basin 97
richardson 97
telehandlers 97
chel 96
favour@@ 96
forums 96
creative 96
collectively 96
craw@@ 96
anticipates 96
gence 96
human@@ 96
lucy 96
ambi@@ 96
defin@@ 96
oversee 96
aking 96
lak 96
org@@ 96
contamination 96
oners 96
spark 96
ived 96
urgency 96
tex@@ 96
iq@@ 96
band 96
deal@@ 96
slow@@ 96
tran@@ 96
alize 96
clinic 96
dalhousie 96
unk 96
scholarships 96
194 96
duration 96
ko 96
pleas@@ 96
257 96
play@@ 96
ignored 96
auspices 96
inary 96
forming 96
symptoms 96
peers 96
needing 96
mously 96
mentary 96
roman 96
ddy 96
assists 96
expression 96
047 96
048 96
055 96
064 96
088 96
observed 95
ger 95
realities 95
sixty 95
ait 95
effe@@ 95
hen@@ 95
reluc@@ 95
pir@@ 95
comptrollership 95
cer@@ 95
whe@@ 95
signatures 95
pite 95
merits 95
bos@@ 95
borrow 95
alluding 95
considerably 95
cab@@ 95
ride 95
265 95
262 95
cogni@@ 95
essentially 95
flow@@ 95
america 95
ventures 95
obstacles 95
comman@@ 95
grave 95
interfer@@ 95
rescu@@ 95
confer@@ 95
eline 95
ore 95
qualification 95
courage 95
spends 95
disputes 95
repeated 95
guards 95
ir 95
tow@@ 95
bon@@ 95
assa@@ 95
bench@@ 95
sha@@ 95
contra@@ 95
colour 95
coroners 95
end@@ 95
monteith 95
harmoni@@ 95
069 95
078 95
14,000 95
jane 94
doms 94
foremost 94
milest@@ 94
distinc@@ 94
mes@@ 94
eleven 94
atu@@ 94
ound 94
percentages 94
accessib@@ 94
smallest 94
regre@@ 94
debating 94
apartment 94
persi@@ 94
way@@ 94
recidivism 94
harsh 94
,00@@ 94
266 94
holistic 94
arose 94
pts 94
tee 94
legislators 94
gary 94
2,7@@ 94
drilling 94
sponsoring 94
099 94
196 94
enjoy@@ 94
mi 94
trials 94
depleted 94
2.3 94
couples 94
pounds 94
belu@@ 94
wheelchairs 94
definitions 94
brandon 94
inflation 94
til@@ 94
ignore 94
mobility 94
safe@@ 94
063 94
076 94
083 94
sourced 94
07@@ 94
apprehen@@ 94
miramar 94
emails 94
wealth 93
towns 93
honour@@ 93
gradu@@ 93
refres@@ 93
green@@ 93
amalgama@@ 93
inner 93
responds 93
ze@@ 93
tail 93
sw@@ 93
grandfather 93
supplemen@@ 93
adhered 93
231 93
circu@@ 93
2,8@@ 93
calculations 93
268 93
apped 93
busin@@ 93
parc@@ 93
shel@@ 93
cians 93
replacements 93
gross 93
unve@@ 93
like@@ 93
alar@@ 93
gment 93
arises 93
gauthier 93
log 93
butt@@ 93
hare 93
federally 93
oning 93
memorial 93
syn@@ 93
219 93
rif@@ 93
contacting 93
ef@@ 93
captain 93
dable 93
tann@@ 93
nova 93
058 93
059 93
digital 93
forgiveness 93
lori 93
codes@@ 93
nattaq 92
mmy 92
worl@@ 92
intervie@@ 92
unfair 92
aling 92
smooth 92
adop@@ 92
foreseen 92
1.8 92
expedition 92
dance 92
unexpected 92
rehabilita@@ 92
natal 92
chur@@ 92
competen@@ 92
mix 92
preference 92
articles 92
mortga@@ 92
hood 92
267 92
individually 92
stimul@@ 92
unn@@ 92
assumption 92
publications 92
1.7 92
engaging 92
integral 92
vocational 92
297 92
carbon 92
bes 92
statistical 92
element 92
254 92
298 92
preferred 92
emi@@ 92
respon@@ 92
threat@@ 92
machinery 92
chari@@ 92
062 92
065 92
indemnities 92
075 92
disturbing 92
interns 92
tammaativvik 92
mede@@ 92
bishop 91
presents 91
affir@@ 91
aun@@ 91
arri@@ 91
dm 91
259 91
seri@@ 91
brav@@ 91
264 91
243 91
tment 91
taxi 91
ind 91
revise 91
dle 91
ate@@ 91
vs 91
amie 91
hap 91
runways 91
061 91
volu@@ 91
068 91
080 91
087 91
091 91
modernization 91
atik 91
35,000 91
tuttarviit 91
979 90
escor@@ 90
.. 90
juaq 90
birth@@ 90
sus 90
acc@@ 90
261 90
060 90
rich@@ 90
pin 90
permi@@ 90
ologists 90
lock 90
independence 90
teenag@@ 90
280 90
dic@@ 90
decre@@ 90
bru@@ 90
237 90
279 90
286 90
289 90
294 90
sar 90
pil@@ 90
222 90
ack@@ 90
verage 90
lab 90
standardi@@ 90
074 90
085 90
089 90
090 90
097 90
45,000 90
mentor@@ 90
uqausivut 90
ctives 89
hang@@ 89
clos@@ 89
finali@@ 89
kir@@ 89
277 89
compas@@ 89
ski@@ 89
procee@@ 89
eve 89
290 89
vide@@ 89
detach@@ 89
illed 89
ignor@@ 89
hy@@ 89
olak 89
four@@ 89
kill@@ 89
loaded 89
238 89
asu@@ 89
house@@ 89
217 89
merg@@ 89
leng@@ 89
mit 89
unani@@ 89
jr 89
scotia 89
shelf 89
077 89
092 89
standardization 89
cooperative 89
sarvik 89
harv@@ 89
aming 88
fortun@@ 88
.6 88
atur@@ 88
ba@@ 88
ip@@ 88
curri@@ 88
.2 88
221 88
pit 88
sten@@ 88
gare@@ 88
alliance 88
vill@@ 88
asi@@ 88
tments 88
vis@@ 88
086 88
hedging 88
annuraaq@@ 88
wscc 88
negoti@@ 87
hay 87
nd@@ 87
fras@@ 87
settle@@ 87
inven@@ 87
camp@@ 87
carpen@@ 87
gaq 87
mas 87
ctors 87
296 87
associ@@ 87
trav@@ 87
avoi@@ 87
limi@@ 87
ord@@ 87
met@@ 87
prescri@@ 87
081 87
082 87
098 87
blower 87
memo@@ 86
bet@@ 86
ctor 86
un 86
perfor@@ 86
vide 86
integr@@ 86
tiv@@ 86
bis@@ 86
320 86
diplo@@ 86
ckey 86
coach@@ 86
aptn 86
360 86
soci@@ 86
2.2 86
engine@@ 86
nesses 86
gur@@ 86
gra 86
umingmak@@ 86
fail@@ 86
096 86
093 86
scanner 86
consul@@ 85
ster 85
jun@@ 85
empower@@ 85
vis 85
pun@@ 85
gun@@ 85
approxi@@ 85
oppo@@ 85
targe@@ 85
atlantic 85
evalu@@ 85
bingo 85
promis@@ 85
gran@@ 85
bin@@ 85
284 85
jak 85
expec@@ 85
272 85
humanity 85
behavi@@ 85
nun@@ 85
292 85
bud@@ 85
725 85
gy 85
094 85
43@@ 85
perspe@@ 84
essing 84
anticip@@ 84
adequ@@ 84
thor@@ 84
317 84
sured 84
qallunaat 84
vak 84
direc@@ 84
attemp@@ 84
depart@@ 84
haul@@ 84
kalu@@ 84
330 84
qallunaaq 84
lav@@ 84
iners 84
ame@@ 84
325 84
net@@ 84
golf 84
nes 84
monit@@ 84
cites 84
17,000 84
85,000 84
makimaniq 84
67@@ 83
ligh@@ 83
conserv@@ 83
anga@@ 83
sch@@ 83
273 83
satis@@ 83
ress 83
qia 83
caster 83
318 83
344 83
gaz@@ 83
ac 83
stake@@ 83
wood@@ 83
23,000 83
05@@ 83
dpa 83
chr@@ 82
enu@@ 82
ational 82
dist@@ 82
bing 82
manu@@ 82
sis@@ 82
tating 82
dow@@ 82
amitnaaq 82
russi@@ 82
16,000 82
mus@@ 82
assemb@@ 81
trou@@ 81
exec@@ 81
ts@@ 81
alli@@ 81
tha 81
3,9@@ 81
scr@@ 81
287 81
accumul@@ 81
urg@@ 81
dor@@ 81
proble@@ 81
utit 81
condi@@ 81
foxe 81
itk 81
2,5@@ 81
nuliajuk 81
kiggavik 81
maksagak 80
qamanittuaq 80
uted 80
mak 80
ficiency 80
derson 80
sour@@ 80
278 80
diam@@ 80
actu@@ 80
fav@@ 80
carv@@ 80
rene@@ 80
let@@ 80
grav@@ 80
stewar@@ 80
distur@@ 80
franklin 80
ara 79
repor@@ 79
ath@@ 79
cler@@ 79
swit@@ 79
12,000 79
pharma@@ 79
rea@@ 79
319 79
288 79
zen 79
cigare@@ 79
310 79
283 79
293 79
christ@@ 79
nip@@ 79
matically 79
365 79
sion@@ 79
tiit 79
kbdc 79
alak 78
deman@@ 78
lu 78
urn@@ 78
arnak@@ 78
spee@@ 78
liter@@ 78
281 78
295 78
keen@@ 78
340 78
reason@@ 78
hi 78
john@@ 78
.9 78
ren 78
load@@ 78
• 78
tahera 78
lan 78
kanatami 78
itsiarniq 78
dre@@ 77
councill@@ 77
kami@@ 77
.7 77
whi@@ 77
3,5@@ 77
sis 77
imi@@ 77
sear@@ 77
abor@@ 77
acti@@ 77
sci@@ 77
ingly 77
.3 77
sex@@ 77
diagn@@ 77
pauktu@@ 77
gall@@ 77
annu@@ 77
supple@@ 77
ai 77
jim 76
ols 76
friend@@ 76
explor@@ 76
tually 76
samu@@ 76
tig@@ 76
davi@@ 76
tremend@@ 76
arded 76
65@@ 76
umb@@ 76
peri@@ 76
hon@@ 76
373 76
passeng@@ 76
confir@@ 76
2.1 76
secur@@ 76
335 76
345 76
oun@@ 76
comprehen@@ 76
291 76
francophon@@ 76
mul@@ 76
3,8@@ 76
70,000 76
namix 76
referen@@ 76
1970 75
explan@@ 75
s. 75
profession@@ 75
prioriti@@ 75
i.@@ 75
ller 75
00@@ 75
td 75
ried 75
ives 75
sime@@ 75
certi@@ 75
peti@@ 75
276 75
coo@@ 75
218 75
agg@@ 75
650 75
appreci@@ 75
2.7 75
que 75
receip@@ 75
13.9 75
33,000 75
68@@ 74
teach@@ 74
sole@@ 74
substan@@ 74
2.4 74
inves@@ 74
aks 74
teen@@ 74
navcanada 74
laun@@ 74
numb@@ 74
expres@@ 74
stance 74
aki@@ 74
ameri@@ 74
197@@ 74
vely 74
rised 74
griev@@ 74
tability 74
350,000 74
athle@@ 74
investiga@@ 74
361 74
nunatta 74
ather 74
kno@@ 74
canadi@@ 74
sul@@ 74
kpmg 74
cared 73
fru@@ 73
hel@@ 73
destin@@ 73
aru@@ 73
equiv@@ 73
uties 73
gir@@ 73
pment 73
nee@@ 73
avak 73
uti 73
kit@@ 73
palli@@ 73
happ@@ 73
380 73
hik@@ 73
conting@@ 73
dio 73
peter@@ 73
itsivauta 73
apar@@ 73
dom 73
destro@@ 73
obliga@@ 73
nuq@@ 72
illu@@ 72
grati@@ 72
nuuk 72
dece@@ 72
emerg@@ 72
uqsuq@@ 72
adi@@ 72
pack@@ 72
face@@ 72
sita@@ 72
337 72
ilu@@ 72
tical 72
auti@@ 72
shoo@@ 72
tapiriit 72
24,000 72
nci@@ 72
ikummatiit 72
jon@@ 71
affor@@ 71
pati@@ 71
a.@@ 71
satisfac@@ 71
quick@@ 71
priv@@ 71
ka 71
identi@@ 71
750 71
stical 71
lain@@ 71
influ@@ 71
425 71
wheel@@ 71
ptions 71
guarante@@ 71
arnaq@@ 71
ni 71
retail@@ 71
utta@@ 71
312 71
gul@@ 70
globe 70
incorpor@@ 70
technologi@@ 70
partn@@ 70
lain 70
mcc@@ 70
1988 70
solved 70
capac@@ 70
after@@ 70
copi@@ 70
prise 70
342 70
spir@@ 70
succe@@ 70
uri@@ 70
ag 70
bit@@ 70
125,000 70
2019 70
ilagi@@ 70
ener@@ 69
tuqangit 69
mal@@ 69
musi@@ 69
abo@@ 69
sting 69
gh 69
communi@@ 69
374 69
carri@@ 69
smi@@ 69
consum@@ 69
nami@@ 69
kup 69
clean@@ 69
mee@@ 69
282 69
308 69
gaining 69
festi@@ 69
taq 69
yers 69
vil@@ 69
olt 69
32,000 69
una 68
van 68
bli@@ 68
quar@@ 68
ross 68
0.00 68
313 68
offen@@ 68
may@@ 68
sin@@ 68
siti@@ 68
habi@@ 68
revol@@ 68
sy@@ 68
2.6 68
www.@@ 68
fas@@ 68
495 68
shor@@ 68
accur@@ 68
om 68
18.@@ 68
expan@@ 67
tis 67
soli@@ 67
nav@@ 67
gli@@ 67
vered 67
wee@@ 67
acqui@@ 67
clar@@ 67
402 67
sman 67
appoin@@ 67
compre@@ 67
hali@@ 67
patri@@ 67
person@@ 67
mir@@ 67
uv@@ 67
ulu 67
proje@@ 67
4.3 67
suspe@@ 67
309 67
ficient 67
sumed 67
travel@@ 67
nui@@ 67
particul@@ 67
4,6@@ 67
hap@@ 66
budge@@ 66
abi@@ 66
consi@@ 66
13,000 66
tery 66
stabili@@ 66
372 66
gration 66
aver@@ 66
substanti@@ 66
disas@@ 66
302 66
315 66
336 66
elev@@ 66
bac@@ 66
perman@@ 66
1.9 66
credi@@ 66
900,000 66
curren@@ 66
301 66
355 66
ov@@ 66
suici@@ 66
trillium 66
ujaq 65
ingaq 65
doub@@ 65
mean@@ 65
fur@@ 65
assu@@ 65
araq 65
catego@@ 65
1000 65
ian 65
dela@@ 65
tu 65
rapi@@ 65
382 65
390 65
395 65
api@@ 65
had@@ 65
utili@@ 65
ingu@@ 65
unaq 65
333 65
ctures 65
pollu@@ 65
ester@@ 65
hak@@ 65
p.@@ 64
upp@@ 64
aup@@ 64
taq@@ 64
adher@@ 64
dent 64
igh@@ 64
itor 64
326 64
aces 64
1992 64
pra@@ 64
inga@@ 64
376 64
303 64
550 64
revi@@ 64
appli@@ 64
dee@@ 64
dedi@@ 64
remin@@ 64
unding 64
hainnu 64
radi@@ 64
314 64
338 64
346 64
428 64
kat@@ 64
329 64
3.4 64
desper@@ 64
eption 64
65,000 64
19,000 64
hug@@ 63
phon@@ 63
iqalu@@ 63
appear@@ 63
introduc@@ 63
332 63
appl@@ 63
incarcer@@ 63
ost 63
ond 63
381 63
fran@@ 63
venu@@ 63
bott@@ 63
alaaq 63
meth@@ 63
popul@@ 63
316 63
chann@@ 63
525 63
tim 63
mik@@ 63
atan@@ 63
deple@@ 63
spre@@ 63
confi@@ 63
pru@@ 63
2.0 63
cracy 62
.4 62
focus@@ 62
speciali@@ 62
et@@ 62
327 62
arily 62
sett@@ 62
304 62
apprenti@@ 62
campaig@@ 62
xed 62
mati@@ 62
strategi@@ 62
ninge@@ 62
beli@@ 62
ctively 62
450,000 62
305 62
364 62
gned 62
outfit@@ 62
anti@@ 62
pis@@ 62
tia 62
firefigh@@ 62
38,000 62
tl@@ 62
unity 61
isol@@ 61
surpris@@ 61
entit@@ 61
wai@@ 61
sugg@@ 61
vers@@ 61
311 61
397 61
398 61
379 61
459 61
commer@@ 61
rain 61
bing@@ 61
luc@@ 61
tian 61
appe@@ 61
tulu@@ 61
uq@@ 61
331 61
347 61
368 61
375 61
404 61
hung@@ 61
senten@@ 61
pal@@ 61
parliamen@@ 61
42,000 61
aulajaaqtut 61
-- 60
headquar@@ 60
entr@@ 60
traine@@ 60
377 60
inuuqatigi@@ 60
387 60
396 60
ingmiut 60
maximi@@ 60
199@@ 60
exam@@ 60
typ@@ 60
ild 60
ored 60
pak@@ 60
lin 60
kan@@ 60
399 60
416 60
arcy 60
ms@@ 60
alla 60
6.5 60
22,000 60
utik 59
strugg@@ 59
recogni@@ 59
enrol@@ 59
coll@@ 59
atten@@ 59
atori@@ 59
akku 59
has@@ 59
343 59
401 59
408 59
410 59
revis@@ 59
plying 59
dur@@ 59
bloo@@ 59
aer@@ 59
stry 59
kit 59
2,6@@ 59
coordin@@ 59
lobb@@ 59
panniqtuuq 59
signific@@ 58
compens@@ 58
congratul@@ 58
arl@@ 58
contamin@@ 58
2,9@@ 58
405 58
ferring 58
oured 58
onally 58
384 58
452 58
procedur@@ 58
judi@@ 58
balan@@ 58
kel@@ 58
100@@ 58
474 58
apologi@@ 58
turno@@ 58
marke@@ 58
reno@@ 58
321 58
341 58
eous 58
presid@@ 58
gather@@ 58
tel@@ 58
templ@@ 58
307 58
inga 58
339 58
354 58
tag@@ 58
distri@@ 58
gin 58
temp@@ 58
iib@@ 58
draw@@ 58
2.9 57
11.@@ 57
mode@@ 57
m. 57
ation@@ 57
poses 57
napa@@ 57
quir@@ 57
qaujimani@@ 57
further@@ 57
kalluk 57
2,500 57
broad@@ 57
000 57
438 57
allo@@ 57
440 57
fic@@ 57
430 57
brief@@ 57
1994 57
lob@@ 57
351 57
alling 57
406 57
420 57
que@@ 57
362 57
sav@@ 57
pream@@ 57
akuluk 57
jas@@ 57
infrastru@@ 57
324 57
328 57
inik 57
6.1 57
iv 57
exerc@@ 57
ml@@ 57
1,200 57
mmt 57
inuksuit 57
wr@@ 56
aqtun 56
1990 56
ile@@ 56
utiq 56
impli@@ 56
gan@@ 56
386 56
427 56
471 56
433 56
wash@@ 56
counter@@ 56
psychi@@ 56
352 56
anu@@ 56
403 56
allu@@ 56
306 56
qi@@ 56
pik 56
367 56
432 56
470 56
collabor@@ 56
immi@@ 56
inniq 56
ki 55
provi@@ 55
esses 55
asie 55
err@@ 55
und 55
nak 55
200@@ 55
yle 55
malik 55
378 55
394 55
accomp@@ 55
shap@@ 55
75@@ 55
transl@@ 55
strong@@ 55
kk@@ 55
9.1 55
sani@@ 55
haw@@ 55
gic 55
val 55
534 55
369 55
rr@@ 55
qaqq@@ 55
pel@@ 55
taga@@ 55
vap@@ 55
tunn@@ 54
muse@@ 54
arrang@@ 54
tories 54
obsta@@ 54
unil@@ 54
privile@@ 54
than@@ 54
357 54
442 54
indu@@ 54
uns@@ 54
assign@@ 54
mates 54
elled 54
424 54
422 54
blu@@ 54
reci@@ 54
oshu@@ 54
348 54
371 54
sume 54
460 54
ther 54
akausi@@ 54
iksivautaaq 54
15,@@ 54
roo@@ 53
oi@@ 53
understand@@ 53
north@@ 53
mr@@ 53
arre@@ 53
383 53
435 53
7.5 53
489 53
cb 53
358 53
498 53
349 53
tan 53
322 53
370 53
gymnasi@@ 53
366 53
suspen@@ 53
ek 53
aqatigiit 53
ilinniarvimmi 53
inuusilirijiit 53
neigh@@ 52
resour@@ 52
vigi@@ 52
69@@ 52
13,@@ 52
ority 52
1- 52
dering 52
ags 52
437 52
experi@@ 52
alent 52
575 52
1991 52
celebr@@ 52
commi@@ 52
fare 52
consu@@ 52
411 52
466 52
429 52
ake@@ 52
scenari@@ 52
atsi@@ 52
erous 52
olo@@ 52
mik 52
centrali@@ 52
angat 52
warran@@ 52
ris 52
deep@@ 52
ror 52
kigu@@ 52
photo@@ 52
750,000 52
keep@@ 52
37,000 52
850,000 52
visions 51
fish@@ 51
ive 51
innu@@ 51
conduc@@ 51
00.00 51
465 51
323 51
451 51
457 51
exce@@ 51
poli@@ 51
lac@@ 51
392 51
409 51
490 51
tarvik 51
avut 51
logy 51
nattil@@ 51
aluk@@ 51
rement 51
va 51
northern@@ 51
cus@@ 51
ktu@@ 51
usi@@ 51
sivumu@@ 51
believ@@ 50
ggi@@ 50
call@@ 50
p. 50
los@@ 50
electr@@ 50
385 50
488 50
441 50
486 50
443 50
niq 50
16,@@ 50
finan@@ 50
anit@@ 50
418 50
426 50
483 50
ot@@ 50
fundamen@@ 50
cam@@ 50
356 50
363 50
99@@ 50
tta@@ 50
utive 50
tren@@ 50
chec@@ 50
ataq 49
ani 49
prepar@@ 49
inquir@@ 49
tti@@ 49
mma@@ 49
1980 49
tioning 49
393 49
475 49
inher@@ 49
tik 49
480 49
photograph@@ 49
bie 49
enn 49
530 49
moni@@ 49
fici@@ 49
421 49
glas@@ 49
civi@@ 49
siv@@ 49
demic 49
cip@@ 49
kinngait 49
draf@@ 49
417 49
iqaluk@@ 49
4,5@@ 49
discre@@ 49
11,000 49
lifes@@ 49
00,000 49
07,000 49
10,@@ 49
ilavut 49
bluep@@ 48
tota@@ 48
talik 48
388 48
389 48
dan@@ 48
439 48
455 48
nakas@@ 48
plan@@ 48
pali@@ 48
359 48
414 48
tsi@@ 48
1960 48
501 48
taima 48
marsh@@ 48
21,@@ 48
gy@@ 48
interi@@ 48
415 48
europe@@ 48
cky 48
mill 48
milli@@ 48
mali@@ 48
commo@@ 48
i. 48
rint 48
arju@@ 48
28,000 48
tailak 48
prou@@ 47
account@@ 47
anism 47
453 47
dav@@ 47
487 47
ample 47
8.9 47
alcoho@@ 47
illing 47
run@@ 47
uqqu@@ 47
li 47
353 47
cope 47
473 47
kuujju@@ 47
419 47
aglu@@ 47
462 47
recep@@ 47
lout 47
missions 47
physi@@ 47
ulluriaq 47
llars 47
llar@@ 47
giaq@@ 47
bour 46
allevi@@ 46
matu@@ 46
thern@@ 46
ti 46
inni@@ 46
secu@@ 46
yuk@@ 46
figh@@ 46
cially 46
typi@@ 46
4.2 46
torate 46
34,000 46
aj@@ 46
pa 46
434 46
tattu@@ 46
ctual 46
respe@@ 46
obli@@ 46
ex 46
407 46
cast 46
optimis@@ 46
rap@@ 46
hun@@ 46
ra 46
libr@@ 46
comfor@@ 46
deci@@ 46
qanukkanniq 46
surro@@ 45
subje@@ 45
respec@@ 45
achiev@@ 45
remo@@ 45
school@@ 45
mb 45
eing 45
colu@@ 45
nal@@ 45
med@@ 45
fisher@@ 45
recycl@@ 45
iles 45
412 45
isa 45
nau@@ 45
announ@@ 45
kamatsi@@ 45
adju@@ 45
aksa@@ 45
olympi@@ 45
uth 45
ullu@@ 45
bull@@ 45
marri@@ 45
0a 45
arluk 45
lightly 44
alloc@@ 44
naaq 44
ite@@ 44
airs 44
mob@@ 44
crimin@@ 44
succ@@ 44
si 44
natsiq 44
auma@@ 44
qar@@ 44
hus@@ 44
salu@@ 44
toon@@ 44
gal@@ 44
dging 44
iss@@ 44
ilik 44
gla@@ 44
angi@@ 44
timi@@ 44
var@@ 44
help@@ 44
arly 44
lega@@ 44
ctu@@ 44
qaj@@ 44
sincer@@ 44
ld 44
aqtiit 44
ods 43
famili@@ 43
suk 43
outsi@@ 43
putu@@ 43
va@@ 43
heal@@ 43
accomplish@@ 43
corpor@@ 43
drin@@ 43
winni@@ 43
bran@@ 43
aga@@ 43
antly 43
appre@@ 43
into@@ 43
est@@ 42
palluq 42
ktuk 42
ia 42
sau@@ 42
aku@@ 42
replac@@ 42
josep@@ 42
responsib@@ 42
ater 42
vering 42
kta@@ 42
statu@@ 42
sponsor@@ 42
gol@@ 42
nata@@ 42
pp 42
sivik 42
seal@@ 42
inuinnaqtut 42
198@@ 42
77@@ 42
evy@@ 42
79@@ 42
anut 42
vili@@ 41
nakurmiik 41
aqp@@ 41
sar@@ 41
hoo@@ 41
-1 41
devi@@ 41
atri@@ 41
extr@@ 41
narwh@@ 41
mma 41
cent@@ 41
know@@ 41
titu@@ 41
exac@@ 41
ini@@ 41
snow@@ 41
program@@ 41
atsiaq 41
kim@@ 41
determin@@ 41
compu@@ 41
asi 41
minimi@@ 41
dently 41
arng@@ 41
sivu@@ 41
fla@@ 41
talir@@ 41
makigi@@ 41
commis@@ 40
hat@@ 40
steph@@ 40
veness 40
sial 40
ana@@ 40
nt@@ 40
reconc@@ 40
allak 40
gai@@ 40
pilak@@ 40
ide@@ 40
issu@@ 40
ethi@@ 40
ving@@ 40
vities 40
performan@@ 40
parnai@@ 40
bla@@ 40
arviarmiut 40
hiv@@ 40
uliq@@ 40
mony 39
meaning@@ 39
titi@@ 39
sai@@ 39
appropri@@ 39
day@@ 39
electric 39
sid@@ 39
andre@@ 39
juq 39
hydro@@ 39
duct 39
grocer@@ 39
att 39
bab@@ 39
allega@@ 39
lit@@ 39
ningi@@ 39
ivik 39
investi@@ 39
glo@@ 38
anik 38
aniq 38
ji@@ 38
scienti@@ 38
lyn@@ 38
kal@@ 38
selves 38
taaq 38
.nu.ca 38
tings 38
convinc@@ 38
tas 38
ssi 38
nunavumiut 38
morris@@ 38
lit 37
unds 37
secretari@@ 37
prohib@@ 37
cumber@@ 37
larg@@ 37
aria 37
documen@@ 37
pho@@ 37
tence 37
nd 37
yel@@ 37
mmiut 37
maani 37
juan@@ 37
runn@@ 37
ach 37
squ@@ 37
skat@@ 37
clau@@ 37
kets 37
functi@@ 37
nunav@@ 37
nur@@ 37
level@@ 37
other@@ 37
memoran@@ 37
tit 36
ses@@ 36
wes@@ 36
relev@@ 36
ila 36
wives 36
sand 36
mption 36
jiit 36
dial@@ 36
presen@@ 36
arra@@ 36
stant 36
ingmi@@ 36
ali 36
aja@@ 36
angn@@ 36
anguti@@ 36
data@@ 36
alain 36
kti@@ 36
58@@ 36
tammaatar@@ 36
mmut 36
uqaqtittijii 36
fel@@ 35
gists 35
ng@@ 35
ks@@ 35
dol@@ 35
60@@ 35
nuv@@ 35
tep 35
vin 35
nuna 35
tas@@ 35
apsi 35
van@@ 35
candi@@ 35
your@@ 35
moder@@ 35
adjust@@ 35
awa@@ 35
lia 35
pak 35
ques@@ 35
pen 35
hospitali@@ 35
aut@@ 35
uaq 35
taur@@ 35
learn@@ 35
amma@@ 35
amaru@@ 35
cari@@ 35
commission@@ 35
unngu@@ 35
,000@@ 34
dec@@ 34
employ@@ 34
pee 34
jam@@ 34
uin@@ 34
tack@@ 34
hans@@ 34
prob@@ 34
igloo@@ 34
utsi@@ 34
kivi@@ 34
onary 34
ingit 34
kuglu@@ 34
atric 34
atives 34
conf@@ 34
wan 34
arvi@@ 34
lish 33
alber@@ 33
aspir@@ 33
inspe@@ 33
serv@@ 33
sl@@ 33
noon 33
tti 33
imple@@ 33
uqaqtii 33
ambul@@ 33
ujj@@ 33
aluki 33
wan@@ 33
representa@@ 33
infl@@ 33
tai@@ 33
sui@@ 33
class@@ 33
tapp@@ 33
tuq@@ 33
vements 33
sap@@ 33
appendi@@ 33
vander@@ 33
ells 33
joh@@ 32
bes@@ 32
hav@@ 32
figur@@ 32
ctional 32
loosie 32
hann@@ 32
materi@@ 32
shoul@@ 32
suming 32
ilis@@ 32
tuk@@ 32
od 32
ri 32
glob@@ 32
ah@@ 32
aajiiqatigi@@ 32
inging 32
agre@@ 32
numer@@ 32
citiz@@ 32
requi@@ 32
ssa@@ 32
ologi@@ 32
ade@@ 32
list@@ 32
aqtu@@ 32
coas@@ 31
pc 31
mamma@@ 31
pit@@ 31
lai@@ 31
pij@@ 31
secre@@ 31
dialo@@ 31
naullaq 31
restruc@@ 31
miki@@ 31
assion@@ 31
navi@@ 31
iner@@ 31
ey@@ 31
gree@@ 31
vaktu@@ 31
thank@@ 31
nunavummi@@ 31
hil@@ 31
submi@@ 31
advo@@ 31
mately 31
royal@@ 31
iglulik 31
ullar@@ 30
detail@@ 30
rial 30
curi@@ 30
pens@@ 30
trage@@ 30
ration@@ 30
tuaq 30
reservo@@ 30
aqtuq 30
atag@@ 30
rd 30
nw@@ 30
confu@@ 30
handic@@ 30
enhan@@ 30
cere@@ 30
sallu@@ 30
ough 30
exped@@ 30
plumb@@ 30
aban@@ 30
mittimatalik 30
attend@@ 30
ves@@ 30
complain@@ 30
uki@@ 30
billi@@ 30
√ 30
excell@@ 29
mn@@ 29
uming@@ 29
uta@@ 29
ies 29
ark@@ 29
qamma@@ 29
nuk@@ 29
inusi@@ 29
apprenticeshi@@ 29
arm@@ 29
tungi@@ 29
pron@@ 29
docu@@ 29
resid@@ 29
siman@@ 29
za 29
use@@ 29
blizz@@ 29
aar@@ 29
dama@@ 29
calend@@ 29
endang@@ 29
bert 28
ins@@ 28
aaq 28
clari@@ 28
anil@@ 28
alex@@ 28
ites 28
ittu@@ 28
ety 28
sit@@ 28
basi@@ 28
wrest@@ 28
aur@@ 28
80@@ 28
mini 28
otak 28
amoun@@ 28
vul@@ 28
traf@@ 28
aa 28
pala@@ 28
ign@@ 28
ald 28
ree 28
forgiv@@ 28
siut@@ 28
amen@@ 28
cred@@ 28
offer@@ 28
55@@ 28
innasu@@ 28
uqaqatigi@@ 28
mamisarvik 28
disp@@ 27
woo@@ 27
easi@@ 27
adjour@@ 27
observ@@ 27
.ca 27
maligarnit 27
ii@@ 27
kati@@ 27
uj@@ 27
pap@@ 27
infor@@ 27
max@@ 27
tapa@@ 27
alu 27
emo@@ 27
endeav@@ 27
ander 27
proc@@ 27
tir@@ 27
ikk@@ 27
mal 27
some@@ 27
heav@@ 27
kata@@ 27
diagnos@@ 27
stries 27
struc@@ 27
enty 27
hope@@ 27
lot@@ 27
sper@@ 27
namma@@ 27
kiglisini@@ 27
lied 27
ular 27
fres@@ 27
pitsi@@ 26
maj@@ 26
angit 26
influen@@ 26
kallu@@ 26
sequ@@ 26
kivallirmiut 26
sustain@@ 26
aqi@@ 26
qimmi@@ 26
cof@@ 26
stab@@ 26
tten 26
ket@@ 26
opti@@ 26
chang@@ 26
superinten@@ 26
edul@@ 26
tinct 26
liq 26
gait 26
jur@@ 26
territori@@ 26
kala@@ 26
dise@@ 26
ila@@ 26
accor@@ 26
atuqtuarvik 26
intern@@ 26
spr@@ 26
aluit 26
forth@@ 25
derly 25
beth 25
manik 25
panik@@ 25
nir@@ 25
nik 25
certa@@ 25
aqq@@ 25
ruk 25
mmi@@ 25
oyak 25
miali 25
ame 25
ema@@ 25
mut 25
tline 25
thres@@ 25
pag@@ 25
ukali@@ 25
musko@@ 25
arnait 25
= 25
utaq 24
esti@@ 24
70@@ 24
qimirrujiit 24
kimb@@ 24
ilitation 24
lo 24
iku@@ 24
ats@@ 24
clini@@ 24
pah 24
giaq 24
nag@@ 24
aker 24
mand 24
ikki@@ 24
annuk 24
success@@ 24
tut 24
tai 24
deta@@ 24
qau@@ 24
qan@@ 24
efully 24
atsa@@ 24
ilipp@@ 24
kas@@ 24
ulla@@ 24
organiz@@ 24
ullaakkut 24
kul@@ 24
cture 24
vinc@@ 24
ita@@ 24
nunavummit 24
ott 24
uqtu@@ 24
telehand@@ 24
atuliq@@ 24
mm@@ 23
bour@@ 23
rf@@ 23
fair@@ 23
ttu@@ 23
perc@@ 23
arragu@@ 23
tiki@@ 23
bene@@ 23
barn@@ 23
ping@@ 23
unti@@ 23
auta@@ 23
secon@@ 23
cumb@@ 23
reso@@ 23
cil 23
iling@@ 23
ain@@ 23
saiji 23
arna@@ 23
whit@@ 23
armiut 23
yook 23
nunatsi@@ 23
bec 23
vember 23
tunnga@@ 23
intro@@ 22
nutar@@ 22
ilities 22
rai@@ 22
syllabi@@ 22
combin@@ 22
art@@ 22
inuuqatigiitti@@ 22
herty 22
vit@@ 22
ppa 22
nivi@@ 22
ctic 22
ungai 22
amini 22
qut 22
tang@@ 22
anig@@ 22
osis 22
katu@@ 22
revie@@ 22
malik@@ 22
akallak 22
vv@@ 22
band@@ 22
regis@@ 22
dir@@ 22
vvi@@ 22
unit@@ 22
rumb@@ 22
lais@@ 22
labor@@ 22
ara@@ 22
coup@@ 22
artiit 22
kana@@ 22
mpi@@ 22
iti@@ 21
ilih@@ 21
step@@ 21
toral 21
irnga@@ 21
upl@@ 21
warded 21
hypothe@@ 21
arv@@ 21
priori@@ 21
ulaajuk 21
pig@@ 21
arni@@ 21
itu@@ 21
jos@@ 21
saili@@ 21
alas@@ 21
aksi@@ 21
transpar@@ 21
dden 21
pli@@ 21
gini@@ 21
deposi@@ 21
sof@@ 21
recruit@@ 21
elec@@ 21
clas@@ 21
discus@@ 21
um@@ 21
lauri@@ 21
trau@@ 21
imb@@ 21
junction 21
qil@@ 21
ende@@ 21
piqqusiliri@@ 21
ht 21
qujannamiiktauq 21
qikiqta@@ 20
purch@@ 20
round@@ 20
tsiaq 20
sang@@ 20
fashi@@ 20
sima@@ 20
ajuk 20
ikajur@@ 20
where@@ 20
trag@@ 20
aqju@@ 20
alan 20
maliganik 20
pau@@ 20
ati 20
tamar@@ 20
certific@@ 20
@ 20
magi@@ 20
vi 20
domini@@ 20
rama 20
shops 20
emp@@ 20
fal@@ 20
pop@@ 20
ilak 20
install@@ 20
ij@@ 20
arding 20
uja 20
mat 20
comparis@@ 20
forec@@ 20
git 20
itely 20
dead@@ 20
fill@@ 20
atili@@ 20
uli@@ 20
pamp@@ 20
liq@@ 20
nut@@ 20
tata@@ 20
bootlegg@@ 20
qaapik 20
niqittiav@@ 20
uu@@ 19
aith@@ 19
fiel@@ 19
w.@@ 19
aju 19
kau@@ 19
aglukk@@ 19
trib@@ 19
uma@@ 19
ja 19
utin@@ 19
grap@@ 19
circum@@ 19
anginn@@ 19
aal@@ 19
ata 19
second@@ 19
allak@@ 19
unilu@@ 19
kann@@ 19
encour@@ 19
vut 19
uqtuq 19
kuga@@ 19
recy@@ 19
ven 19
agend@@ 19
testi@@ 19
tam@@ 19
licen@@ 19
frame@@ 19
surg@@ 19
camer@@ 19
affe@@ 19
ksi@@ 19
lessness 19
onal 19
victi@@ 19
ith 19
vvik 19
ilingual 19
llu@@ 19
aug@@ 19
fo 19
oner 19
beginn@@ 19
hydr@@ 19
aly@@ 19
qaujimajatuqangat 19
san 18
ami 18
inuinnaqtu@@ 18
nuli@@ 18
ardi@@ 18
pleasu@@ 18
assment 18
kin 18
staff@@ 18
lang@@ 18
ang 18
ool 18
expe@@ 18
grizz@@ 18
sila 18
itti@@ 18
akul@@ 18
erals 18
child@@ 18
ksa@@ 18
utiit 18
gat 18
qauma@@ 18
ala 18
amik 18
aju@@ 18
cus 18
joan@@ 18
adow@@ 18
tle@@ 18
atable 18
adverti@@ 18
ans@@ 18
individu@@ 18
ei@@ 18
turi@@ 18
messa@@ 18
ysi@@ 18
adul@@ 18
qatsi@@ 18
ard@@ 18
qav@@ 18
scann@@ 18
cumul@@ 18
maligaliurvi@@ 18
gisl@@ 18
crati@@ 17
m.@@ 17
schol@@ 17
anika 17
iglu@@ 17
horse 17
unch 17
nati@@ 17
aktu@@ 17
itsivautaaq 17
lev@@ 17
specially 17
uju@@ 17
iki@@ 17
kap@@ 17
pang@@ 17
renew@@ 17
arva@@ 17
pilimmaks@@ 17
piliriqatigi@@ 17
sak@@ 17
campai@@ 17
surviv@@ 17
consider@@ 17
pill@@ 17
kak@@ 17
aan@@ 17
tasiujarjuaq 17
unga@@ 17
recti@@ 17
meot 17
marr@@ 17
convers@@ 17
hop 17
arjuaq 17
gui@@ 17
angut@@ 17
deni@@ 17
guide@@ 17
uqtiit 17
jun 17
confidenti@@ 17
attuq 17
saq 17
sanikiluarmiut 17
ier 16
ause 16
piv@@ 16
ttuq 16
ples 16
maligarnik 16
ukkusi@@ 16
raf@@ 16
ays 16
qimir@@ 16
dani@@ 16
jut 16
abandon@@ 16
mai@@ 16
av 16
avvik 16
tut@@ 16
asse@@ 16
500@@ 16
reph@@ 16
ody 16
nis@@ 16
takk@@ 16
resor@@ 16
ationally 16
piu@@ 16
stantly 16
fic 16
pal 16
artu@@ 16
saki@@ 16
nunavut@@ 16
stream@@ 16
memb@@ 16
ances@@ 16
ign 16
urmiut 16
lima@@ 16
man. 16
stru@@ 16
amis@@ 16
mili@@ 16
naqi@@ 16
occasi@@ 16
ungu@@ 16
young@@ 16
giti@@ 16
withstanding 16
_ 16
k. 16
cou@@ 16
geor@@ 16
sami 16
uqausirmut 16
quviasuutiq@@ 16
miq@@ 15
elisa@@ 15
signi@@ 15
amal@@ 15
ested 15
summa@@ 15
mini@@ 15
kugaar@@ 15
issi@@ 15
cele@@ 15
alak@@ 15
appar@@ 15
ces@@ 15
clear@@ 15
attu@@ 15
adjac@@ 15
mad@@ 15
assa 15
saq@@ 15
paragrap@@ 15
rose@@ 15
extre@@ 15
akkut 15
osed 15
naj@@ 15
natsi@@ 15
mobiles 15
netsi@@ 15
asa 15
uqau@@ 15
à 15
apers 15
avit 15
sanau@@ 15
ikp@@ 14
peop@@ 14
dson 14
essenti@@ 14
unnecess@@ 14
ji 14
satelli@@ 14
hypo@@ 14
potenti@@ 14
inungnik 14
ungasiktu@@ 14
usi 14
fe 14
tukisini@@ 14
casu@@ 14
immin@@ 14
weal@@ 14
arnau@@ 14
una@@ 14
pijitsir@@ 14
qanuqtuur@@ 14
minik 14
imm@@ 14
imai@@ 14
arn 14
brow@@ 14
pi 14
encoun@@ 14
magaz@@ 14
angin@@ 14
cements 14
malig@@ 14
natti@@ 14
kee@@ 14
aat 14
knife 14
patt@@ 14
wild@@ 14
ram 14
appa 14
chester@@ 14
talu@@ 14
gins 14
qaujimajatu@@ 14
counc@@ 14
poin@@ 14
ola@@ 14
procu@@ 14
qal@@ 14
pirur@@ 14
liin 14
unnusakkut 14
nunalivut 14
aqpait 14
qatta@@ 14
{ 14
§ 14
} 14
itinnu@@ 13
lh@@ 13
nik@@ 13
qaujimaj@@ 13
imag@@ 13
asa@@ 13
ilippalli@@ 13
offici@@ 13
ula@@ 13
lirijiit 13
aqtavut 13
tim@@ 13
ipp@@ 13
methodo@@ 13
surance 13
nit 13
qaq@@ 13
anir@@ 13
chuk 13
chill 13
strik@@ 13
ungi@@ 13
versi@@ 13
ulaaq 13
erships 13
orities 13
efs 13
kins 13
bution 13
vince 13
umi@@ 13
vin@@ 13
atigi@@ 13
maniq 13
sij@@ 13
hly 13
ning@@ 13
ih@@ 13
qullik 13
tammar@@ 13
niaq@@ 13
sma@@ 13
cuse 13
mis 13
agl@@ 13
vu 13
nu 13
enga@@ 13
taloyo@@ 13
katujjiqatigiit 13
arasu@@ 13
gas@@ 13
tely 13
jualu@@ 13
ssait 13
gama@@ 13
tulu 13
spen@@ 12
ina@@ 12
beauti@@ 12
½ 12
qit@@ 12
sivuliuqti@@ 12
tul@@ 12
tara 12
won@@ 12
transpor@@ 12
absten@@ 12
gav@@ 12
anni@@ 12
taki@@ 12
mali 12
ilu 12
gis@@ 12
bachel@@ 12
canad@@ 12
iliation 12
saun@@ 12
aaluk 12
iksa@@ 12
rase 12
nally 12
journe@@ 12
ingi@@ 12
ership 12
plo@@ 12
kuluk 12
asia 12
agga@@ 12
arnaq 12
qima@@ 12
tasi@@ 12
onic 12
esting 12
sep@@ 12
irq@@ 12
ilinniarvik 12
barri@@ 12
tuu@@ 12
dations 12
ilisar@@ 12
akk@@ 12
parnautit 12
sovere@@ 12
indetermin@@ 12
titir@@ 12
aliri@@ 12
aggi@@ 12
uqh@@ 12
atl@@ 12
ingirrasi@@ 12
201@@ 12
uku@@ 12
qaman@@ 12
irjuaq 12
nanis@@ 12
found@@ 12
iqsuqtii 12
mianiq@@ 12
unir@@ 11
uqsuqtuuq 11
fery 11
nat@@ 11
talli@@ 11
technolo@@ 11
amit@@ 11
implemen@@ 11
rho@@ 11
mani 11
naq 11
rity 11
niq@@ 11
junn@@ 11
uqa@@ 11
ariaq 11
sari@@ 11
spon@@ 11
upa@@ 11
siniktar@@ 11
pairiv@@ 11
hou@@ 11
tarju@@ 11
situ@@ 11
haps 11
ika@@ 11
muk 11
aga 11
waste@@ 11
uqausiit 11
unities 11
wonder@@ 11
ktuq 11
mach@@ 11
+ 11
saskat@@ 11
ort@@ 11
competiti@@ 11
fif@@ 11
jut@@ 11
tit@@ 11
tuuq 11
eful@@ 11
viit 11
uqs@@ 11
jour@@ 11
aujaq 11
sanajiit 11
uqu@@ 11
finland 11
alian@@ 11
ujju@@ 11
nattiq 11
inuusirmi 11
stoo@@ 11
geable 11
inuusi@@ 11
dential 11
itta@@ 11
tunngasu@@ 11
iqsuktii 11
hiks@@ 11
igi@@ 10
approach@@ 10
simp@@ 10
nunavu@@ 10
ink@@ 10
ting@@ 10
kut 10
ec 10
satur@@ 10
ika 10
aliq@@ 10
speak@@ 10
arnir@@ 10
uqsi@@ 10
piqu@@ 10
liriniq 10
l.@@ 10
adv@@ 10
recommen@@ 10
mang@@ 10
qik@@ 10
sel 10
agait 10
ugjuk 10
aun 10
aqqi@@ 10
educ@@ 10
kali@@ 10
llership 10
ullukkut 10
asuilaak 10
uqsuq 10
kku@@ 10
ukkut 10
sura@@ 10
atau@@ 10
tunngav@@ 10
liuqtiit 10
atuq 10
vak@@ 10
kni@@ 10
tral 10
nuj@@ 10
legg@@ 10
utinu@@ 10
tuktu@@ 10
vention 10
akkak 10
wid@@ 10
anngu@@ 10
annivers@@ 10
mechani@@ 10
forfe@@ 10
utions 10
ura@@ 10
iksi@@ 10
tern 10
ww@@ 10
worth@@ 10
ferred 10
0,000.00 10
qutti@@ 10
taina 10
kuug@@ 10
rc@@ 10
nauj@@ 10
uniq 10
ual 10
taun 10
pigg@@ 10
iqqanaijaqatigi@@ 10
akh@@ 10
enok@@ 10
ksat 10
inutu@@ 10
nali@@ 10
angaju@@ 10
carb@@ 10
ᒪ@@ 10
aulat@@ 10
igluliuq@@ 10
ilauq@@ 10
qaujigiar@@ 10
maata@@ 10
lii 10
qaujimanituq@@ 10
lutit 10
quq@@ 9
autaq 9
prog@@ 9
adjourn@@ 9
seni@@ 9
zer@@ 9
hop@@ 9
ingniq 9
salliit 9
aqsa@@ 9
quan@@ 9
serge@@ 9
artur@@ 9
ingn@@ 9
nang@@ 9
tauk@@ 9
sures 9
viq 9
uqatigi@@ 9
emph@@ 9
akik@@ 9
pair@@ 9
imma@@ 9
siq@@ 9
sir@@ 9
inas@@ 9
not@@ 9
toge@@ 9
kuugaar@@ 9
symp@@ 9
sib@@ 9
cco 9
indemni@@ 9
arutiit 9
bdc 9
paren@@ 9
taala@@ 9
tention 9
tautu@@ 9
roug@@ 9
qali@@ 9
digi@@ 9
giv@@ 9
alakannuaq 9
enh@@ 9
works@@ 9
akulu@@ 9
laaq 9
hez@@ 9
mni@@ 9
tamma@@ 9
kangir@@ 9
eu@@ 9
uqatigiit 9
uqq@@ 9
innguaq 9
inuu@@ 9
tammaati@@ 9
architec@@ 9
guuq 9
ava@@ 9
kasu@@ 9
boot@@ 9
gut 9
ijiit 9
domesti@@ 9
organi@@ 9
annir@@ 9
inia 9
princip@@ 9
u.@@ 9
luar@@ 9
unnut 9
aulaj@@ 9
answer@@ 9
pass@@ 9
tamatta 9
uja@@ 9
umiat 9
najuq@@ 9
vere@@ 9
qujannami 8
2000@@ 8
salliq 8
agi@@ 8
iqaq@@ 8
winn@@ 8
feder@@ 8
lirijikkut 8
aqs@@ 8
makita@@ 8
gnis@@ 8
maq@@ 8
stration 8
ament 8
lak@@ 8
atti 8
syl@@ 8
sall@@ 8
heri@@ 8
qikiqtarju@@ 8
anuk 8
niviaqsi@@ 8
jutit 8
arnis@@ 8
taqau@@ 8
glu@@ 8
mely 8
symposi@@ 8
rest@@ 8
aki 8
gik 8
· 8
pai@@ 8
utitut 8
tui@@ 8
exer@@ 8
inna@@ 8
assi 8
aka@@ 8
kai@@ 8
ars@@ 8
diag@@ 8
manga@@ 8
unal 8
fore 8
newfound@@ 8
sila@@ 8
pik@@ 8
ul 8
petro@@ 8
tat@@ 8
liais@@ 8
utaqqi@@ 8
hig@@ 8
tasiuj@@ 8
quvian@@ 8
pinngu@@ 8
ight 8
jjuk 8
tuttar@@ 8
innait 8
frost 8
kp@@ 8
sapu@@ 8
umimma@@ 8
alaralak 8
avail@@ 8
jimi 8
bach@@ 8
tirigani@@ 8
kilow@@ 8
˚ 8
acces@@ 8
imiq@@ 8
kangiq@@ 8
qupp@@ 8
avati@@ 8
ippi@@ 8
gatsi@@ 8
alianait 8
sik 8
akuk@@ 8
atii 8
nalluavik 8
ᑕ@@ 8
ᑦ@@ 8
ᑕ 8
taiguusi@@ 8
mand@@ 8
rote 8
qanurli 8
pitta@@ 8
gatta 8
suq@@ 7
parli@@ 7
iqq@@ 7
iqaluktu@@ 7
aqti 7
uqartii 7
aut 7
enterpris@@ 7
iter@@ 7
ttes 7
arp@@ 7
uniq@@ 7
sik@@ 7
barnab@@ 7
wak 7
graph@@ 7
port@@ 7
sung@@ 7
miti@@ 7
auk 7
qallun@@ 7
will@@ 7
aqtuuq 7
saf@@ 7
jait 7
puri@@ 7
pita@@ 7
nalia 7
kig@@ 7
aqtaq 7
eshi@@ 7
smoo@@ 7
cants 7
mamianaq 7
phar@@ 7
liri@@ 7
ama 7
piungi@@ 7
ikajuqtigi@@ 7
qata@@ 7
nait 7
utu@@ 7
holi@@ 7
gnant 7
illa@@ 7
gle@@ 7
odi@@ 7
dingly 7
gaaq 7
qaqi@@ 7
legiti@@ 7
tapar@@ 7
hc 7
ijir@@ 7
healthi@@ 7
aruk 7
ssau@@ 7
uni 7
pingu@@ 7
qallunaatitut 7
iglu 7
talo@@ 7
atii@@ 7
tumi@@ 7
unga 7
tallur@@ 7
tugu@@ 7
qitiq@@ 7
itsi@@ 7
az@@ 7
arala@@ 7
° 7
parame@@ 7
rar@@ 7
kiki@@ 7
stitu@@ 7
thin@@ 7
unnuk 7
iga@@ 7
parnautiit 7
ujuq 7
tabl@@ 7
ais@@ 7
pukirnak 7
allit 7
siuti@@ 7
uttaq@@ 7
uqaqtitsijii 7
tunngan@@ 7
hos 7
ikajuqtiit 7
aturi@@ 6
puq@@ 6
bowhe@@ 6
&@@ 6
t; 6
yester@@ 6
unik 6
annamiik 6
tusa@@ 6
qatigi@@ 6
namminiq 6
ukta@@ 6
nel 6
scrutin@@ 6
kki@@ 6
anisms 6
akau@@ 6
tob@@ 6
ever@@ 6
takiju@@ 6
silu 6
innuk@@ 6
iqu@@ 6
utiq@@ 6
uktu@@ 6
ini 6
nung@@ 6
twel@@ 6
unikka@@ 6
avatimik 6
igno@@ 6
umut 6
inclu@@ 6
pinn@@ 6
tigu@@ 6
recre@@ 6
health@@ 6
qai@@ 6
qing@@ 6
bron@@ 6
auj@@ 6
sition 6
qimiru@@ 6
anik@@ 6
akku@@ 6
tta 6
provin@@ 6
ilita@@ 6
ulli@@ 6
tauj@@ 6
igg@@ 6
qulli@@ 6
tikir@@ 6
consen@@ 6
tug@@ 6
qir@@ 6
komo@@ 6
ita 6
liurniq 6
niqinik 6
nuat@@ 6
ari 6
akkik 6
atuqtuq 6
kindergar@@ 6
innut 6
iluli@@ 6
ssat 6
iqatigi@@ 6
amee 6
adjo@@ 6
dia@@ 6
hb 6
invol@@ 6
uga@@ 6
ques 6
aneous 6
tainnaq 6
inung@@ 6
ago@@ 6
aujuq 6
unnaq 6
iliq@@ 6
quttittuq 6
arnaaq 6
mami@@ 6
state@@ 6
inuusirmit 6
taasi 6
econo@@ 6
pimmar@@ 6
ijj@@ 6
nunavuumiut 6
nunavumi 6
savv@@ 6
tasiujarju@@ 6
suk@@ 6
stev@@ 6
ajuq 6
chael 6
qall@@ 6
iliqqusilirijikkut 6
chamb@@ 6
¹ 6
qap@@ 6
id@@ 6
agalak@@ 6
aqtuut 6
avv@@ 6
atiq@@ 6
tukisigi@@ 6
pula@@ 6
ttinnik 6
atan 6
nutaqq@@ 6
avuut 6
niaqunnguut 6
upigi@@ 6
ilagiit 6
aupalu@@ 5
nosis 5
eliz@@ 5
qaujimaji@@ 5
iqaluktuuttiaq 5
iqalummi@@ 5
qa 5
ava 5
nutara@@ 5
nutaraq 5
urmi@@ 5
dicti@@ 5
armi@@ 5
kiu@@ 5
liit 5
lir@@ 5
natu@@ 5
aks@@ 5
dal@@ 5
add@@ 5
taul@@ 5
iqal@@ 5
aqsi@@ 5
aqta@@ 5
tung@@ 5
ksaq 5
ficial 5
tech@@ 5
sip@@ 5
ujuk 5
siur@@ 5
alaak 5
qanu@@ 5
atani@@ 5
saijiit 5
ikku@@ 5
its@@ 5
panni@@ 5
lic@@ 5
anau@@ 5
qimi@@ 5
machin@@ 5
nais@@ 5
dom@@ 5
small@@ 5
aruluk 5
iks@@ 5
ujar@@ 5
nangi@@ 5
ivi@@ 5
wester@@ 5
nunami@@ 5
nalun@@ 5
vulner@@ 5
arte@@ 5
tat 5
atar@@ 5
sivunik@@ 5
ulluq 5
bure@@ 5
igu@@ 5
paaq 5
taut@@ 5
difficul@@ 5
his@@ 5
juat 5
atuli@@ 5
suq 5
ilaaq 5
tama@@ 5
aqqusi@@ 5
rehab@@ 5
pian@@ 5
sali@@ 5
lead@@ 5
huk@@ 5
pannir@@ 5
uvi@@ 5
seali@@ 5
napp@@ 5
kangi@@ 5
ous@@ 5
viniq 5
angittu@@ 5
feasi@@ 5
volution 5
taap@@ 5
akki 5
iniaqtut 5
municip@@ 5
tailinirmut 5
miuq 5
dang@@ 5
tunga@@ 5
qqu@@ 5
width 5
columb@@ 5
isa@@ 5
vac 5
agara 5
turni@@ 5
asiv@@ 5
araaluk 5
syll@@ 5
quli@@ 5
sivuli@@ 5
mayo@@ 5
tiri@@ 5
ukku@@ 5
anngittuq 5
gi 5
misi@@ 5
mmaq@@ 5
utti@@ 5
certain@@ 5
terly 5
inte@@ 5
perfe@@ 5
white@@ 5
mikk@@ 5
inuusiq 5
quasa 5
rus 5
hot@@ 5
sunakkuta@@ 5
iliit 5
saqqiq@@ 5
saqi@@ 5
assess@@ 5
qaujiman@@ 5
passa@@ 5
.nu@@ 5
wer@@ 5
qani@@ 5
ukpik 5
tukisi@@ 5
curriculu@@ 5
lirijit 5
maka@@ 5
utik@@ 5
ilinniarniq 5
percen@@ 5
ingat 5
kinngarmiut 5
ild@@ 5
ittut 5
sivuliqtik@@ 5
qanukiaq 5
tuuga@@ 5
uqalimaariuqs@@ 5
laq 4
tini@@ 4
aggres@@ 4
amend@@ 4
kuuk 4
mu 4
ikupigvilirijikkut 4
ikupiktu@@ 4
innir@@ 4
liriji 4
kulu@@ 4
nolo@@ 4
hir@@ 4
osen 4
atsi 4
jj@@ 4
alvin 4
kik@@ 4
è@@ 4
pili@@ 4
gavik 4
uluk@@ 4
dul@@ 4
fren@@ 4
siku@@ 4
taku@@ 4
alluaq 4
unar@@ 4
ungi 4
saali 4
aliit 4
tuni@@ 4
kaju@@ 4
tise 4
stly 4
him@@ 4
kaman@@ 4
..@@ 4
issa@@ 4
telev@@ 4
leum 4
public@@ 4
uqsa@@ 4
xe 4
taus@@ 4
oly@@ 4
aujj@@ 4
qin@@ 4
para 4
anaij@@ 4
qamani@@ 4
fossi@@ 4
aqa 4
kama@@ 4
scho@@ 4
naju@@ 4
aula@@ 4
anaan@@ 4
achi@@ 4
ilisa@@ 4
illi 4
tili@@ 4
propos@@ 4
inngaq 4
nirlunga@@ 4
qul@@ 4
inuusirmut 4
ikku 4
asung@@ 4
qak@@ 4
ulti@@ 4
allow@@ 4
tuga@@ 4
tsu@@ 4
rmiut 4
unu@@ 4
uks@@ 4
kiv@@ 4
jju@@ 4
clen@@ 4
irngu@@ 4
ugut 4
tukis@@ 4
tukisin@@ 4
aqti@@ 4
ttaq 4
sama@@ 4
tapiri@@ 4
denning 4
suffer@@ 4
genous 4
labra@@ 4
jai@@ 4
unni@@ 4
angnak@@ 4
inu 4
encourag@@ 4
diale@@ 4
nukappi@@ 4
milia 4
makk@@ 4
kamatti@@ 4
pun 4
isi 4
inngu@@ 4
avvi@@ 4
hundre@@ 4
piujuq 4
col 4
jja@@ 4
artok 4
arbit@@ 4
ui@@ 4
tuinn@@ 4
nalu@@ 4
exper@@ 4
uqaqtittiji 4
iqalungmiut 4
kuk 4
euro@@ 4
misa@@ 4
frank@@ 4
namminiqaqtunik 4
ungniq 4
́ 4
autiit 4
sati@@ 4
isi@@ 4
baff@@ 4
acu@@ 4
ittunga 4
aqjuk 4
igl@@ 4
promo@@ 4
anga 4
ikumma@@ 4
inuki 4
wa 4
isuma@@ 4
nunavummiu@@ 4
tali 4
piti@@ 4
culu@@ 4
inuug@@ 4
ouri@@ 4
luutta@@ 4
saali@@ 4
nann@@ 4
qait 4
niqi@@ 4
uqausiq@@ 4
gju@@ 4
arningit 4
ᐅ@@ 4
ᖃ@@ 4
siuk 4
iqqa@@ 4
ç@@ 4
maata 4
inulirijikkut 4
ungnik 4
kinguva@@ 4
liuq@@ 4
juni@@ 4
angutiit 4
schedul@@ 4
lavut 4
tunut 4
innell 4
innarnut 4
leav@@ 4
yootak 4
ô@@ 4
angirraq@@ 4
atausi@@ 4
ittugut 4
vagi@@ 4
tsi 4
quj@@ 3
................................@@ 3
sivuliuqti 3
qaujimaju@@ 3
mangi@@ 3
qaujima@@ 3
tga@@ 3
urmik 3
katima@@ 3
uqati@@ 3
qangit 3
aqtii 3
grow@@ 3
ikup@@ 3
qikiqtaalung@@ 3
irnir@@ 3
arnirlu 3
nungusu@@ 3
ult 3
mmik 3
piq@@ 3
ilir@@ 3
qusi@@ 3
alir@@ 3
kimmiru@@ 3
alur@@ 3
ukp@@ 3
samm@@ 3
tulli@@ 3
amut 3
centr@@ 3
ikajuu@@ 3
alinga@@ 3
uksi@@ 3
qaur@@ 3
arnit 3
akut 3
ajj@@ 3
amma 3
ssi@@ 3
suli@@ 3
anni 3
ingnir@@ 3
augu@@ 3
aper 3
cm@@ 3
mpson 3
subsid@@ 3
jutiit 3
guk 3
....@@ 3
great@@ 3
specific@@ 3
tuki@@ 3
uga 3
avin@@ 3
qaujimajatuqanginnut 3
uqaju@@ 3
maniq@@ 3
aktuq 3
alianai@@ 3
atorium 3
aak@@ 3
amiut 3
atta 3
psy@@ 3
saij@@ 3
aiv@@ 3
manitob@@ 3
kimmi@@ 3
2003@@ 3
sarv@@ 3
aqiaruq 3
ajut 3
cate@@ 3
attunut 3
tainn@@ 3
sands 3
unngi@@ 3
atsu@@ 3
ataaq 3
qaujimaningit 3
nanur@@ 3
kkaq 3
killi@@ 3
usu@@ 3
twi@@ 3
angli@@ 3
lighted 3
makku@@ 3
oper 3
sanikilu@@ 3
throug@@ 3
appen@@ 3
spou@@ 3
luna@@ 3
sivur@@ 3
reloc@@ 3
4. 3
ua 3
keew@@ 3
aiti@@ 3
aqtar@@ 3
tura@@ 3
voc@@ 3
qaumma@@ 3
apri@@ 3
kuu@@ 3
indepen@@ 3
ternal 3
sukku@@ 3
nungut@@ 3
anginnaq 3
nungu@@ 3
inir@@ 3
mapsalaaq 3
comptro@@ 3
pattu@@ 3
aivi@@ 3
qaujimajatuq@@ 3
asin@@ 3
namminiq@@ 3
langu@@ 3
bound@@ 3
5. 3
terial 3
ukaliq 3
vaa 3
nauja@@ 3
¢ 3
arnik 3
puv@@ 3
qurlu@@ 3
makpa 3
mangat 3
jjuaq 3
inungni 3
ould 3
pitse@@ 3
uu 3
auq@@ 3
najur@@ 3
kangiqtugaapik 3
alla@@ 3
igluligaarjuk 3
irnik 3
tav@@ 3
cetera 3
pitsiulaaq 3
taptu@@ 3
manni@@ 3
isaak@@ 3
qalluna@@ 3
kikk@@ 3
alis@@ 3
isumaqs@@ 3
aaqqi@@ 3
unngittu@@ 3
ikajuqatigi@@ 3
arniit 3
siri@@ 3
kanajuq 3
aqquq 3
singa@@ 3
vit 3
arviarmi@@ 3
iqanaij@@ 3
puk@@ 3
tural 3
galu@@ 3
nunavuummi 3
board@@ 3
arut 3
aniq@@ 3
inullari@@ 3
unnullu 3
swim@@ 3
aqatigi@@ 3
anna@@ 3
aglak@@ 3
tusaajiit 3
quvi@@ 3
baf@@ 3
aqa@@ 3
stud@@ 3
aili@@ 3
iniksaq@@ 3
piliriqatigiinn@@ 3
nunanga 3
maati@@ 3
kigli@@ 3
amu@@ 3
thly 3
nil@@ 3
jii 3
resol@@ 3
envir@@ 3
nuluuja@@ 3
iku 3
attaq@@ 3
qauj@@ 3
tuqq@@ 3
puq 3
irnisuksi@@ 3
metho@@ 3
aruq 3
iti 3
ataata@@ 3
staf@@ 3
patiq 3
ikajurasu@@ 3
¸ 3
incen@@ 3
inng@@ 3
paippa@@ 3
iqsu@@ 3
utit@@ 3
aqqu@@ 3
pijju@@ 3
aaq@@ 3
nangmin@@ 3
pijari@@ 3
arvili@@ 3
ivvi@@ 3
ilisaijik@@ 3
maan@@ 3
tigi@@ 3
piquti@@ 3
piqqusi@@ 3
pann@@ 3
uli 3
manna 3
offic@@ 3
sitti@@ 3
qirng@@ 3
ilagiinut 3
inuusiq@@ 3
ᐃ@@ 3
utiri@@ 3
aka 3
annura@@ 3
taann@@ 3
iksivautaq 3
cl 3
ili 3
itigut 3
uqauh@@ 3
nipi@@ 3
ø@@ 3
tukisigiaq@@ 3
tauv@@ 3
inili@@ 3
tati@@ 2
................@@ 2
ajauq@@ 2
aji@@ 2
atug@@ 2
alakannu@@ 2
viksaq 2
arsi@@ 2
utait 2
uvagut 2
mata 2
qujannamik 2
ngit 2
manir@@ 2
iksivau@@ 2
maligaliuqtiit 2
katujjiqatigi@@ 2
arru@@ 2
tuinnaq 2
ungav@@ 2
naq@@ 2
sanaji@@ 2
makkuktut 2
sana@@ 2
singit 2
koanaq@@ 2
kivalli@@ 2
inuq@@ 2
kattuq 2
isuaq@@ 2
uver 2
giali@@ 2
qikiq@@ 2
tullia 2
quja@@ 2
kingu@@ 2
ammi@@ 2
nangminiq@@ 2
naull@@ 2
nunasi@@ 2
kkut 2
miali@@ 2
quji@@ 2
sara@@ 2
bou 2
tos 2
qis@@ 2
kall@@ 2
kitik@@ 2
kiguti@@ 2
meadow@@ 2
wifery 2
wedn@@ 2
atigu@@ 2
mally 2
qim@@ 2
maligait 2
piqujait 2
prelimin@@ 2
agasu@@ 2
iqqu@@ 2
arlu@@ 2
unika@@ 2
abs@@ 2
viu@@ 2
foli@@ 2
ajurn@@ 2
qauji@@ 2
mitti@@ 2
ajungi@@ 2
tutit 2
offi@@ 2
ajak 2
ruj@@ 2
puju@@ 2
iaq 2
kiss@@ 2
kivalliq@@ 2
iqata@@ 2
hton 2
gala@@ 2
arulu@@ 2
uluit 2
ing. 2
ukk@@ 2
tungav@@ 2
gialik 2
tita@@ 2
ilisi@@ 2
paper@@ 2
taip@@ 2
juk@@ 2
arnakkaq 2
sivunits@@ 2
ataq@@ 2
3. 2
iqi@@ 2
ihuma@@ 2
ï@@ 2
qimaavi@@ 2
pigi@@ 2
qitirmiut 2
edmon@@ 2
kusug@@ 2
unngittuq 2
ajur@@ 2
ittuq@@ 2
aqtur@@ 2
rel 2
uttu@@ 2
wher@@ 2
raid 2
2002@@ 2
ittauq 2
qummu@@ 2
akeeag@@ 2
utita@@ 2
flexi@@ 2
contri@@ 2
overcrow@@ 2
arviit 2
attuq@@ 2
amin@@ 2
\ 2
tomor@@ 2
kauti@@ 2
ilaa 2
suittuq 2
ajju@@ 2
otes 2
allir@@ 2
ulinga@@ 2
never@@ 2
tavvauv@@ 2
homeown@@ 2
simail@@ 2
aqtuni 2
qallu@@ 2
innaq 2
tuut@@ 2
tikiraarjuaq 2
piruq@@ 2
pallu@@ 2
mamis@@ 2
stances 2
muq 2
pangniq@@ 2
akiaq 2
sukk@@ 2
challen@@ 2
asuillaak 2
tuuk 2
avig@@ 2
usiq@@ 2
sikk@@ 2
avik@@ 2
qunga@@ 2
1. 2
tunik 2
bage 2
tunu 2
qquq 2
ku 2
ikuall@@ 2
inuktu@@ 2
ngu@@ 2
iqaluktuutsiaq 2
asaaq 2
ulaaju 2
sait 2
tigumi@@ 2
nigi@@ 2
applic@@ 2
nattili@@ 2
kajjaan@@ 2
inukti@@ 2
angittuq 2
angir@@ 2
uttuq@@ 2
guq 2
tappa@@ 2
qiniq@@ 2
angiqpisiuk 2
ullarik 2
atuq@@ 2
summar@@ 2
kattu@@ 2
jjiq@@ 2
nangminiq 2
iqaluktuuti@@ 2
ittar@@ 2
taikkua 2
tupiq 2
natsilik 2
ilisaq@@ 2
uqaqti@@ 2
maksa@@ 2
arama 2
thurs@@ 2
effor@@ 2
alco@@ 2
attaq 2
vu@@ 2
iqnak 2
autinut 2
ingani@@ 2
natures 2
iqs@@ 2
nunng@@ 2
tisi@@ 2
juris@@ 2
galak 2
uut@@ 2
ikta@@ 2
nanu@@ 2
utillu@@ 2
vement 2
oce@@ 2
iqalli@@ 2
katimajingit 2
nivinga@@ 2
import@@ 2
coali@@ 2
immedi@@ 2
luuta@@ 2
aij@@ 2
stead 2
panniqtuumi@@ 2
katutjiqatigi@@ 2
inuktitu@@ 2
agli@@ 2
accredi@@ 2
inulirijiit 2
kiggaqtuij@@ 2
ilinniaqtulirijikkut 2
vik@@ 2
vere 2
talurju@@ 2
uqausinginnit 2
∗ 2
benef@@ 2
unniq 2
gut@@ 2
qikiqtaalu@@ 2
ë@@ 2
minisi@@ 2
halu@@ 2
manit@@ 2
ontari@@ 2
innu 2
saaq 2
ajjuk 2
suv@@ 2
aguuq 2
nunavuumi 2
aull@@ 2
juuja@@ 2
sulijuq 2
aqatta@@ 2
parag@@ 2
alag@@ 2
angai 2
aninga 2
uning@@ 2
follow@@ 2
upinn@@ 2
gij@@ 2
nunalik 2
arnar@@ 2
minist@@ 2
tiz@@ 2
iqsuq@@ 2
utiup 2
mend@@ 2
pover@@ 2
kapp@@ 2
ausuittuq 2
auja@@ 2
universi@@ 2
sitive 2
aggu@@ 2
irni@@ 2
nalliuti@@ 2
aqqutit 2
sym@@ 2
kallak 2
allar@@ 2
nut 2
annga@@ 2
urani@@ 2
taigu@@ 2
ᑎ@@ 2
ᒌ@@ 2
ᓪ@@ 2
ᓗ@@ 2
ᒃ 2
demon@@ 2
repul@@ 2
agal@@ 2
iktut 2
aik@@ 2
ura 2
umi 2
turbo@@ 2
ipika 2
asini 2
illar@@ 2
chand@@ 2
ivv@@ 2
rju@@ 2
yoo 2
yellow@@ 2
ksuk 2
saim@@ 2
arvimmi 2
juap 2
sann@@ 2
tarr@@ 2
igluligaarju@@ 2
artut 2
apos@@ 2
gus@@ 2
mittimatalingmiut 2
ajurnarmat 2
kingul@@ 2
pijittir@@ 2
qilavvaq 2
chequ@@ 2
aari@@ 2
vey 2
soap@@ 2
akit@@ 2
paniga 2
‐ 2
uqtur@@ 2
inutuqait 2
ł@@ 2
ausi@@ 2
quviasuutigi@@ 2
arvigi@@ 2
unnga 2
alau@@ 2
uqt@@ 2
qujannami@@ 2
hout 2
iqsuqti 2
ᓂ@@ 2
ᑲ 2
ᓪ 2
miqqu@@ 2
rjuaq 2
iluk@@ 2
ungn@@ 2
jaani 2
unikkaaqtu@@ 2
saqq@@ 2
sanik 1
matna 1
qikiqtaq@@ 1
¼ 1
ttiq@@ 1
itsivautaa 1
uqqa@@ 1
ttiaq 1
mitsima@@ 1
langa@@ 1
scc 1
umik 1
babi@@ 1
pivalliajulirijikkut 1
pilirijingit 1
innammari@@ 1
katujjiq@@ 1
atiri@@ 1
tikirarju@@ 1
nuta@@ 1
liriji@@ 1
aksaq 1
nirmut 1
akti@@ 1
ilitar@@ 1
pinas@@ 1
nuuv@@ 1
saniq@@ 1
cultur@@ 1
siutiit 1
paq@@ 1
iliqusi@@ 1
apalu@@ 1
dely 1
qull@@ 1
aqtunit 1
ikajuqti 1
congra@@ 1
anguju@@ 1
akas@@ 1
akitu@@ 1
condol@@ 1
atunik 1
ira@@ 1
sanaju@@ 1
iglulirijirju@@ 1
lui 1
urmi 1
siutinik 1
arni 1
miniq 1
aruv@@ 1
sivauta@@ 1
surr@@ 1
avinga 1
basket@@ 1
liqtu@@ 1
atuar@@ 1
arj@@ 1
utar@@ 1
tiuri@@ 1
savik@@ 1
innik 1
aulla 1
amat 1
paniq@@ 1
irnaq 1
ut. 1
glu 1
aminik 1
piru@@ 1
qujann@@ 1
aami 1
hallo@@ 1
qur@@ 1
pini@@ 1
uniit 1
sinn@@ 1
ajunngittu@@ 1
ttuq@@ 1
qullu@@ 1
siuq@@ 1
sunakku@@ 1
tangit 1
isima@@ 1
2. 1
kiinauj@@ 1
armik 1
uttauq 1
antic 1
kangiqtuga@@ 1
tikkut 1
saqqi@@ 1
quttiktu@@ 1
minga@@ 1
qalli@@ 1
pijunnautingit 1
sunga 1
aliuq@@ 1
kihi@@ 1
aqpunga 1
pisi@@ 1
agluukkaq 1
ateful 1
auju 1
aqtitut 1
nass@@ 1
tauq@@ 1
anilu 1
siut 1
riali@@ 1
paa 1
angajuq@@ 1
akann@@ 1
maligalirijiit 1
iqaqtu@@ 1
lirij@@ 1
patik 1
tautuinn@@ 1
akittu@@ 1
at. 1
angun@@ 1
aqiaruk 1
mamian@@ 1
eliza@@ 1
agvi@@ 1
anniq@@ 1
~ 1
akuta@@ 1
auti 1
francop@@ 1
uqaqtisi@@ 1
uqaqt@@ 1
nunavummu@@ 1
angi 1
qama@@ 1
nuk 1
attar@@ 1
siutita@@ 1
ttut 1
mmar@@ 1
ikajuutiit 1
alysis 1
resul@@ 1
gaso@@ 1
rits 1
tuna 1
irng@@ 1
anniq 1
uviuk 1
qamanittu@@ 1
kusu@@ 1
pakka 1
committe@@ 1
sivauta 1
iksivauta 1
15. 1
20. 1
21. 1
cousi@@ 1
reak 1
ikka@@ 1
tinu 1
aluq@@ 1
amittu@@ 1
ktuq@@ 1
katinn@@ 1
qanir@@ 1
utingit 1
iqsi@@ 1
ksen 1
taujunik 1
pilirivik 1
it. 1
sympto@@ 1
guaran@@ 1
rialu 1
tauq 1
iqaluttuuti@@ 1
inngaaqtut 1
atautti@@ 1
tausi@@ 1
ulurian@@ 1
lavi@@ 1
sanir@@ 1
jung@@ 1
among@@ 1
avi 1
ningeon@@ 1
kimi@@ 1
armata@@ 1
aqtailinirmut 1
annur@@ 1
ikajuusi@@ 1
lla@@ 1
monte@@ 1
taqa@@ 1
unng@@ 1
silak@@ 1
aqtuq@@ 1
taij@@ 1
uuv@@ 1
11. 1
angula@@ 1
ikaju@@ 1
suku@@ 1
18. 1
shri@@ 1
adminis@@ 1
ingi 1
thern 1
vaq 1
laur@@ 1
kiinaujait 1
iqaluttuutsi@@ 1
naa@@ 1
mmari@@ 1
rur@@ 1
gover@@ 1
unniq@@ 1
tish 1
reau 1
kuvi@@ 1
taugi@@ 1
upag@@ 1
giar@@ 1
qu 1
paluk 1
akuni@@ 1
degre@@ 1
qaujisa@@ 1
aulla@@ 1
aktut 1
talurjuaq 1
uqsuqtu@@ 1
ammat 1
avalu@@ 1
7. 1
ingaaq 1
gija@@ 1
aqarniq 1
uqsu@@ 1
mapp@@ 1
apa 1
atuaq 1
guti@@ 1
arnakk@@ 1
aliat 1
ë 1
tradi@@ 1
sivuliqti 1
minit@@ 1
tii 1
ficiencies 1
tukiq@@ 1
kajja@@ 1
ujunga 1
vingmi 1
nuq 1
akall@@ 1
marru@@ 1
liqqi@@ 1
nangminiqaqtunut 1
mirnguiqsir@@ 1
ikajuq@@ 1
ittu 1
16. 1
eligi@@ 1
⅜ 1
naama@@ 1
visiuk 1
iji@@ 1
kinngu@@ 1
turaaga@@ 1
saimaniq 1
pijarn@@ 1
pallianginn@@ 1
iqaluttuutti@@ 1
tujurmi@@ 1
nunam@@ 1
tiq@@ 1
qitik@@ 1
katimaj@@ 1
jit 1
illarik 1
renov@@ 1
katujji@@ 1
aqtigi@@ 1
ppa@@ 1
tem@@ 1
mivvi@@ 1
febru@@ 1
artuq 1
taiman@@ 1
divisi@@ 1
ungittu@@ 1
previ@@ 1
giq@@ 1
aqsu@@ 1
simajut 1
otta@@ 1
tautunn@@ 1
anniasi@@ 1
qangiq@@ 1
ilangi@@ 1
sammuqtuq 1
palla@@ 1
pingasu@@ 1
aajiiq@@ 1
atinni@@ 1
kamma@@ 1
ninngaq 1
arnut 1
tial 1
aksaq@@ 1
innari@@ 1
aqpuq 1
aliqtunga 1
suli 1
taav@@ 1
alutit 1
isumaq@@ 1
tuju@@ 1
gusi@@ 1
isir@@ 1
irala@@ 1
aqati@@ 1
viuk 1
kuugaarjuk 1
sanik@@ 1
saal@@ 1
juit 1
windo@@ 1
naala@@ 1
ikpi@@ 1
imir@@ 1
........@@ 1
ankut 1
arialuk 1
anaanaga 1
viniit 1
nunali@@ 1
jji@@ 1
pijit@@ 1
siniq 1
qanuit@@ 1
iqtu@@ 1
maligaliuqti 1
lago@@ 1
nirlungajuq 1
qaujimajaq@@ 1
uqaqtiup 1
feed@@ 1
piq 1
surusi@@ 1
anaruaq 1
è 1
taqqa@@ 1
unataq@@ 1
viks@@ 1
vat@@ 1
ijut 1
aatami 1
umin@@ 1
juusipi 1
aqvi@@ 1
innaqtuq 1
jaa 1
titut 1
pagi@@ 1
jau@@ 1
tau 1
ingirr@@ 1
havi@@ 1
sivi@@ 1
nunal@@ 1
stics 1
atigi 1
kka@@ 1
inna 1
uppik 1
atit 1
join@@ 1
liga@@ 1
angajuq 1
kigusi@@ 1
tusarn@@ 1
sallirmiut 1
anigu@@ 1
niqiit 1
ttinni 1
tji@@ 1
quti@@ 1
aulajj@@ 1
attut 1
nagli@@ 1
agit 1
angiqatigi@@ 1
ajurutiliit 1
feel@@ 1
uqall@@ 1
suij@@ 1
pingas@@ 1
anguj@@ 1
titirauj@@ 1
broug@@ 1
pangniqtuuq 1
tagv@@ 1
auv@@ 1
inasu@@ 1
primar@@ 1
pagit 1
bigg@@ 1
qangata@@ 1
aling@@ 1
paaq@@ 1
aqtukulu@@ 1
ulaur@@ 1
simani@@ 1
mininga 1
titau@@ 1
aanniaqta@@ 1
auk@@ 1
sapummi@@ 1
itec@@ 1
anginnik 1
pilirijiit 1
katutj@@ 1
iqati@@ 1
quksuk 1
siutit 1
jaimisi 1
pingaj@@ 1
qiniqtiit 1
nunavumit 1
tera 1
ningiunga@@ 1
malu 1
sored 1
sapunni@@ 1
agni@@ 1
cly@@ 1
fami@@ 1
kinder@@ 1
unnir@@ 1
tanut 1
kka 1
ingani 1
akir@@ 1
å@@ 1
unikkaat 1
ailli@@ 1
carr@@ 1
gijara 1
agij@@ 1
pauj@@ 1
own@@ 1
sigi@@ 1
aruuq 1
tunngasugit 1
quviasuqatigi@@ 1
uluri@@ 1
urnga@@ 1
unni 1
qaritaq 1
qanuinngittuq 1
nuna@@ 1
dail@@ 1
qanuq 1
duce 1
qujannamiiraaluk 1
qiti@@ 1
siila 1
irr@@ 1
tait 1
unu 1
gaar@@ 1
freez@@ 1
reques@@ 1
aqtit 1
arivara 1
angirr@@ 1
uivi@@ 1
inut 1
nunattinni 1
proto@@ 1
pinnguarvik 1
paulusi 1
ajuqs@@ 1
inuusiliriji@@ 1
iniaqta@@ 1
nutaq@@ 1
aallir@@ 1
uas@@ 1
taissumani 1
aniaqtuq 1
unnuksakkut 1
ikpiarjummi@@ 1
sanng@@ 1
jua@@ 1
maili 1
nuvann@@ 1
ikajuqtauvik 1
iniq@@ 1
akta@@ 1
seis@@ 1
mut@@ 1
sami@@ 1
nutara 1
niit 1
isiq@@ 1
panniqtuurmi@@ 1
gavit 1
hind 1
assembly@@ 1
ummi@@ 1
tavv@@ 1
unnu@@ 1
taa 1
gatta@@ 1
uvv@@ 1
aii 1
obvi@@ 1
ugu@@ 1
ikiaqqi@@ 1
akis@@ 1
limaaq 1
ilinniar@@ 1
panniqtu@@ 1
mata@@ 1
illu 1
iliqqusi@@ 1
qarasauj@@ 1
inginn@@ 1
attarn@@ 1
uqta@@ 1
tuqqaqtar@@ 1
mingi@@ 1
kasa@@ 1
tait@@ 1
tempor@@ 1
poten@@ 1
naam@@ 1
upaqatt@@ 1
anngikku@@ 1
liqpuq 1
tavut 1
vehi@@ 1
asaq 1
occ@@ 1
tunis@@ 1
viiv@@ 1
qujanaqqutit 1
tulattar@@ 1
ungasiktumut 1
isumaksaqsi@@ 1
iqattarniq 1
aqh@@ 1
harves@@ 1
occupi@@ 1
pivalli@@ 1
sivuniksamut 1
spices 1
ilinniaqtit 1
peg 1
kuugaarjung@@ 1
tausa@@ 1
atedly 1
strate@@ 1
rij@@ 1
gali@@ 1
maligaksanik 1
sful 1
uumaj@@ 1
illiq@@ 1
ikupivvilirijikkut 1
araj@@ 1
tavani 1
qujan@@ 1
quor@@ 1
trilli@@ 1
nutaqqanut 1
kiggaqtuiji 1
rema@@ 1
ruluk 1
uqausingit 1
piqati@@ 1
tangi@@ 1
samu 1
aas@@ 1
ungat 1
septe@@ 1
upa 1
maatsi 1
itsu@@ 1
suru@@ 1
tani 1
mai 1
anngi@@ 1
umajut 1
aangaja@@ 1
suma 1
else@@ 1
ulluri@@ 1
qikiqt@@ 1
issivautaq 1
ingirrani@@ 1
tauvaktut 1
pijitsiraqtikkut 1
ó@@ 1
qujannamiittauq 1
ilh@@ 1
giit 1
qiturngaq@@ 1
ᓄ@@ 1
ᓕ@@ 1
ᕆ@@ 1
ᔨ@@ 1
ᒃ@@ 1
ᑯ@@ 1
ᑦ 1
pers@@ 1
iman 1
clinto@@ 1
kila@@ 1
aaj@@ 1
nanurnut 1
kinguv@@ 1
alukta@@ 1
aaquaq 1
piliriqatigiitti@@ 1
akta 1
anngimmat 1
uliit 1
maja@@ 1
akituju@@ 1
utir@@ 1
alaat 1
disab@@ 1
ttinnut 1
gijju@@ 1
tauvuq 1
kipinngu@@ 1
trepre@@ 1
thur@@ 1
minis 1
ilann@@ 1
piqann@@ 1
dures 1
taalu@@ 1
livi@@ 1
sivun@@ 1
possib@@ 1
pairivi@@ 1
ilini@@ 1
nalli@@ 1
sivuliq@@ 1
uqausilirijiit 1
sirnik 1
qalu@@ 1
mig@@ 1
tauva 1
taula@@ 1
tuksiarnikkut 1
simaniq@@ 1
viss@@ 1
ilinniarvingmi 1
anng@@ 1
utiksanik 1
aulattiji 1
irni 1
occu@@ 1
qijuk@@ 1
divis@@ 1
unikkaarvi@@ 1
innga 1
tamajj@@ 1
mmata 1
inuliriji 1
xt 1
inuliri@@ 1
ajuqsaqtu@@ 1
sukkuaqi@@ 1
titti@@ 1
incenti@@ 1
uqsualuk 1
aqtuup 1
pavv@@ 1
qaju@@ 1
nunavummiuta@@ 1
niaqu@@ 1
ilingajut 1
upla@@ 1
iksivauta@@ 1
niaqunngu@@ 1
figu@@ 1
siniq@@ 1
sainn@@ 1
ullu 1
nauk 1
naki@@ 1
igala@@ 1
akuni 1
hick@@ 1
occur@@ 1
ningit 1
tutsi@@ 1
represen@@ 1
naujaarmiut 1
arut@@ 1
annik@@ 1
maps@@ 1
tini 1
tusaaj@@ 1
qaujivalli@@ 1
rijau@@ 1
valauq@@ 1
aan 1
punga 1
ainn@@ 1
rusi@@ 1
irij@@ 1
nunavummiutait 1
&#@@ 1
ukiuqtaqtumi 1
maligaq 1
piqujaq 1
ilitaqsiniq 1
qatar@@ 1
ujjiqsu@@ 1
pivallia@@ 1
ikkut 1
kullu 1
cono@@ 1
cial 1
roy@@ 1
gree 1
llugi@@ 1
aqtukkut 1
tukisigiar@@ 1
ttiar@@ 1
ingnirmut 1
inni 1
mamisa@@ 1
imili@@ 1
ê@@ 1
pinng@@ 1
uplu@@ 1
ulluru@@ 1
niqai@@ 1
kili@@ 1
addres@@ 1
spring@@ 1
innaaq 1
tallu@@ 1
illuta@@ 1
tuvv@@ 1
akiq@@ 1
ariaq@@ 1
anngilaq 1
ktut 1
attiar@@ 1
uma 1
taar@@ 1
uqsuqtuurmiut 1
tun 1
ination 1
nallu@@ 1
nunngu@@ 1
apir@@ 1
kiuja@@ 1
unngitti@@ 1
rama@@ 1
saalaks@@ 1
ammalu 1
atsiuk 1
angajuqqaarijaujuq 1
atin 1
qujannamii@@ 1
paallir@@ 1
arviq@@ 1
uji@@ 1
ghters 1
aippaani 1
aip@@ 1
itsivauta@@ 1
gusu@@ 1
atigiit 1
katujjiqatigiingit 1
