. 1076277
, 672058
: 337667
qujannamiik 297109
) 255991
( 255689
ammalu 125642
@-@ 121901
tusaajitigut 115826
minista 100937
uqaqti 94621
iksivautaq 89488
uqaqtii 82448
taakkua 80978
mista 79497
taanna 73756
iksivautaaq 69018
amma 59566
? 56935
tamanna 52006
- 45940
angajuqqaaq 39271
tamakkua 38712
taikkua 38512
3 32516
kisiani 31381
2 29312
&gt; 28972
tusaajikkut 28710
$ 27386
1 26551
taima 26397
nunavut 25607
mi 24447
uqaqtittijii 23346
nunavummi 22866
piitasan 21846
tutu 21812
maligaliuqtiit 21757
ilangit 21211
qanuq 20564
inuit 19970
4 18720
gavamakkut 18691
maanna 18196
mut 18158
aq@@ 17022
tavvani 16633
aqtut 16474
ii 16457
kuuli 16337
ar@@ 16333
uvvaluunniit 16127
tainna 15337
katimajiralaat 15026
nunalinni 14962
uq@@ 14929
maligaliuqti 14874
; 14602
suurlu 14455
a 14454
maligaksaq 14314
it 13765
sivuliqti 13707
ta@@ 13615
suli 13553
ukaliq 13486
uqausikkut 13388
ti@@ 13287
taimanna 13069
u@@ 13063
maligaq 12896
angajuqqaa 12726
ju@@ 12436
tamaani 12383
katimajiit 12313
aqtuq 12244
mik 11852
6 11691
inn@@ 11649
ullumi 11594
piiku 11583
armata 11498
gi@@ 11336
tu@@ 11319
i 11201
uqausingit 11187
armat 11036
ialiat 10878
kiinaujait 10793
si@@ 10782
tti@@ 10702
alu@@ 10697
mis 10678
ak@@ 10543
arni@@ 10506
aqtu@@ 10322
ani@@ 10317
atti@@ 10291
a@@ 10286
mit 10229
kisianili 10140
5 9998
uti@@ 9961
at 9950
katimajjutiksaq 9801
ilaak 9793
piita 9769
ang@@ 9749
nunaliit 9748
mi@@ 9519
ani 9503
tamakkuninga 9446
u 9393
sa@@ 9387
aqti@@ 9343
ariaq@@ 9309
v@@ 9293
s@@ 9257
pi@@ 9256
ilagiarut 9202
aqtunik 9193
giaq@@ 9190
sima@@ 9185
k@@ 9177
lu@@ 9081
iluani 9038
aariak 8946
in@@ 8932
tuinn@@ 8893
tau@@ 8821
li@@ 8809
pattatuqtut 8761
uqausiq@@ 8697
taimali 8683
p@@ 8612
aq 8582
ari@@ 8553
anga 8544
iqaluit 8518
simajut 8488
kanatami 8479
unn@@ 8457
arunn@@ 8456
taimaak 8440
q@@ 8390
t@@ 8380
inuk 8374
qilavvaq 8300
ini@@ 8221
kiinaujanik 8201
nunavumi 8132
pijjutigillugu 8105
ik@@ 8030
atu@@ 8024
up 8011
angiqpugut 7998
pitaq@@ 7911
mmata 7901
taq@@ 7871
vi@@ 7869
il@@ 7800
arvaarluk 7776
ma@@ 7753
an@@ 7703
&quot; 7669
vut 7641
uni@@ 7633
akisuk 7628
aqta@@ 7524
gunn@@ 7497
una 7445
apiqqutiit 7410
iqqanaijaqti@@ 7388
taakkununga 7362
illu 7348
iq@@ 7321
aratta 7308
mistu 7281
armangaata 7268
apiqqut 7240
mmat 7213
maannaujuq 7154
ut 7131
at@@ 7100
i@@ 7095
piliri@@ 7086
paal 7062
anut 7057
ujut 6996
angi@@ 6945
tamakkununga 6943
illu@@ 6941
ur@@ 6923
milian 6905
arnirmut 6864
arniq 6817
un@@ 6805
saqqi@@ 6805
ali@@ 6797
nakurmiik 6767
taikani 6764
arlutik 6758
anik 6757
qaujima@@ 6722
ujuq 6666
n@@ 6646
j@@ 6618
aqtuni 6610
ing 6606
utiq@@ 6601
au@@ 6564
qaujis@@ 6551
juq 6499
aqtugut 6474
angit 6443
arn@@ 6418
tamatuminga 6413
ala@@ 6412
arnir@@ 6389
imanna 6373
gu@@ 6353
uqausi@@ 6334
ammaluttauq 6303
gaj@@ 6300
uj@@ 6299
aqtunut 6261
ikkarrialuk 6258
inu@@ 6258
asi@@ 6254
taakkuninga 6236
ili@@ 6213
g@@ 6207
issivautaaq 6195
lir@@ 6189
tsi@@ 6187
ati@@ 6181
tigut 6129
su@@ 6121
10 6095
as@@ 6072
ung@@ 6067
nunalingni 6045
lutik 6039
aqtutik 6018
anni@@ 5980
ministait 5967
nik 5947
aqp@@ 5940
atuinn@@ 5935
aru@@ 5934
immaqa 5930
12 5856
iqqanaij@@ 5849
aqpat 5847
nalunaiqsi@@ 5775
ministaujuq 5772
atuq@@ 5761
tuq@@ 5752
aqtunga 5737
la@@ 5736
aqput 5725
uqausinga 5704
qa@@ 5700
al@@ 5690
kiit 5672
ial 5668
aqtavut 5667
ni@@ 5663
r@@ 5648
ikajuq@@ 5634
piliriaq@@ 5625
arluni 5608
akkut 5596
uv@@ 5594
unikka@@ 5582
rampuut 5571
arnakkaq 5568
ki@@ 5559
ap@@ 5556
gasu@@ 5531
ata@@ 5488
kusugaq 5488
kkut 5476
kanataup 5471
ami 5450
aj@@ 5450
aruma@@ 5446
qu@@ 5415
taima@@ 5414
7 5405
15 5324
agluukkaq 5320
san@@ 5307
kiinaujat 5286
auj@@ 5281
ing@@ 5267
anginnik 5264
araj@@ 5250
tukisi@@ 5248
tut 5217
anngi@@ 5204
aqtillugit 5195
ilinni@@ 5191
tillugit 5182
armangaaq 5176
l@@ 5172
arasu@@ 5167
miksaanut 5166
itsivautaq 5166
ri@@ 5146
tus@@ 5137
kattuk 5109
pa@@ 5081
anit 5049
nunavuumi 5041
tavvunga 5037
tavva 5037
anginnut 5026
atta@@ 5025
kiinauj@@ 5013
av@@ 5009
paanapas 4983
isuma@@ 4982
gavamakkunnut 4969
arama 4968
pigi@@ 4966
ulu@@ 4966
maligaliuqtiup 4952
juma@@ 4947
5@@ 4942
ut@@ 4939
aqtumik 4932
itsivautaaq 4932
ku@@ 4928
simajuq 4886
taptuuna 4879
alir@@ 4867
titti@@ 4867
katimajingit 4857
ga@@ 4813
sivulliqpaamik 4808
13 4807
angiq@@ 4798
aqsima@@ 4790
hiks 4789
tamatumunga 4779
maʼnalluavik 4768
simaj@@ 4761
akili@@ 4761
pinasu@@ 4753
taamsan 4744
unga@@ 4735
aqtuq@@ 4732
liq@@ 4731
armangaat 4718
alaur@@ 4705
ann@@ 4696
uk 4691
ilu@@ 4688
9 4675
ila@@ 4654
nalunaiq@@ 4648
ta 4645
qullugit 4607
taku@@ 4605
llutik 4605
inni@@ 4601
apiqqutit 4592
lu 4590
is@@ 4590
auti@@ 4570
avut 4564
aujut 4555
ir@@ 4547
arvi@@ 4526
ul@@ 4525
aralu@@ 4514
ullu@@ 4498
simailak 4494
alauq@@ 4492
gij@@ 4489
atuqtu@@ 4483
tusaajitiguurunniiqtuq 4466
aqtunit 4460
20 4455
namminiq 4452
aliq@@ 4449
mikinnguaq 4437
ag@@ 4424
iat 4414
maligaksanit 4403
ja@@ 4401
ingi@@ 4395
ami@@ 4386
ujunik 4377
amik 4374
qimirru@@ 4373
ji@@ 4372
kajusi@@ 4368
ilinniaqti@@ 4367
ima@@ 4357
itti@@ 4335
ingit 4328
anginni 4327
maligaksait 4323
atsi@@ 4315
inga@@ 4310
taujut 4291
nunalinnut 4283
inga 4276
siutsak 4276
lugit 4273
aqpuq 4271
maligaliurvimmut 4265
11 4264
ilinniaqtulirijikkut 4262
pijunn@@ 4251
16 4242
it@@ 4240
q 4231
8 4219
nir@@ 4200
uni 4199
niru@@ 4191
14 4190
tauni@@ 4188
simajunik 4188
jut 4177
juanasi 4177
m@@ 4175
iqalunni 4156
aqtau@@ 4133
aqtara 4127
anginn@@ 4123
arngat 4118
angu@@ 4113
attu@@ 4113
maik 4112
kk@@ 4110
utigi@@ 4102
ulluni 4097
arngata 4087
tapaarjuk 4086
aull@@ 4076
lugu 4068
lhutik 4068
mmi@@ 4039
guma@@ 4038
ammattauq 4032
nunali@@ 4031
maligaliuqti@@ 4020
savikataaq 4020
amisu@@ 4003
kiinaujanit 4002
gavama@@ 3999
ugjuk 3989
aruti@@ 3981
ninngaq 3975
inginnut 3968
ukua 3964
aqtitti@@ 3964
nu@@ 3956
aul@@ 3955
n 3942
ru@@ 3939
pijariiq@@ 3938
tapaaqjuk 3937
nunalinnit 3936
imaak 3934
unikkaangit 3930
ilanga 3930
2010 3928
lirinirmut 3924
atta 3917
qauji@@ 3914
mu@@ 3909
inginnik 3906
anginnit 3895
aaqqik@@ 3893
katima@@ 3892
liri@@ 3884
nut 3881
pat 3877
ujunit 3876
tillugu 3874
angani 3871
ilauq@@ 3870
tausima@@ 3870
amut 3859
iniq@@ 3848
taassuminga 3846
aqattar@@ 3844
ti 3840
anaruaq 3839
aqpa 3835
paraun 3833
galu@@ 3832
mali@@ 3831
tuq 3816
maligaliurvimmi 3813
ng@@ 3812
inginni 3812
iniq 3811
ai@@ 3809
inirmut 3806
anganik 3788
llu 3787
gatta 3787
katimajinginnut 3779
nuqq@@ 3770
aju@@ 3768
uqarunn@@ 3767
nattiq 3766
armi@@ 3765
angiqpisiuk 3756
sammuqtuq 3756
qujannamiik. 3751
iqqanaijaqtiit 3748
angiqtut 3745
anga@@ 3739
quksuk 3733
pijjutigillugit 3716
uma@@ 3716
juaj 3716
18 3713
2014 3708
giar@@ 3704
ikaju@@ 3694
6@@ 3694
17 3674
an 3674
ngutillugu 3674
sivulliqpaami 3663
uqalima@@ 3655
iglu@@ 3641
ullu 3639
innik 3635
mmari@@ 3627
ula@@ 3621
jju@@ 3619
ik 3618
inni 3611
ukiuqtaqtumi 3610
haviujaq 3601
ujunut 3596
asingit 3574
am@@ 3569
sial 3564
anganut 3548
arraagu@@ 3545
tausan 3525
atausi@@ 3523
innut 3520
tunik 3520
taikkununga 3520
angiqpisii 3512
titiqqait 3502
uiliams 3494
quasa 3492
taujunn@@ 3488
juq@@ 3487
laur@@ 3475
ait 3473
valli@@ 3470
apiqquti@@ 3469
inut 3465
taimaimmat 3463
uju@@ 3462
atur@@ 3462
unngi@@ 3461
h@@ 3460
quj@@ 3448
kati@@ 3445
in 3445
ilagi@@ 3444
tt@@ 3438
si 3436
gavamakkungit 3433
ministamut 3433
tuksir@@ 3433
aqtillugu 3428
piquj@@ 3426
nit 3424
minik 3423
atuqtau@@ 3421
aqt@@ 3417
junn@@ 3416
2013 3413
lirijikkut 3409
2011 3405
tavut 3404
unni@@ 3404
aqpunga 3402
ilinniaqtulirinirmut 3398
tik@@ 3388
t 3382
simammata 3376
uvani 3376
arraagutamaat 3374
2015 3374
att@@ 3371
siq@@ 3367
aqattaq@@ 3364
aqsi@@ 3357
ni 3357
mu 3350
issivautaq 3350
30 3348
titir@@ 3342
/ 3339
ittu@@ 3334
aujunik 3331
lauq@@ 3330
niq@@ 3328
ma 3321
uk@@ 3312
ningiungan 3311
saqqitti@@ 3305
tauv@@ 3303
akk@@ 3301
luni 3297
ministaup 3294
k 3293
uqausiri@@ 3293
sau@@ 3284
asu@@ 3278
angat 3274
katimaji@@ 3272
jumik 3266
unir@@ 3265
gama 3264
piliriqatiq@@ 3262
inngi@@ 3258
qanu@@ 3258
arningit 3255
pu@@ 3250
19 3248
tuni 3248
maatsi 3239
2012 3236
inganut 3234
ij@@ 3232
ulauq@@ 3230
uqaqtittiji 3220
arlugu 3213
liuna 3212
malig@@ 3209
piliriqatigi@@ 3207
ppat 3207
mapsalak 3206
unik 3199
ini 3195
akka 3192
aqullugit 3190
kamagijalik 3185
llugu 3177
aqlhutik 3172
ullutik 3169
nun@@ 3166
pij@@ 3156
ra@@ 3156
it. 3153
kiinaujalirinirmut 3149
git 3144
ungi@@ 3137
gavamatuqakkut 3131
qaujimajunga 3126
lui 3126
tit 3125
arniar@@ 3122
gijau@@ 3121
uta@@ 3119
simaju@@ 3118
aula@@ 3117
arij@@ 3116
uqaqtitsijii 3112
inganik 3093
inginnit 3090
luta 3080
tak@@ 3078
2009 3077
uqaqatigi@@ 3072
sanaj@@ 3065
juti@@ 3064
llugit 3063
iqqanaijaqtinut 3060
iqqanaija@@ 3056
alaurmata 3051
put 3049
ttu@@ 3045
all@@ 3040
aanni@@ 3038
qullugu 3037
ikajuqtu@@ 3036
arninginnut 3036
22 3030
arluta 3030
kamagij@@ 3028
makliin 3020
marruuk 3019
ilitaqsiniq 3018
saq@@ 3015
ikajur@@ 3005
alaralak 2992
annik 2990
kaantura@@ 2983
apir@@ 2982
aupaluktuq 2982
nutaraq 2981
pp@@ 2981
aqatta@@ 2979
ara 2978
qimirrun@@ 2976
qattaq@@ 2971
tullia 2966
7@@ 2966
arv@@ 2965
t. 2962
apiqqutiga 2954
marru@@ 2954
kainn@@ 2953
aqtaq@@ 2950
nalunair@@ 2944
ungmat 2936
kama@@ 2935
ata 2934
unikkaangat 2932
qatti@@ 2930
arlugit 2925
2008 2924
unut 2920
ulaajuk 2919
uqalimaaqtauningit 2918
tar@@ 2916
tigu@@ 2909
tura@@ 2907
tusaqtitti@@ 2902
31 2898
nunavutmi 2897
aqpugut 2896
tunijau@@ 2895
ak 2893
titiqqak 2890
apiri@@ 2889
qau@@ 2888
arniq@@ 2881
pillugu 2881
pinngu@@ 2874
ammari@@ 2873
arju@@ 2871
akku 2870
kiinaujaq@@ 2865
uqalimaarniq 2862
min@@ 2857
taassumunga 2852
aqqu@@ 2851
llu@@ 2851
up@@ 2849
mmik 2848
aqpara 2848
angirr@@ 2839
kiujjutit 2837
21 2836
taujariaq@@ 2836
unnaq@@ 2836
uqti@@ 2835
2016 2835
ammata 2834
ingani 2830
juit 2830
tiki@@ 2826
unit 2824
inunnut 2820
ttauq 2819
arraagumi 2816
arninga 2812
qai 2808
katittugit 2807
akitturi@@ 2806
mata 2797
aqpata 2792
tauju@@ 2791
tavvani@@ 2789
ug@@ 2787
asijjiq@@ 2783
sivulliqpaaq 2783
aqattaqtut 2781
tur@@ 2778
tunga 2777
iqqittuq 2776
tunut 2774
katimajiralaanut 2773
alauqtut 2768
inginn@@ 2768
utiit 2766
unginn@@ 2766
aippaanik 2764
ittut 2762
jaimisi 2761
anir@@ 2757
8@@ 2753
tama@@ 2744
mmangaata 2742
aaqqi@@ 2735
tausimajut 2735
uvvalu 2735
mmit 2731
kingulliqpaaq 2730
uqausirij@@ 2728
mmut 2727
armut 2725
innit 2717
auq@@ 2715
qaujimaj@@ 2712
inik 2712
piqujaksaq 2710
tara 2709
ulaur@@ 2705
sur@@ 2703
palli@@ 2703
ppata 2701
utinik 2700
utit 2696
kamagijau@@ 2693
ministu 2690
vuq 2682
ts@@ 2680
inir@@ 2678
mamianaq 2671
ingat 2665
ig@@ 2664
ka@@ 2663
lhuni 2663
katimajjutiksait 2662
arraani 2660
kku@@ 2660
siv@@ 2658
lima@@ 2657
sait 2656
arnirmik 2656
aniq@@ 2654
uvanga 2654
lluta 2651
akiliq@@ 2647
qaujigi@@ 2647
titau@@ 2645
guuq 2641
naamma@@ 2636
uvagut 2636
aksualuk 2634
unga 2634
katimaj@@ 2633
lluni 2633
aujunit 2632
utigij@@ 2629
maliga@@ 2625
uq 2625
iv@@ 2624
ilaur@@ 2624
qattar@@ 2623
unirmut 2617
uqauti@@ 2614
pimmari@@ 2614
tunit 2606
pilir@@ 2605
usi@@ 2605
tamaani@@ 2604
pilirivi@@ 2603
ungmata 2599
aks@@ 2596
piq@@ 2591
jugut 2585
unikkaali@@ 2583
apiqqutigi@@ 2578
mma@@ 2572
pijittir@@ 2569
lh@@ 2567
marruunnik 2566
annut 2558
alu 2552
allar@@ 2552
anirmut 2551
missaanut 2542
taakkualu 2539
2004 2535
nunavummiut 2532
ingata 2531
taun@@ 2530
4@@ 2529
titiqqakkut 2529
pijariaq@@ 2528
viit 2527
aujunut 2525
ikk@@ 2525
kut 2521
arniarmata 2520
utau@@ 2518
simajavut 2517
pata 2509
sir@@ 2506
taivit 2504
ikajuqti@@ 2502
maanika 2501
ali 2500
matu@@ 2498
man@@ 2496
liur@@ 2485
anng@@ 2480
9@@ 2479
piqujivungaarut 2479
jaani 2479
alaurmat 2478
siman@@ 2477
llutit 2477
aqq@@ 2477
aqqat 2477
2007 2475
maʼna 2474
gu 2472
angata 2472
nalun@@ 2471
tuk@@ 2471
ugalu@@ 2464
lutit 2463
rata@@ 2462
aktu@@ 2461
piluaqtumik 2460
kiinaujaqta@@ 2460
li 2459
angir@@ 2457
aqtutit 2457
simajunut 2454
anngu@@ 2453
uqattaq@@ 2453
tusa@@ 2452
ilinniarvi@@ 2450
malik@@ 2447
nunaliujut 2447
arraagunut 2447
pijjutiq@@ 2442
na@@ 2441
ga 2440
aqtugu 2440
apiqqutimut 2439
ummata 2436
piliriv@@ 2433
aqtuit 2428
taujunik 2427
attar@@ 2422
sanik 2418
pigiar@@ 2414
minista@@ 2412
iliqqusi@@ 2411
lirijikkunnut 2411
ikkut 2410
akku@@ 2410
jau@@ 2403
makua 2402
armanga@@ 2401
inirmik 2400
mat 2398
aqattarmata 2398
vunga 2394
arnik 2393
anngittut 2384
anni 2383
qan@@ 2382
uja@@ 2379
qimirr@@ 2377
25 2376
aaqqigiar@@ 2373
arattigu 2371
qaujisaqtau@@ 2368
piliriang@@ 2367
amit 2366
24 2366
juu 2365
asinginnillu 2365
us@@ 2356
aulatti@@ 2354
aujunn@@ 2352
ulluta 2351
sanajau@@ 2351
iiva 2348
ummat 2339
tauj@@ 2337
piliriari@@ 2337
pingajuannik 2336
arutta 2335
katujjiqatigi@@ 2333
parn@@ 2330
atuag@@ 2329
arlutit 2328
akitujuutinut 2326
kkannir@@ 2323
uqaqatiq@@ 2322
ama 2321
inasu@@ 2319
aqlhuni 2319
iksivautaa 2318
kiinaujalirijikkut 2316
ingita 2313
arniaqtut 2313
mmi 2312
qanuili@@ 2311
tauq@@ 2309
2005 2309
pilirij@@ 2308
tta@@ 2306
katimajiralaanit 2306
gakku 2305
uqtu@@ 2304
apiqqutinut 2304
armi 2301
gut 2300
simalir@@ 2300
ks@@ 2299
umi@@ 2297
simammat 2292
attigu 2291
tagaaq 2288
vik 2283
kiuj@@ 2283
tusaajitigu 2281
angittut 2280
ilinniaqtiit 2280
ugaluaq 2280
innga@@ 2280
tai@@ 2278
taujuq 2274
arnait 2273
arakku 2273
atigut 2271
asinginnik 2269
kisu@@ 2264
niuviq@@ 2263
2002 2263
tainn@@ 2262
2003 2262
simaliq@@ 2258
tun@@ 2258
maligaliurvingmut 2257
luan 2255
tu 2252
23 2251
2006 2249
illutik 2245
aqtuta 2245
aki@@ 2243
aulauq@@ 2242
ikajuusi@@ 2240
pijari@@ 2239
armik 2237
allu@@ 2236
kanajuq 2234
pilirivv@@ 2232
immaqaa 2231
innir@@ 2227
akkannir@@ 2220
isu@@ 2219
parnauti@@ 2217
niri@@ 2214
mini@@ 2214
aut@@ 2213
suli@@ 2211
ittuq 2211
inunnik 2210
attaq@@ 2208
jjuti@@ 2207
1@@ 2206
isumagij@@ 2204
alauqtuq 2204
uniq@@ 2201
angittu@@ 2197
angajuqqa@@ 2197
taimaittu@@ 2195
lirij@@ 2194
qatsi@@ 2192
uqaqqaugama 2192
taulauq@@ 2191
pilirialik 2189
inng@@ 2186
angiqatigi@@ 2184
timi@@ 2183
tamainnut 2182
gavamakkunnit 2181
puq 2181
liriniq 2180
uqall@@ 2179
suq@@ 2177
aluk 2176
gavamakkunni 2175
kamagijaq@@ 2174
isumagi@@ 2170
iqqanaijaqtingit 2169
tiq@@ 2168
naasautinga 2166
simajunit 2165
utillugu 2165
asi 2160
qanuittu@@ 2160
naasautilik 2160
kiinaujatigut 2158
isuli@@ 2154
mani@@ 2154
aqtitau@@ 2153
ai 2149
angimmata 2146
tuni@@ 2145
ulauqtuq 2145
uqausilirinirmut 2143
pivalliajulirinirmut 2142
attut 2141
atiq@@ 2139
tutik 2139
aqullugu 2137
aulluni 2131
innait 2131
allu 2131
taimaili@@ 2130
lirijiit 2130
ilaannikkut 2127
uninga 2126
mangaata 2125
init 2122
simani@@ 2122
ikajuqtau@@ 2121
taikkuninga 2120
ilau@@ 2119
anngimmat 2114
qanutigi 2113
kiujjutiit 2112
tig@@ 2111
ss@@ 2110
pa 2106
aqtilluta 2105
aanniavili@@ 2105
liuq@@ 2103
nalunanngittuq 2102
maniittuq 2098
asingillu 2098
ilagiar@@ 2098
kivallirmi 2096
ill@@ 2095
takunn@@ 2095
qaujimatti@@ 2091
asinginnut 2088
qatta@@ 2088
uqattaqtut 2087
taptuna 2085
kamagi@@ 2083
ilinniaqtu@@ 2081
anngimmata 2081
lauqtut 2080
qanga 2080
gattigu 2078
kaanturaak@@ 2077
maklain 2076
agu@@ 2074
ilinniarv@@ 2074
gijavut 2073
ivjarutailak 2073
tunisi@@ 2072
niq 2071
ainn@@ 2069
saqqitauningit 2069
3@@ 2066
kangiqlhinirmi 2066
2001 2064
ammat 2063
simajuq@@ 2060
2@@ 2057
isumaalu@@ 2052
ujuni 2051
ilangat 2051
llar@@ 2050
uliq@@ 2049
unngittuq 2048
ministaa 2048
angajuqqaat 2048
inna@@ 2047
utik 2046
uqaqsima@@ 2046
ikku@@ 2045
ikajuuti@@ 2043
uvattinnut 2040
utinut 2040
arninganut 2040
pivalli@@ 2038
arninginnik 2037
iqqanaijaqtita@@ 2037
uqaq@@ 2032
iqattaq@@ 2031
angajuqqaap 2031
nunalingnut 2027
attigut 2026
inuktitut 2022
akuni@@ 2021
uqalimaaqtauninga 2021
atiliuq@@ 2019
piviq@@ 2017
kajusijuq 2013
pigiaqti@@ 2013
ullumimut 2012
illuni 2010
aqtumit 2008
manga@@ 2007
apiqqu@@ 2006
atausiq 2003
p 2002
ilis@@ 2002
qanuittunik 2001
aqqa 2000
lunga 2000
kiinaujaqaqti@@ 2000
alakannuaq 1999
pinasuarusi@@ 1999
tusaqti@@ 1996
pular@@ 1993
kangiqlhiniup 1990
ilinniaq@@ 1990
iglulirijirjuakkut 1984
viq@@ 1980
piliriar@@ 1980
sivuliqti@@ 1978
qauj@@ 1977
atuinnau@@ 1976
taakkunani 1975
uvannut 1967
akainn@@ 1967
aqpalli@@ 1967
llari@@ 1965
pianik@@ 1964
maligaliuqtit 1963
sanut 1959
nalli@@ 1958
unikkaat 1958
nunaq@@ 1957
inulirijikkut 1956
armangaatta 1955
unng@@ 1950
avatilirinirmut 1949
amisut 1947
aulajjutiit 1945
aujuq 1944
angiju@@ 1942
ministarijaujuq 1935
kiu@@ 1935
pijitsir@@ 1934
sil@@ 1932
maligaliuqtiuqatikka 1931
kiinaujanut 1928
ttut 1927
nuta@@ 1926
uri@@ 1923
inuusi@@ 1921
unnar@@ 1920
anganit 1920
nutarak 1919
uqatta@@ 1916
ujumik 1915
2000 1915
akkit 1914
ara@@ 1912
tavvuuna 1911
turaanga@@ 1907
utingit 1905
mmangaaq 1905
niruaqtau@@ 1903
rij@@ 1903
akiq@@ 1902
qiniq@@ 1901
aturni@@ 1901
tuinnariaq@@ 1900
luunniit 1899
jariaq@@ 1897
iri@@ 1892
iqalu@@ 1890
aqtakka 1888
namminiq@@ 1888
atuliquj@@ 1887
parnak@@ 1887
anngittu@@ 1884
tuinnaq 1882
maann@@ 1876
mik@@ 1874
ilinniari@@ 1869
qimirruj@@ 1867
ujumut 1866
ilinniaruti@@ 1866
ull@@ 1864
armit 1864
guti@@ 1864
va 1862
niuvir@@ 1862
titiraqti 1857
iliq@@ 1856
pigiaq@@ 1855
ugaluat 1855
limaat 1851
ministangannut 1850
tugut 1849
tamatuma 1848
anngittuq 1848
tusaq@@ 1847
niqtunaqtuq 1846
kiujunn@@ 1846
pijjuti@@ 1845
laurmata 1843
jiit 1840
laviinnia 1840
arninganik 1839
aup 1839
aaqqit@@ 1839
kiujjutik 1839
quviasu@@ 1837
ngu@@ 1836
annir@@ 1835
jut@@ 1834
arijau@@ 1831
tuit 1830
taikunga 1830
tauningit 1829
ap 1828
pugut 1827
sun@@ 1825
mai 1823
llunga 1822
mmar@@ 1820
gija@@ 1818
taakkunanngat 1816
saqqitaujuq 1816
atuutiq@@ 1812
tauqattaq@@ 1812
aujariaq@@ 1811
simatti@@ 1811
sivumu@@ 1808
uqqu@@ 1808
suujuq 1808
tukisitti@@ 1806
aqpavut 1804
itsivauta 1804
aal@@ 1802
app@@ 1801
simangmata 1801
saqqija@@ 1800
avati@@ 1800
aqai 1799
kajusitti@@ 1799
asa@@ 1798
simanngi@@ 1798
apiqqutiq@@ 1798
aaqqigi@@ 1796
anu@@ 1793
ulluunniit 1793
1999 1792
quti@@ 1792
ilagiarutiit 1791
tukisigiar@@ 1789
arnut 1787
suuqaimma 1787
pigiaqtitaksanit 1787
ingillu 1783
piliriangu@@ 1783
taugiaq@@ 1782
utaqqi@@ 1781
illuq@@ 1781
illulirijirjuakkut 1781
unnusakkut 1779
ulauqtut 1778
sini@@ 1776
atau@@ 1776
ajjigi@@ 1775
upigi@@ 1774
iku@@ 1773
asijji@@ 1773
anu 1772
paat 1772
uti 1769
saqq@@ 1768
artu@@ 1766
liit 1766
tilluta 1765
suung@@ 1765
piluaqtumi 1765
nunattinni 1764
nunavummi@@ 1764
tautti@@ 1762
ajj@@ 1761
angita 1760
ajji@@ 1760
aqtangit 1759
gas@@ 1758
nangminiq 1758
tauqattaqtut 1758
tusaaji 1758
titiqqatigut 1758
riaq@@ 1756
nutaaq 1756
attan@@ 1755
uqausir@@ 1754
angujut 1753
angimmat 1753
nutaanik 1752
ammar@@ 1750
pitaqariaq@@ 1750
jaan 1744
ajurn@@ 1744
maannamut 1744
isumagijau@@ 1741
maligaliurviup 1738
amma@@ 1735
liriji@@ 1734
26 1734
ingirr@@ 1733
tamatumani 1732
tavvanngat 1732
kiinaujali@@ 1731
taikkualu 1730
taaniul 1729
piqujivunga@@ 1729
maj@@ 1729
apiqsuq@@ 1728
vimmi 1727
unikkaaq 1726
ulli 1725
miut 1725
mangaat 1725
agi@@ 1724
ilinniaqtitti@@ 1720
uqausiksangit 1716
taikani@@ 1716
taulutik 1716
uqaqti@@ 1714
ttinni 1713
avit 1712
pijariir@@ 1711
simajuni 1711
iqq@@ 1710
19@@ 1710
tauninginnut 1708
tauvalli@@ 1707
allari@@ 1707
attinnik 1706
katimaniq 1704
iniar@@ 1703
pilirivvi@@ 1702
attinni 1701
inniq@@ 1699
utti@@ 1699
aaqqigiaq@@ 1699
akingit 1695
simajugut 1694
lirinirmik 1692
aminik 1691
samut 1690
innarnut 1690
igluq@@ 1689
aqtumut 1688
atuni 1687
% 1685
tangit 1684
tauniaqtut 1683
ugaj@@ 1683
angijuqqa@@ 1682
aksa@@ 1681
angiqtau@@ 1681
unnaraj@@ 1681
arniarmat 1677
ama@@ 1677
ulir@@ 1677
lluunniit 1676
titiraqtau@@ 1676
40 1674
taimann@@ 1673
qi@@ 1672
uuttuutigilugu 1671
pili@@ 1667
ilaa 1667
arraag@@ 1666
taullutik 1664
taulaur@@ 1664
.@@ 1664
uqau@@ 1663
ipp@@ 1662
uluni 1660
aqtur@@ 1659
katimajjutissaq 1657
maligait 1656
uqsualu@@ 1656
ujaranni@@ 1655
qujannamii 1654
ilagij@@ 1653
illaqtut 1653
tuinna@@ 1650
maligaliuqtiuqatiga 1650
upinnarani 1648
tigu 1646
igi@@ 1644
jaak 1643
taujunit 1643
aqqa@@ 1641
tinut 1640
autillugu 1639
simangmat 1639
ullunga 1638
pingasu@@ 1638
aij@@ 1637
pigiaqtittivunga 1637
taujunut 1636
mullu 1636
ats@@ 1633
ittunik 1633
angittuq 1632
saqqiq@@ 1631
aaqqiksu@@ 1631
aa 1631
samik 1629
talu 1628
vigi@@ 1628
utta 1628
piqa@@ 1627
minit 1626
raj@@ 1626
kkalu@@ 1626
pijuma@@ 1623
unu 1623
ujumit 1623
unngittut 1622
hantu 1621
maligaliuqtinut 1616
attinnut 1616
pijau@@ 1616
tik 1614
ksa@@ 1614
ajja@@ 1613
mma 1613
aqpaa 1613
nunavummut 1613
nutaamik 1611
tausimajuq 1610
uli@@ 1610
qikiqtaaluup 1608
arnit 1605
uki@@ 1605
mmanga@@ 1604
uqattar@@ 1604
sin@@ 1603
taannaqai 1602
unnik 1601
itt@@ 1601
lik 1601
tamaunga 1600
aulattinirmut 1598
unnir@@ 1598
arraagu 1596
katimajirala@@ 1595
taik@@ 1595
arianga 1594
atigi@@ 1593
apirijumajara 1592
ministuujuq 1592
taakku@@ 1590
tta 1589
piv@@ 1588
arata@@ 1585
punga 1585
jumut 1584
piiq@@ 1583
ilaq@@ 1583
va@@ 1582
summat 1582
50 1579
quvian@@ 1577
aras@@ 1573
tinik 1571
saqqiti@@ 1569
qulliq 1569
tamannalu 1568
pigiaqtitaq 1568
ass@@ 1568
titsi@@ 1567
qaujisaqta@@ 1567
imaili@@ 1565
uniaqtut 1564
uniaqtuq 1559
uqaqqaummat 1559
tavv@@ 1557
ktu@@ 1556
katillugit 1556
attuq@@ 1555
niuvi@@ 1555
nunavu@@ 1552
im@@ 1552
igunn@@ 1551
kamaji@@ 1549
uqari@@ 1549
tukisin@@ 1549
simaningit 1547
jumit 1546
aaq@@ 1545
mangaaq 1545
tauq 1544
armijut 1544
simallutik 1544
taam 1544
uu@@ 1543
ungalu 1543
qanuimmat 1543
kiggatuq@@ 1542
asinginni 1538
qallunaatitut 1537
qujannamiiqpara 1536
mak@@ 1535
simagatta 1535
qanurli 1535
aqtauni@@ 1534
siur@@ 1533
qassi@@ 1533
juuni 1532
gguuq 1532
qujannamiillu 1532
qujali@@ 1531
inganit 1531
100 1531
aq. 1531
sij@@ 1529
lirijikkunni 1529
akitujunut 1529
saq 1528
nilli@@ 1528
10@@ 1528
aqqaa 1527
lirijikkunnit 1525
taannalu 1525
pillugit 1524
pigiaqtitti@@ 1524
qimirrujau@@ 1524
angirraq@@ 1522
ut. 1521
itta@@ 1521
taassuma 1519
pivalliajulirijikkut 1519
aanniasiuqti@@ 1518
28 1516
simagama 1516
innu@@ 1515
iqqanaijaqtiq@@ 1513
sivulli@@ 1512
ilagijau@@ 1511
katimajiralaangujut 1511
aqqau@@ 1510
surlu 1508
gavamakkunginnut 1507
jja@@ 1507
gijaujut 1505
giv@@ 1504
aqtanga 1503
aanniav@@ 1499
milu 1497
lhugu 1497
aqqut 1496
tauqatta@@ 1496
iksivautaaq. 1493
gini@@ 1492
kinguv@@ 1491
arniaqtuq 1490
arti@@ 1486
giarunn@@ 1485
qujannamiingujutit 1485
auqattaq@@ 1484
urni@@ 1481
akituju@@ 1480
piliriji@@ 1479
uqar@@ 1477
ministangat 1476
angiru@@ 1475
irij@@ 1474
gunnaq@@ 1474
aaquaq 1474
turaangajut 1472
kiinaujaqtur@@ 1471
apiqsu@@ 1470
nalunaij@@ 1468
kiaq 1468
ngujut 1467
mili@@ 1466
tamarmik 1465
aqpakka 1465
kiinaujaqtu@@ 1463
nutaat 1462
tanga 1462
pingasut 1462
aga@@ 1461
ungittuq 1460
piraj@@ 1460
tautu@@ 1458
ikajuutiq@@ 1458
miniit 1456
sanit 1455
qallunaat 1455
alauqsima@@ 1454
arlu@@ 1454
ilinniar@@ 1454
2017 1453
titiq@@ 1452
aturunn@@ 1451
saqqititti@@ 1451
ikajuqsu@@ 1450
pijumaj@@ 1449
mmagu 1449
vik@@ 1444
kiggaqtu@@ 1443
aujuni 1442
avatilirijikkut 1442
vara 1441
takka 1441
aqtuuja@@ 1440
man 1439
gijangit 1439
kuapuriis@@ 1439
ajjigiinngittunik 1437
aqsimajut 1436
qanuqtuur@@ 1435
aanniaqarnangittulirijikkut 1435
inirmit 1435
avi@@ 1435
ingitigut 1435
ungit 1435
unnaqullugit 1435
titiqq@@ 1435
ujar@@ 1434
taunasu@@ 1434
iqatta@@ 1434
arr@@ 1433
unnaqsi@@ 1433
atik 1433
katimani@@ 1432
maligaq@@ 1432
taimanna@@ 1432
malillugu 1432
atuqtauni@@ 1432
glu 1432
aturiaq@@ 1428
nunavummiunut 1427
lauqsima@@ 1427
tigi@@ 1426
qai@@ 1425
pigiaqtitait 1425
simalluni 1424
aqtugit 1423
jutinik 1423
illuunniit 1422
pivalliaju@@ 1422
taissumani 1422
aqtumi 1421
27 1420
titiraqsima@@ 1420
simajangit 1419
inngu@@ 1419
aksuru@@ 1418
anik@@ 1418
utinit 1417
aqattarni@@ 1417
pitti@@ 1417
aaqqiumainnarutiillu 1416
hu@@ 1415
ilisaqsi@@ 1413
luti 1412
atausirmik 1411
unnit 1411
ujj@@ 1410
akiliqsu@@ 1409
simangi@@ 1407
qaujinasu@@ 1407
tagvani 1407
tuinnau@@ 1406
allatta@@ 1405
867 1404
angillu 1403
ingnut 1403
arvaalluk 1402
ll@@ 1402
ikajuqtuq@@ 1402
aliit 1402
taugunn@@ 1402
iks@@ 1401
iqqanaijaqt@@ 1401
ttinnik 1400
isumali@@ 1398
asinginnit 1397
piliriarij@@ 1396
maligalirinirmut 1396
hi@@ 1395
armijuq 1395
qimirrujiit 1395
ilir@@ 1393
katimaqatiq@@ 1393
tukiq@@ 1392
tumik 1391
ilisaqsiniq 1390
... 1388
15@@ 1388
unni 1387
atuliqti@@ 1387
qimirrunak@@ 1386
aulaur@@ 1384
maligaliurvingmi 1383
isumaaluutiq@@ 1382
unniiq@@ 1381
qaujiman@@ 1380
utir@@ 1380
atillugit 1380
pukirnak 1380
atuinnauti@@ 1380
aqqunga 1379
aalu@@ 1378
attarn@@ 1378
minut 1377
sauni@@ 1376
simavut 1376
tunngavikkut 1376
inu 1376
jutinut 1375
jutiit 1375
iqqanaijaqtu@@ 1375
jumi 1374
alirmata 1373
lauqtuq 1373
atit 1373
titiraq@@ 1372
aruma 1372
isumaq@@ 1370
nuttiq@@ 1370
kajusiti@@ 1369
ukununga 1369
-@@ 1369
qaujisaqti@@ 1368
uqaqtiup 1367
allutik 1367
aulattijiit 1367
atuuti@@ 1367
ttinnut 1366
arluti 1365
annginn@@ 1364
minis@@ 1364
amisunik 1363
aqtiit 1363
suungummata 1362
uvuq 1361
kiulvin 1359
pisima@@ 1358
autiq@@ 1358
katimatuinn@@ 1357
avv@@ 1357
kiinaujaliur@@ 1354
aanniaqtulirinirmut 1354
iqattar@@ 1353
tauluni 1352
titiraqsimajut 1352
matuiqtauninga 1352
nal@@ 1351
katimatuinnaqtillugit 1351
katimajjuti@@ 1350
iqqauma@@ 1349
jumaj@@ 1349
atuliq@@ 1349
mappigaq 1348
qikiqtaalummi 1346
uru@@ 1344
kkannirunn@@ 1344
matuir@@ 1343
ingnik 1342
alla@@ 1342
nigianut 1340
maligaliuqtiujuq 1340
paulusi 1339
aiv@@ 1337
auqatta@@ 1335
qaujikkainiq 1335
tiit 1334
lirmata 1334
arutiq@@ 1332
aqatt@@ 1332
aaqqisuq@@ 1332
attaqtut 1331
kka 1330
ingni 1330
angiqpisi 1330
nami@@ 1330
tillu 1329
aanniaq@@ 1329
nak@@ 1329
usuutaapik 1329
iti@@ 1328
tunij@@ 1328
ukunani 1328
titirarv@@ 1328
isumaksaqsiuqtauninga 1328
artut 1327
gal@@ 1327
nirmut 1326
saqqii@@ 1326
qinir@@ 1326
una@@ 1325
ikajurunn@@ 1325
isumaaluuti@@ 1323
kingulliqpaami 1320
vat 1319
nali@@ 1319
turaang@@ 1319
titt@@ 1318
tusaajaqtuqsimajunik 1318
ingmi 1317
taaksuminga 1317
katimajiujut 1316
arialiit 1315
naammasaqtut 1315
akkannirunn@@ 1315
auluni 1314
vakka 1313
qatt@@ 1312
qangakkut 1311
tauqattar@@ 1311
ittinni 1308
aqquti@@ 1306
illuit 1306
975 1306
parna@@ 1304
gavamakkungita 1304
taula@@ 1303
uriaq@@ 1303
25@@ 1302
taaksumunga 1302
kikkutuinnarnut 1301
aanniaqtulirijikkut 1301
urunn@@ 1300
vak@@ 1300
araluarmangaata 1299
29 1299
innar@@ 1298
aquj@@ 1297
kuak 1296
iqalungni 1295
atitti@@ 1294
qanga@@ 1294
titiraqsimaninga 1294
nu 1292
tallimanut 1290
kkanni@@ 1290
isumaaluutigij@@ 1290
gavit 1289
pir@@ 1289
ullugit 1288
uqausissangit 1288
utigini@@ 1284
kkanniriaq@@ 1284
piquti@@ 1284
13@@ 1284
kin@@ 1284
qujannamik 1284
aqtualu@@ 1284
uvut 1283
aipp@@ 1283
pivalliati@@ 1280
tamakkualu 1280
kajusivuq 1280
uqausiksaq@@ 1280
ujunn@@ 1279
ullutit 1279
rju@@ 1278
ilu 1278
aliri@@ 1276
taugaj@@ 1276
taiviti 1275
maligarmik 1275
kiinaujaq 1275
jutiq@@ 1274
60 1274
katiman@@ 1273
taqqi@@ 1273
vvi@@ 1273
arvik 1273
aturuma@@ 1272
aqtauq@@ 1272
qanuiliur@@ 1272
taugi@@ 1270
qanutuinnaq 1268
iqqanaijaqatiq@@ 1267
inuq@@ 1266
maligaliuqtimut 1266
14@@ 1266
anirmik 1265
utillugit 1265
tunngasugit 1265
iqqanaijaqatigi@@ 1265
ariaqarmata 1264
nunaliujuni 1264
nani@@ 1263
alirmat 1263
malillugit 1263
imann@@ 1263
taunir@@ 1262
ingi 1262
taulauqtut 1261
jiini 1261
vv@@ 1259
utik@@ 1259
simanir@@ 1258
lhuta 1258
nanuit 1257
aaqqigiaqtauqullugu 1257
sivulliqpa@@ 1256
avvi@@ 1255
ujuit 1254
inulirijikkunnut 1254
ilisaij@@ 1254
uqtut 1254
aqqu 1254
uningit 1253
sivuliqtii 1253
iituaq 1252
isa@@ 1252
siti@@ 1251
qangi@@ 1250
sivalli@@ 1249
tikku@@ 1249
aur@@ 1249
mann@@ 1249
07 1249
aaqqiksi@@ 1248
apirijuma@@ 1247
simajumik 1246
gijaujuq 1245
ilinniaqtinut 1245
maligaliurvinga 1245
llatta@@ 1244
sivulliuti@@ 1244
kiggaqtuq@@ 1244
vugut 1242
mami@@ 1242
ittuq@@ 1241
angi 1240
ssa@@ 1240
maligaliurvi@@ 1239
iksivauta@@ 1239
qar@@ 1239
sai@@ 1239
arviq@@ 1239
imi@@ 1239
tukisigi@@ 1238
auju@@ 1238
junik 1237
kingulliqpa@@ 1237
uninganut 1237
20@@ 1237
kkanniq@@ 1237
anniq@@ 1236
18@@ 1235
aksur@@ 1235
tukisiuma@@ 1235
ttunga 1234
uqaal@@ 1234
ariaqarni@@ 1233
mut. 1233
qujannamiiq@@ 1229
unniir@@ 1229
arraagumut 1229
isi@@ 1228
naasautaa 1227
akiliqsuq@@ 1226
ammangaata 1226
autigi@@ 1225
tauqullugit 1225
qimirruni@@ 1224
takuj@@ 1224
ikajuru@@ 1224
taamna 1224
akitujuqturutiksait 1224
ha@@ 1223
aturi@@ 1222
ilisaiji@@ 1222
imminik 1222
apirimmat 1222
attuq 1221
nuvipiri 1217
uvit 1216
kiujjuti@@ 1216
taann@@ 1216
allavv@@ 1215
atuqtauv@@ 1213
aqtu 1213
kajusini@@ 1212
para 1211
uqq@@ 1211
unngimmat 1211
sivunittinni 1211
lirinirmullu 1209
aluit 1208
uqalimaaqtauqullugu 1208
tittinirmut 1208
uuminga 1208
piku 1208
titi@@ 1207
tuu@@ 1207
ingitta 1207
iluani@@ 1205
ungali 1204
nutaang@@ 1203
taulluni 1202
atuinnaq@@ 1201
kis@@ 1201
anilu 1201
17@@ 1201
aanniaqtu@@ 1201
titut 1199
itsi@@ 1198
irn@@ 1198
unaj@@ 1197
ingn@@ 1196
aqpa@@ 1195
uqs@@ 1195
ataani 1194
iqqanaijaaqta@@ 1194
ujumi 1192
piliriaks@@ 1192
arattigut 1192
maligaliuqtiujut 1192
aanniaqarnanngittulirinirmut 1192
pita@@ 1191
qujannamiiruma@@ 1190
artuq 1189
ullugu 1188
atuliqujali@@ 1188
annit 1186
alirij@@ 1186
qaujimajatuqangit 1186
ilima@@ 1185
simang@@ 1185
uummaqquti@@ 1185
patiq 1185
27@@ 1184
kiinaujalirij@@ 1184
gakkit 1183
ilauqtut 1183
suni 1182
ariaksaq 1181
asuung@@ 1181
pini@@ 1180
matuiq@@ 1180
gavamatuqakkunnit 1180
katimajjutissavut 1180
urn@@ 1179
sim@@ 1179
ilisaijiit 1179
lli 1179
tauvani 1179
pijju@@ 1178
atuagaq 1178
minnik 1177
titirauj@@ 1177
08 1177
imaimma 1177
utiks@@ 1176
anginu 1176
arsi@@ 1176
inullu 1175
tauti@@ 1175
tammaq@@ 1175
aqqi@@ 1174
unngittu@@ 1174
akkanniq@@ 1171
asianut 1171
arutik 1171
arut@@ 1170
taakkun@@ 1170
arniqpat 1170
unniq@@ 1169
aktuq@@ 1169
arniqsau@@ 1168
iqqanaijaat 1168
piqujarju@@ 1167
titiqqanik 1167
tili@@ 1166
kti@@ 1166
aulla@@ 1165
auta@@ 1164
uqaujjau@@ 1164
aliqtut 1164
inillu 1163
utirluta 1163
piju@@ 1162
vu@@ 1160
innau@@ 1159
nunalinni@@ 1159
aanniaqarnanngittulirijikkut 1158
ksanik 1157
ilitaqsi@@ 1157
26@@ 1157
tungilinga 1156
qaujisa@@ 1156
ta. 1156
tusauma@@ 1155
1,@@ 1155
uvani@@ 1154
qaujigiar@@ 1154
maligaliurvik 1153
lhugit 1152
23@@ 1152
ugunn@@ 1151
qanuilinga@@ 1150
inuttitut 1150
arnirmit 1149
aqtinut 1147
sigi@@ 1146
ilinniaqtulirijikkunnut 1146
maani 1145
aulan@@ 1145
quvias@@ 1144
iksivautaup 1144
mmangaat 1142
sutik 1140
iluliq@@ 1140
katujjiqatigiingit 1140
ministanga 1140
aanniaqarnangittulirinirmut 1139
ilinniatitti@@ 1139
immata 1137
apiqqutigij@@ 1137
paa 1136
gijara 1136
liqtu@@ 1136
simanngittut 1135
matuinga@@ 1134
atausirmut 1133
arniaratta 1132
atii 1132
aulaninginnut 1131
piruqpalli@@ 1131
aravit 1131
angujuq 1130
saugaj@@ 1130
uji@@ 1129
iqsukti 1129
paippa@@ 1128
illuta 1127
ugi@@ 1127
unillu 1127
ministu@@ 1127
aniarmata 1126
uniaqtunik 1125
nalunaikku@@ 1125
juumi@@ 1124
ittunut 1123
jutit 1123
allav@@ 1121
titiqqaq 1120
taimailinga@@ 1120
katimajituinnait 1120
ajuq@@ 1119
aluunniit 1118
arni 1118
gi 1118
aqs@@ 1117
millu 1117
agunn@@ 1117
kkann@@ 1115
galuaqtunga 1115
ijju@@ 1114
uattiaru 1114
lluti 1113
uttauq 1113
aaqqis@@ 1113
ingmut 1112
qaujikkaigut 1112
tugu 1112
utiqti@@ 1112
ajur@@ 1112
16@@ 1112
maliq@@ 1110
uqattarmata 1110
arnikkut 1109
pilirijjuti@@ 1109
atsi 1108
usi 1108
alima@@ 1108
qitirmiut 1108
liqtuq 1108
gavamakkunginnit 1108
ammaluktauq 1108
makpigaq 1107
agu 1106
ikajuqsuq@@ 1105
tusaaj@@ 1104
aniq 1104
saqi@@ 1104
tauninga 1103
qqu@@ 1103
angiruti@@ 1102
ajut 1102
24@@ 1102
suut 1102
aqtummari@@ 1101
tanna 1101
ttiariaq@@ 1101
assi 1098
igiaq@@ 1097
ulaurmata 1097
nungu@@ 1097
taak@@ 1097
innatuqait 1097
autiit 1096
arlu 1096
liqtut 1095
maligiaq@@ 1094
rasu@@ 1094
unasu@@ 1094
iniqsau@@ 1093
attarni@@ 1093
qarasauj@@ 1093
tuksiarnirmut 1093
angunasu@@ 1091
uqaus@@ 1090
qaujisarni@@ 1090
aqtuugaluaq 1090
attutik 1090
ullumi@@ 1089
aaqqiksuq@@ 1089
tauvattut 1089
piusi@@ 1087
pilirini@@ 1087
inulirijikkullu 1087
lirijikk@@ 1085
aqtita@@ 1085
utupiri 1083
arraagut 1082
maligalirijikkut 1082
kisianittauq 1081
iqqanaijaaq@@ 1081
ilagiarutit 1081
aulauqtut 1080
aalan 1080
irju@@ 1079
qanurlu 1079
ikkua 1079
innatuq@@ 1078
attinnit 1078
ulluq 1078
auqattar@@ 1078
inas@@ 1077
taikku@@ 1077
ulaurmat 1077
unuqtu@@ 1077
laurmat 1076
alau@@ 1076
vattut 1074
innuk@@ 1074
unnginn@@ 1074
vini@@ 1074
alik 1073
iliqqusilirijikkut 1073
tiliur@@ 1072
minist@@ 1072
tamajja 1072
tujurmi@@ 1071
surusirnut 1070
09 1070
tari@@ 1069
uqalauq@@ 1069
piliriviujut 1069
pak@@ 1069
ttuni 1068
uqati@@ 1068
pilu@@ 1068
simaninga 1068
haamlakkut 1067
simaniq@@ 1066
ukuninga 1066
g 1066
katimaqatigi@@ 1065
maki@@ 1064
atuqta@@ 1064
aqtar@@ 1064
pijariatu@@ 1064
sukk@@ 1063
jutigi@@ 1063
tinnik 1062
unu@@ 1062
anngilu@@ 1061
asijjir@@ 1060
uqausiks@@ 1059
tausimajunik 1059
ing. 1059
iss@@ 1059
giarni@@ 1058
utsi@@ 1057
pijunnarniq@@ 1057
mi. 1057
qut@@ 1056
aliqtuq 1056
unnu@@ 1056
aruvit 1056
simagalu@@ 1056
qanuiliuq@@ 1056
katimatuinnatillugit 1056
as 1055
qamanittuarmi 1054
kinatuinnaq 1054
paliisikkut 1054
uqata@@ 1053
allatti 1052
uvattinnik 1052
ilitarijau@@ 1052
gijunn@@ 1052
nuqqanga@@ 1051
ajunn@@ 1050
nirmik 1050
piliriat 1050
gavam@@ 1049
vit 1048
apiqqutaulauqtunut 1048
katimajinut 1047
akaunngiliur@@ 1047
taimaittunik 1046
arviat 1045
tinnut 1045
qang@@ 1045
mmat. 1045
surusi@@ 1044
aqlh@@ 1044
silataani 1042
taimai@@ 1042
gav@@ 1042
taul@@ 1042
attarmata 1042
atunit 1041
viniit 1041
aruni 1040
miu@@ 1040
takun@@ 1039
katimajinginnit 1039
kannir@@ 1039
ungittu@@ 1038
simajuit 1038
piqujaq 1038
qujannami@@ 1037
apirijumajunga 1037
ulu 1037
mata. 1037
iqqau@@ 1035
jumajunga 1035
qitirmiuni 1035
pingajuanni 1035
tamakku@@ 1035
gijanga 1035
immat 1034
06 1033
apiqqutigijara 1033
ttiarunn@@ 1033
kamaj@@ 1032
nam@@ 1031
piliritti@@ 1031
kunnut 1031
limaanut 1030
aqtitsi@@ 1029
iqqu@@ 1029
mmarialu@@ 1029
arlunga 1028
tunngasutti@@ 1028
qangatasu@@ 1027
irijangit 1026
aulauqtuq 1026
inginnu 1026
imaittu@@ 1026
qaujikk@@ 1025
titiqqat 1023
ilitari@@ 1022
illar@@ 1022
atuqtaujunn@@ 1021
ilijau@@ 1021
innaq 1020
unniit 1020
arp@@ 1020
anginiq@@ 1019
aulaniq@@ 1019
manngi@@ 1019
tuavirn@@ 1019
aqlhugu 1019
utiss@@ 1019
ikainn@@ 1018
gianga 1018
uqausiriqqauj@@ 1018
gattigut 1018
nutar@@ 1017
pingasunik 1017
simaliqtut 1016
ulutik 1016
ullar@@ 1016
katimaniq@@ 1015
ginngi@@ 1015
iqqanaijaq@@ 1014
arutigi@@ 1013
attauq 1013
iqsuktii 1013
pijitsiq@@ 1012
angajuqqaaq@@ 1012
ilaurmata 1012
anginnama 1011
kikkutuinnait 1011
uvikk@@ 1010
ati 1009
unngimmata 1009
ilisari@@ 1009
quvi@@ 1008
piuju@@ 1007
jauni@@ 1007
maij@@ 1007
uqaruma@@ 1007
aaqq@@ 1007
qijuktaaq 1007
qqau@@ 1006
isi 1006
a. 1006
kan@@ 1005
tuutu 1005
parnag@@ 1005
kulu@@ 1004
anullu 1004
qarasaujakkut 1004
arunnaqullugit 1003
apiqqutiksaq@@ 1003
lirmat 1002
niriu@@ 1002
pis@@ 1001
ittunit 1000
sig@@ 1000
aqpak@@ 1000
uqaujji@@ 1000
utinginnut 999
angin@@ 999
nalu@@ 998
ivi@@ 998
amisururi@@ 998
viup 997
taaksiij@@ 997
alauratta 997
tsa@@ 996
pula@@ 996
igu@@ 995
atuaga@@ 995
mman 994
aanniaqarnangittu@@ 994
aksururn@@ 994
akaunngiliurutiq@@ 994
ingannut 993
takujuma@@ 993
ullaakkut 993
unga. 993
takkua 991
aari@@ 991
akitulu@@ 990
juk@@ 990
naluna@@ 989
arviani 989
ilisarijau@@ 989
usa@@ 988
aqqugut 988
arma 988
arma@@ 987
ingmi@@ 987
kiinaujalirijikkunnut 987
atuqtauju@@ 986
nirij@@ 986
uninginnut 985
arl@@ 985
tusarumin@@ 984
asuungummata 984
sanikiluarmi 983
ttunik 983
uqsu@@ 982
tauqullugu 981
ajunngi@@ 980
uumaju@@ 980
iliqqusilirinirmut 979
viu@@ 979
gilauq@@ 978
35 978
iqqanaijaqtulirijikkut 978
qanui@@ 978
vaa 978
ilutik 977
kiujau@@ 977
aili@@ 977
taakkuali 977
junut 976
aulattiji@@ 976
inginu 976
nunavuup 975
aliratta 975
gavamakkunginni 975
nunalingnit 975
mini 974
kajusiinn@@ 974
uummaqqutilirijikkut 974
misis 973
katimajit 972
apiqqutiginiaqtara 972
tunngaviq@@ 972
arsima@@ 971
makima@@ 971
akitujuqtur@@ 971
unik@@ 970
at. 970
qaujisaq@@ 970
arutinik 969
28@@ 969
piqujivungaaruti@@ 968
san 968
unullu 968
assi@@ 968
ippaksaq 967
tisama@@ 967
taujuma@@ 966
atuinnar@@ 966
ttiav@@ 966
paang@@ 965
ilinniaqtut 965
arutiit 964
manir@@ 964
ministaqai 964
lhutit 964
iqanaij@@ 963
l 963
aqi@@ 963
ksanut 963
aluar@@ 963
attugut 962
angannut 961
ilauti@@ 961
aqatigi@@ 961
akkanniriaq@@ 961
armimmata 961
malit@@ 960
limaaq 960
sivuniagut 960
aka@@ 960
arunniiq@@ 960
turaangajunik 960
akau@@ 959
gutta 959
sangit 958
ppalli@@ 958
turaag@@ 958
piliriq@@ 957
kikkut 957
qattarmata 957
aajiiqatigi@@ 956
maligassaq 956
milianik 955
katujjiqatigiit 955
tukimu@@ 954
ik. 954
miuta@@ 954
uqaqqau@@ 954
katimaji 954
unnut 953
angilligi@@ 953
simav@@ 952
ungittut 951
utta@@ 951
simajunga 951
uigugiarut 951
umaj@@ 950
alirinirmut 950
lirinir@@ 950
simajara 950
tumi 949
mijut 949
qattarni@@ 949
kisunik 949
aullaqti@@ 948
apiquti@@ 948
surusiit 948
arraagutamaaqsi@@ 947
alluni 947
uvannik 946
qima@@ 946
mmu@@ 946
nalliukkuma@@ 946
simaninginnut 945
atillugu 945
uvattut 945
ul 945
tir@@ 945
vimmut 945
anngilaq 944
ttuq 944
angajuqqaangujuq 944
aqqata 944
piqasiuti@@ 943
s 943
taa 943
arniaqtu@@ 943
piviksaq@@ 942
taannali 941
ippassaq 941
uqtuq 940
uqqai 940
utaujut 938
titiqqanit 938
lirijikkullu 937
taqq@@ 937
ura@@ 937
ingirrajulirinirmullu 937
uqpalli@@ 937
kkunnut 936
siuti@@ 936
amig@@ 935
tigumi@@ 935
katimatillugit 935
liqpat 934
inginnullu 932
atiliur@@ 932
pijunnauti@@ 931
tikillugu 931
inulirij@@ 930
ili 930
ingirraju@@ 930
ʼ@@ 930
ammi@@ 929
piliriqa@@ 929
umiarju@@ 929
aqata@@ 927
aulajjutinut 927
ugjuq 927
annu@@ 926
ingirra@@ 926
aniaqtut 926
iqqaqtuivi@@ 926
amisuuningit 926
assa@@ 926
nunal@@ 925
ilangillu 925
utita@@ 925
uqalaur@@ 925
ikajurniq@@ 924
aksaq 924
tita@@ 924
vis@@ 924
piliriaq 924
ikarr@@ 923
tittini@@ 923
iqqanaijarv@@ 923
tuksirauti@@ 923
qummuattuq 923
pivallian@@ 922
taujarialiit 922
ksait 921
maligali@@ 921
kanata@@ 921
king@@ 921
ilinniarniq 921
simajariaq@@ 921
qujannamiittauq 921
aqattariaq@@ 920
aninga 920
tallima@@ 919
gunnaraj@@ 919
illi 918
ittauq 918
piqasiujji@@ 918
kku 917
pivaallir@@ 917
ksau@@ 916
iluunn@@ 916
tigujau@@ 916
aujakkut 915
aulattij@@ 914
arniaqtugut 913
ajjiginngi@@ 913
ulauqtu@@ 913
aippanga 912
angittunga 912
siniq 911
giaruma@@ 911
attunut 911
ingni@@ 911
piqujaksait 911
maligarnik 910
llutigu 910
ninginnut 910
anillu 909
ukiuq@@ 909
armijugut 909
llugulu 909
apiqquti 909
mista. 909
qujagi@@ 908
urmi@@ 908
tausimaju@@ 908
30@@ 907
mmata. 907
tunngasukti@@ 906
vijju@@ 906
apiqqut@@ 906
utiksanik 906
irijanga 906
ttunut 905
akkann@@ 905
inuliriji@@ 905
ilinniaru@@ 903
kajusigi@@ 903
pi 902
turaangajuq 902
tuinnaqtunga 900
ukku@@ 899
ikkunnut 899
arunnaraj@@ 899
arsuti 899
aviktuq@@ 898
amu@@ 898
kkanniruma@@ 898
uqaqtii. 898
ariaqaraj@@ 898
akik@@ 898
pisimaj@@ 897
tuki@@ 897
ning@@ 897
ujji@@ 897
anginngittut 897
igluta@@ 896
apiqqusi@@ 896
katimarju@@ 896
kingullirmi 895
guvit 895
arningani 895
gala@@ 895
nalunairsi@@ 894
tillunga 894
tamassuminga 894
sami 893
apiqsur@@ 893
nigia 893
tittiniq 892
junit 892
akkanni@@ 892
uku@@ 891
ukainn@@ 891
mmijuq 891
uqaujj@@ 891
sivullirmi 890
aqtanginnik 889
ilinniarvik 889
ajjigiinngittu@@ 889
pilirianut 889
tussir@@ 889
qujannamiir@@ 889
itsivautaa 889
taujumik 888
r 888
attunik 888
quviagi@@ 888
nunavuu@@ 888
gavamatuqakkunnut 888
avik@@ 888
qani@@ 887
ilinniarviit 887
tusaaji@@ 887
uqaqsimammat 887
ungimmat 887
inikkut 886
igluit 886
aqtaulauq@@ 886
uva 886
inna 886
piluaqtumit 886
ingirrajulirinirmut 885
piliriangujut 885
api@@ 884
unilu 883
uvunga 883
titirarvi@@ 883
illuta@@ 883
arniarmangaata 882
alanga@@ 881
anaan@@ 881
saqqijaaqtitti@@ 880
ilinniariaq@@ 879
mun 879
arijaujut 878
guriin 878
maligaliurv@@ 877
inutuq@@ 877
tuinnar@@ 877
sitipiri 877
ilanginni 876
taungi@@ 876
200@@ 876
qujau@@ 875
immini@@ 875
lirijinut 875
32 875
ji 875
ataq@@ 874
ujariaq@@ 874
miutait 873
inutu@@ 873
naal@@ 872
ttinnit 872
asiv@@ 872
arviit 871
ariali@@ 871
aqpaat 871
angannik 870
kiggatuqtuq 870
ministamik 870
kua 870
aaqqii@@ 869
00 869
iqaq@@ 869
isiq@@ 869
arumajunga 869
tuglia 869
akkunnut 868
nunata@@ 868
uqalimaaqta@@ 868
ajju@@ 868
aniguq@@ 868
junga 868
tsini@@ 867
taujunnaq@@ 867
aulat@@ 867
inunnit 867
llugillu 866
gutik 866
ajauqtu@@ 866
nunasi@@ 865
sivuniks@@ 865
sivulliqpaamit 865
imialu@@ 864
parnautiit 864
unikk@@ 863
taal@@ 863
apiqqutigijanga 863
mar@@ 862
majut 862
junnaq@@ 862
taulauqtuq 862
aniqsau@@ 861
taimanngat 861
lhunga 861
arninginnit 860
alauqtu@@ 860
air@@ 860
ariv@@ 860
kuap@@ 859
ikajuu@@ 859
uqai 859
irata@@ 859
&#91; 859
qinnguq 859
malir@@ 858
atulu@@ 858
inugi@@ 857
nuu@@ 857
ttigut 857
atiliurutausimajut 857
iniup 856
inik@@ 856
makkuttu@@ 856
uqatti@@ 856
ilanginnik 855
arasugi@@ 855
its@@ 854
uni. 854
kiuni@@ 854
attariaq@@ 854
ulurian@@ 854
urata@@ 854
&#93; 854
naasauti@@ 853
pau@@ 853
uqalaurmat 853
jutingit 853
taqqakkununga 853
allavvi@@ 852
0@@ 852
iliqqusituq@@ 852
qaujimanngi@@ 852
attiaq 852
isumaliur@@ 851
mat@@ 851
maliklhugit 851
taujunnaqtut 850
qalluna@@ 850
77 850
uqsualuit 849
pulaari@@ 849
kingulliqpaamik 848
sivuliqtiup 848
tinn@@ 847
sanngi@@ 846
kiutti@@ 846
pur@@ 845
suungu@@ 845
ikkaj@@ 844
aanniarvili@@ 844
quviasuppunga 844
inuk@@ 843
qaujimani@@ 843
29@@ 843
tusaqtitau@@ 843
mat. 842
iqs@@ 842
nunalinnu@@ 842
iniqs@@ 842
aqsimajuq 842
saujuq 841
05 841
nuk@@ 841
kkullu 841
mamis@@ 841
malittugit 841
kamisan@@ 840
aja@@ 840
langa@@ 840
ingmat 840
uqatigi@@ 839
jii 839
ikajurasu@@ 838
45 838
saqqitaujut 838
qam@@ 837
ilaliuti@@ 837
quviasukpunga 837
manirmut 837
arniaqtavut 837
ulla@@ 837
jaga@@ 837
ningit 837
gavamalirijikkut 836
ilanginnut 836
luutta@@ 836
qaujimaju@@ 835
lirinirmit 835
ijunn@@ 834
illari@@ 834
ikkalu@@ 834
sapummi@@ 834
juk 833
utis@@ 833
tunga@@ 832
taut@@ 832
illutit 832
pulaariaqsimajunik 832
piliriarijau@@ 832
ittinnut 831
tuksiarniq 831
sivi@@ 831
attani@@ 831
atingit 831
arra@@ 831
maniq@@ 830
utinginnik 830
auja@@ 830
33 830
suk@@ 829
uqalimaaqtau@@ 829
tingit 829
ujau@@ 829
utigijau@@ 829
sam@@ 828
utauni@@ 828
akkanniruma@@ 828
ilinniarni@@ 828
piti@@ 828
ariaqaratta 828
inasuk@@ 827
41 827
gu. 827
alirmi@@ 826
,000.00 826
unilaak 825
attuiniq@@ 824
uniq 824
34 824
ikajuqtiit 824
anguti@@ 823
ullunilu 823
piliriviujuq 823
tanginnik 823
taimannaittu@@ 823
nunatsiarmi 822
alaurama 822
aqtitt@@ 822
unngu@@ 822
suru@@ 822
gajaqtut 821
pian@@ 821
aanniq@@ 820
iniaqt@@ 820
arunniir@@ 819
sananngu@@ 818
langa 818
tuavirnaqtu@@ 818
appat 818
suuq 818
juugaluaq 817
araangata 817
taatsuminga 817
qaujikkaigutit 817
niuv@@ 816
timimigut 816
jumallunga 815
uqta@@ 815
90 815
tugliani 815
arniarnir@@ 814
qut 814
pijjutigi@@ 814
tusar@@ 813
angani@@ 813
kiinaujani 813
arninginni 813
anniq 812
haaml@@ 812
atuagait 812
,@@ 812
pput 811
matuirutimut 811
kinguniagut 810
saij@@ 810
angikkalu@@ 810
mik. 809
samit 809
uvva 808
parnau@@ 808
aaqqissu@@ 808
mal@@ 807
niruaqti@@ 807
siuk 807
gavamaulluta 807
arnaq 806
utaqq@@ 806
ilaurmat 806
akaunngiliuruti@@ 806
inuktitu@@ 806
tauqattarmata 806
simavuq 805
unginnut 805
apiqqutinga 805
tukita@@ 805
inirmi 805
ssau@@ 805
maannali 804
angiqatigiigu@@ 804
aqsimajunik 803
ingirrajjuti@@ 803
vigij@@ 803
ajjigiinngittut 803
siut@@ 803
pingasunut 803
ujjir@@ 803
alakk@@ 803
jullu 802
ttuq@@ 802
vit@@ 802
ajauq@@ 801
autinik 801
illunik 801
qanuinn@@ 801
akinga 801
kata@@ 800
ajuqs@@ 800
piliriangujuq 800
ullumiujuq 799
simalirmata 798
lirini@@ 798
gumaj@@ 798
nalunairi@@ 798
makununga 798
akannir@@ 798
taiksumani 798
angalu 797
angitigut 797
saqqijaaqti@@ 797
illunga 797
aqtunilu 797
qanukiaq 797
aqqara 796
uga@@ 795
ttiar@@ 795
sani@@ 795
qattaqtut 795
taqarmat 794
panniqtuumi 794
sivulliujjau@@ 794
aqattarmat 794
ilaakku@@ 793
ungimmata 793
nuktiq@@ 793
uqarunnaqtunga 793
iji@@ 792
anigu@@ 792
jumajakka 792
umut 792
auqattaqtut 792
illuli@@ 791
alaunngi@@ 790
lau@@ 790
ariiq@@ 790
sulijuq 790
armiut 789
kiinaujaliurasu@@ 789
qainn@@ 789
vingmi 789
tamann@@ 789
titiraqsimajunik 789
sanagi@@ 789
akkanir@@ 788
naammana@@ 788
tukili@@ 788
utinga 788
akittu@@ 788
ujja@@ 787
simaniku@@ 787
ilhu@@ 786
asianik 786
gavamakku@@ 786
katimajingita 785
tiri@@ 785
niaq@@ 785
aqattaqtu@@ 785
qutivut 784
laurmi@@ 784
ingmata 784
ssanik 784
alakkannuaq 783
arialik 783
36 783
uniqsau@@ 783
utini@@ 783
taimaittuq@@ 783
qutiq@@ 782
naliqqangit 782
panniqtuuq 781
valliani@@ 781
jumallugu 781
aquti@@ 780
niqittiav@@ 780
agut 780
qauppat 779
arraagunit 779
illatta@@ 779
uli 779
naukkut 778
iningit 778
tamakkun@@ 778
anginnatta 777
qaujimajau@@ 777
anngikkalu@@ 777
ungajut 777
nunavuumit 777
ullari@@ 777
utait 777
uvatt@@ 776
pulaaqtinit 776
piliriviup 776
tuksi@@ 775
par@@ 775
lirijikkunnik 775
aqsimaju@@ 775
taimaittumik 775
inngaaqtut 775
uqtuq@@ 774
ming@@ 774
aruttigu 773
vivvuari 773
iqta@@ 772
kkannirni@@ 772
aksaq@@ 772
tal@@ 772
tinni 771
nalliukkumaaq@@ 771
givara 771
iqqanaijaqtut 771
milian@@ 770
ilauqtuq 770
lirmi@@ 769
qanuilu@@ 769
atuagaq@@ 769
iqqanaijaqtulirinirmut 769
upak@@ 768
iluanut 768
mitsaanut 767
49@@ 767
timiujut 767
ujararni@@ 767
atsa@@ 766
silataani@@ 766
ilauqt@@ 766
piu@@ 766
iqqanaijaqtinik 766
iqattaqtut 766
ilangagut 765
qamanittuaq 765
taaksuma 765
kiinaujaqaqtitti@@ 764
68 764
umi 764
magu 764
lugi 764
piqutirju@@ 764
gillu 763
imaimmat 763
aqtutillu 763
aktut 763
gialiit 763
simanngimmata 763
aqtumini@@ 763
ikajuqsi@@ 763
aanniarvi@@ 763
piggan@@ 762
rni@@ 761
gullu 761
tap@@ 761
utini 761
aulatsi@@ 761
pakka 761
attiav@@ 761
guni 761
tutsir@@ 761
70 760
qautamaat 760
tauniaqtuq 760
arali 760
nuqqangakainn@@ 760
araluara 759
ttini@@ 759
pus@@ 759
iqqanaijaqtiujut 759
uqausirijau@@ 758
ttiaq@@ 758
sik@@ 756
aqtugi@@ 756
katimajiuqatikka 755
pilirivik 755
uuttu@@ 754
uluuj@@ 754
napp@@ 754
auqqu@@ 754
taij@@ 754
gajaqtuq 754
qangatasuukku@@ 753
kisiani@@ 753
akaungiliur@@ 753
mang@@ 753
uqp@@ 752
aqsimammata 752
allaat 752
gavamatuqakkunni 752
makuninga 752
nunav@@ 751
qitirmi@@ 751
anguni@@ 751
tunngav@@ 750
qaujimanngittunga 750
nalunaiqsijunnaqpaa 750
ilisa@@ 749
ukiaksa@@ 749
maajji 749
ittarnis@@ 749
akkunnit 749
kkanir@@ 749
apiqqutigijumajara 749
taujjuti@@ 749
nunavuumut 748
akkaniq@@ 748
mmiut 748
llutillu 748
nuli@@ 748
qik@@ 748
gassi 748
mijuq 747
arvigi@@ 747
aqtumi@@ 747
uuktu@@ 747
ngat 747
nunavummiu@@ 746
ksi@@ 746
gulu 746
lhutiglu 746
aqtun 746
arakkit 745
gami 745
5,000 745
arnirij@@ 743
ajuq 743
jumajut 743
42 743
autillugit 743
naujaani 743
334 742
tauk@@ 742
miliannik 742
ungattauq 742
alauqput 741
simajakka 741
iling@@ 741
arvik@@ 740
arraaguit 740
katimajiujuq 740
atuinnariaq@@ 740
kajusititti@@ 740
alli 740
qaujimagatta 740
pinasuarusir@@ 740
anngittunga 740
mingnik 740
pinnguavijju@@ 740
lauqtu@@ 739
mmijut 739
angitti@@ 739
vaat 739
anginnu 739
ilangi 739
avittuq@@ 738
na 738
ukiukkut 738
attuni 738
taannattauq 738
llugi 738
utiujut 738
ikajuqtigi@@ 737
qallunaatitu@@ 737
tauninganut 737
tillu@@ 737
aqtittinirmut 737
juupi 736
38 736
armimmat 736
uning@@ 735
unnga@@ 735
ruluuj@@ 735
uqausissaq@@ 735
qaujimaji@@ 734
aulanirmut 734
nunavuut 734
kinngarni 734
aniar@@ 733
j 733
liriniup 733
miki@@ 733
atuqattaq@@ 732
upalungaij@@ 732
sila@@ 732
utili@@ 732
liraj@@ 732
ungataani@@ 732
arunni@@ 732
immi@@ 732
inginni@@ 732
ilagiaruti@@ 732
maligak@@ 731
iqqanaijaqtitti@@ 731
80 731
lauqtavut 731
tusaajitiguuqtuq 731
nunavungmi 731
asunni@@ 730
ksaq@@ 730
aulajjuti@@ 730
taikanngat 730
pitjutigillugu 730
kaampul 730
iliqqus@@ 729
ktuq 729
gaju@@ 728
liqti@@ 728
62 728
pu 728
ikajuqsur@@ 728
aagga@@ 727
kanatalimaami 727
akunialuk 726
iqatigi@@ 726
arraagunik 726
qaujigiaq@@ 726
ajjigiinngittunit 725
upi@@ 725
usu@@ 725
aujaq 725
iliqqusiq@@ 725
allattiup 725
tittinasu@@ 725
jut. 725
unuq@@ 724
arunnaq@@ 724
aulatt@@ 724
apiqs@@ 724
qaujisaru@@ 724
pijittiq@@ 724
qat 724
qin@@ 723
taikkun@@ 723
iluunniit 723
ilinniaqtulirijiit 723
atuliqtitti@@ 723
nalunaitti@@ 723
ilali@@ 722
simammangaata 722
angitta 721
ilinniarviup 721
anginni@@ 720
ikp@@ 720
ail@@ 720
asiagut 719
maligaliuq@@ 719
ulugu 719
tusaruma@@ 719
katujj@@ 719
javut 719
akul@@ 719
aqtuq. 719
uninganik 718
akkullu 718
simangittut 718
aksau@@ 718
uqsualummut 718
44 718
alli@@ 717
aanniasiuqtiit 717
tauniaqtunik 717
ingnit 717
ina@@ 717
ssait 717
pilirijju@@ 716
aqju@@ 716
pilirivinga 716
2,@@ 716
apiqqutissaq@@ 716
aqtullu 715
angagut 715
gumajunga 715
silaur@@ 715
48 715
arajaqtuq 715
46@@ 715
unnarni@@ 715
tusaumatitti@@ 715
arani 714
irni@@ 714
giiq@@ 714
arumaj@@ 714
atitt@@ 714
qanuilingan@@ 713
lit 713
aqlhuta 713
iksivauta 713
nunavulimaami 712
nakurmii 712
sanajauni@@ 712
maa 712
siku@@ 711
simanngimmat 711
uqarasu@@ 711
illugu 711
maliklhugu 711
maligaliriji 710
877 710
ittinnik 710
uqatau@@ 710
gavamakk@@ 710
takugi@@ 710
anig@@ 710
49 710
uqqau@@ 710
aqtiq@@ 710
aliqtu@@ 709
utiqarunn@@ 709
tungilira 709
aqattaratta 709
tumut 708
uqa@@ 708
arutit 708
iglulirijikkut 708
utaq 708
arraaguni 707
tauquj@@ 707
aksait 707
utissanik 707
iqsuqtii 707
kinguvari@@ 706
saqqitau@@ 706
aqu@@ 706
nanu@@ 706
agguq@@ 705
aqtusi 705
jumajara 705
paallir@@ 705
nunalinnik 705
37 705
43 705
han@@ 705
tit@@ 704
inginnillu 704
maligaliuqtilimaat 704
gin@@ 704
anirmit 704
tsait 704
pigiala@@ 704
asinginnullu 704
tav@@ 703
arutinut 703
tutuu 703
nunaliujunut 703
ngata 702
0 702
tug@@ 702
jumavunga 702
aqsimaj@@ 701
ilanga@@ 701
aqtulirinirmut 701
ninga 700
ukiung@@ 700
mmijara 700
arijavut 700
taanut 699
1200 699
maligaliuqt@@ 699
qangatasuu@@ 699
aqpattut 698
pap@@ 698
nalautta@@ 698
kuapurais@@ 698
vaktut 697
aqtauningit 697
irmut 697
kiinaujaqtaq@@ 697
pig@@ 696
c 696
ungajunik 696
taunirmut 695
aqtittini@@ 695
sivut 695
attau@@ 695
uniuk 695
tuniuqq@@ 695
ungu@@ 695
innasu@@ 695
is 694
nga@@ 694
namunng@@ 694
iqalunni@@ 694
ingagut 694
kinnguumaj@@ 693
taikkuali 692
ulauqtumi 692
taunani 692
ikajuqtauv@@ 692
nuutti@@ 692
tata@@ 692
sinirmut 691
utimik 691
ilinga@@ 691
uqattaqtuq 691
upirnga@@ 691
anngitti@@ 691
inirmullu 690
takuni@@ 690
silattusarv@@ 690
qanuqtu@@ 690
arniqs@@ 690
tujurmivi@@ 690
x0a 689
0h0 689
pingaju@@ 689
nunavut@@ 689
quli@@ 689
qaujimagama 689
pijittiraqti@@ 689
miunut 688
kall@@ 688
uqausitsangit 688
kiinaujalir@@ 688
angmata 688
illulirijikkut 688
akitu@@ 688
uqsual@@ 688
sitiiv 688
tununiq 687
lutillu 687
tauqattarni@@ 687
iqqanaijaqtikka 687
inulirinirmut 687
illi@@ 687
aqtaujut 687
nunnguani 687
imma@@ 687
500,000 687
naas@@ 687
85 687
kisi@@ 686
ittuni 686
upp@@ 686
pulaariaq@@ 686
ulluti 686
suti 686
qutti@@ 686
atuutiqatti@@ 686
kaattula@@ 686
m 685
akauna@@ 685
ariaqar@@ 685
ttunit 685
simanngittuq 685
titiraqsimaningit 684
aliqtillugu 684
uninginnik 684
matik 684
qqauj@@ 684
qaujijau@@ 684
ikkannir@@ 684
ittumik 683
aguma@@ 683
maligaliuqtiuqati@@ 683
akiraqtuqtut 683
niurrutiq@@ 683
kpat 683
kajusivalli@@ 683
tukisiumaj@@ 682
katimajinginnik 682
iqqanaijaqtivut 682
lhunilu 682
qattaqtavut 682
qaujimavunga 681
akuni 681
sanaju@@ 681
qaritauj@@ 681
gat 680
mikiju@@ 680
kikku@@ 679
uaj@@ 679
ilagiaq@@ 679
irala@@ 679
nunatsi@@ 679
pivalliatitti@@ 679
7266 678
iqqanaijarvi@@ 678
katimautinik 677
kamisin@@ 677
llusi 677
katimajiralaang@@ 677
ilinniarvimmi 677
arraaguani 677
taimannai@@ 676
qanuiling@@ 676
tauvaktut 675
iqqanaijaqtinginnut 675
igluli@@ 674
angiqatigiig@@ 674
gamik 674
ingani@@ 674
naansi 674
asijj@@ 673
uluunniit 673
uqausirilauq@@ 672
anasu@@ 672
simanirij@@ 672
takunna@@ 672
ilulingita 672
iglurju@@ 672
amisunut 671
aqtut. 671
uqalimaag@@ 671
atuqtuksat 671
anganu 671
tusaajikkuurunniiqtuq 671
angiqatiq@@ 670
ammarik@@ 670
parnautingit 670
ip@@ 670
taujumut 669
iksiv@@ 669
aliqtillugit 669
arunnaqsi@@ 669
uqausirirata@@ 669
maligangit 668
taijau@@ 668
taujuq@@ 668
46 668
ajjigiinngi@@ 668
ilangani 668
iqaluktuuttiarmi 668
qautamaamut 668
anngilat 667
arial@@ 667
iqalunnut 667
piliriaksaq@@ 667
uniqs@@ 667
giali@@ 667
lat 666
naina@@ 666
naliak 666
mingmat 665
vavut 664
araangat 664
uqattarni@@ 664
aturlugu 664
ilisaq@@ 663
armangaattigu 663
asinginn@@ 663
ujjau@@ 663
qqa@@ 663
paliisi@@ 663
agguqtuq@@ 663
atar@@ 662
manna 662
asingi@@ 662
aqsutik 662
tigullu 662
aqtigut 662
uqarunnaqpaa 662
ikajuqtaujariaq@@ 662
kajusiluta 662
atuqtuksanut 662
uqaalautaa 662
tusau@@ 661
isumagijaq@@ 661
tinit 661
amiakku@@ 661
ungataani 661
aliraj@@ 661
jara 661
tauvunga 661
akulu@@ 660
ilagiit 660
tan 660
uqausiit 660
sali@@ 660
pingajuat 660
tait 660
sunakkuta@@ 660
qaujisaqtauq@@ 660
titiqqakkuvik 660
gut@@ 659
nunaling@@ 659
aujuq@@ 659
nangiqsivunga 659
quppirniliit 659
matuiqsi@@ 658
tikittugu 658
kkanirni@@ 658
1,000 658
atuqtus@@ 658
aippiqtaullunga 658
gut. 658
arsuni 658
saqqir@@ 657
inniqsau@@ 657
isuman@@ 657
launngi@@ 657
tisipiri 657
aqlhutit 657
inganu 657
unnu 657
quttittumut 657
5000 657
ilitaq@@ 656
51 656
igluliur@@ 656
aqpammata 656
juugaluat 656
kul@@ 655
atuinna@@ 655
aulaj@@ 655
alluunniit 655
niurr@@ 655
lukta@@ 655
aniittut 654
innga 654
alaurmi@@ 654
uqqa@@ 654
saujut 654
rmi@@ 654
tullu 653
tilijau@@ 653
unniq 653
iki@@ 653
utiksait 653
aliqpat 653
anganni 652
mangi@@ 652
aaqqiksui@@ 652
ttaq@@ 652
ungataanut 652
mittar@@ 652
kanngunaqtulirinirmullu 652
ilauqata@@ 651
kinauj@@ 651
tamma@@ 651
akkanirni@@ 651
piuniq@@ 651
uvat 651
vallian@@ 650
iqqaiti@@ 650
armijavut 650
unnani@@ 650
uqausirijanga 650
unginnik 650
nanisi@@ 650
k. 649
tautillugit 649
tallimat 649
katimautiminingit 649
arningi@@ 648
ingalu 648
akkunni 648
mappig@@ 648
angni@@ 648
kam@@ 647
tikkut 647
nunarju@@ 647
iqqaititti@@ 647
tusari@@ 647
angilli@@ 647
aaqqiksuijiit 647
maligaksanut 647
ingirrajulirijikkut 646
vullu 646
ningi@@ 646
uqsuqtuumi 646
qujana@@ 646
angittugut 646
nalunaiqtausima@@ 646
aanniaqarnanngittu@@ 646
aaqqiuma@@ 645
lusi 645
nikuvippunga 645
pimmarialu@@ 645
piqujarjuaq 645
taatsumunga 644
qiturng@@ 644
tamatuminnga 644
47@@ 644
200 644
atilluta 643
quviasuk@@ 643
attiaq@@ 643
pilirijunn@@ 643
aujjuti@@ 643
nuqqaqtuq 643
nalunaiqsijunn@@ 643
urnirmut 643
tunngavi@@ 642
araalu@@ 642
katimajjutiksavut 642
jumavakka 641
tikiuti@@ 641
rama 641
iqqanaijakainn@@ 641
5190 641
glu@@ 640
parnai@@ 640
maligaliuqtii 640
arniarama 640
aqlhunga 640
iqqanaijaanik 640
quviasuktunga 639
pisi 639
akkannirni@@ 639
utinginni 639
tun 639
natti@@ 638
giaruti@@ 638
aqpit 638
pimmariummat 638
mapsalaak 638
inganni 637
palu@@ 637
pil@@ 637
asung@@ 637
ilitar@@ 637
amittuq 636
angummati@@ 636
arraaguup 636
anngittugut 636
sivulliqpaangannik 635
unirmik 635
lauratta 635
mingmata 635
iniaqta@@ 635
apput 635
qisi@@ 635
aqsa@@ 635
apalli@@ 635
iglulirijirjuakkunnut 635
inniq 634
angirunn@@ 634
isumaksaqsiur@@ 634
aqquur@@ 634
mittimatalimmi 634
alung@@ 634
tamassumunga 634
qimirruja@@ 633
auni@@ 633
qanuinni@@ 633
qaiquj@@ 633
qaujisaruti@@ 633
akinginnut 633
saqqiqti@@ 633
qaujigiarutit 633
niqsunaqtuq 633
tauniq@@ 632
ininga 632
uqausiksa@@ 632
nunalirala@@ 632
sanirvai@@ 632
arniup 632
39 632
vu 632
ministanganut 632
makku@@ 632
ilij@@ 631
qaujij@@ 631
nalunaiqtau@@ 631
arvimmi 631
aktuiniq@@ 631
silattusarvi@@ 631
unuqsigi@@ 631
04 631
parnautiq@@ 630
aqtauninga 630
aqattarniq 630
maligatigut 630
ilinniarnirmut 630
angirutiq@@ 630
ktut 630
75 630
gaq 629
mimmat 629
amisuulu@@ 629
45@@ 629
ilanginnit 628
talurju@@ 628
aullar@@ 628
piani@@ 628
500 628
tuinnaqtara 628
uquma@@ 627
gavamalirijikkunnut 627
47 627
nunalinn@@ 627
tuttu@@ 627
kimpul 627
uniaqtumi 626
makkuktut 626
imailinga@@ 626
iqqat 626
iju@@ 626
liqtillugit 626
nan@@ 625
kat@@ 625
arai@@ 625
katiqatigi@@ 625
ministau@@ 625
gavamakkunillu 625
vinga 625
simavugut 624
pivalliaj@@ 624
tutit 624
ukiuq 624
iku 624
silaup 624
taannailaak 624
nutaangu@@ 623
qilami@@ 623
annura@@ 623
isumaal@@ 623
qiti@@ 623
piqujassaq 623
inungnut 622
annga@@ 621
iqata@@ 621
aqtaun@@ 621
autinut 621
pusan@@ 621
arsu@@ 621
sana@@ 620
uqtau@@ 620
aqtussau@@ 620
ujarangni@@ 620
itu@@ 619
mmatik 619
turaagaq@@ 619
tugit 618
inulirinirmullu 618
tusaumaj@@ 618
qaujisarniq 618
ippi@@ 617
ninganut 617
allak@@ 617
qujannamiirumajara 617
ttaili@@ 617
qaitti@@ 617
nuqqaqti@@ 617
amisukall@@ 617
parnagu@@ 617
saqqiqtitaujuq 617
jumallugit 616
tunn@@ 616
iglulirinirmut 616
taunginn@@ 616
ataani@@ 616
atunngi@@ 616
uqtitti@@ 616
niruaqta@@ 615
uqausiq 615
kiinaujaliriji@@ 615
aqattaqtunut 615
aminnik 614
taikkunanngat 614
alirijikkut 614
araal@@ 614
qanuinngi@@ 614
anngittunik 614
tiliuri@@ 614
julai 614
liqtillugu 614
jjutiit 614
innirmut 613
unnuk 613
qaujikkai@@ 613
aqsuni 613
angiqtausima@@ 613
innu 613
lirijikku@@ 613
nunatsiap 613
anginnir@@ 613
tung@@ 613
nutaamut 612
imai@@ 612
ullutillu 612
h 612
iqqaqtuiv@@ 612
igl@@ 612
sul@@ 612
pijjutiqaqtuq 612
aatuvaami 612
iqattarmata 612
utissait 612
taimannganit 611
pituq@@ 611
namminiqaqtunut 611
parnautinik 611
mataam 611
ariassaq 611
iksiva@@ 610
malitti@@ 610
piviqaqti@@ 610
tsuni 610
arajaqtut 610
ikajuri@@ 610
quttiniq@@ 610
sanng@@ 609
gavamaq@@ 609
inungit 609
uatti@@ 609
aruluuj@@ 609
taimailing@@ 609
mmarik@@ 609
taunaj@@ 609
amu 609
2,000 609
tamarmi@@ 608
mmijunga 608
aqpisi 608
qurluqtu@@ 608
gial@@ 607
kiug@@ 607
tusagaksanik 607
atiqutiqarunniirama 607
aippaani 606
gavamalirinirmut 606
kiin@@ 606
taralu@@ 606
anngat 606
imialulirinirmut 606
nangminiq@@ 605
aqputit 605
parnatau@@ 605
assur@@ 605
maligarmut 605
ilagiaruti 605
nunalilima@@ 604
ukiunut 604
niriun@@ 604
tungili@@ 603
upigusu@@ 603
ilul@@ 603
ujjirusu@@ 603
kiujuma@@ 603
pingasunit 603
aqtuksau@@ 603
ttu 603
takujagaq@@ 603
qanuiliurni@@ 603
makpig@@ 603
ausuittu@@ 602
urasu@@ 602
atutti@@ 602
uqalimaarniksamik 602
akti@@ 601
angajuqqaang@@ 601
uumajulirinirmut 601
pairiv@@ 601
tusagaksaq 601
sukkarutaa 601
qul@@ 600
qitianut 600
avittuqsimajut 600
uqausiu@@ 600
iglu 600
parnaut@@ 600
inaj@@ 600
atuqtuksait 600
malittugu 600
uqsi@@ 599
kivallir@@ 599
mappiqtugaq 599
tusaajikkuungittuq 599
simaliqtuq 598
taus@@ 598
ninginnik 598
aqtaili@@ 598
nunaliujunik 598
aqqavut 598
gumallunga 598
tautuk@@ 597
takujau@@ 597
uqarumajunga 597
aan@@ 597
pinasuarusiulauqtumi 597
atig@@ 597
ikajuutit 597
vatt@@ 597
pijjutiqar@@ 597
sivumut 597
pitjuti@@ 597
pukirnaq 596
sannginiq@@ 596
aqtillunga 596
agasu@@ 596
ilinniav@@ 596
immikku@@ 596
tuksira@@ 596
taatsuma 595
sivuliuqti@@ 595
qatigi@@ 595
maligaliuqtinik 595
sulikkanniq 595
titirar@@ 595
ksanit 595
inuus@@ 594
niruaqtausima@@ 594
ausi@@ 594
sivulliqp@@ 594
nillir@@ 594
uuttur@@ 594
taapkua 594
akiliqtu@@ 594
auqattarmata 594
unigit 593
qulaut 593
mimmata 593
uqsualuk 593
assaq 593
kiinaujaqatti@@ 593
kpata 592
lirijit 592
ilinniarn@@ 592
ittinnit 592
alunnik 592
isumassaqsiur@@ 592
pivalliajulirijikkunnut 592
rijau@@ 591
vili@@ 591
arpat 591
artunga 591
allag@@ 591
www.assembly.nu.ca 591
ilisi@@ 590
mis@@ 590
apirini@@ 590
iqqa@@ 590
tuktu@@ 590
uumma@@ 589
aturniq@@ 589
kiugunn@@ 589
65 589
vin@@ 589
luukta@@ 589
100,000 589
gijauni@@ 588
akilir@@ 588
tukisinatti@@ 588
git. 588
unit@@ 587
nunavumiut 587
inung@@ 587
sum@@ 587
aqti 587
uqaqqaugamailaak 587
ujugut 586
atinga 586
ungataanu@@ 586
nutaannguqti@@ 586
uppirusu@@ 585
arini@@ 585
aqatiq@@ 585
aminut 585
katimavimmi 585
qa 585
iniit 585
aaqqitti@@ 585
sanikiluaq 584
ukiuqtaqtu@@ 584
ingittu@@ 584
nigiani 584
uqallaqatigi@@ 584
miniq 584
ariaqtuq@@ 584
maligarala@@ 584
aulani@@ 583
inuu@@ 583
kaanturaaq@@ 583
nutaaruri@@ 583
qullikkut 583
katimavi@@ 582
lluniuk 582
ilagijaujut 582
qamanittu@@ 582
angatta 582
qamanittuarmi@@ 582
liriji 581
puig@@ 581
ministaujut 581
unikkaarunn@@ 581
illuliur@@ 581
tamannaqai 581
piitusan 581
qanukkanniq 580
ingini 580
qaujisarnirmut 580
arraani@@ 580
naammammat 580
agala@@ 580
3,@@ 580
nunaliujunit 580
saqqitiriniq 580
tungil@@ 579
pilirianguni@@ 579
armigatta 579
ikajurni@@ 579
kamagija@@ 579
tukisij@@ 579
pilirianik 579
katimatuinnalauqtillugit 579
uqausiqarunn@@ 578
tununirmut 578
kingulli@@ 578
illumut 578
jj@@ 577
ikkullu 577
alauqpuq 577
nik@@ 577
alauralu@@ 577
niqi@@ 577
juuja@@ 577
nuatti@@ 577
hanta 576
katimajiuqataujut 576
ika@@ 576
llungalu 576
piqatiq@@ 576
arumallunga 576
35@@ 576
makkuktu@@ 575
qujannamiirumajakka 575
jait 575
katimma@@ 575
maliglugit 575
jiujut 575
taqqakkua 575
qausuittu@@ 575
sung@@ 574
pali@@ 574
aqsu@@ 574
liqpata 574
laurama 574
ilangi@@ 574
naammasanngittut 574
jutinginnut 574
gavamangit 573
tauniarmata 573
apirij@@ 573
uqalaurama 573
sanaji@@ 572
iluunnanginnut 572
uttu@@ 572
ngunir@@ 572
qanuilinganinga 571
qil@@ 571
uqullugit 571
inngittu@@ 571
qattinik 571
kisimi 571
ttigu 570
tautillugu 570
sanani@@ 570
ilagiinut 570
aipuru 570
ilinganiq@@ 570
ilitarij@@ 569
ulauqsimajuq 569
avittuqsimajuni 569
akall@@ 569
aqtuugaluat 569
namma@@ 569
juup 568
unginni 568
40@@ 568
kiinaujaqturuti@@ 568
tuta 568
ijjuti@@ 567
simagi@@ 567
aagga 567
tuksirau@@ 567
maligaup 567
33@@ 567
nunanganni 567
unik. 567
upaktut 567
vimmi@@ 566
aun@@ 566
tuaq 566
ammanga@@ 566
arumajut 566
naammas@@ 565
avu 565
simagakku 565
aujunnaq@@ 565
qulluqtu@@ 564
tamakk@@ 564
ammatauq 564
apirijunn@@ 564
kiinaujjassa@@ 564
atuqattar@@ 564
unurniq@@ 564
qat@@ 563
02 563
tukisititti@@ 563
ittaq@@ 563
unngilu@@ 563
gurait 563
pivalliatittinirmut 562
pavut 562
puq@@ 562
.. 562
allir@@ 562
titiraqtii 561
atji@@ 561
utaujuq 561
aqatau@@ 561
lirijik@@ 561
tiglu 561
unikkaaliangit 561
ministaujumut 561
palliaj@@ 560
utaq@@ 560
kkit 560
agal@@ 560
ju 560
suu@@ 559
utigijavut 559
simanngittu@@ 559
titiraqsimajuq 559
nunalingni@@ 559
qaujimajugut 558
ginasu@@ 558
kina 558
taimaigunn@@ 558
kamagijautti@@ 558
allarik@@ 558
maligaliur@@ 557
nunaqaqqa@@ 557
apiq@@ 557
jusi@@ 557
aqtittiniq 557
tautuinn@@ 557
01 557
kiulvan 557
ingnu 557
uʼvuraijan 556
arniku@@ 556
anili 556
pinasuag@@ 556
lauqsimammata 556
apiqqutigini@@ 556
simavat 556
akkalu@@ 556
aqquq 556
aqpita 555
taqa@@ 555
illunut 555
niruaqtulirinirmut 555
autti@@ 554
illumi 554
arassi 554
qaujimallunga 554
marruungnik 554
uqausiss@@ 554
unnirmut 553
gijakka 553
kiuq@@ 553
ugatta 553
kkaluaqtunga 553
tunilu 553
taimaa 553
taulaurmata 553
akauniq@@ 553
pijariiqtau@@ 553
pilimmaks@@ 553
angajuqqau@@ 553
irngu@@ 552
tuqu@@ 552
arasuarnirmut 552
nutti@@ 552
liqp@@ 552
52 552
pularaqtu@@ 552
lauqput 552
aqtait 552
qamanittuarmut 551
kamisana 551
unngin@@ 551
lirni@@ 551
nammin@@ 551
niruaru@@ 551
manga 551
najuq@@ 550
ingmik 550
qimir@@ 550
kiinaujaqturutiks@@ 550
saalaks@@ 550
asianu@@ 550
taakkuattauq 550
arnanut 550
ilulingit 549
niruar@@ 549
atinni 549
tan@@ 549
urmat 549
utiksa@@ 549
kiujjut@@ 549
uummaqqutilirinirmut 549
valliaj@@ 548
tinni@@ 548
simalluta 548
qanuilingani@@ 548
48@@ 548
aqtauninginnut 548
akinginnit 548
ujunu 548
ingirraj@@ 548
aaggaaqtuq@@ 548
uqarata@@ 548
puraun 548
tupiq 548
tsau@@ 547
mikilu@@ 547
kisumik 547
anngittunut 547
qurluqtuuq 547
uuktuutigilugu 547
# 547
jutinit 546
tsiniq 546
aqattani@@ 546
apirilaur@@ 546
atuinnaru@@ 546
ikajuutiit 546
pairivi@@ 546
innirvik 546
arlutillu 545
iluta 545
nalunaiqsima@@ 545
tainnalu 545
katimajiralaangit 545
ilinniaqt@@ 545
araanga@@ 545
allai@@ 545
nunalimmi@@ 545
nguliqpat 545
kkaj@@ 545
piqatigi@@ 544
simajanga 544
arunnaqtut 544
kiinaujakku@@ 544
pilirinirmut 544
gutiq@@ 544
taam@@ 543
juni 543
atili@@ 543
taimannak 543
mannir@@ 543
atta. 543
tamannailaak 543
simanirmut 542
tamaunng@@ 542
apiqqutinganut 542
isumajunga 542
38@@ 542
maligarnit 542
uq. 542
minirnut 541
99 541
kikkulimaanut 541
ukiunik 541
ikpaksaq 541
ullu. 541
qim@@ 541
kinnguuma@@ 541
unut. 541
tasi@@ 540
qaujimajatuqanginnik 540
aqtausimajut 540
isuung@@ 540
ullatta@@ 540
aquji@@ 540
ittun@@ 540
armagu 540
ttinirmut 539
atigij@@ 539
uattiaq 539
ukpik 539
aliralu@@ 538
sama@@ 538
nalunaijai@@ 538
unur@@ 538
katimavijju@@ 537
pinasuarusiup 537
aqpiit 537
kanni@@ 537
kas@@ 537
akilii@@ 537
muunga@@ 536
ataata@@ 536
gluunniit 536
3,000 536
atuqtauniaqtut 536
silattuqsarv@@ 536
lauqsimajut 536
nunami 535
ingmit 535
kuapuriisakkut 535
uqausinginnik 535
jualu@@ 535
tuutuu 534
katimajiq@@ 534
apirijumavara 534
ikummaqqutilirinirmut 534
guma 534
ingannik 534
kta@@ 534
innginn@@ 534
simaninganut 534
armijunga 534
gavamakkunginnik 534
kangiqlhinir@@ 534
lirinirmu 534
atausirmit 534
pitsi@@ 533
aningit 533
atangi@@ 533
atuqp@@ 533
asuungu@@ 533
minista. 533
saqqitt@@ 533
akkulli 533
annirmut 532
uvi@@ 532
tiujut 532
angunas@@ 532
kkaniq@@ 532
iriaq@@ 532
tukis@@ 532
tariup 532
piuriu 532
akitujuqturutinut 532
qiturnga@@ 531
ulluit 531
apta 531
uqsima@@ 531
uqautijunn@@ 531
vurit 531
55 530
tsu@@ 530
ava 530
annginnama 530
titiqqausi@@ 530
isumaaluutigi@@ 530
03 530
inuksuk 529
atausir@@ 529
tsugu 529
atuqtuk@@ 529
sugi@@ 529
araluarmata 529
ilainn@@ 528
tuinnarnut 528
katimajiuqati@@ 528
aqtanginnut 528
simalirmat 528
katimatilluta 528
ujuup 528
qattarniq 528
silataanut 528
jur@@ 528
tuinnait 528
aliur@@ 528
12@@ 528
sivulliq 528
rulu@@ 528
ttiarni@@ 528
akikinniq@@ 528
kaantula@@ 528
kamagijariaq@@ 527
ajau@@ 527
akiliu@@ 527
aqlhugit 527
isumaksaqsiurutiq@@ 527
timiqut@@ 526
tsi 526
lauqt@@ 526
ammangaaq 526
taqqa@@ 526
aqpaktut 526
angannit 525
uplumi 525
utiksaq@@ 525
ajjigiinngittunut 525
niruaqtu@@ 525
ikkunnit 525
pisimatti@@ 525
aanniaviliaqtunut 525
0,000 525
uju 525
b 525
turi@@ 524
taav@@ 524
piit 524
mm@@ 524
viujut 524
piqujivungaarutiit 523
kig@@ 523
uri 523
taulutit 523
pang@@ 523
giaqaraj@@ 523
titiraqti@@ 523
alaunnginn@@ 523
siqumi@@ 523
ungmangaata 523
maligalirijikkunnut 523
ving@@ 522
gur@@ 522
ariangit 522
aturaj@@ 522
qikiqtaalungmi 522
pilimmaksa@@ 522
am 521
imar@@ 521
surr@@ 521
angilligiaq@@ 520
uluta 520
alaurngata 520
gutigi@@ 520
tikis@@ 520
akiliks@@ 520
piliriaksanut 520
illulirinirmut 520
lirinirmi 520
pijariiqsi@@ 520
kiinaujaqtaarusi@@ 520
tamaat 519
arusi@@ 519
pillu@@ 519
34@@ 519
inniqs@@ 519
uniaqtumik 519
taujunnaqullugit 519
uqausirini@@ 519
sunilu 519
attauti@@ 519
iqqanaijaallarik 519
sap@@ 518
qitirmiunit 518
kkanniq 518
kisumut 518
mmimmat 518
uannanga 518
liivai 517
utigijunn@@ 517
piqqusituq@@ 517
lirijiujut 517
silattusarvimmi 517
minga@@ 517
arasuk@@ 517
saqqitaulauq@@ 517
iglulirijirju@@ 517
inuttitu@@ 517
aaluk 517
alimaat 516
angiqatigiiguti@@ 516
katimajiralaanginnut 516
tanginnut 516
taitsumani 516
nirmit 516
takk@@ 516
uquj@@ 515
anginnillu 515
anngil@@ 515
arnga@@ 515
aaqqiksima@@ 515
iqaluttuuttiarmi 515
uvv@@ 514
aanniasi@@ 514
qikiqtani 514
jun@@ 514
arraagutama@@ 514
qaujiguma@@ 514
kanngun@@ 514
tamannali 514
iktu@@ 514
piqujivungaarummut 514
aktuaniq@@ 514
attillugit 514
aanniarv@@ 514
nauja@@ 513
53 513
unikkaanga 513
uqalimaagaq@@ 513
lhu@@ 513
arragu@@ 513
aqtinik 513
ssanit 513
taakkuaguuq 513
kamisinaup 512
utit@@ 512
iqalugasu@@ 512
unngikkalu@@ 512
naliira@@ 512
54 512
of 512
silarju@@ 511
nunatti@@ 511
saqqit@@ 511
utigilugu 511
katiqatiq@@ 511
kamagijauni@@ 511
aksi@@ 511
uqausirnut 511
qangatasuukkut 511
tamakkunani 511
nuqqaqpuq 511
inngaaqtunik 511
uqaqtillugu 511
taimainn@@ 511
niriuk@@ 511
sivu@@ 510
minirnik 510
nutaanut 510
apirilauq@@ 510
gatti@@ 510
akit@@ 510
tungi@@ 510
aulaurmat 510
pitaqangi@@ 510
katimajjutiit 510
pita 509
simaju 509
kanatami@@ 509
apirijau@@ 509
quttittu@@ 509
isumaksaqsiuqtauningit 509
saal@@ 508
ivvit 508
uqatt@@ 508
mmij@@ 508
muaqtillugu 508
tuqau@@ 508
titiraqsimajuq@@ 508
arilauq@@ 508
aksu@@ 507
limaanit 507
kuta@@ 507
gavamatuqakkunnik 507
mikilli@@ 507
umajunga 507
nunalilimaat 507
gavama 507
sura@@ 507
nunalipauj@@ 507
nuq@@ 506
nutaannguri@@ 506
tsutik 506
aqpu@@ 506
tausimajunut 506
imaimmallu 506
aummat 505
situ@@ 505
taq 505
arniarmangaaq 505
iliit 505
atuqtaujariaq@@ 505
aaqqisu@@ 505
tunngasugitsi 504
aliqtugut 504
unagit 504
sapujji@@ 504
mittimatalingmi 504
atuliqtitau@@ 504
gutiit 504
rits 504
00@@ 503
nunagij@@ 503
talli@@ 503
tikititti@@ 503
lauqtugut 503
qanuilingalir@@ 503
iqaluktuutti@@ 503
palliani@@ 503
uvaktut 503
tulattar@@ 503
mataguuq 503
akulliq 502
takula@@ 502
taujja@@ 502
angiqtugut 502
aqqauj@@ 502
tamaksuminga 502
arumavunga 501
aksurunn@@ 501
iqsi@@ 501
arilluni 501
pusan 501
uʼpuraian 501
nunavummit 501
nanulik 500
atinnut 500
aqqutigi@@ 500
irijau@@ 500
taulaurmat 500
amisunit 500
utu@@ 500
uma 500
tukisiv@@ 500
tamak@@ 500
laaq 500
illulirijirjuakkunnut 500
katimaviup 499
iqal@@ 499
aksurur@@ 499
qamaniqtu@@ 499
4,@@ 499
agiaq@@ 499
haammal@@ 499
lik@@ 498
arniujuq 498
annginatta 498
uqaqti. 498
iliqqusir@@ 498
qak@@ 498
gju@@ 498
gavamakkunnik 498
atausirmi 498
nalunaiqsimatti@@ 498
urij@@ 498
isumaqsu@@ 498
llutigut 498
niruarn@@ 498
nais@@ 498
innauj@@ 497
piqujivunga 497
taujuni 497
nutaanit 497
jjutigi@@ 497
tali 497
taraluara 497
maligaliuqvimmut 497
qujannamiiktauq 497
sivulliujj@@ 496
gata 496
iqqanaijaqtinit 496
nalunanngi@@ 496
lhuti@@ 496
alaurngat 496
ilirinirmut 495
utivut 495
sivuliqtiit 495
tagva 495
inngimmat 495
asuut 495
arng@@ 495
niqiit 495
pusanti@@ 495
silarjuarmi 494
niurru@@ 494
arvaaluk 494
nunavummiuta@@ 494
gakkut 494
ilisarij@@ 494
liralu@@ 494
unnaqpaa 494
laak 494
sunga 494
aqtiujut 494
maligaksanik 493
iqalummi@@ 493
isumaqsaqsiurningit 493
vattu@@ 493
maani@@ 493
pilirivingat 493
akiaq 493
arninganit 493
nuuvi@@ 493
angirrarij@@ 493
aanniaqtulirijikkunnut 493
hiv@@ 493
ilinnut 492
iksaq@@ 492
67 492
unnarmangaata 492
akailliur@@ 492
ullaaq 492
siutinik 492
vammata 491
nunami@@ 491
aturlugit 491
ingin@@ 491
juksau@@ 491
tauniq 491
utitaq@@ 491
aanniavi@@ 491
gait 491
ungni@@ 491
uummaqqu@@ 491
katujjiqatigiinginnut 490
aulatsij@@ 490
naamm@@ 490
kangiqlhiniq 490
lli@@ 490
unginnit 490
hamlakkut 490
kattuq 489
gavamakkullu 489
uplu@@ 489
iqattarni@@ 489
qitiqquu 489
tauvak@@ 489
utuinn@@ 489
nunaliup 489
mmarik 489
silattuqsarvimmi 489
tuq. 489
tik. 489
makkuttunut 489
tusagaksalirinirmut 489
simajanginnik 488
piikuu 488
atitsi@@ 488
tunngasuq@@ 488
tavvung@@ 488
niriugij@@ 488
valliajut 488
qanutigi@@ 488
alutik 488
asiuti@@ 488
arniaqtunga 488
uqalu@@ 488
niqais@@ 488
aji@@ 487
nunavumi@@ 487
taalait 487
qurluqtuumi 487
pijunnautiq@@ 487
uqaqattaq@@ 487
kamisina 486
apalu@@ 486
gulli 486
mulluunniit 486
ingannit 486
ilinniaqtinik 486
uqtunik 486
angmat 486
37@@ 486
juu@@ 486
akitturauti@@ 486
illurju@@ 486
anngilanga 485
palliajut 485
iqqaumaj@@ 485
alirutta 485
viujuq 485
tsugit 485
aksuruutiq@@ 485
innut@@ 485
mmagit 485
kamisanaup 485
sila 485
arlhutik 485
taassu@@ 485
sugit 484
sivuliuqti 484
qangata@@ 484
arniaqpugut 484
apirijumallugu 484
amisuummata 484
annga 484
300 484
aqtuti 484
uattiaru@@ 484
arniarmangaat 484
appalli@@ 484
namminirij@@ 483
kisut 483
unnii@@ 483
alauqsimammat 483
ugiaq@@ 483
lavut 483
naujaat 483
gunnaqtut 483
tamaksumunga 483
miittut 482
isumaaluu@@ 482
nutaami 482
taikk@@ 482
arniaqpat 482
sugu 482
ikuma@@ 482
arulu@@ 482
aqtaullutik 482
uqausingat 482
siarrija@@ 482
tulaktar@@ 482
aaqqig@@ 481
simammi@@ 481
mari@@ 481
tuju@@ 481
kamagini@@ 481
gavamakkungitta 481
innatuqarnut 481
ministauju@@ 481
tikirarjuaq 480
piqqu@@ 480
liangu@@ 480
qaujimajatuq@@ 480
qimirruniq 480
galuaq 480
parnaij@@ 480
miq@@ 480
amis@@ 480
maliglugu 480
maligaqtigut 480
uuktur@@ 480
sikaat 480
iipuru 479
kann@@ 479
qikiqtaalu@@ 479
aliqpata 479
viuk 479
suta 479
gavamatuqakk@@ 479
kajusigit 479
angit@@ 479
iluun@@ 479
arraagutamaaqsiutiit 479
qujannamiiqlhugu 479
ingaaqtut 478
limaanik 478
alauqtillugu 478
angittunut 478
aulaurmata 478
ikajuqtaujunn@@ 478
aksanik 478
maligaliuqvimmi 478
ilauqatau@@ 477
pikku@@ 477
ivv@@ 477
alauqtugut 477
parnapalli@@ 477
kamatti@@ 477
killisini@@ 477
atuqtauqattaq@@ 477
annginnatta 477
taarasu@@ 476
ikkatta 476
givakka 476
ikka@@ 476
unikkaaq@@ 476
aniittuq 476
gaasali@@ 476
uqalimaaqtauqullugit 476
avatilirijikkunnut 476
ulauqput 475
mmigama 475
liurni@@ 475
siqinnguj@@ 475
namma 475
gatik 475
turaaqti@@ 475
ulutit 475
pilirivviup 475
katimajjutiks@@ 475
aullunga 474
tti 474
aanniaqarnangittulirijikkunnut 474
agit 474
quviasutti@@ 474
arajarmangaata 474
pilirivigij@@ 474
lais@@ 474
saimaniq 474
sivuliq@@ 473
paangu@@ 473
saqqilauq@@ 473
ininginnut 473
akiliuti@@ 473
utiksanit 473
naittu@@ 473
muur@@ 473
qimirruvalli@@ 473
iliqqusilirijikkunnut 473
angijuqqau@@ 473
aqqik@@ 473
illulirijirjuakkunnit 473
arvimmut 473
qaummaqquti@@ 473
katimmajjutiksaq 473
pigiaqtitaujuq 472
ajunik 472
paq@@ 472
atuli@@ 472
arniarattigu 472
ulinga@@ 472
kampani@@ 472
umiarjuakkut 472
piqataa 472
inungnik 472
jun 472
nikuvittunga 472
tamakkunanngat 471
nunaliquti@@ 471
aujj@@ 471
unnginnama 471
angajuq@@ 471
kamajuq 471
autingit 471
appa 471
ikajuqtiq@@ 471
ilinniarr@@ 471
taimailaak 471
tunijauni@@ 470
tautigi@@ 470
mata@@ 470
atakka 470
taikunng@@ 470
uqausirijuma@@ 470
simava 470
qutigij@@ 470
aakka@@ 470
ajjigiingi@@ 470
uqaqtitsiji 470
pisii 469
nikuv@@ 469
sanu 469
simallu@@ 469
tuksirautiit 469
silattuqsarvi@@ 469
ammarialu@@ 469
attillugu 469
iqqaqtuij@@ 468
mikiniq@@ 468
unnirlu@@ 468
iqalung@@ 468
atuinnautitti@@ 468
ulaajuq 468
v 468
isumaalugutiq@@ 468
katilhlhugit 468
tsanik 467
pivalliani@@ 467
36@@ 467
piqqusi@@ 467
lirijinik 467
ikajuruma@@ 467
uniar@@ 467
pijjutilik 467
pilauq@@ 467
jumani@@ 467
qaujijuma@@ 467
aat 467
mmu 467
ana@@ 466
unuqsivalli@@ 466
attiarunn@@ 466
angiqpaat 466
pijat@@ 465
lauralu@@ 465
atautti@@ 465
arijangit 465
sita@@ 464
maligaliurtiit 464
qamaniqtuarmi 464
aniqs@@ 464
ninganik 464
56 464
sanirv@@ 464
simaninginnik 464
aqquuj@@ 464
kunnit 464
atigini@@ 464
liqpa@@ 464
qamutauj@@ 464
apiqqusiit 464
tini@@ 463
isumagillugu 463
inuuqati@@ 463
ikka 463
titiqtug@@ 463
qarisauj@@ 463
ugajaqtuq 463
uqaqsimammata 463
ullutuinnaq 462
liratta 462
mangaatta 462
66 462
silata@@ 462
ulauqtumik 462
giakkannir@@ 462
angiqtaulauq@@ 462
kiinaujaqtaaqti@@ 462
takuksauti@@ 461
qaujimajuinnau@@ 461
lutigu 461
ilitarijauningit 461
alluta 461
giliq@@ 461
ingirrajulirijikkullu 461
nunalit 461
iqqai@@ 461
sijjuti@@ 461
sivurngagut 461
atug@@ 461
taimaqai 461
tamatu@@ 460
unnus@@ 460
sanir@@ 460
annguti@@ 460
tigij@@ 460
iqatt@@ 460
uqalimaarvik 460
ikajuqtur@@ 460
iluaq@@ 460
aippiq 460
lauqta@@ 460
saviraj@@ 459
nakinnga@@ 459
ilanng@@ 459
qujan@@ 459
iqqanaijaqtingillu 459
nunasiuti@@ 459
ijut 459
namminiquti@@ 459
auqattarni@@ 459
atitut 458
ungata@@ 458
nangmin@@ 458
taaksi@@ 458
ttuma@@ 458
galuar@@ 458
tin@@ 458
angittunik 458
quvv@@ 458
taununga 458
tinnit 457
uniaqtunit 457
atigu 457
alinnik 457
mamianaugaluaq 457
utitti@@ 457
unikkaari@@ 457
ummangaata 457
niruaqtauvigisimaj@@ 457
95 457
kuapuris@@ 457
innillu 456
gavamanga 456
taimaikkaluaqtillugu 456
anngippat 456
nunavutmi@@ 456
58 456
giall@@ 456
akittuq@@ 456
tsinirmut 455
quji@@ 455
ilag@@ 455
sa 455
tigulu 455
pasij@@ 455
aqattaqtuq 455
luk@@ 455
pirju@@ 455
pisiuk 454
utin@@ 454
qattariaq@@ 454
iqqanaijaqtit 454
ani. 454
arniaqtunik 454
attanaqtumi@@ 454
iqalunnit 454
kihiani 454
ikajuqtui@@ 453
takujunn@@ 453
taummat 453
naasautik 453
pijunnaq@@ 453
59 453
itinni 453
ttugu 453
aku@@ 453
ikpi@@ 453
ssi 453
tut@@ 452
vagit 452
uruma@@ 452
aqtanginnit 452
nunavutmiut 452
ippigi@@ 452
arraaguttinni 452
ittuit 452
ukiut 452
mmimmata 452
akunn@@ 452
qaujigiarunn@@ 452
maniq 452
qis@@ 452
tisam@@ 451
nunavummiunik 451
aniaqtuq 451
arri@@ 451
arillu@@ 451
ilin@@ 451
atangiq@@ 451
pituinna@@ 451
saiji@@ 451
siammaq@@ 451
taakk@@ 451
atir@@ 451
uppat 451
sulitti@@ 451
uqsualuup 451
kingunittinni 451
arraaguu@@ 451
,000,000 451
saminik 450
jukkut 450
arutinit 450
alinnut 450
tikisa@@ 450
aqtutigu 450
visi 450
vimmik 450
haml@@ 450
avullu 450
maʼna@@ 450
vi 449
tikirarju@@ 449
kautigi@@ 449
utimut 449
uliqtuq 449
ngummata 449
saqsi@@ 449
annginnir@@ 449
surak@@ 449
tamatsuminga 449
pilirivvik 449
juullu@@ 449
ungasi@@ 448
quviasuutiq@@ 448
taimainni@@ 448
takuksau@@ 448
amisur@@ 448
utigut 448
sijunn@@ 448
suusan 448
namminiqta@@ 448
qaujimammata 448
ungaqai 448
uqausinginni 448
gajarmangaata 448
gavamakkunnullu 448
atiliuqsimajut 448
atjigi@@ 448
aqtauqullugit 447
aqtulirijikkut 447
naam@@ 447
tam@@ 447
pii@@ 447
ksat 447
tammar@@ 447
ikajuutinut 447
61 447
angilu@@ 447
utaujunn@@ 447
katimautitsa 447
aup@@ 446
piqujivungaaruti 446
angujunik 446
anguj@@ 446
qata@@ 446
ingan@@ 446
iqatiq@@ 446
tiliuq@@ 446
llarik@@ 446
pasi@@ 446
timmi@@ 446
llunilu 445
piusigi@@ 445
ttiniq 445
naasa@@ 445
summa@@ 445
piliriass@@ 445
4,000 445
akta@@ 445
cgs 445
katimanir@@ 444
unirij@@ 444
mikittu@@ 444
7,000 444
sanajulirijikkut 444
naliatuinnaq 444
qaujimajuinnaugatta 444
arnirmullu 444
tauqattarn@@ 444
katutjiqatigi@@ 444
piqujassait 444
amilu 443
quja@@ 443
araluavut 443
salu@@ 443
maligaliuqtilimaanut 443
qutingit 443
viks@@ 443
iksa@@ 443
asian@@ 443
katimajinginni 443
kunni 443
pivalliatitt@@ 443
atunng@@ 443
akittur@@ 443
e 443
sinn@@ 442
giaksaq 442
inunni 442
iluli@@ 442
taunngi@@ 442
taraluavut 442
gillugu 442
mappiqtug@@ 442
atsiaq 442
nau@@ 442
taujarial@@ 442
lirijingit 442
ilisav@@ 442
ujuq@@ 442
quttiktuq 442
iniaqtut 441
tas@@ 441
ginn@@ 441
arumani@@ 441
upigij@@ 441
kiinaujaqaqtitau@@ 441
un 441
ilinniatitsi@@ 441
qquur@@ 441
uqausiqarumallunga 441
amisuuniq@@ 441
apiqutitsait 441
namituinnaq 440
gavamagij@@ 440
saniq@@ 440
titiraqsimajunit 440
nalunanngimmat 440
uqsualung@@ 440
naasaut@@ 440
kamagijaujariaq@@ 440
tat@@ 440
utig@@ 440
atunik 440
isumassaqsiurutiq@@ 440
quttinniqpaat 440
ujullu 439
simajumut 439
utinginnit 439
isumaalugutigij@@ 439
arniit 439
tinnagu 439
illumik 439
giaqarmata 439
aluummata 439
maliganga 438
majunga 438
simaniq 438
kkalu 438
ungaaq 438
ilinniarvingmi 438
tausimalir@@ 438
katimajju@@ 438
maan@@ 438
ajuinn@@ 438
art@@ 437
palliatuinn@@ 437
unurningit 437
ministaq@@ 437
inngikkalu@@ 437
maligaliuqtikkut 437
tittijunn@@ 437
alitainn@@ 437
aqqai 437
taaqti@@ 437
inulirijiit 437
sivuliqtimut 437
tut. 437
uvattinni 437
uqausirijangit 437
apiqqutiss@@ 437
armangaangit 437
aqa 436
taili@@ 436
tunnga@@ 436
ulau@@ 436
angit. 436
vinnut 436
pisimanngi@@ 436
kaju@@ 436
utiksanut 436
hammal@@ 436
lhutillu 436
ajjigiingittunik 436
pivissaq@@ 436
ssaq@@ 436
angiqtauninga 436
sitiivan 436
tasiujarjuaq 436
pivallianiq@@ 435
guttauq 435
ailli@@ 435
kiinaujangit 435
aqtauqullugu 435
tul@@ 435
aqtaulluni 435
qaujimangi@@ 435
giaqtuq@@ 435
gavamakkunullu 435
qanuigi@@ 435
57 434
tunngan@@ 434
3.@@ 434
alauqtavut 434
llugit. 434
urmi 434
nunaqqati@@ 434
aqtaminik 434
attuit 433
qanuittunit 433
tukisititau@@ 433
tusaqtitsi@@ 433
gunnani@@ 433
iilaak 433
raan 433
maliktugit 433
kinng@@ 433
aruti 432
vakk@@ 432
aqqutiq@@ 432
nalliuti@@ 432
attunga 432
ilh@@ 432
tusaajitiguuliqtuq 432
tuqa@@ 431
64 431
avittuqsimajunit 431
taulu@@ 431
piqasiujj@@ 431
qanuiliuqpalli@@ 431
tamauna 431
alauqtillugit 431
inuquti@@ 430
imanna@@ 430
tunngasugitti 430
72 430
utinu 430
lirijjuti@@ 429
silu 429
gasunni@@ 429
inutuqait 429
artunik 429
apirikkannir@@ 429
qangataju@@ 429
aippaa 429
aummata 429
alauqsimajuq 429
73 429
aqtauqattaq@@ 429
tit. 429
gavamavut 428
asiani 428
uvak@@ 428
pallian@@ 428
aqsimammat 428
simagattigu 428
uninginni 428
imiq@@ 428
ataagut 428
iqqata 428
aatuva@@ 428
unikkaaliam@@ 428
kialvin 428
gilin 427
maligaujuq 427
sivunit@@ 427
ktillugit 427
upaguti@@ 427
taikua 427
ummi@@ 427
inuuj@@ 427
akanni@@ 427
aruju@@ 427
angan@@ 426
qaur@@ 426
piliriarini@@ 426
aqtailima@@ 426
liuqti@@ 426
sanillu 426
iglunik 426
sanagiaq@@ 426
aqtausima@@ 426
angnik 426
uluk 426
katimajiralaanguinnaqtut 426
tappaani 426
ilaliujjau@@ 426
atinnik 425
suungummat 425
ungin@@ 425
isumalu@@ 425
69 425
sanajaugi@@ 425
tapp@@ 425
maku@@ 425
nainaaqsimajut 425
juq. 425
aqtauj@@ 425
tusajitigut 425
talaviisakkut 425
kangiq@@ 425
tauqatt@@ 425
niqinik 425
arija@@ 424
sapujjau@@ 424
uniarmata 424
iluni 424
sanikilu@@ 424
arivugut 424
amisuruqpalli@@ 424
piqasiujjau@@ 424
aluni 424
ittar@@ 424
taqqiit 424
aulatauninginnut 424
niruarunn@@ 424
tinga 423
ilinniaqtiujut 423
ukiu@@ 423
ikajuriaq@@ 423
ppunga 423
pivaalli@@ 423
kanata 423
uvalli@@ 423
kiujju@@ 423
pijariak@@ 423
lirijiq@@ 423
ujaq 423
qaujigasu@@ 423
makkuttut 423
ilinniaqtunut 423
pivaalliq@@ 423
qauma@@ 423
tikilhlhugu 423
pijitti@@ 422
qikiqtaaluk 422
aqquuji@@ 422
qujannamiiqtugu 422
aajiir@@ 422
anningit 422
ikajuusiaqta@@ 422
sirlu@@ 422
lirijiku 422
siggali@@ 422
niruaq@@ 421
arijaujuq 421
ilauqta@@ 421
pin@@ 421
aqtuup 421
kiunasu@@ 421
pius@@ 421
uvangali 421
arutingit 421
unikkaanik 421
nip@@ 421
alauqsimammata 421
arluunniit 421
nunataaqatau@@ 421
uqali@@ 420
pinas@@ 420
qatsinik 420
uummaqqutinut 420
ikajuqtaujuma@@ 420
ilaakkut 420
agga@@ 420
ajjinngu@@ 420
nalunaiqsigunn@@ 420
llugi@@ 420
uqt@@ 420
nunalik 420
llugu. 420
arlusi 419
akullirmut 419
arta@@ 419
apiqqutigali 419
naasautiit 419
nunaup 419
makualu 419
aaqqigiaqta@@ 419
aqtinni@@ 419
qujann@@ 419
unuqsigiaq@@ 419
pularattu@@ 419
sivumuatti@@ 419
quanaqqutit 419
taapsuminga 419
saqqititsi@@ 418
uvangattauq 418
ujjirus@@ 418
tumit 418
iqqaqtu@@ 418
ttar@@ 418
muuq@@ 418
qaujimallar@@ 418
tunirr@@ 418
pinnguaqtu@@ 418
uigu@@ 418
ssanut 418
agl@@ 417
taummata 417
ilisaijinut 417
pilirianguvalli@@ 417
akiliksaq@@ 417
taqqitamaat 417
kivalliq 417
tusarn@@ 417
simallunga 417
ajurutiq@@ 417
aksuruutigi@@ 417
taimainninganut 417
iqqanaijaqtulirijikkunnut 417
apiringmat 417
qujannamiiqparalu 417
ippigusu@@ 416
autigij@@ 416
gavamaup 416
illugit 416
uqtiit 416
tukisigiaruti@@ 416
sivuni@@ 416
lugillu 416
us 416
rlu 416
juuni@@ 416
sauti@@ 416
gus@@ 416
kkunnit 416
namut 416
taakkuaqai 416
muaqpat 416
arjuk 415
inginnut. 415
atsu@@ 415
miutaujut 415
sat 415
gijaujunik 415
sanikiluarmi@@ 415
saalaq@@ 415
killi@@ 415
inirmu 415
miittuq 415
isulitti@@ 414
aratik 414
asiagu@@ 414
uannanganut 414
sivun@@ 414
qitirmiunut 414
gumajara 414
qaujimav@@ 414
ittariaq@@ 414
qanuittumik 414
aqtungali 414
saqqiini@@ 414
,000 414
tinnasu@@ 414
quki@@ 414
tatatiri@@ 414
innullu 413
kajusititau@@ 413
nuqqau@@ 413
sak@@ 413
tukisinn@@ 413
kkanniri@@ 413
ungani 413
gaimmata 413
paalu@@ 413
ingirrajulirijikkunnut 413
pingu@@ 413
kiinaujamik 413
aluk@@ 413
artu 413
maannakkut 412
akitujuq@@ 412
gavamatuq@@ 412
nunait 412
pingajuani 411
aqullu@@ 411
tikkuaqsi@@ 411
palliaju@@ 411
nunavu 411
aqtasi 411
saniraj@@ 411
kiv@@ 411
tausimajunit 411
autit 411
kiinaujalirijiit 411
tallimanik 411
angajuqqaanga 411
aqquurmat 411
aggutuq@@ 411
kinakku@@ 411
tauvuq 410
iqatau@@ 410
aug@@ 410
mamiappunga 410
nung@@ 410
alirni@@ 410
naq@@ 410
pattut 410
kangiqtugaapimmi 410
apiqqutittiav@@ 410
tusagaksa@@ 410
9,000 410
atuqtaugunn@@ 410
uluit 410
aqattarngata 410
ipuru 409
tuqtut 409
nunavummiutait 409
sivulliqpaang@@ 409
tunis@@ 409
inirij@@ 409
arumallutik 409
39@@ 409
tuap@@ 409
qattit 409
attavut 409
attitti@@ 409
tusaumati@@ 409
avut. 409
iqqanaijaliq@@ 409
angiqqisii 409
anikkut 408
iqqanaijaari@@ 408
aqtukkut 408
annguqti@@ 408
ilaaqai 408
kil@@ 408
nalunaiqsivi@@ 408
angn@@ 408
uniaqtunut 408
ssi@@ 408
isumalirinirmut 408
piruq@@ 407
nangiq@@ 407
gavamagijavut 407
kunuk 407
qujaliniq 407
kiuju@@ 407
tusagaks@@ 407
iluaniittut 407
tuav@@ 407
giaqaratta 407
gaasi@@ 407
vinni 407
tunniqqu@@ 407
pann@@ 407
,000. 407
gavamauqatigiittulirinirmut 407
tail@@ 406
aqpattunut 406
mappiq@@ 406
nunavumiunut 406
sanaug@@ 406
ullukkut 406
naliq@@ 406
liqtuni 406
qattauj@@ 406
tungilirij@@ 406
al 406
atuinnaruqti@@ 406
6,000 406
iluittu@@ 406
200,000 406
pijaujariaq@@ 405
katujji@@ 405
simajumi 405
iqqanaijaanut 405
rialiit 405
ttuq. 405
ilinniarvik@@ 405
tuavirnaqtuq@@ 405
ilisar@@ 405
alungmi 405
niqita@@ 405
tauniku@@ 405
atuqtautti@@ 405
8,000 405
muusisi 405
aqattaqtugut 405
aanniaqtaili@@ 404
ungittunik 404
isir@@ 404
arvingmi 404
ministaullunga 404
sallir@@ 404
unginnama 404
qu 404
tussirauti@@ 404
kuluit 404
tauqattariaq@@ 404
tunngasu@@ 403
uktu@@ 403
agg@@ 403
kangiqlhinirmut 403
maligatsaq 403
nallia 403
sanajulirijikkunnut 403
pinnguarvi@@ 403
angujunut 403
tuuni 403
pair@@ 402
lin@@ 402
taqqinut 402
uuttuutigi@@ 402
50@@ 402
iqqanaijaqtitit 402
1.@@ 402
utilluta 402
aguuq 402
taimalu 402
iluunnangit 402
arratta 402
uqausits@@ 401
uqaqqaugavit 401
saup 401
unnaqtut 401
uqauj@@ 401
aklh@@ 401
ursu@@ 401
qanuiliuriaq@@ 401
kangiqlhinirmit 401
piqutirjuanut 401
pilitsi@@ 401
tamakki@@ 400
armij@@ 400
niriugi@@ 400
ingu@@ 400
innarni@@ 400
galuarmangaata 400
iqittuq 400
ikkann@@ 400
ninng@@ 400
ministau 400
inga. 400
uqausiksait 399
ungasittu@@ 399
aulatsiji@@ 399
anngin@@ 399
asijjii@@ 399
tuar@@ 399
tukisinaqsi@@ 399
ukiaksaaq 399
uqsuqtuuq 399
giaqarni@@ 399
imannai@@ 399
ilagiliuti@@ 399
arus@@ 399
uqattarn@@ 399
inni. 398
ikkanni@@ 398
akaunngi@@ 398
piujummari@@ 398
qujannamiit 398
aulataun@@ 398
aturlutik 398
angiqatigiigasu@@ 398
launnginn@@ 398
simaliqpat 398
qaakkanniagut 398
araluaqtugut 398
aqqaugama 398
nas@@ 398
uqaut@@ 398
lagu 398
qaujikka@@ 398
hima@@ 398
minga 397
iluanngiliur@@ 397
laq 397
aqqaat 397
ministauv@@ 397
umiakku@@ 397
jai@@ 396
gavamait 396
nuqqang@@ 396
pijaks@@ 396
nakit 396
aqa@@ 396
iniujut 396
anngittumik 396
makkuktunut 396
aggiq@@ 396
taqqaani 396
taimaliqai 396
unngittunik 396
taujuit 395
siniq@@ 395
atuqtuks@@ 395
kuupa 395
jjutiq@@ 395
gajaqtunik 395
angikku@@ 395
akinginnik 395
tillugi 395
ungikkalu@@ 395
mittimatalik 395
haakiq@@ 395
iqaluktuutsiaq 395
nalliuniqsi@@ 394
tilisi@@ 394
nunavumut 394
arijauni@@ 394
utirni@@ 394
itta 394
turaaga@@ 394
litainn@@ 394
iqti@@ 394
aakka 394
akaungiliurutiq@@ 394
taqariaq@@ 394
arminik 394
paalli@@ 394
itillugu 394
makkuttuit 394
arniri@@ 393
piliriak@@ 393
aqtanginni 393
arukku 393
timiujunut 393
amisuaqti@@ 393
tittinirmit 393
unali@@ 393
qati@@ 393
kiummat 393
tikkuaqtau@@ 392
aippaq@@ 392
sivunik@@ 392
upigitti@@ 392
qallunaujarunn@@ 392
ilinniati@@ 392
aqqiit 392
nunalinnu 392
vimmit 392
ammangaat 392
maligarmi 392
aqtuvini@@ 392
aanniavimmi 392
sivuniksami 391
inginnu@@ 391
aali@@ 391
qanuilingalirmangaata 391
aqpagit 391
matuing@@ 391
inuup 391
aqtuuj@@ 391
kaanturaak 391
pijjutiqaqtunik 391
87 391
unit. 391
taimannaili@@ 391
aqlhunilu 391
artuni 391
qujannamiiqtugulu 391
makk@@ 390
nunatt@@ 390
qaummat 390
5.@@ 390
arutau@@ 390
pivik@@ 390
piliriamut 390
aqpallai@@ 390
apiqqutigiqqauj@@ 390
pigiarlugu 390
maligaliuqtiuqatinnut 390
kisutuinn@@ 390
nuv@@ 390
uqausissa@@ 390
katimann@@ 390
uqallagunn@@ 390
tsaq@@ 389
arniaqpunga 389
akkannila@@ 389
sanavalli@@ 389
ksamik 389
avalu@@ 389
ammalu@@ 389
atuqatta@@ 389
asiuji@@ 389
auv@@ 389
angajuqqaamut 389
sakku@@ 389
upigus@@ 388
arisimaj@@ 388
ttugut 388
utirvigi@@ 388
suqqu@@ 388
milianit 388
angujunit 388
pijaksaq@@ 388
nunavuumi@@ 388
simangimmata 388
iqqanaijaaks@@ 388
ajunut 388
umajara 388
arnik@@ 388
kikkutuinn@@ 388
aaji@@ 388
tuinnatti@@ 388
armat. 388
* 388
assaq@@ 388
tuga@@ 387
inuunasu@@ 387
sivuq 387
alunnit 387
iq 387
milluunniit 387
91 387
tuinnarnik 387
pinga@@ 387
tikiti@@ 387
ukpirusu@@ 387
ina 387
qunga 387
apiqqusir@@ 387
katimajjutiss@@ 387
aippangani 387
piliriatsaq 386
takulauq@@ 386
giaru@@ 386
ittu 386
tigusi@@ 386
tukisiti@@ 386
piqqus@@ 386
urmata 386
aqtittijunn@@ 386
98 386
unuqtut 386
piiqta@@ 386
gunnar@@ 386
assuru@@ 386
ilinniarnilirinirmut 386
paliisikkunnut 386
uumajurniaqti@@ 386
qanuinngitti@@ 386
qaritaujakkut 386
and 386
alira@@ 385
arraagungani 385
150 385
asijjiqta@@ 385
turaangajunit 385
aqtun@@ 385
qaujim@@ 385
nalunaiqsisima@@ 385
armangaattigut 385
5,@@ 385
tunirrusi@@ 385
anut. 385
aaqqiktau@@ 385
alukta@@ 385
salummaq@@ 385
pijittiqtiit 385
aqtunillu 384
katujjiqatigiing@@ 384
aninginnut 384
augalu@@ 384
pai@@ 384
upag@@ 384
uliqpat 384
isumagillugit 384
lirijikkunni@@ 384
iqqanaijaaksait 384
saqqittuq@@ 384
kkatta 384
ingittut 384
unani 384
apiqqutiks@@ 384
201@@ 384
kajusiniq@@ 383
tukisiu@@ 383
luniuk 383
aqattaqullugit 383
tauniarmangaata 383
aqtaulaur@@ 383
angumma@@ 383
utigijaujut 383
iniks@@ 383
kiinaujalirijikkunnit 383
lilauq@@ 383
anigur@@ 383
ittugut 383
nalauttaaqtau@@ 383
apirigavit 383
jugu 383
surusila@@ 383
angajuqqaarij@@ 383
atauttikkut 383
arraagugijattinni 383
turaarutingat 383
aliraangata 382
isumaqsaqsiur@@ 382
inuusir@@ 382
arviup 382
aruvigit 382
arnialiq@@ 382
asuillaak 382
pijjutiqaqtut 382
ikkanniq@@ 382
naukku@@ 382
siqattar@@ 382
ikajuqattaq@@ 382
limaatti@@ 382
atj@@ 382
pulaariaqsimajunit 382
uut@@ 381
sivulir@@ 381
minisi@@ 381
aniarmat 381
mij@@ 381
ajuqsaqtu@@ 381
uningani 381
angunasukti@@ 381
tusaqattaq@@ 381
tunngasuktitti@@ 381
aqpattu@@ 381
arsimajut 381
ara. 381
akkungit 381
uumajuit 381
nilliutigi@@ 381
haammalakkut 381
ulugit 380
naammagijau@@ 380
akkalu 380
ingit. 380
katimaqa@@ 380
katimajiralaanik 380
sunakku@@ 380
kkua 380
aliriniq 380
nunakkuur@@ 380
kanngunaqtu@@ 380
piliriqati@@ 379
nuttir@@ 379
ilinnianirmut 379
ariir@@ 379
ummangaaq 379
atalu 379
uqarunnaqpa 379
110 379
250 379
paaq 379
simaliqtugut 379
utiri@@ 379
takuksautitti@@ 379
suungungmata 379
50,000 379
aqtigi@@ 378
tungilia 378
qattani@@ 378
qaujikkaivunga 378
ilik 378
raangata 378
kinguvariaq@@ 378
aqvi@@ 378
suur@@ 378
iqaluttuuttiaq 378
utits@@ 377
aqpusi 377
inuillu 377
singit 377
iniarmata 377
attunit 377
unnga 377
ilaunngi@@ 377
nai@@ 377
armangaarmik 377
apiqqutigirata@@ 377
aqtaujuq 377
ppa 377
araangamik 377
aqattaqtuit 377
tanganik 376
aviktur@@ 376
sing@@ 376
uniarmat 376
ujutigut 376
aqtunu 376
ununga 376
ilaanni 376
minir@@ 376
ikajuqtia 376
taimannaittumik 376
nattilik 376
qanuigiar@@ 376
sivukkaqtaqtinga 376
ari 375
ilaann@@ 375
aan 375
uqattani@@ 375
piqati@@ 375
vur@@ 375
gunniiq@@ 375
arut 375
kullu 375
imial@@ 375
ama. 375
angulauqtuq 375
qata 375
nuna 375
71 375
tusarasu@@ 375
pusant@@ 375
aanniaqarnanngittulirijikkunnut 375
juun 375
anirn@@ 374
irnut 374
kisutuinnait 374
gatsi 374
avijju@@ 374
iqtu@@ 374
quviasuttunga 374
inuki 374
galuaqtugut 374
qilana@@ 374
qaujimajut 374
amigaqsi@@ 374
jumagama 374
isulivv@@ 374
arraaguuk 374
sallini 374
unnaqullugu 374
aujunnaqtut 374
piliriviit 374
atiit 374
pingatsiq 374
taimannganik 374
ajuliq@@ 374
miksausak@@ 374
amisummari@@ 374
kinngait 374
illulirijirju@@ 374
nunalingmi 374
vaallir@@ 374
sanannguag@@ 374
nunavung@@ 374
piluanngu@@ 374
qujannamiiglu 374
anit@@ 373
anginnullu 373
sivuli@@ 373
akkunnik 373
uqattariaq@@ 373
tauqattani@@ 373
tikku 373
ilang@@ 373
63 373
qangattauti@@ 373
iqqanaijari@@ 373
milianng@@ 373
nginni@@ 373
96 373
taaksij@@ 373
ua 373
nunattiap 372
atulir@@ 372
imarmiuta@@ 372
naj@@ 372
miutaq 372
laurakku 372
gani 372
saan@@ 372
angulauq@@ 372
tusagaksait 372
uqquus@@ 372
uqalla@@ 372
kigg@@ 372
simaliqtillugit 372
quvvari@@ 372
qaujimammat 372
tauqattarningit 372
nguniraqtau@@ 372
d 372
2018 372
angijumik 371
atuagarnik 371
lar@@ 371
plugu 371
artunut 371
unikkaaliangu@@ 371
armari@@ 371
lhlh@@ 371
qaujikkaijjutit 371
taimannaittunik 371
piliriviq@@ 371
tammaqsimajuqsiuqti@@ 371
inutti@@ 370
inuis@@ 370
ttutik 370
taluunniit 370
uningi 370
ikku 370
armangaarma 370
araluaqtunga 370
iliuqq@@ 370
gijattinni 370
naalak@@ 370
visii 370
armangaata. 370
arnirminik 369
kkannila@@ 369
utirvi@@ 369
piij@@ 369
uqaqtuq@@ 369
simatillugit 369
sanam@@ 369
aturumaarniaqtut 369
giarlugu 369
ariaqaqtut 369
arrag@@ 369
imminiiq@@ 369
arvinga 369
sapujj@@ 369
unniqpat 369
ajuinnari@@ 369
pilirivimmut 369
mit. 369
aaggaaqtuqanngimmat 369
canada 369
ulanga@@ 368
naalautikkut 368
ilagija@@ 368
kivallirmut 368
lira@@ 368
qaujimagaluaqtunga 368
tusaajiq@@ 368
tukisiumatti@@ 368
simalluti 368
aanniaqtulirij@@ 368
inuusiqatti@@ 368
sanirmut 368
atuqtauqattaqtut 368
c@@ 368
simainn@@ 367
arasunni@@ 367
sui@@ 367
arniaqpuq 367
giq@@ 367
ttillugit 367
unnullu 367
kajusigiar@@ 367
simalirmangaata 367
isumaalugij@@ 367
arajarmat 367
inngittuq 367
gunniir@@ 367
ungailaak 367
aqattaqtavut 367
katimajirjuanginnit 367
tauniarmat 366
atsualuk 366
angunasuk@@ 366
katimatitti@@ 366
uqsuq@@ 366
ttavut 366
magit 366
arumagama 366
tukisijau@@ 366
11@@ 366
97 366
arniqpata 366
piliriaqaqtuq 366
83 365
alaungi@@ 365
atuagangit 365
lagut 365
arnirmi 365
lirijikkutigut 365
utiqtitti@@ 365
uqaqtitti@@ 365
katujjiq@@ 365
ilagijauqata@@ 365
arlhuni 365
naammaksaqtut 365
84 365
rinirmut 365
suurluqai 365
saata@@ 365
katimmaj@@ 365
mangaangit 365
sar@@ 364
kiggaqtuij@@ 364
uqakainn@@ 364
uqausirijunn@@ 364
ministauvv@@ 364
ilagijaujuq 364
iqqauj@@ 364
piliriaksait 364
piviks@@ 364
aulajja@@ 364
aluarmangaata 364
ilippalli@@ 364
kkannirasu@@ 364
aanniavik 364
maunng@@ 364
assiuk 364
uqqummiut 364
akkatta 363
pilirinasu@@ 363
attuaniq@@ 363
pilirivviit 363
kiinaujaij@@ 363
kamagijauj@@ 363
aajiiqatiq@@ 363
mmataguuq 363
katimajiralaangukainnaqtullu 363
issaq@@ 363
asitj@@ 363
pigasu@@ 362
nuna@@ 362
ajauri@@ 362
titiqqaq@@ 362
sanav@@ 362
liqqat 362
iqqanaijarunn@@ 362
araluaqtillugu 362
rala@@ 362
ngulauq@@ 362
qimaav@@ 362
tammaqsimajuqsiuqtiup 362
quviappunga 361
alilauq@@ 361
nalunangittuq 361
kajus@@ 361
tutillu 361
aqtutigut 361
aturu@@ 361
aqsimaliq@@ 361
ttugit 361
qit@@ 361
iksivau@@ 361
turaangalu@@ 361
kingulliq 361
aittu@@ 361
ilissinnut 361
unnukkut 361
uk. 361
uqasi@@ 360
gusu@@ 360
arpuq 360
inuusilirinirmut 360
aksuruq@@ 360
ikummaqquti@@ 360
tsunga 360
innarnik 360
uqaqsimajut 360
natsi@@ 360
vallai@@ 360
89 360
uliqtut 360
aulauti@@ 360
aruttigut 360
sullu@@ 360
ulirmata 360
uqattarmat 360
katimajjutiksanut 360
alauqtunga 359
tauqsi@@ 359
quviasuqatigi@@ 359
utauv@@ 359
ingimmat 359
igluqaqti@@ 359
matuiqsij@@ 359
tunijaulauq@@ 359
akkan@@ 359
uqquuqtuq 359
inangiq@@ 359
giaq 359
maligaliurvimmit 359
anngitu@@ 359
qaujimagiaq@@ 359
arillutik 359
siqattaq@@ 359
sitama@@ 359
armata. 358
nalunaija@@ 358
ulaurama 358
rai@@ 358
ilajau@@ 358
74 358
giakkannirunn@@ 358
puk@@ 358
pijariiruma@@ 358
arniarluni 358
juuk 357
uvattunik 357
qaangiq@@ 357
niriugijaq@@ 357
aqattalauq@@ 357
armigama 357
mikinniq@@ 357
unngittunut 357
niriuppunga 357
qangatuinnaq 357
arajarmangaaq 357
iniksaq@@ 357
aall@@ 357
sav@@ 357
iqqanaijarti@@ 357
aniti@@ 357
pijariiqta@@ 357
uumajulirijirjuakkut 357
inuuli@@ 357
niriutti@@ 357
ilinniaqtitau@@ 357
utirniq 357
katimav@@ 356
tisi@@ 356
lunilu 356
atsait 356
pinasuarusirmi 356
aqtaulutik 356
pila@@ 356
kia 356
pularaqtulirinirmut 356
imaitu@@ 356
saqqiqtuq@@ 356
gavamakkunn@@ 356
nuvi@@ 356
aninganut 355
uqalimaarunn@@ 355
tunisijunn@@ 355
katiq@@ 355
ittunn@@ 355
isumatuinnaqtunga 355
apiriju@@ 355
ttiaqullugit 355
akann@@ 355
anirij@@ 355
400 355
kantura@@ 355
supp@@ 355
kiinaujjaksa@@ 355
taimattauq 355
tunngasugissi 355
ingirraqattaqtu@@ 355
aliqtilluta 354
aatu@@ 354
taaksiijaij@@ 354
uqaqatta@@ 354
qangatasuut 354
siuq@@ 354
titiraqsimaj@@ 354
ariaqarniq 354
tuttar@@ 354
arniaqpara 354
pijittirarnirmut 354
arraan@@ 354
saijiit 354
aqsiman@@ 353
uvattunut 353
katu@@ 353
rmi 353
iqaluttuutti@@ 353
sivullir@@ 353
amiakk@@ 353
kkama 353
imaq@@ 353
qimiru@@ 353
tangani 353
tuinnaungittuq 353
qattirij@@ 353
quttinn@@ 353
alirngat 353
ajuqsalu@@ 353
artuit 353
niruaqtauqatigisimajakka 353
qamaniqtuaq 352
aqtuni@@ 352
lutta@@ 352
piqu@@ 352
puri@@ 352
aliriji@@ 352
ariaqarmat 352
ilinniaqsima@@ 352
uqaalavi@@ 352
naa@@ 352
aulaniqatti@@ 352
aqiaruq 352
aqtailimanirmut 352
anna 352
kiinaujalirinnaup 352
akiqanngittuq 352
akitujuqturutiksanut 352
sak 351
kangiqlhinirmi@@ 351
f 351
aniqsa@@ 351
ukiuqtaqtumi@@ 351
uggu@@ 351
imir@@ 351
jikkut 351
illuliuq@@ 351
kkunni 351
nga 351
ilugu 351
parnaguti@@ 351
palais 351
atsaq@@ 350
allugit 350
aqtillu@@ 350
kiinaujaliri@@ 350
innut. 350
takuks@@ 350
tunnir@@ 350
aqquuq@@ 350
atuliqujau@@ 350
ijja@@ 350
uqtur@@ 350
pik@@ 350
nalia 350
anga. 350
ulurianaqtumi@@ 350
aip@@ 349
anittauq 349
maligaliuqtiulluta 349
qait 349
tarnik 349
atuinnaqtaq@@ 349
panniqtuumut 349
vingani 349
pijittirutiit 349
86 349
pijjutigilugu 349
ungnik 349
katimavvi@@ 348
qulli@@ 348
ana 348
katiti@@ 348
ungajunit 348
tausimajumik 348
tugli@@ 348
ksaq 348
tigujauma@@ 348
iqatti@@ 348
nutaamit 348
93 348
pikuu 348
katimajjutissait 348
arjuaq 347
ilinniaqtuliriji@@ 347
lirlutik 347
tisamanik 347
qaujinas@@ 347
qaujisatti@@ 347
uqausiriqattaq@@ 347
pilirijau@@ 347
inuusirmut 347
makita@@ 346
kikkulimaat 346
kkiaq 346
aqtanganik 346
aullaqtitti@@ 346
lutalu 346
aminit 346
iglunut 346
nap@@ 346
uniraqtau@@ 346
inngin@@ 346
uvang@@ 346
visiuk 346
aglag@@ 346
aujarialiit 346
matuingatti@@ 346
angittuit 346
ukiassa@@ 346
angirrami 346
iluagut 345
arvianut 345
makimaj@@ 345
aksanut 345
uqausirilaur@@ 345
simajumit 345
takunak@@ 345
inngittut 345
iluikk@@ 345
malikti@@ 345
aanniavik@@ 345
tuugaluat 345
uqattaqtunik 345
qujillutik 345
qarasaujatigut 345
ittunga 344
uuviti 344
aaqqigiarinirmut 344
niku@@ 344
uqarumallunga 344
saqqila@@ 344
taimait@@ 344
iqqan@@ 344
usij@@ 344
piliriarijavut 344
kiinaujaqutingit 344
pijjutigij@@ 344
nunaqaqqaaqsimajut 344
qujagivara 344
tamassuma 344
taqqaunga 344
arraaguanut 344
kiinainnaq 344
tujummi@@ 344
program 344
upinn@@ 343
ikajuqatigi@@ 343
minnut 343
uqtutik 343
ilugit 343
jumallutik 343
arumajara 343
kiut@@ 343
siqu@@ 343
unniit. 343
uvattu@@ 343
alauqsimajut 343
aanniasiuqtinut 343
isumagija@@ 343
makkuk@@ 343
aangajaarn@@ 343
uqarvi@@ 343
laurngata 343
simiuni 343
ungmangaat 343
naggajjau 343
sivuliuqtii 343
paniq@@ 343
ilinniarnilirijikkut 343
simatsi@@ 342
upirngaaq 342
arniaqput 342
aiq@@ 342
maligarnut 342
ppuq 342
tusaruti@@ 342
innagit 342
viujunn@@ 342
ituinn@@ 342
majara 342
ikajuqtauj@@ 342
jaun@@ 342
aqqaummat 342
allarinni@@ 342
maligaliurvimmi@@ 342
ajunnginn@@ 342
uiguriarut 342
issivauta@@ 341
ikkunni 341
isumavunga 341
galuarama 341
giir@@ 341
akiraqtuq@@ 341
tuksau@@ 341
utaujunik 341
qimmi@@ 341
iqsuqti 341
ataujut 340
llutalu 340
piqujivungaaru@@ 340
araluaqtillugit 340
gunnaqsi@@ 340
qanuilingalirmangaaq 340
uniarmangaata 340
igalu@@ 340
ippata 340
naasautingit 340
imailing@@ 340
taavani 340
auqattarn@@ 340
ilinniaqtulirijikkunnit 340
mangmat 340
tarrij@@ 340
iqqanaiq@@ 340
angutiit 340
akiqangittuq 340
kiugavit 340
taikuuna 340
angajuqqa 340
pijjutiliit 339
ka 339
ira@@ 339
assau@@ 339
isulik@@ 339
guttigu 339
annikittur@@ 339
papatti@@ 339
ministauq@@ 339
kinatuinn@@ 339
,8@@ 339
tuinnarmik 339
qangatasuuq@@ 339
tuinnarata@@ 339
annuk 339
pitaqanngimmat 339
uqaqqaungmat 339
unniirn@@ 339
aqattarnirmut 339
katilimaaqtugit 339
piqujaksat 339
aqlhutiglu 339
ksangit 338
iliqusi@@ 338
niriunniq@@ 338
kajungiq@@ 338
takumin@@ 338
tusaqtiti@@ 338
auqqau@@ 338
araluarmangaaq 338
akas@@ 338
simatuinn@@ 338
qaangi@@ 338
pijittirautinut 338
akiliksa@@ 338
tamannattauq 338
qaujimatsi@@ 338
pijariatuju@@ 338
nunalimmi 338
qaujimangittunga 338
uqaujjigi@@ 338
aglu@@ 338
angilligiar@@ 338
iqanaijaqti@@ 338
irnisuksi@@ 338
angiqtauju@@ 338
pisim@@ 337
ajurunniiq@@ 337
arniarlutik 337
simalutik 337
majunik 337
pillari@@ 337
uqarumavunga 337
irijavut 337
vingmut 337
ilinniarniq@@ 337
arala@@ 337
arlugi 337
ajjiliur@@ 337
utissanit 337
qaujisai@@ 337
uannangani 336
iluunnatik 336
ititti@@ 336
tuuk 336
ikajuqt@@ 336
uqautigunn@@ 336
tanginni 336
kiujjutigi@@ 336
pimmariuvuq 336
ariaqtu@@ 336
92 336
aaq 336
ilaliujji@@ 336
taissumunga 336
kannirunn@@ 336
aluummat 336
nann@@ 336
kkuni 335
aaqqiu@@ 335
taaq 335
arviarmi@@ 335
angajuqqaarijaujut 335
akiliriaq@@ 335
uun@@ 335
paqqi@@ 335
angippat 335
inis@@ 335
qangattaut@@ 335
araimmata 335
qula@@ 335
quvvasinn@@ 335
augaluaq 335
tits@@ 334
sinir@@ 334
angiqtaujuma@@ 334
miqqu@@ 334
uumaj@@ 334
uniluunniit 334
maikul 334
taullutit 334
sanajaun@@ 334
nunalinginni 334
lauqtara 334
aglaat 334
qaujimat@@ 334
mijugut 334
ungavari@@ 334
82 334
pimmariu@@ 334
ilinniaqvi@@ 334
najug@@ 334
pijunnaut@@ 334
arnivut 333
uuma@@ 333
giangit 333
qaujji@@ 333
atuqtauqatta@@ 333
aksamik 333
llu. 333
tamatum@@ 333
anil@@ 333
vaati 333
gajarmangaaq 333
uppir@@ 333
apiqsurn@@ 333
piliriqatigiitti@@ 333
araaluk 333
simalu@@ 333
aaqqigiariaq@@ 333
issa@@ 333
aqtuugalu@@ 333
aik@@ 333
qaujimajautti@@ 333
tusaajituguuqtuq 333
maligaks@@ 333
jauningit 332
ugut 332
tanginnit 332
ttariaq@@ 332
piusivaalli@@ 332
ksanginnut 332
unikkaar@@ 332
timiqutigij@@ 332
.00 332
uqsualulirijikkut 332
illulirijirjuakunnut 332
ukkut 332
tuinnangi@@ 332
pijar@@ 332
ingatta 332
unijjuk 332
anullaksiiv@@ 332
ngullutik 332
ariaqtur@@ 332
pilirivvinga 332
nunarjuarmi 332
isumassaqsi@@ 332
katimajiuqatiga 332
ikummaqqutiit 332
uninginu 332
init@@ 331
valliaju@@ 331
atigijunn@@ 331
uniaqtumut 331
unas@@ 331
uniaqtuni 331
uqatikka 331
namminiqaqtut 331
tausimaliq@@ 331
120 331
pigg@@ 331
mmijavut 331
angaaq 331
innik. 331
tuksiaqtut 331
vatta@@ 331
ngi@@ 331
surunn@@ 331
ungati@@ 331
avi 331
surusir@@ 331
sivuniss@@ 331
aqtuuk 330
rmut 330
tamatsumunga 330
iniri@@ 330
qanuitu@@ 330
arniarakku 330
katimavimmut 330
pigiarutiq@@ 330
arunnarmangaata 330
76 330
arniujut 330
taugasu@@ 330
aktutik 330
nuqqakainn@@ 330
immangaata 330
gingi@@ 330
nikuvi@@ 330
piuniqpa@@ 330
ram@@ 330
aga 330
ugguuq 330
aaliksaantu 330
tamap@@ 330
uqatiq@@ 329
julirinirmut 329
immaqalu 329
ujjiri@@ 329
angirutiit 329
qaujilauq@@ 329
qaujisarniq@@ 329
atillu 329
uqariaq@@ 329
simangimmat 329
arniaqtunut 329
imirmut 329
uppata 329
iqqanaijaangujut 329
inuinnaqtun 329
tulu@@ 329
aqtuinnau@@ 328
isumaalugu@@ 328
lirijikkunn@@ 328
uninginnit 328
irnik 328
qanur@@ 328
iqqaqtuiji@@ 328
sirinirmut 328
utigijangit 328
tuugaluaq 328
namminiqutiq@@ 328
aimmata 328
kangiqtugaapi@@ 328
vattangit 328
allaij@@ 328
taakkutiguuna 328
arniqqat 328
simagiaq@@ 328
uig@@ 328
tausanik 328
angittumik 328
tauqattaqtuq 328
isulivviq@@ 328
iqattarniq 328
quttiktumut 328
manngat 327
tauli@@ 327
maliktaujariaq@@ 327
aqtatinnik 327
apiqqutigijait 327
utiksat 327
atuinnaujut 327
nalunaiqsitti@@ 327
tisamat 327
78 327
88 327
qanuilingalirmangaat 327
arna@@ 327
unnarniarmata 327
ikut 326
pijunnaqti@@ 326
qaujut 326
,000@@ 326
ku 326
tunngasuttitti@@ 326
qaujimaniq@@ 326
ulauqtuni 326
inngimmata 326
uqu@@ 326
qitiqqu@@ 326
juti 326
gijautti@@ 326
tagvunga 326
taannaguuq 326
suvigaq 326
katimajirju@@ 325
vagi@@ 325
gijjuti@@ 325
mmijakka 325
piqannarij@@ 325
apirigumajara 325
aqtutalu 325
araluarmat 325
gutigij@@ 325
annu 325
iniujuq 325
marr@@ 325
aallir@@ 325
ilinniarvinni 325
ajjigiingittu@@ 325
qap@@ 325
mittimatalimmi@@ 325
ikpiarjummi 325
inuuqatigi@@ 324
qikiqtarju@@ 324
uqaujju@@ 324
sann@@ 324
angirutigi@@ 324
marruunnut 324
nuliara 324
arunnani@@ 324
qaujimagi@@ 324
muanga@@ 324
auvuq 324
akkut. 324
sinit 324
sanarr@@ 324
sivulliqpaatti@@ 324
alaunngimmat 324
ikkunnik 324
aqqusa@@ 324
immikkut 324
killiq@@ 324
,9@@ 324
guli 324
uraj@@ 324
81 324
qanuingi@@ 324
aippari@@ 324
arumajunut 324
qaujimajatuqanginnut 324
vaalli@@ 324
sivulliqpauti@@ 324
ulauqtillugit 324
pitjutiq@@ 324
002 324
uqausirijara 323
mmariit 323
apirijuq 323
iglunit 323
aqtanganut 323
pit@@ 323
timing@@ 323
qimat@@ 323
tuang@@ 323
sanu@@ 323
tiguj@@ 323
uqalimaaga@@ 323
katiqsu@@ 323
piqasiut@@ 323
angajuqqaangu@@ 323
tukisinaliqtissimajuq 323
urmut 322
nunamut 322
uqaqq@@ 322
immaqa@@ 322
ikkutigut 322
ariaks@@ 322
galuat 322
aulanirij@@ 322
linnut 322
nipiliuq@@ 322
lirijju@@ 322
attarningit 322
001 322
uqsuaalu@@ 322
akir@@ 321
nunattiarmi 321
uqtillugit 321
ikkanniruma@@ 321
paippaat 321
uqausirmik 321
1mi 321
avik 321
arivuq 321
ijariaq@@ 321
pirajak@@ 321
aantiuri@@ 321
aqsimalir@@ 321
tappa@@ 321
asit 321
tuqait 321
maningit 321
illuqaqti@@ 321
runn@@ 321
unittauq 321
ajjigii@@ 321
anngusu@@ 321
pitaqar@@ 321
gijaujunut 321
pigunn@@ 321
ungita 321
niuviaksaq@@ 321
tuksirautinik 321
ilinniaqtitt@@ 321
igguuq 321
niruaqtigisimaj@@ 320
4.@@ 320
ii@@ 320
mir@@ 320
attiaqullugit 320
quttittumi 320
gumani@@ 320
quviagij@@ 320
mivv@@ 320
kiinaujaquti@@ 320
malituinn@@ 320
atuqtuarnirmut 320
ikajuqtaugiaq@@ 320
sanaja@@ 320
ilitarijuma@@ 320
alirama 320
vungali 320
laisaq@@ 320
siamma@@ 320
mirnguiqsir@@ 320
aqtaula@@ 320
aqtunik. 320
vagiiq@@ 319
unnaqsini@@ 319
ungajuq 319
aqtinit 319
titiqqamik 319
kisu 319
qallunaani 319
ikummaqqutilirijikkunnit 319
pisi@@ 319
tagv@@ 319
amisuuniqsait 319
minirnit 319
angijuutinut 319
isuungu@@ 319
ujju@@ 319
llunigit 319
gasuq@@ 319
nunalittinni 318
ulunga 318
sinik 318
nunavulima@@ 318
tittij@@ 318
ikajuqtinga 318
miksaanu@@ 318
qujannamiirumallugu 318
inill@@ 318
arajarmangaat 318
simangittuq 318
anngitara 318
inngaaqtuq 318
anis@@ 318
taimaigiaq@@ 318
naammangi@@ 318
tapa@@ 318
pijjutigilu@@ 318
apiqqutissait 318
tauqsiqtauninginnullu 318
ittaili@@ 317
nammini@@ 317
tittinirmik 317
qanuittuq@@ 317
qimirruniq@@ 317
naammak@@ 317
tuaqpata 317
tausimallutik 317
taimaittunut 317
alauqtuni 317
qutittinnut 317
igluliriji@@ 317
kill@@ 317
uqarunnangittunga 317
saqqittini@@ 317
uummaqqutilirijikkunnut 317
pilimmas@@ 317
pilirivisi 317
aupill@@ 317
kamisankunnit 317
attanaqtailijulirinirmut 317
paliis@@ 316
innatu@@ 316
manasu@@ 316
ping@@ 316
jutinginnik 316
akuk@@ 316
aaqqitsu@@ 316
alisa@@ 316
simatillugu 316
ariaqaqtugut 316
nunam@@ 316
iqati@@ 316
niqsau@@ 316
mappi@@ 316
naammaksi@@ 316
amisuaqtiq@@ 316
qassit 316
katimajjutiksatta 316
jummari@@ 315
inginut 315
simallugu 315
isuq@@ 315
pija@@ 315
limaamut 315
akiliri@@ 315
tilluunniit 315
appuq 315
,7@@ 315
kaanturaakta@@ 315
akata@@ 315
tuinnaq@@ 315
imminiiqtaili@@ 315
uniaqtumit 315
inuusiq@@ 315
ikummaqqu@@ 315
kka@@ 315
qanuiliuru@@ 315
aanniaqannangittulirijikkut 315
pigiarni@@ 314
angan 314
innikkut 314
silaurmata 314
katimajiralaa 314
atuqtaun@@ 314
akkutigut 314
liraangata 314
aqattaqtunik 314
arunnaqtuq 314
angitt@@ 314
lutiglu 314
aqpuqai 314
glutik 314
uvanni 314
ammaluttau 314
maligaliuqtituinn@@ 313
pigiaruti@@ 313
atuagarmik 313
ministalu 313
piliriangit 313
hammalakkut 313
uqqauj@@ 313
uqatuinn@@ 313
tauluti 313
atuqtauqattar@@ 313
iqqanaijarnirmut 313
aalli@@ 313
umma@@ 313
pigialisa@@ 313
aaggaaqtuqaqpaa 313
anginnakku 313
migama 313
ginaj@@ 313
nalunaiqsigunnaqqaa 313
arijunn@@ 312
angugalu@@ 312
unilluunniit 312
qautama@@ 312
migut 312
aujju@@ 312
parnautigi@@ 312
ministarij@@ 312
aanniasiuqtinik 312
aniaqtugut 312
parnautik 312
jumajavut 312
katiqsuq@@ 312
quvia@@ 312
aksuruus@@ 312
katimatuinnaqtilluta 312
araangatta 311
qulluta 311
arivut 311
qaij@@ 311
gijanginnut 311
ar 311
qatanng@@ 311
pilirias@@ 311
utillu 311
ullutuinn@@ 311
piviqatti@@ 311
qaujisaqtiit 311
aqtunullu 311
pat@@ 311
pilirivvingat 311
kki@@ 311
allaijut 311
sauniarmata 311
allavi@@ 311
tittigasu@@ 311
saqqitausimajuq 311
ivalli@@ 311
saqqik@@ 311
aniqai 311
qatsit 311
unilu@@ 311
aqtuullu@@ 311
ungittumik 310
innammari@@ 310
saniani 310
qanuit@@ 310
unikkaaliaq 310
aturn@@ 310
kinaalu@@ 310
iqalli@@ 310
unnaqpuq 310
tungaani 310
ilinniaqtitsi@@ 310
taqqit 310
annik@@ 310
attarmat 310
angippata 310
qqaujara 310
ilaannik 310
paanapaasi 309
nalunai@@ 309
manirmik 309
gianng@@ 309
juj@@ 309
saunaj@@ 309
apirijumallunga 309
maligaliriji@@ 309
armu@@ 309
qanuittut 309
kp@@ 309
taimaipp@@ 309
aujja@@ 309
utsuni 309
katimajiralaani 309
najji@@ 309
ksanginnik 309
apiqsuqtau@@ 309
gavamakkunginn@@ 309
arraaguq@@ 309
miniq@@ 309
tavu 309
94 309
unirmit 309
illuup 309
tavvunng@@ 309
nami 309
nunalingn@@ 309
uniglu 309
uqaqsimangmat 309
ita@@ 309
galait 309
pilirivia 309
tunija@@ 308
tautsi@@ 308
inulirijituqakkut 308
unngitti@@ 308
upa@@ 308
patta@@ 308
aqsimanngi@@ 308
nalunaiqtausimajut 308
taimaittunit 308
uvvaluuvva 308
siammakti@@ 308
pingasuujuq@@ 308
ariniaqt@@ 308
ungaa 308
pitaa 308
pijjut@@ 308
quk@@ 308
saangani@@ 308
uqarataarmat 308
uvagulli 308
qummu@@ 308
nunangannut 308
simallar@@ 308
taimanngalimaaq 308
iqqanaijaaqtaarasu@@ 308
pilirivivut 308
kajusitsi@@ 307
armilu 307
tinginnut 307
ilini@@ 307
tumi@@ 307
nunavumiu@@ 307
itsiv@@ 307
uqallaqatiq@@ 307
simaniarmat 307
unnaqqu@@ 307
kanatamiu@@ 307
tukimuaqtitti@@ 307
aqattarlutik 307
unganut 307
uqaalauti@@ 307
gumallugu 307
arussi 307
79 307
urmiut 307
aksurutti@@ 307
nunavummiunit 307
katimajiralaangu@@ 307
utigijauni@@ 307
tamakkiik 307
taim@@ 307
amingnik 307
najanngu@@ 307
silarjuami 307
simaliqtillugu 306
aniguqti@@ 306
inunginnut 306
giak@@ 306
ataluunniit 306
pijittirauti@@ 306
salli@@ 306
talaviis@@ 306
katujjiqatiq@@ 306
gavamanginnut 306
akiliqsui@@ 306
ittur@@ 306
araluar@@ 306
pivi@@ 306
allugu 306
kkaluarmangaata 306
suungugatta 306
uluti 306
aqpi@@ 306
pijit@@ 306
uvvalu@@ 306
nailli@@ 306
ktugut 306
nunaliujuq 306
uqattaqtunut 306
ingatigut 305
simavunga 305
ikummaqqutilirijikkut 305
kiggaqtuiji@@ 305
marruunnuk 305
ungav@@ 305
nunattinnut 305
aksanit 305
piqutinut 305
pigiaqpalli@@ 305
kkuma 305
pijumin@@ 305
ilagili@@ 305
attarniq 305
tamakkuali 305
ungajuni 305
aakk@@ 305
sinna@@ 305
iqattarn@@ 305
kanannangani 304
atsanik 304
nunamik 304
atsaq 304
alh@@ 304
qaujimati@@ 304
piqann@@ 304
ujuuk 304
apik 304
illulirijikkunnut 304
tausimammata 304
aruviuk 304
saqqini@@ 304
katimavingmi 304
vivvu@@ 304
uqaqatigij@@ 304
piliriaksanik 304
ilauratta 304
iqalunn@@ 304
tiliurivut 304
atuqti@@ 304
aqtauninganut 304
saqqittijunn@@ 304
apiqqusiri@@ 304
qimirrunirmut 304
saputijau@@ 304
silattursaq@@ 304
qanima@@ 303
ataujunn@@ 303
isiqti@@ 303
avittuqsiman@@ 303
qikiqtaalung@@ 303
uqausik@@ 303
mmigatta 303
qujannamiik@@ 303
piliriniq@@ 303
aliqtuni 303
maannaujumi 303
innaq@@ 303
uqalauqtuq 303
kuvi@@ 303
uqausiriqqau@@ 303
qulinut 303
tukiliuq@@ 303
ilauqtavut 303
arviap 303
uvann@@ 303
sunau@@ 303
maligarmit 303
sukkuaq@@ 303
tamaqmi 303
uumaqquti@@ 303
arnitinnik 302
gavamaujut 302
i. 302
qaugama 302
qanigij@@ 302
tigusinirmut 302
mmijugut 302
,6@@ 302
galuaqtillugit 302
apiriqqau@@ 302
pul@@ 302
niaqunngu@@ 302
immin@@ 302
uqsualummik 302
muungajunik 302
uumajurni@@ 302
upinnga@@ 302
maligaliuqtiuqatima 302
tappikani 302
uqaqtittijii. 302
iqaluttuutsi@@ 301
angummata 301
lugulu 301
aaqqigiari@@ 301
atjigiingi@@ 301
plugit 301
ulauqtunik 301
aulajunn@@ 301
arutaujut 301
angila@@ 301
ajjuti@@ 301
ingirratti@@ 301
manturi@@ 301
aqut@@ 301
aippiq@@ 301
ulauqtunut 301
tukisiumajakkut 301
gg@@ 301
kkanniru@@ 301
atiliuru@@ 301
pingas@@ 301
gijaullutik 301
angijuqqaaq@@ 301
aqtauluni 301
matuiqsijjuti@@ 301
gan 301
armangaa 301
pijittiqti@@ 301
vattavut 301
nalaukta@@ 301
taimaattauq 301
pusanti 301
piula@@ 300
6.@@ 300
autitti@@ 300
angummat 300
qaujiti@@ 300
unagu 300
ulauqtumut 300
angiqsimatti@@ 300
nalliani 300
qallunauj@@ 300
uqqaujuq 300
asing@@ 300
simanasu@@ 300
alaunginn@@ 300
ttiaq 300
takanani 300
iksivautaq. 300
unnirmik 299
kikkutuinnarnik 299
qasi@@ 299
kigli@@ 299
qaujimagavit 299
immut 299
gai@@ 299
maligaqtaq@@ 299
aqtaujunn@@ 299
qujannamiiqpakka 299
nunavuummi 299
taip@@ 299
uniaqtu@@ 299
qangattau@@ 299
ilitarsi@@ 299
nunngu@@ 299
piliriqattaq@@ 299
qami@@ 299
taimaassainnaq 299
sapummij@@ 299
simannginn@@ 299
aqtingit 298
niruarni@@ 298
artur@@ 298
nilliutiq@@ 298
aluarmata 298
nanituinnaq 298
tunullu 298
qatiq@@ 298
ujuma@@ 298
lirijinit 298
pinnguarv@@ 298
agatta 298
nalunaiqsiq@@ 298
ilauqtanga 298
pilimma@@ 298
aqtir@@ 298
ulirmat 298
nannu@@ 298
miali 298
piruqsa@@ 298
kingulliqpaang@@ 298
aqattalaur@@ 298
uqauta@@ 298
pitaqanngi@@ 298
atuqtussait 298
naammappuq 298
parnaut 298
mirnguisir@@ 298
tasiluk 298
laang 298
aujumik 297
maligaliurti@@ 297
armijara 297
kiula@@ 297
matuiqsinirmut 297
anngitavut 297
nunaligij@@ 297
kajusituinn@@ 297
ikkannirunn@@ 297
aliraangat 297
qimirrujunn@@ 297
liriniq@@ 297
alauqsimagama 297
sunanik 297
piliriviujunik 297
300,000 297
taissumani@@ 297
asuungummat 297
kangirlhiniup 297
vvik 297
nalunaikkutaq@@ 297
katimajjutiksanu@@ 297
ah@@ 297
ilih@@ 297
illa@@ 296
taat@@ 296
utiup 296
ingirrajuu@@ 296
ingiq@@ 296
jariaksaq 296
itigut 296
nunaqq@@ 296
unikkaaliat 296
qaujisari@@ 296
kajusijunn@@ 296
akituniq@@ 296
simammangaaq 296
ningani 296
iglumut 296
uttigu 296
ilaliujj@@ 296
nagli@@ 296
naalauti@@ 296
arutigij@@ 296
siutiit 296
qangat@@ 296
qattaqtangit 296
tikiraarjuaq 296
upalungaijauti@@ 296
ihuma@@ 296
nipiq@@ 295
auqata@@ 295
maunga 295
tuavi@@ 295
sivuniani 295
qallunaanut 295
timiquti@@ 295
taimaittut 295
tuavinn@@ 295
akikilligi@@ 295
atulauq@@ 295
viniq 295
ilinniaqtuliriniq 295
luk 295
imaa 295
gumagama 295
niur@@ 295
nalunaiqtu@@ 295
qitingani 294
katimajinik 294
aqattarningit 294
asiuj@@ 294
ulluq@@ 294
taiguusi@@ 294
tausimaj@@ 294
panniqtuumi@@ 294
alauk@@ 294
qatanngutigi@@ 294
taakkuninga@@ 294
kamani@@ 294
uvattinnit 294
arunnar@@ 294
kuuga@@ 294
unikkausi@@ 294
kingullir@@ 294
makpiqtug@@ 294
tautunngu@@ 294
pangniqtuumi 294
klh@@ 294
tuglianik 294
mmaq@@ 293
tilij@@ 293
timiujuq 293
uqakkannir@@ 293
qasiuti@@ 293
pilirivalli@@ 293
ikajuqp@@ 293
aqtitauni@@ 293
ilisapi 293
ummik 293
uqarmat 293
aulajj@@ 293
ruju@@ 293
piusivaallir@@ 293
pinirlu@@ 293
tauvattunik 293
tuniuqqa@@ 293
upat@@ 293
timimut 293
taasi 293
jutigut 292
marruunni 292
qilavv@@ 292
giniaqta@@ 292
kiinaujaqturutiksanut 292
isul@@ 292
arattauq 292
piliriviujunut 292
timiujunik 292
ippatsaq 292
asiag@@ 292
aluaqtillugit 292
anniri@@ 292
arviujut 292
nalunairunn@@ 292
jam@@ 292
atuqtaujut 292
aullaqsima@@ 292
tukisijunga 292
akigi@@ 292
apirirata@@ 292
qattiinnaruri@@ 292
amin@@ 292
gutinik 292
kangirlhinirmi 292
tunisij@@ 292
katimajiujunut 292
naliang@@ 292
utissaq@@ 292
tunirru@@ 292
angiqput 292
kuugaarju@@ 292
ilinniarri@@ 292
katimajitainnait 292
uqqurmiut 291
isumaliuru@@ 291
uqaujjigiar@@ 291
giaqarattigu 291
atuqtauj@@ 291
anirmullu 291
piusivaalliq@@ 291
uqullugu 291
katujjiqatigiingujut 291
anirmi 291
aullaqtitau@@ 291
uniit 291
aaqi@@ 291
mivvi@@ 291
ajjigiingittut 291
iliss@@ 291
ingittigut 291
liurnirmut 291
ikupivvilirijikkut 291
sivaallir@@ 291
health 291
uqausirnik 290
ajaur@@ 290
kangi@@ 290
tagga 290
pan@@ 290
ilinnik 290
kappian@@ 290
givunga 290
inulima@@ 290
viksaq@@ 290
vir@@ 290
utanik 290
10,000 290
muungajut 290
aqtittinasu@@ 290
akaungiliuruti@@ 290
ttau@@ 290
arijanga 290
miliannit 290
sirnik 290
ammarik 290
maassi 290
iksivaut@@ 289
pijitsi@@ 289
avalli@@ 289
isumaalun@@ 289
kimmiru@@ 289
ungat 289
kiggaqtur@@ 289
sanikiluarmiut 289
piqut@@ 289
qikiqtaalummi@@ 289
parnautit 289
ilanganik 289
laat 289
takullugit 289
liin 289
lirluni 289
autinit 289
tuaqpat 289
iqqanaijainn@@ 289
aujjau@@ 289
atuaq 289
niuvirvi@@ 289
galuarmata 289
uga 289
007 289
kiggatuqti@@ 288
aullunilu 288
nunavummiutaujut 288
qujannamiirumavara 288
aluaqtillugu 288
alirlutik 288
qikiqta@@ 288
takuguma@@ 288
mangat 288
qaujimajatuqanginnit 288
tusaqtittijunn@@ 288
naasau@@ 288
atigu@@ 288
lirin@@ 288
guri@@ 288
isumaksaqsiuru@@ 288
atuqtaugaj@@ 288
atuqtaulauq@@ 288
iqaluliri@@ 288
aniglu 288
tamaanngat 288
apiqsurni@@ 288
arjummi@@ 288
attarngata 288
ullumiuliqtuq 287
paamik 287
aqutivut 287
gavamangita 287
pijats@@ 287
qaujimaqu@@ 287
simann@@ 287
appata 287
! 287
aani 287
uvattuq 287
ungittunut 287
atuqtuaruti@@ 287
maliganginnik 287
akiliigiaq@@ 287
aqmi 287
taaksu@@ 287
akkin 287
alirngata 287
vinirnik 287
aliqtavut 287
qimaavi@@ 287
ikupivvilirijikkunnut 287
ikpiarju@@ 287
nangiqsi@@ 286
uqausiqaruma@@ 286
tsiav@@ 286
qinirni@@ 286
vattunik 286
asijjiri@@ 286
ans 286
kuapakkut 286
avittuqsimaj@@ 286
aaqqittausima@@ 286
guk 286
uttaq@@ 286
taujunnaqtunik 286
kaanturaat 286
nalunaiqsijunnaqpa 286
nuqqangakainnaqtut 286
tuqungaju@@ 286
siqumitti@@ 286
pijariirunn@@ 286
sii 286
vattunut 286
tusaumaqatigi@@ 286
jumini@@ 286
gaasalii 286
kiglisini@@ 286
apiqsurniq 286
akiraqtu@@ 285
taqqinik 285
juinnau@@ 285
ulauqtumit 285
sungmat 285
qanigijaani 285
iqqanaijaqtittinirmut 285
gavamauqatigi@@ 285
taimannailinga@@ 285
gutit 285
ilingajut 285
attuta 285
qaujikkaij@@ 285
arli 285
tuksiarnikkut 285
ajjili@@ 285
ittutik 285
usuung@@ 285
niqpat 285
araluakka 285
usik@@ 285
ngani 285
atuqtuksanik 285
attaratta 285
angini 285
aisaki 285
katimajjutissatta 285
jumavara 284
namminir@@ 284
itsivauta@@ 284
ingimmata 284
amisuni 284
galuaqpunga 284
kiggaqtui@@ 284
pukirngnak 284
gavamakkung@@ 284
urnir@@ 284
simalauq@@ 284
taap@@ 284
alaunngin@@ 284
uqausitsaq@@ 284
inniaqtut 284
kivallirmi@@ 284
kamagijauninginnut 284
iluani. 284
uqaqsimajuq 284
ammi 284
iqqaqtuivikku@@ 284
takujaqtuq@@ 284
taariaq@@ 284
kiujjutinga 284
unuqtunik 284
sivuniksattinni 284
kisimili 284
piviqaqtitau@@ 283
aqsimavut 283
nipi@@ 283
ki 283
maq@@ 283
ila 283
saiman 283
kiinaujjas@@ 283
qiniqti@@ 283
pijjutiqalu@@ 283
miut@@ 283
mit@@ 283
aarij@@ 283
aratti@@ 283
aniaqtavut 283
suqti@@ 283
aturumaj@@ 283
iqqai 283
tattinnik 283
maannasa@@ 283
ruuq 283
qausuittumi 283
003 283
ulaaju 282
nutaangujut 282
tsiv@@ 282
iqattariaq@@ 282
simallutit 282
tini 282
taimannaittuq@@ 282
aqpiuk 282
akkanniri@@ 282
arami 282
ilinniaqtau@@ 282
nutaani 282
tunu 282
ikajuqsiq@@ 282
kivallirmit 282
nunangani 282
aanniaqta@@ 282
attikku 282
tamaini 282
sivuliqt@@ 281
uqausiqaqqau@@ 281
ilauniq@@ 281
auma@@ 281
ajjinginnik 281
puju@@ 281
gialik 281
laurattigu 281
alirnir@@ 281
iqqaqtuivilirijikkut 281
givavut 281
apiqqutiqarmat 281
aqtitauv@@ 281
asunn@@ 281
ugama 281
ingaaqtunik 281
piqutiit 281
vun 281
maʼnaluavik 281
natsilik 280
kaan@@ 280
qujannamiirumavakka 280
uqalimaaqtauninginnut 280
illu. 280
ilanganni 280
angujumik 280
kkanirn@@ 280
sananirmut 280
katimajingi 280
sikitu@@ 280
tigini@@ 280
pitaqarmat 280
ministai 280
takugiar@@ 280
jjuumi@@ 280
jutinga 280
atuqtauqattarni@@ 280
tatinni 280
uqallak@@ 280
vva 280
haak@@ 280
pilirivimmi 280
inulirijikkunnit 280
kiinaujalirijikk@@ 280
006 280
tauqqau@@ 279
nunavuulimaami 279
nunaliillu 279
angajut 279
angunasuktinut 279
kisunit 279
nalunaijaqsima@@ 279
tinnagit 279
,5@@ 279
ariaqarningit 279
uvaluunniit 279
ikajuqs@@ 279
ungn@@ 279
igluligaarjuk 279
tauppat 279
saqqitaula@@ 279
qimirrujauninga 279
ikuall@@ 279
pijarningittu@@ 279
nunanngu@@ 278
akuluk 278
tukimuag@@ 278
unngittunga 278
turaaqtuq 278
pingasuni 278
iqqanaijaqtitaarasu@@ 278
ttiaqtut 278
niriug@@ 278
piunngi@@ 278
angunasuktiit 278
gakk@@ 278
armiju@@ 278
marruung@@ 278
tag@@ 278
ikkarrialu 278
arniruma 278
klhutik 278
raavtu 278
tusi 278
ujaullutik 278
attangimmata 278
kiguti@@ 278
naammaks@@ 278
aanniaqannangittu@@ 278
niruaqtausimajut 277
apu@@ 277
maannau@@ 277
inulimaanut 277
artumik 277
unirs@@ 277
uvangalu 277
unurn@@ 277
simannir@@ 277
aliqp@@ 277
inirlu 277
aani@@ 277
piqata@@ 277
saputi@@ 277
aivi@@ 277
saqqititau@@ 277
piliriaqarni@@ 277
katimajjutik@@ 277
aulajjai@@ 277
laisata@@ 277
tappaunga 277
inuktut 277
agaq@@ 277
simali@@ 277
aatuvaami@@ 277
naammanngi@@ 277
maligangat 277
20,000 277
005 277
taup 276
livai 276
qujannamiirumallugit 276
maligaliuqtinit 276
naujaanit 276
arivunga 276
kiinaujaqt@@ 276
qaujimajuksau@@ 276
tuinnarni@@ 276
amini 276
pijunnaqsi@@ 276
utinullu 276
attiarni@@ 276
alirijiit 276
qanuigiaq@@ 276
taimaittariaq@@ 276
tusaru@@ 276
anginiqs@@ 276
illuti 276
tungilirijara 276
alak@@ 276
akitujutinut 276
qanu 276
22@@ 276
jung@@ 276
aaqqiumainnarutinullu 276
department 276
sivullirmik 275
laungi@@ 275
inulirijituq@@ 275
artugut 275
maninginnut 275
utauju@@ 275
siqatta@@ 275
ttumik 275
nunaliqut@@ 275
piliriqatigij@@ 275
ammik 275
ujjiqsu@@ 275
ingaaqtuq 275
pijaujunn@@ 275
timiqutingit 275
akta 275
pititau@@ 275
gajarmat 275
kinakkut 275
nunavummi. 275
aliru@@ 275
sirij@@ 275
tauniqsau@@ 275
nunalingnu@@ 275
nunattinni@@ 275
maannaujukkut 275
qujannamiitti@@ 275
siggaliaqtuq@@ 275
utissanut 275
suliilaak 275
004 275
99pattatuqtut 275
arumalluta 274
pangniqtu@@ 274
tunisini@@ 274
pikkugi@@ 274
kisianilu 274
taminik 274
sarima@@ 274
aqati@@ 274
atti 274
aqsuta 274
kiggusi@@ 274
titiraqta@@ 274
ilinniatitt@@ 274
gavamalir@@ 274
angiqatigiigut 274
annginakku 274
taakkuang@@ 274
ui@@ 274
iqqaqtuivilirinirmut 274
saqiti@@ 274
iglut 274
imialummut 274
miningit 274
uqattaqtuit 274
asungni@@ 274
niruaqtuliriji@@ 274
ullutiglu 274
itillugit 274
kiutinniarakku 274
business 274
nut@@ 273
kiinaujj@@ 273
2.@@ 273
ingittuq 273
alaurmangaata 273
quviattunga 273
aqqita 273
ussi 273
taakkunangat 273
ajjiliuq@@ 273
akuniutigijuq 273
arraagutamaaq 273
aqlhuti@@ 272
nunalilimaanut 272
uppirij@@ 272
qaj@@ 272
ugaluaqtillugu 272
usimajut 272
alaunngimmata 272
aviuk 272
havi@@ 272
mitti@@ 272
kappi@@ 272
nuqqangaalauk@@ 272
unikkaarvi@@ 272
avinnga 272
uvanga@@ 272
ingujut 272
uqaqati@@ 272
arijaujunik 272
uniqsait 272
avittuqsimajunik 272
asijjiriaq@@ 272
ministanut 272
simangmangaata 272
qujara 272
arunnaqullugu 272
katimajaqtuq@@ 272
aki 272
amisualu@@ 272
ilinniakannir@@ 272
kiinaujaqtigut 272
uqautij@@ 272
arsuta 272
pijaksaqta@@ 272
jauninga 271
pijumaniq@@ 271
taimannattauq 271
galuaqtillugu 271
lirijikku 271
tausiman@@ 271
vigit 271
ngujunik 271
iqalungni@@ 271
sanajauvalli@@ 271
pingasun@@ 271
maannaujurli 271
aqsimajugut 271
nunatsiaq 271
silattuqsarvik 271
silattusarvik 271
simanngittugut 271
ruk 271
ailaak 271
lauqsimajuq 271
ingilaak 271
paktaqtuqtut 271
saantulu 271
kivin 270
arunniirmat 270
aluta 270
sunatuinn@@ 270
unali 270
alauqsimagatta 270
tuinnarnit 270
atirnik 270
anginngittuq@@ 270
alaat 270
tukisijuma@@ 270
aujji@@ 270
arajarmata 270
3. 270
saanganu@@ 270
qujaullutik 270
qall@@ 270
nalunarunni@@ 270
ajunng@@ 270
inuusuk@@ 270
ttiaqtara 270
qiniqtiit 270
kanniriaq@@ 270
utissa@@ 270
aujunu 270
araimmat 270
inungni 270
mittimatalingmi@@ 270
katimajiinnait 270
angiqpitaa 270
uqakkut 270
sivunga 269
pimmariuti@@ 269
ilagijauqatau@@ 269
ppara 269
ullunik 269
piliriqatigini@@ 269
ulauqpuq 269
aqquuqtuq 269
niriuppugut 269
taujunnaqullugu 269
sanajaulauq@@ 269
tusalauq@@ 269
1.5 269
uqausinginnit 269
taakkuangilaak 269
ikajuutigi@@ 269
appugut 269
kuin 269
surusiq@@ 269
amisualuit 269
uqsa@@ 269
vingit 269
inutuqarnut 269
kuu@@ 269
aksangit 269
aaqqigiaqsi@@ 269
kaalvin 269
lhutigu 269
paqqij@@ 269
qaupp@@ 268
irniq 268
akitujualu@@ 268
uqausiksakka 268
kingulliqpaaqsi@@ 268
tuup 268
ikkama 268
lhutalu 268
haamlakk@@ 268
simaliqtavut 268
uqat@@ 268
lauqtangit 268
tukimuaktitti@@ 268
aar@@ 268
qanuig@@ 268
ilinirmut 268
arvis@@ 268
140 268
illuru@@ 268
kikk@@ 268
tausimalluni 268
aannir@@ 268
uqausirilauqt@@ 268
ausuittumi 268
arraagutamaaqsiut 268
angirraqanngittulirinirmik 268
asuungugatta 267
tunngavigi@@ 267
atuni@@ 267
pigiaqtita@@ 267
artugu 267
tavani 267
uqausirijavut 267
haamlakkunnut 267
gunnaqullugit 267
utirmi@@ 267
sunamik 267
aqpisii 267
atuqtaugiaq@@ 267
pituqa@@ 267
ujumu 267
ajjigiinginn@@ 267
siarmaq@@ 267
ttunn@@ 267
ariuq@@ 267
taalanik 267
aliqtutik 267
lait 267
iqqanaijaqtunut 267
katimajiralaangukainnaqtut 267
naliqqu@@ 267
kanngunaqtulirinirmut 267
ulukta@@ 267
tsuti 267
rmik 266
kinguvviq@@ 266
paanik 266
piir@@ 266
auqattani@@ 266
armangaaqpit 266
titirarunn@@ 266
unikkaamik 266
kanniq@@ 266
ttiaqtunga 266
uvvalunniit 266
atuinnaq 266
kuapuriisan 266
mittarvi@@ 266
maligarni@@ 266
qimirrullugit 266
inuulisaqtaujaqtuq@@ 266
gumavunga 265
utitsanik 265
katimaningat 265
arlunilu 265
pal@@ 265
valliatuinn@@ 265
jaujuq 265
angajuqqaangat 265
nullu 265
maligaksamik 265
amini@@ 265
700 265
aulajjutit 265
siul 265
lauqsimammat 265
lutigut 265
isuungummata 265
liqtutik 265
ikajuutinik 265
piqattaq@@ 265
akilirsu@@ 265
qaujisaqtauni@@ 265
tunni@@ 265
liga@@ 265
ullugi 265
uvaa 265
tuavirnaqtulirinirmut 265
ilimaaq 265
uqqurmiunut 265
kikkuummangaata 265
utikainn@@ 265
taugialiit 265
miksaanut. 265
angaj@@ 264
isumaqsur@@ 264
nunaqqatigi@@ 264
gumajakka 264
qaiqujau@@ 264
alirluni 264
qulugit 264
aann@@ 264
ataaq 264
simajuugaluat 264
atuqtaunginn@@ 264
piliriju@@ 264
apiqqutik 264
akautigi@@ 264
aqpar@@ 264
tungaagut 264
jinut 264
kanatalima@@ 264
kiujautti@@ 264
immi 264
maligaliuqtituinnait 264
laaqtut 264
ulauqsimajut 264
akunningani 264
kamagijaujunn@@ 264
kasu@@ 264
nunavuumiut 264
akuniulu@@ 264
aqattarmangaata 264
riipika 264
aqtummarialu@@ 264
nunalirju@@ 263
inuulluta 263
inuusu@@ 263
qugut 263
kami@@ 263
limaami 263
attiar@@ 263
gialinnik 263
givuq 263
uqakkanniruma@@ 263
umallunga 263
anngikku@@ 263
tausan@@ 263
uiviititut 263
lirijikkunnu 263
talurjuarmi@@ 263
llugik 263
piuniqsau@@ 263
amisuru@@ 263
iglukiks@@ 263
lauqtanga 263
unirsau@@ 263
silatitt@@ 263
ja 263
siri@@ 263
mmariummat 263
sall@@ 263
ippiarju@@ 263
ilinniarvinnut 263
qujannamiimmarialuk 263
ktutik 263
aviktursimajuni 263
nangminiqaqtunut 263
kaanturaakt 263
gap@@ 262
taikkunani 262
saqqitauni@@ 262
tusagaksaq@@ 262
iglul@@ 262
aullatitti@@ 262
allatti@@ 262
aqsimajunit 262
taimaatsainnaq 262
iqqanaijaas@@ 262
iqqanaijaqtinginnik 262
ukk@@ 262
iqqanaijar@@ 262
ilinniarti@@ 262
katimajjutiq@@ 262
unnginninginni 262
aqtaraluavut 262
attaraj@@ 262
unikkua 262
kiggaqtuijuq 262
qaa 262
nunguju@@ 262
ilajaari@@ 262
piqqusiliri@@ 262
apiqsuutigi@@ 262
apiqu@@ 261
kangirlh@@ 261
naama@@ 261
piri 261
mminik 261
akukittu@@ 261
maannalu 261
tunijunn@@ 261
angiqtaujumavunga 261
guviuk 261
innarnit 261
katimajiralaaq@@ 261
ariaqarattigu 261
uqtuni 261
pagit 261
ilhuaq@@ 261
aqsimallutik 261
qilammi@@ 261
atuqtuaqtau@@ 261
asingittauq 261
kiinaujair@@ 261
mikinniqs@@ 261
aqtillugi 261
niqiq@@ 261
mai@@ 261
iniaqtanga 261
iqqanaijaqti 261
allarimmat 261
nalunaiqsuq@@ 261
qimirrunalauqtillugit 261
lirinikkut 260
angijuqqaaq 260
pimmariuninganik 260
arraaguuniaqtumi 260
niruanngittut 260
saqqitausimajut 260
aqsimajuq@@ 260
umajut 260
katitsutik 260
uqaraj@@ 260
katinng@@ 260
simajunn@@ 260
giarlugit 260
ilauqtangit 260
pivallianirij@@ 260
aqattangimmata 260
gijaulluni 260
qinirasu@@ 260
008 260
nunataaqatausimajut 260
aqtit 259
uninganit 259
ruu@@ 259
inuqutivut 259
irni 259
nakurmi@@ 259
quvvasi@@ 259
ullungani 259
nalunaiqsivigi@@ 259
sal@@ 259
gik 259
atuinnaqtunga 259
25,000 259
qularn@@ 259
unngittugut 259
niqiliri@@ 259
takuju@@ 259
kinngu@@ 259
aqtav@@ 259
qaujimallungalu 259
piqujait 259
ulauqtillugu 259
tuinnarlugu 259
qulit 259
naasaqtau@@ 259
migatta 259
nalliak 259
irnis@@ 259
uqsanirmut 259
tasiujarjuamut 259
piqujarjuat 259
nakuqmi 259
tali@@ 258
angillutik 258
qaujisar@@ 258
iglulingmi 258
tauppata 258
inut. 258
iglulimmi 258
aqattarninginnut 258
utar@@ 258
arnu@@ 258
armatik 258
sinasu@@ 258
tukisinasu@@ 258
taujunnaraj@@ 258
kaantur@@ 258
givak@@ 258
kuluk 258
aqtuksa@@ 258
qattirijikkut 258
asianit 258
imiqtar@@ 258
taissuminga 258
nill@@ 258
angiqpat 258
pivallianirmut 258
ilinniaqtittinirmut 258
agaks@@ 258
sinaa 258
uqausirngaut@@ 258
qujanaqqutit 258
qarisaujakkut 258
nanulimmut 258
upalungaijau@@ 258
nutaangujuq 257
tausimaliqtut 257
inuusuktu@@ 257
sarv@@ 257
angatigut 257
gavamangata 257
igluup 257
aqtitaujut 257
katimaniqaqtillugit 257
arraaguula@@ 257
allaijuq 257
nunalilimaani 257
ttautigi@@ 257
annikkut 257
ikpigi@@ 257
iing 257
inangi@@ 257
aqattanirmut 257
iralaat 257
qugalu@@ 257
utikkut 257
iqqanaijaass@@ 257
surusirnik 257
timinnguqti@@ 257
jaannuari 257
piqasiutillugit 257
giniaqtavut 256
simaliratta 256
katimatuinnaqtut 256
pitjutigi@@ 256
maanituuv@@ 256
angiqtauv@@ 256
jakka 256
apirijumaj@@ 256
marruuliq@@ 256
katimajinit 256
pituqau@@ 256
qitunng@@ 256
qangakku@@ 256
kamati@@ 256
utiksanginnik 256
inirmi@@ 256
ungajumik 256
qanuittuni 256
aqtinn@@ 256
miittugut 256
angunasutti@@ 256
uqausirmut 256
limaangit 256
attangit 256
unuk 256
alirmangaata 256
igluligaarjung@@ 256
iitua 256
arman 256
isulippuq 256
ikummaqqutilirijikkunnut 256
ata. 256
alugi@@ 256
unuqsi@@ 256
ullunut 256
ilagiarut. 256
ariaqarnirmut 255
alimaaq 255
sivuliqtinginni 255
kiggatur@@ 255
auqatau@@ 255
ajuriq@@ 255
aqattarunn@@ 255
unngilaq 255
qamaniqtuarmi@@ 255
aulaningit 255
ukiuk@@ 255
titiqqau@@ 255
aqpauk 255
amisun@@ 255
anniaq@@ 255
ilainna@@ 255
aniarmangaata 255
guilaak 255
arniaqpa 255
ttinasu@@ 255
aqpalliaju@@ 255
nangminir@@ 255
tangi@@ 255
nunguppalli@@ 255
ariaqarn@@ 255
angirraqanngittu@@ 255
iqqanaijaqta@@ 255
taiksumunga 255
isumaksarsiur@@ 255
juraias 255
nattilimmut 255
taimaimu 255
missau@@ 255
sammuqtuuq 255
anngilagut 254
pijunnarn@@ 254
iqalulirinirmut 254
uvagu@@ 254
atuinnaruq@@ 254
mmariummata 254
qaujijumajunga 254
aqqiuk 254
lirijiillu 254
allutit 254
uqainn@@ 254
isumaksaqsi@@ 254
lhutigut 254
kajusijuma@@ 254
apiqqutiksait 254
akitturiaq@@ 254
talurjuaq 254
atuinnaungittuq 254
igala@@ 254
tisamanut 254
inirnut 254
simammanga@@ 253
ajjigiinnginn@@ 253
gijaq@@ 253
isumaliurutiq@@ 253
unnginningani 253
tunngavikkunnit 253
gavamakkunni@@ 253
ksaujut 253
takan@@ 253
simaniarmata 253
angulluni 253
5. 253
gl@@ 253
aqqaujunga 253
pijitsiraqti@@ 253
lirijikkunnut. 253
taaksum@@ 253
usatuinn@@ 253
ariaqaqtavut 253
mannaujuq 253
ariaq 253
qangali 253
iqqanaijaaq 253
aanniavimmut 253
niqiqatti@@ 253
rijavut 253
imannaili@@ 253
akinginni 253
kiuvan 253
uqalimaaq@@ 253
parnautinginni 253
maligaliuqtiuqataujuq 253
aqtaralu@@ 253
hain 253
parnausi@@ 253
uumaqqu@@ 253
qilavva 252
vviq@@ 252
qanir@@ 252
rul@@ 252
aqqit 252
uvvalukiaq 252
tarr@@ 252
ittumut 252
ikajuqtuij@@ 252
tiriniq 252
attaut@@ 252
angiqatigiigutiq@@ 252
siluni 252
apiqsuqtauvimmu@@ 252
arianganik 252
saamu@@ 252
vimmu@@ 252
akiliqtuq@@ 252
sururn@@ 252
pijariirni@@ 252
kamagijaqaqtuq 252
lauqtakka 252
ungata 252
qaujititti@@ 252
miqai 252
149 252
arviks@@ 252
auqattaqtuq 252
tusaras@@ 252
arniaqtara 252
maannaruluulauqtuq 252
ur 251
ungataan@@ 251
pimmariujunik 251
tikinni@@ 251
alungnik 251
sivuliqtiujuq 251
apiqqutitsaq@@ 251
kap@@ 251
inirnik 251
ggu@@ 251
ullugillu 251
ammijut 251
pilirijingit 251
gunnala@@ 251
tukisijara 251
kiuja@@ 251
gunnarmangaata 251
akkannilaur@@ 251
mikilligi@@ 251
gaasalii@@ 251
kinguningagut 251
liqq@@ 251
katimajiralaangukainn@@ 251
angajuqqauti@@ 251
unngittuugaluaq 251
lhlhutik 251
apiqsuutiq@@ 251
iqqanaijaassait 251
paqn@@ 251
aqraagu@@ 251
avun 251
gajanngu@@ 250
simaliqpata 250
qaujini@@ 250
katujjiqatigiinut 250
unngittumik 250
iipurul 250
qquuq@@ 250
aurmata 250
katimajingitta 250
lluata@@ 250
inummik 250
tujurmiv@@ 250
unnginittinni 250
ullarik@@ 250
aqpaktunut 250
mmata@@ 250
piug@@ 250
unnaqpi@@ 250
aqtaraluara 250
uumajulirijirju@@ 250
muq 250
ʼ 250
angajuqqaarijau@@ 250
piliriangujunik 250
uqausirng@@ 250
qattiummangaata 250
kiinaujatsama@@ 250
alianait 250
anniaqtut 249
amullu 249
takku@@ 249
amittu@@ 249
akkat 249
pilaur@@ 249
apiqqutiit. 249
utiqtitau@@ 249
taimannail@@ 249
saanut 249
tunini@@ 249
liriiq@@ 249
gunnaqtuq 249
iglumi 249
taimannalu 249
2. 249
arimi 249
tukisitsi@@ 249
tailaak 249
gavamat 249
gumajut 249
inuinn@@ 249
taurata@@ 249
gijanginnik 249
kaanturaata@@ 249
jauninginnut 249
jutini 249
sungalu 249
naasautinik 249
anullaksiivi@@ 249
attailaak 249
taguuq 249
limaattiaq 249
taimaittumit 249
ilisavi@@ 249
inuulisaq@@ 249
ilinniarvijju@@ 248
nalautsa@@ 248
unnginnir@@ 248
uqsuqtu@@ 248
ippugut 248
arumalluni 248
qaujimanngilanga 248
21@@ 248
iqqaqtuiju@@ 248
qaujisauti@@ 248
qaujimalu@@ 248
nukti@@ 248
qaat 248
tuinnarmut 248
piliriangujunut 248
mangmata 248
qangatuinnakkut 248
miksau@@ 248
aqtuniuk 248
nguniraqtaujuq 248
takuqattaq@@ 248
pijitsiru@@ 248
akiani 248
arivara 248
qujannamiiqtara 248
autinga 248
artillugu 248
pigiartitsi@@ 248
ummut 248
maannama@@ 248
utj@@ 248
qimirruna@@ 248
bay 248
ariqattaq@@ 248
maligass@@ 248
pingannanganut 248
gaaq 247
tamainnik 247
nunavuumik 247
ungiq@@ 247
tukisinaqsiti@@ 247
aulatau@@ 247
sivulliujjauquj@@ 247
gijauju@@ 247
maannaruluk 247
attiaqtuq 247
simi@@ 247
inganu@@ 247
tauqattarninginnut 247
akikinniqsau@@ 247
aralu 247
galuarmat 247
atikka 247
qini@@ 247
sukkaju@@ 247
tuavirnaqtukkut 247
qutt@@ 247
ninginni 247
nunavulimaamut 247
anniriaq@@ 247
tiguma@@ 247
iguti@@ 247
arutinginnut 247
aqta 247
armingmata 247
limaattiat 247
kanngunaqtut 247
sauminniittuq 247
pittasi@@ 247
nalunaiqsigunnaqqa 247
maanitu@@ 246
nuuta@@ 246
pimmariuniq@@ 246
asijjirni@@ 246
akitujuutit 246
aag@@ 246
armagit 246
arvaarlu@@ 246
iliqqusingit 246
6. 246
ilinniartu@@ 246
akaunngiliurutitaq@@ 246
ingigut 246
uummaquti@@ 246
ajjiungittu@@ 246
qujannamiirivara 246
ikajuusiang@@ 246
armangaat. 246
tingmi@@ 246
aqqaujara 246
silattusarvimmut 246
pas@@ 246
qallunaani@@ 246
alhlh@@ 246
attaqullugit 246
kuapuriisankut 246
imait@@ 246
tappik@@ 246
aqtinnut 245
titiraqsimajunut 245
piliritsi@@ 245
ungillu 245
aujau@@ 245
uvakka 245
tunu@@ 245
tulli@@ 245
aqsimajumik 245
uqalimaar@@ 245
aksali@@ 245
aqtukku@@ 245
mmullu 245
qaujimaliq@@ 245
aliqpunga 245
inilaak 245
7.@@ 245
ukun@@ 245
taukainn@@ 245
anitti@@ 245
ulaaqtuq 245
uniku@@ 245
silattusaq@@ 245
ak. 245
asuungungmata 245
sanirvak@@ 245
sanngin@@ 245
akitturaut@@ 245
taani@@ 245
gijangat 245
pijunnaqsitu@@ 245
nunavummiullu 245
niuviassaq@@ 245
qassinik 245
kaattulaak@@ 245
qitia 245
ajauqtiit 244
aqpalliani@@ 244
apiqqutitsait 244
pani@@ 244
lauqsimagatta 244
ikkanniriaq@@ 244
amali 244
unniik 244
qanuippalli@@ 244
asiujjau@@ 244
qiniriaq@@ 244
arunnarmangaaq 244
aqau@@ 244
uili@@ 244
taraluakka 244
aramik 244
simalaur@@ 244
nunaqut@@ 244
mili 244
ungittuugaluaq 244
piliriqatiqatti@@ 244
tis@@ 244
allavviq@@ 244
aqtuinn@@ 244
aqtiujunut 244
ikajuqtaujjuti@@ 244
attarnirmut 244
tamajj@@ 244
qattarnirmut 244
009 244
giassaq 244
niqaisu@@ 244
atu 243
sivullirpaami 243
vivuari 243
ukiuqtaqtuup 243
ual@@ 243
apirsur@@ 243
gapta 243
gijju@@ 243
qaju@@ 243
qaangiuti@@ 243
simajuugaluaq 243
vaalliq@@ 243
suqqui@@ 243
sanullu 243
takunnaq@@ 243
paalliq@@ 243
anngitt@@ 243
uniinnga@@ 243
ilinniaqtinit 243
lauqsimagama 243
aviktuqsimani@@ 243
maninga 243
sanavi@@ 243
paliisikk@@ 243
qass@@ 243
ininganut 242
tusarvigi@@ 242
amiut 242
ippat 242
pijunnarnilima@@ 242
inuusilirij@@ 242
.5 242
taigu@@ 242
aippiilluni 242
aliraanga@@ 242
sauniaqtuq 242
kinguvvi@@ 242
katujjiqatigiikk@@ 242
kajusigiaq@@ 242
isa 242
ulauqsima@@ 242
amigaq@@ 242
mati@@ 242
maanituup@@ 242
uqausiqaqtilluta 242
nunanginni 242
ikaj@@ 242
ikajuqtauvi@@ 242
aanniqtiri@@ 242
lu. 242
aippa@@ 242
nanur@@ 242
angajuqqautiit 242
suma 242
naggajjaumi 242
siiti@@ 242
nani 242
uqautigi@@ 242
isumaliriji@@ 242
tamaung@@ 242
quttingn@@ 242
pilirivittinni 242
akaqs@@ 242
tusaumajjutiit 242
qaijikkaigutit 242
ammaluunniit 241
ingir@@ 241
taqqiulauqtumi 241
piguma@@ 241
qaujigumajunga 241
ajjigiimik 241
uniarluni 241
uqaujjaulauq@@ 241
inuujunniiq@@ 241
tunngavikkullu 241
giaqtu@@ 241
unikkaanginnik 241
arunniirama 241
pilirijiit 241
ministauqati@@ 241
simangittu@@ 241
qattiinna@@ 241
uqaru@@ 241
pulaariaqsimajut 241
glugu 241
sit@@ 241
ilisarijausimajut 241
issu@@ 241
pivalliajju@@ 241
pigiaqtitamut 241
arraagug@@ 241
aqqusi 241
pilirivingata 241
tapiri@@ 241
nuqqatitti@@ 241
anik. 241
mman@@ 240
ruu 240
unnaqpiuk 240
uruti@@ 240
piliriti@@ 240
ajulir@@ 240
ins 240
alauqpat 240
unngittunit 240
pikkugijauningit 240
lauqtillugit 240
igluliuq@@ 240
aqtatinni 240
raanga@@ 240
ngujunit 240
millu@@ 240
gukku 240
valla@@ 240
aqtavut. 240
jiq@@ 240
amisuuniqsau@@ 240
suk 240
aqattaraj@@ 240
nauttiq@@ 240
aqqakka 240
silattusarvikkut 240
niqitaaruti@@ 240
gumallugit 240
irngat 240
immimut 240
aqtauqattaqtut 240
uppik 240
kanannanga 240
public 240
piuqsu@@ 239
piqatau@@ 239
ran@@ 239
attanirmut 239
mmilu 239
lauqsimaj@@ 239
naliqq@@ 239
qaujijumatuinnaqtunga 239
akikilli@@ 239
pilirivingit 239
pijariat@@ 239
taulauqsimajut 239
illuqut@@ 239
nillu 239
simajuqtaq@@ 239
ilisarijuma@@ 239
summa 239
piiqsi@@ 239
illunit 239
irijanganut 239
armangata 239
ratta 239
araluarmangaat 239
pimmariungmat 239
aliqq@@ 239
isumakkut 239
isumas@@ 239
ikkiin@@ 239
kikkunnut 239
paippaaqta@@ 239
simajjuti@@ 239
ilagiarutinut 239
aaqqiktausima@@ 239
aanniaviliaqtut 239
qaujisaij@@ 239
pilimmaqsa@@ 239
tiguanngu@@ 239
uuttuq@@ 238
mmarinnik 238
rija@@ 238
utaujunut 238
talu@@ 238
alummi 238
tsainnaq 238
naammatti@@ 238
gavut 238
parnautili@@ 238
tusaajitiguur@@ 238
ingikkalu@@ 238
tasiujarju@@ 238
juugalu@@ 238
utauj@@ 238
ijiit 238
nalunairuma@@ 238
uqausirikainn@@ 238
uummaqqutiit 238
imminiir@@ 238
riji@@ 238
atuqtauniaqtunik 238
aujumit 238
aulag@@ 238
ulauratta 238
uumajunni@@ 238
puvall@@ 238
aalliq@@ 238
attarunn@@ 238
ursualu@@ 238
unngittumit 238
nunalimmiut 238
taliq@@ 238
angiqsi@@ 238
nangiqsijunga 238
iqqattuivi@@ 238
inigij@@ 237
lirijikkungit 237
ungaju@@ 237
gavamanut 237
arlutigu 237
simanngittunik 237
inganullu 237
katimanittinni 237
julirijikkut 237
linnik 237
vitta@@ 237
qanuittun@@ 237
uqal@@ 237
paippaaq@@ 237
suminga 237
asiq@@ 237
uqaqp@@ 237
aanniaviliarujj@@ 237
nutaqqanut 237
arva@@ 237
quviasuutigi@@ 237
akkunginnut 237
iqattani@@ 237
gunni@@ 237
iqqanauj@@ 237
ilinniaras@@ 237
ungmanga@@ 237
suunguvat 237
aullariaq@@ 237
magguuq 237
ilitti@@ 237
liriaq@@ 237
unnut. 237
araluaratta 237
salliit 237
taikkuattauq 237
ilisarijauj@@ 237
arraagugas@@ 236
aanniarn@@ 236
nunataarnirmut 236
apiriguma@@ 236
pijarial@@ 236
uqausivut 236
tunijausimajut 236
lisa@@ 236
mmanga 236
majunut 236
inummut 236
iqsuq@@ 236
turaangajumik 236
unginittinni 236
aturasu@@ 236
tattinni 236
arpa 236
anngiti@@ 236
uqausiriqqaujanga 236
tauninginnik 236
inginnik. 236
lirama 236
atuqtavut 236
uivi@@ 236
uumajulirijikkut 236
katilimaarlugit 236
uqtaq@@ 236
katimajilimaat 236
kiggaqtuqti@@ 236
sikki@@ 236
naliannut 236
gaangata 236
pimmariujuq 236
d@@ 236
taikkuaqai 236
piqujas@@ 236
upinnaqtuq 236
maligassait 236
unukall@@ 236
avittuqsimaju@@ 235
mig@@ 235
qurlu@@ 235
piliriaksat 235
angitara 235
isulinni@@ 235
tauniqs@@ 235
naala@@ 235
uqausiriqqaujara 235
mittimatali@@ 235
salummaqsa@@ 235
lirunn@@ 235
mmut. 235
unikkut 235
aqtaqarmat 235
itilluta 235
ala 235
aluaqtugut 235
supu@@ 235
anngittuugaluaq 235
liurunn@@ 235
unnillu 235
arraaniulauqtuq 235
naammasaqtulimaat 235
atuqtaujuma@@ 235
imailingajuq 235
aanniaqaqtaili@@ 235
angirraqanngittulirinirmut 235
arnangittu@@ 234
ulli@@ 234
aulanir@@ 234
utiksaq 234
uqausinginnut 234
taimannaummat 234
atuqtut 234
attaili@@ 234
taujunnaqsi@@ 234
mmariup 234
lirutta 234
limaani 234
sainnaq 234
attumik 234
piliriarinasu@@ 234
qangatasuunut 234
pugu 234
taulauqsimajuq 234
arraagumit 234
anngillutik 234
ungittunga 234
auk 234
imialulirijikkut 234
ammut 234
ujaranniarvi@@ 234
qanuqtuurutigi@@ 234
kivan 234
silat@@ 233
atsiar@@ 233
lirijini 233
kal@@ 233
simajanginnut 233
gilluni 233
titiraqtausimajut 233
inukti@@ 233
isumaalunn@@ 233
aulau@@ 233
avittuqsimajutigut 233
iksanga 233
glugit 233
takanunga 233
ilinniaqtuq@@ 233
suuq@@ 233
sanirvaqtau@@ 233
ruma 233
saqqiijunn@@ 233
majakka 233
niuvirunn@@ 233
arniarattigut 233
aqqisi 233
taujariali@@ 233
ukku 233
qulinik 233
apiqqutikka 233
ilinniaraanik@@ 233
sukkuaqi@@ 233
uqaqtiksijii 233
tsaq 232
uqsuqtuurmi@@ 232
anginnattigu 232
katimajiralaanguinn@@ 232
ngit 232
utaqqijariaq@@ 232
visi@@ 232
avung@@ 232
miutau@@ 232
ilagijanga 232
tuinnarialiit 232
vigini@@ 232
gaar@@ 232
atuqtauvattut 232
kiinaujjaks@@ 232
taingna 232
tamaaqsi@@ 232
ummanga@@ 232
ilinniaraan@@ 232
jaunginn@@ 232
juumi 232
tainnali 232
kuugaarjummi 232
liurniq 232
saqqiqtauningit 232
atausiarn@@ 232
nalunaikkutaqta@@ 232
taassum@@ 232
aulatsijiit 231
kkuuq@@ 231
vutit 231
ulauqsimammat 231
aaqqiumaj@@ 231
tangat 231
matuiqsig@@ 231
katimauti@@ 231
piliriarijauni@@ 231
kiggatuqtakka 231
ans@@ 231
tausimammat 231
aaqqigiaqtau@@ 231
iglumik 231
gamattauq 231
nil@@ 231
qimirrujauningit 231
mmatattauq 231
titirari@@ 231
kisutuinnarnut 231
uqtillugu 231
pimmariujumik 231
nunavummu@@ 231
llutiglu 231
tauvammata 231
amiali@@ 231
liurasu@@ 231
uvag@@ 231
sapummijau@@ 231
apiqsuqatta@@ 231
tussau@@ 231
utaqqik@@ 231
pull@@ 231
urutiq@@ 231
ttiammari@@ 231
tauqattaqtunik 231
lirngat 231
lirinimmut 231
simaninganik 230
kkanniqullugit 230
armata@@ 230
sivunir@@ 230
avat@@ 230
anninginnut 230
ukuang@@ 230
iqqaqtuijirala@@ 230
aggu@@ 230
ingirraniq@@ 230
katimali@@ 230
tittinas@@ 230
gajarmata 230
aqtaqar@@ 230
nuut@@ 230
inuusuktuit 230
innakulu@@ 230
pingajung@@ 230
amisuit 230
isumagijangit 230
turaangani@@ 230
pijunnautita@@ 230
iglulik 230
utirunn@@ 230
nunaquti@@ 230
isumalir@@ 230
iqqaqtuq@@ 230
kinaal@@ 230
kingulliqpaamit 230
uqsualuqauti@@ 230
iqqartu@@ 230
akunik 230
kiinaujatsamaani 230
piliriarri@@ 230
nunataaruti@@ 229
kinguni@@ 229
sari@@ 229
gulu@@ 229
tuinnarialik 229
iqqanaijaqtiquti@@ 229
simammari@@ 229
niruaqtauv@@ 229
taimainginn@@ 229
arunnarmata 229
akiliiti@@ 229
nalunaiqsini@@ 229
miksa@@ 229
taunn@@ 229
mikiniqs@@ 229
timiqutinginnut 229
guluunniit 229
ajuinna@@ 229
inatti@@ 229
akki 229
aluti 229
ujuq. 229
gunnarni@@ 229
taujunnarmangaata 229
uqaqtiit 229
maliktugu 229
arraaguunnik 229
iglulirijikkunnut 229
gavamakkungi@@ 229
anguju@@ 229
turaangati@@ 229
imialung@@ 229
takussauti@@ 229
piliriassaq@@ 229
ikajuutau@@ 229
ajurutiliit 229
qimirrujauninginnut 229
allarik 229
qingaummi 229
aanniaviit 229
plan 229
vikkut 229
niruarumajuq@@ 229
unuqsigiar@@ 229
ilisaijinik 229
piliriassanut 229
aippiqtaulluni 228
tauninganik 228
ulaaqtumi 228
isumagijauningit 228
arnillu 228
illulirijirjuak@@ 228
aulattijjuti@@ 228
116 228
naammattunik 228
maannauningani 228
atuliqujaujut 228
ujjauni@@ 228
aviktuqsimajuni 228
iqqanaijaamut 228
gijaummat 228
malinni@@ 228
ttiarasu@@ 228
maija@@ 228
ktuq@@ 228
manima@@ 228
iqsu@@ 228
ukpirij@@ 228
naammasaqtuit 228
arnirijangit 228
akanniq@@ 228
ugajaqtut 228
isuliksijuit 228
tuglirij@@ 228
mikijuutauniq@@ 228
mijavut 228
gavamauqatigiittu@@ 228
tauvattunut 228
gunnaqqa 228
aqpan 228
nunaqaqqaaqsimajulirinirmik 228
mittarv@@ 227
tautugaq@@ 227
innirmik 227
pijitsiqti@@ 227
arakkut 227
tavvanilu 227
pijittiraut@@ 227
imannak 227
iqalugas@@ 227
aulatauningit 227
matalu 227
kiuti@@ 227
qimak@@ 227
jaanuari 227
qaujimajara 227
aktuuva 227
apiqqutiqar@@ 227
titiraqsimajuni 227
tukisigiarutiit 227
qattir@@ 227
pilimmak@@ 227
qanutigit 227
paqq@@ 227
giakkanni@@ 227
simammijuq 227
gis@@ 227
uvvaluunnit 227
umaju@@ 227
simaliri@@ 227
viss@@ 227
niruaqtausimajuq 227
taimannailiuq@@ 227
pijittiraqtikkut 227
simajutigut 226
tikkuaq@@ 226
pinasuarus@@ 226
kiggatuqt@@ 226
valu@@ 226
lin 226
valauq@@ 226
nunavuta@@ 226
kauti@@ 226
aullaujji@@ 226
aqsimalluni 226
taimailingav@@ 226
unginningani 226
ajjinganik 226
tauqujau@@ 226
nuqqakainnaqtut 226
nainaarlugu 226
ikittuq@@ 226
isumaalugi@@ 226
ministamit 226
nunasiutiit 226
attarninginnut 226
tukisivunga 226
minisitaujuq 226
akunikallak 226
imarmiutalirijikkut 226
tirij@@ 226
aliqti@@ 226
tunuviani 226
atiqutikka 226
kajusinginn@@ 226
asinga@@ 226
apiqsurnaq 226
taimaassa@@ 226
nuluuja@@ 226
pijikata@@ 225
ugaluaqpat 225
arsutik 225
tauniarluni 225
attangi@@ 225
titiqqani@@ 225
piqasi@@ 225
silataanu@@ 225
nalliat 225
pigiaqtit@@ 225
pitaqarunniiq@@ 225
saali@@ 225
immaqaqai 225
arialinnik 225
katimajaqtu@@ 225
uningalu 225
taliqpinni 225
juqtauq 225
nunavummu 225
giarutiit 225
alunni 225
namminirijau@@ 225
angiti@@ 225
aulatitti@@ 225
silami 225
pan 225
akkik 225
naliannituinnaq 225
pisu@@ 225
niqili@@ 225
ija@@ 225
gunnarama 225
uqarunnaqpunga 225
ujaranniarnirmut 225
angiqtausimanngittut 225
quaqsa@@ 225
tikiraarju@@ 225
qurluqtur@@ 225
nunasiutinut 225
ikajuuti 225
tauninginu 225
010 225
angiqtauqullugit 224
rusi@@ 224
vusi 224
iqsau@@ 224
mani 224
ilakka 224
jalunaimi 224
tuttarvi@@ 224
ilaj@@ 224
iul 224
kunnik 224
minit@@ 224
angiqtauguma@@ 224
piqujivungaali@@ 224
qiturngaq@@ 224
aggiqtuni 224
lunigit 224
qaujimaja@@ 224
uqarviq@@ 224
tulattarvi@@ 224
nanurnik 224
arnirutta 224
arajaqtunik 224
akis@@ 224
parnaksima@@ 224
akku. 224
ktunga 224
nalunarunniiq@@ 224
lilaur@@ 224
pilirivvingit 224
siuqti@@ 224
katimajiup 224
isumamigut 224
ilulikuluuj@@ 224
tuh@@ 224
piliriarlik 224
nunataaqpaliajulirinirmik 224
uppirus@@ 223
kanatamiut 223
inuujunni@@ 223
qaujijumavunga 223
maannauju@@ 223
taakkannir@@ 223
uras@@ 223
ingmu@@ 223
qaujigiarni@@ 223
aqtinnagu 223
pirimi 223
unniqpata 223
atuniiq@@ 223
amp@@ 223
angiqati@@ 223
sara@@ 223
400,000 223
piqutiq@@ 223
qaujimali@@ 223
250,000 223
aqtuqaqtillugu 223
igasu@@ 223
piluaqtumi@@ 223
piqujaksa@@ 223
jjutinik 223
nuqqaru@@ 223
kingullirmit 223
sivitujumut 223
naliannik 223
011 223
qinu@@ 222
piqutinik 222
jaims 222
ingik 222
aujumut 222
sanaqatigi@@ 222
qanullattaaq 222
anngittunit 222
anginiqsau@@ 222
qaujimalir@@ 222
kaall@@ 222
luanngu@@ 222
siutinut 222
rin@@ 222
vallia@@ 222
sivulliqpau@@ 222
anngilluni 222
aaliks 222
igluksait 222
pilirijut 222
kiutinni@@ 222
arutti@@ 222
inungnit 222
angiqtaujumalluni 222
tukisini@@ 222
tauniarlutik 222
aqattalaurmata 222
iqaqtu@@ 222
iqalungnut 222
akikinniqs@@ 222
ikajuqsui@@ 222
niruaqtigisimajakka 222
aqtuqaqpaa 222
uqaqsimangmata 222
utiqtaq@@ 222
araluarngata 222
akkuuq@@ 222
assait 222
assururn@@ 222
kaati 222
kuugaarjung@@ 222
gatta. 222
marrunnik 222
assualuk 222
sivulliuq@@ 221
uuttuuti@@ 221
aqtiti@@ 221
sivumuak@@ 221
isumaaluutaujut 221
iqalunnu@@ 221
tauvalliajut 221
aqulluta 221
apiqqutaulauq@@ 221
juqtaq@@ 221
vaktu@@ 221
akitujuutinik 221
nuutau@@ 221
naju@@ 221
kingurngagut 221
jaan@@ 221
qqaugakku 221
apiriqqa@@ 221
haakir@@ 221
qasuung@@ 221
tagvani@@ 221
isumagama 221
sinirmik 221
kiulugu 221
quts@@ 221
namutuinnaq 221
arniqtaq@@ 221
qaujikkaijjutiit 221
miliang@@ 221
qur@@ 221
mittauq 221
qaummaqqu@@ 221
attiat 221
uumaqqutilirijikkut 221
alaupill@@ 221
gavamakkunnillu 221
kanatamut 220
aqtungalu 220
taijaujuq 220
uvannit 220
iqqaumani@@ 220
inulirijikkunnullu 220
junnaqsi@@ 220
aptigu 220
angunasuktu@@ 220
4. 220
sivulliujji@@ 220
kiinauja@@ 220
8.@@ 220
aqtaul@@ 220
tumini@@ 220
simalugit 220
tusaqatta@@ 220
auqqa@@ 220
iqqanaijaanit 220
timin@@ 220
tasi 220
iluv@@ 220
ingittunga 220
taimali@@ 220
vura@@ 220
lirngata 220
anginnik. 220
tummari@@ 220
inulirijiq@@ 220
aqtattinnik 220
angnut 220
ilingnut 220
maligaliuqtiullunga 220
tuinnaqtut 220
upalungaiq@@ 220
600,000 220
katimajjutissatinnut 220
ilisaijik@@ 220
vattutik 220
rjuammarialu@@ 220
uqauh@@ 220
ava@@ 219
sainn@@ 219
silarjuamut 219
alauri@@ 219
qatau@@ 219
ikajuqta@@ 219
akuta@@ 219
pivalliaja@@ 219
ittiav@@ 219
niuvirni@@ 219
ittarnisaq@@ 219
aanniasiur@@ 219
akilirialiit 219
miluunniit 219
qangakiaq 219
tukisigiarutiks@@ 219
simaninginni 219
saqqitaulauqtut 219
saugajaqtuq 219
aujumi 219
unikkaanginni 219
unnirmit 219
giarasu@@ 219
aimmat 219
taimaittumut 219
nuqqarumaliq@@ 219
suliri@@ 219
angigli@@ 219
illulimmi 219
ttuta 219
pitaqaq@@ 219
angimma@@ 219
aaqqigiarutaujuq 219
kingullirmik 219
innguqti@@ 219
suuri@@ 219
qanuimma@@ 219
llarialu@@ 219
pitjutigillugit 219
arraagutamaaqsiummut 219
qaangagut 218
artunit 218
anginatta 218
sivuliqtivut 218
aqtitausima@@ 218
atittinirmut 218
ulaunngi@@ 218
katujjiqatigiinginnik 218
apiqqutimik 218
suungummangaata 218
lauk@@ 218
alaunngittuq 218
ilaujunn@@ 218
mii@@ 218
pijariiqtausima@@ 218
tusaumajjuti@@ 218
urama 218
atuqpak@@ 218
piqujivungaarutimut 218
attiaqtut 218
quviagijaq@@ 218
qiju@@ 218
atuqtaujuq 218
simavi@@ 218
ullungit 218
angiqtaujumammat 218
uninganu 218
amisualunnik 218
ikupigvilirijikkut 218
latta@@ 218
pijjutigitsugu 218
nalunaiqsimajut 218
ilinniartitti@@ 218
pilirivviujut 218
qaujijumatuinnaqpunga 218
uuktutigilugu 218
allalaur@@ 218
arngu@@ 218
akka. 218
aaqqiumanirmullu 218
iqqulli@@ 217
arnis@@ 217
maligarju@@ 217
katimajir@@ 217
iktut 217
atut 217
ainnar@@ 217
tusaumaqattauti@@ 217
ilinniavimmi 217
uattiar@@ 217
agait 217
arutiks@@ 217
sii@@ 217
uuttuutigillugu 217
jjut 217
isumaj@@ 217
tunisiq@@ 217
junnaqullugit 217
uratta 217
aqpugu 217
ilipp@@ 217
katinnga@@ 217
aanniasiuqti 217
ttiaruma@@ 217
pusi 217
kamaginasu@@ 217
inniittut 217
arlutiglu 217
qaujimajatuqanginni 217
takussautitti@@ 217
ilinniarnilir@@ 217
pivalliatitsi@@ 217
upirngaakkut 217
ilak 217
ttailimanirmut 217
quaq@@ 217
iqaluktuuttiaq 217
taimaallu 217
niruaqtauqatigisimaj@@ 217
pularattulirinirmut 217
aanniasu@@ 217
tusagas@@ 217
iqqanaijaaksanik 216
vallianirmut 216
sang@@ 216
angijuq@@ 216
avittuqsimajunut 216
akiraqtur@@ 216
ingirrati@@ 216
raanik@@ 216
nang@@ 216
ilitarijauj@@ 216
qaujilaur@@ 216
aliuq@@ 216
minni 216
akig@@ 216
ilinniaqtulirijikkunni 216
aqsuti 216
quvvas@@ 216
simajukkut 216
allarittu@@ 216
alluti 216
aimi 216
maligaliurti 216
takujaqtu@@ 216
niit 216
akkanniru@@ 216
arvikkut 216
aniaq@@ 216
ungniq@@ 216
qallunaati@@ 216
manaj@@ 216
ttutit 216
parnagutaujut 216
aqtauqatta@@ 216
naammangmat 216
mianiq@@ 216
muus@@ 216
jumalluta 216
tusajikkut 216
nunalimmiunut 216
aqattaqpat 216
ilisarijaujjutita@@ 216
aarju@@ 215
angijummari@@ 215
ulutta@@ 215
iqaluktuutsi@@ 215
katimagi@@ 215
isulittuq 215
apiqsurunn@@ 215
uqalauqsimammat 215
aqujiniq 215
maligaliuqtiuqatikk@@ 215
akunikall@@ 215
atuaganga 215
kamagijaugiaq@@ 215
siqinngujaq 215
ujjiq@@ 215
angitta@@ 215
paik@@ 215
arragumi 215
aqtaujariaq@@ 215
qaujimanasu@@ 215
ilauqsima@@ 215
umiarjuat 215
ariaqarmangaata 215
kimmirut 215
ajjigiiliq@@ 215
uqalauqsima@@ 215
akkannirasu@@ 215
tukisiumaqatigi@@ 215
nuktir@@ 215
suratti@@ 215
ukiuqtaqtumit 215
maannamaaq 215
jaannu@@ 215
illuligaarju@@ 215
tavvaak@@ 215
tukihi@@ 215
qangiqlh@@ 214
ajungi@@ 214
ullur@@ 214
gumallutik 214
uqtumik 214
nalauksa@@ 214
apiqqutitaq@@ 214
tunngasuttiarit 214
kimmirummi 214
armingmat 214
tukkut 214
sanirajang@@ 214
aqattalauqtut 214
anti@@ 214
nunangannit 214
qanuim@@ 214
lukiaq 214
nguniraqtaujut 214
uqausiriqqaujangit 214
ilinniaqta@@ 214
miittu@@ 214
pukkirnaq 214
atsuti 214
qattirijiit 214
miklh@@ 214
niaqunnguu 214
tutsi@@ 213
ullusi 213
ilinniarnir@@ 213
tussi@@ 213
ittigut 213
tsinirmik 213
maligaliuqtiillu 213
tunngasugi@@ 213
9.@@ 213
tamakkuninnga 213
qaujitti@@ 213
arniqsauni@@ 213
arningat 213
attiariaq@@ 213
angitigi@@ 213
qanuilingav@@ 213
piujuq 213
107 213
ikarranik 213
unnarajarmangaata 213
uqtar@@ 213
pit 213
artavut 213
hamlat@@ 213
auju 213
issi 213
angujunn@@ 213
arumin@@ 213
aitta@@ 213
aaqqigiaruti@@ 213
pingann@@ 213
illuk@@ 213
simaqattar@@ 213
pallianinga 213
tualu@@ 213
piliriannguqti@@ 213
tammaqsimajuqsi@@ 213
saqqiqta@@ 212
tautug@@ 212
ukiuqtaqtumut 212
iniqpa@@ 212
parnautinginnik 212
vani 212
ingippat 212
katimatuinnaqtunut 212
atuinnauni@@ 212
uqarni@@ 212
piliriamik 212
alauqqa@@ 212
makun@@ 212
alauqtutik 212
anna@@ 212
qatsiuningit 212
niruaqtaunasu@@ 212
iqqanaijaqtigij@@ 212
niarmata 212
rami 212
aqtangani 212
tausimajuni 212
aliraimmata 212
arjung@@ 212
mmarialuk 212
uqaqqa@@ 212
kiugi@@ 212
pikk@@ 212
sigiar@@ 212
nattili@@ 212
kigliq@@ 212
sivulliqpaaqsi@@ 212
inngilu@@ 212
iniqtir@@ 212
alaurattigu 212
kuris@@ 212
aninginu 212
amillu 211
piliq@@ 211
usimajuq 211
pijjutiqaqtutik 211
akka@@ 211
uajamu@@ 211
tusarata@@ 211
irisimaj@@ 211
ilaja@@ 211
anngittuq@@ 211
lluni@@ 211
tauniaqtunit 211
kkanniraj@@ 211
angajuq 211
tunngasuttiaritti 211
nutaqq@@ 211
matujau@@ 211
tuinnarunn@@ 211
aqtitaullutik 211
gaviuk 211
piusiq@@ 211
ainnari@@ 211
ikkit 211
aturunniiq@@ 211
parnautinut 211
aulaurama 211
kimmir@@ 211
takugiaq@@ 211
kaattura@@ 211
ilinniarutiksanik 211
innatuqa@@ 211
utiglu 211
armangaatalu 211
taunas@@ 211
inulirijikk@@ 211
laarmata 211
niqinut 211
kiinaujaliurasuarnirmut 211
ariuqsanirmut 211
aqtuqaqpa 211
taikkuaguuq 211
akitujuqturutiss@@ 211
tikiklhugu 211
pigiaqtitsi@@ 210
nginni 210
maligaliuqtiuqataujut 210
pirur@@ 210
mmangaatta 210
kkun 210
nunaqqatikka 210
miutar@@ 210
ujjuti@@ 210
ujjirij@@ 210
tsanut 210
qilavvak 210
nilliq@@ 210
qaujimajaq@@ 210
guqai 210
ilinniarvinga 210
unginninginni 210
aqtugut. 210
aujunnaqullugit 210
apirikkanniruma@@ 210
katimajikkunnut 210
sumunga 210
jummata 210
aujuq. 210
akanir@@ 210
titirausi@@ 210
nunaqutigij@@ 210
anginniq@@ 210
alauqsimangmat 210
lauqsimangmata 210
800 210
ujup 210
sunauvva 210
niruag@@ 210
tiiman 210
tuinnattiaq 210
angni 210
suruq@@ 210
arunnarni@@ 210
saqqitittiniq 210
gun@@ 210
urlutik 210
qausuittuq 210
angai 210
maligaliuqviup 210
nanis@@ 209
sanau@@ 209
ammarimmat 209
aqtagit 209
unikkaaliari@@ 209
qaujimajariaq@@ 209
nutara@@ 209
arutinga 209
iliqqusinga 209
pivallia@@ 209
lhi@@ 209
tuari@@ 209
uvagullu 209
mappirlugu 209
mmatailaak 209
utausimajut 209
nunalinnilu 209
piqujaksanik 209
kiutsi@@ 209
atsuru@@ 209
salummas@@ 209
liuqtiit 209
kiinaujjass@@ 209
maligaujut 209
sivuniksatinni 209
uqausiqarmat 209
attilluta 209
taimaitillugu 209
gijariaq@@ 209
iqqanaijaqati@@ 209
simajullu 209
ngulauqtut 209
ajjigiingittuni 209
qanuilinganingit 209
siivi@@ 209
attarnaqtumi@@ 209
tusaumajjutilirinirmut 209
uvvaluunni 209
anngippata 209
apiqsuk@@ 209
ausuittuq 209
ingniq@@ 209
innaqtavut 209
ilutit 209
pta 209
aktuq 209
iniqtirij@@ 209
assu@@ 209
utissangit 209
aktarn@@ 209
imaini@@ 209
akitujuqturutiks@@ 209
minister 209
sutillu 208
nikkut 208
pilirin@@ 208
tunngavikk@@ 208
sivuniksaq@@ 208
naluli@@ 208
taalani 208
puiguq@@ 208
katimajiuqataujuq 208
umiaqju@@ 208
uqtugut 208
rama@@ 208
inuusirmik 208
aullari@@ 208
lai@@ 208
akkama 208
si. 208
kiurata@@ 208
pisimalir@@ 208
unnaqpita 208
pilirivvigij@@ 208
pivalliajutigut 208
uppirusukkama 208
ajjigingi@@ 208
ukp@@ 208
jumangmi@@ 208
nunavuumiunut 208
tukimuattitti@@ 208
kisumit 208
aqtinnagit 208
pijumanasu@@ 208
tausimajukkut 208
ummit 208
akitturiaru@@ 208
nanisiv@@ 208
lirinirmut. 208
llarit@@ 208
qulluqtuumi 208
ilits@@ 207
taitsumani@@ 207
saminnik 207
suliju@@ 207
ulauqtunit 207
pingi@@ 207
kingun@@ 207
aqsimagatta 207
inningit 207
qujal@@ 207
aaqqittau@@ 207
qattira@@ 207
ngujuq 207
aqsimajunut 207
aanniaqarnangittulirijiit 207
ivik 207
aliqqat 207
apiqqutaujuq 207
utauniq@@ 207
puv@@ 207
iqqaqtuivilirijikkunnut 207
alaunnginittinni 207
naasaij@@ 207
101 207
puigu@@ 207
gavamak@@ 207
ungmi@@ 207
ungnirmut 207
unikkaangujuq 207
tammaqsimajuq@@ 207
ujukkut 207
ilitarijaujjuti@@ 207
iqaili@@ 207
anginninginnut 207
tavut. 207
ilinniag@@ 207
unginniq@@ 207
tiguunaq 207
nunavummilu 207
niqittiavalirinirmut 207
inkam 207
aqtauqattar@@ 207
mitsaanu 207
kappani@@ 207
mikkit 207
199@@ 206
uuk@@ 206
pinasuar@@ 206
aqattari@@ 206
uqausiqarumajunga 206
apiqqutinik 206
aturumaarni@@ 206
apiqqummut 206
simavavut 206
taki@@ 206
kiul@@ 206
pitaqarunni@@ 206
nag@@ 206
imannaittu@@ 206
1998 206
uvallaijuq 206
ilinniarvimmut 206
44@@ 206
aluaqtunga 206
kamagijunn@@ 206
nanij@@ 206
uqausirijakka 206
upirn@@ 206
alirijikkunnut 206
matuiri@@ 206
anginnu@@ 206
uqaqau@@ 206
ilinniarvingni 206
ungalu@@ 206
arraagunga 206
ilinniarutiks@@ 206
saqqitaulauqtuq 206
ttiarlutik 206
pitaqaqtitti@@ 206
ilissi 206
kamajiujut 206
uqautijau@@ 206
lirijikkunginnut 206
iqqanaijaqtulirijikkunnit 206
unulu@@ 206
akiliutigi@@ 206
housing 206
lhutik. 206
saqqinni@@ 205
amitturmut 205
naq 205
miutanik 205
pijunnaniq@@ 205
jauniq@@ 205
turaanganiq@@ 205
taqqaani@@ 205
qimirrugi@@ 205
mamian@@ 205
auqattariaq@@ 205
utaqqijut 205
mura@@ 205
utiruma@@ 205
tiisi@@ 205
apirinasu@@ 205
ujunga 205
kangiqlhinirmiut 205
qurluqtumi 205
piliriaksa@@ 205
iliks@@ 205
mangmi@@ 205
qanuiks@@ 205
pijariakilli@@ 205
uumajurniaqtikkut 205
aatuvaamut 205
aanga@@ 205
maatsi@@ 205
ungavariaq@@ 205
qanuiss@@ 205
ukutiguuna 205
suna 205
iqaluttuuttiami 205
aksummarialuk 205
nakuqmii 205
maʼnaujutit 205
katimanirij@@ 204
aulauqsimajuq 204
alar@@ 204
maligaliuqtiuqatikkalu 204
arinngi@@ 204
ilauqput 204
makimainn@@ 204
alummik 204
qaujin@@ 204
uqautijunnaq@@ 204
attari@@ 204
tavvaniinn@@ 204
1. 204
maligatsait 204
126 204
aaqqiksuivalli@@ 204
kiujjutingit 204
600 204
nuat@@ 204
qun@@ 204
aanniqtuq@@ 204
nunaliralaanguniq@@ 204
qaujisarnirmik 204
piliriaqarasu@@ 204
anganu@@ 204
silataan@@ 204
sarvi@@ 204
uvallai@@ 204
tani 204
unnii 204
immaq@@ 204
uvammata 204
tigut. 204
nunattinnit 204
piita@@ 204
viksaq 204
upatta@@ 204
ilinniarvinnit 204
apiqsurmat 204
aatami 204
pijittirutinik 204
tukih@@ 204
atsau@@ 203
naammagi@@ 203
jutitut 203
inirsau@@ 203
annamiik 203
miunik 203
inngaaqtunit 203
siurniq 203
uqatigiit 203
kanaitian 203
iniqsauni@@ 203
aujarial@@ 203
launngimmata 203
uqtunut 203
aqpattunik 203
qaujisarunn@@ 203
silataagut 203
uqaalautikkut 203
ttinn@@ 203
simajunu 203
amanga@@ 203
artillugit 203
piqutirjuat 203
artuq@@ 203
qquq 203
102 203
aqsivalli@@ 203
asinginniglu 203
uglu 203
utillunga 203
uqalaurmata 203
takussau@@ 203
gussi 203
pularaqtulirijikkut 203
taujullu 203
makpirlugu 203
atuqtillugu 203
aulatsinirmut 203
iksivautaq@@ 203
qikiqtarjuaq 203
nanuq 203
pangniqtuumut 203
0.@@ 203
qattaqtugut 203
hak@@ 203
inkam@@ 203
gavamati@@ 203
gavamauqatigiittulirijikkut 203
angiqqisiuk 203
niruarumalirmata 203
ajuriqsuij@@ 202
sivunits@@ 202
sivuniksamut 202
givatt@@ 202
iruma@@ 202
umik 202
quviagijara 202
arivavut 202
uvara 202
juarmi 202
viuris 202
qaurmat 202
naammattu@@ 202
niaqtut 202
aulu@@ 202
ullukiaq 202
ittillugu 202
arnirijanga 202
iqqanaijatti@@ 202
taimaik@@ 202
kainnarunn@@ 202
qull@@ 202
jjutingit 202
aqtunga. 202
mittimatal@@ 202
nunaliujuit 202
angutillugu 202
apiqqutigiqqaujara 202
gun 202
niruagaks@@ 202
katimajjutiksattinnut 202
ssaq 202
aulattiji 202
gajuk@@ 202
ttiammar@@ 202
pinnguaqtulirinirmut 202
pinnguaqti@@ 202
lhuti 202
appaa 202
ujarannianirmut 202
aanniaqaqtailimatittinirmut 202
namminiqatti@@ 202
sirmi 201
aqun@@ 201
silati@@ 201
iqqaqtuijulirinirmut 201
sirmik 201
rmiut 201
qautamaaqsi@@ 201
lirijirju@@ 201
taulutillu 201
qiturngi@@ 201
sami@@ 201
maligaksaup 201
kkaluaqtugut 201
guq@@ 201
uqaqattar@@ 201
laisan@@ 201
nainaaq@@ 201
alaurmijut 201
tauva 201
kalla@@ 201
takullugu 201
ilagijauq@@ 201
kajusila@@ 201
puqtu@@ 201
namilimaaq 201
mappigarmi 201
ingippata 201
ummi 201
uvunng@@ 201
aqtikkut 201
niruaqtigij@@ 201
nunavummiung@@ 201
pilirijiujut 201
ilinniarvingani 201
inniqpat 201
ami. 201
kaanturaa 201
&amp; 201
nainaaqsimajuq 201
tasiujarjuarmut 201
kuluutiai 201
gavamakkunnilu 201
nunanganni@@ 200
aksi 200
kiinaij@@ 200
alilaur@@ 200
liqtugut 200
titiralauq@@ 200
ilagiaqsi@@ 200
pilirianguj@@ 200
namminiqarnirmut 200
uattiarukkanniq 200
iliqqu@@ 200
ungasiktu@@ 200
unikkaami 200
timiujunit 200
5mut 200
asiujj@@ 200
gajarmangaat 200
titirarvinga 200
aqsugit 200
armigattigu 200
atuqtaujunnaqtut 200
siutita@@ 200
ajjipalu@@ 200
mmanilaak 200
qujanamiik 200
issiv@@ 200
tussira@@ 200
titirau@@ 200
ingan 200
issivauta 200
tausimajumut 200
uqausiqtigut 200
unataqtuk@@ 200
uluk@@ 200
innaulu@@ 200
pitaqatti@@ 200
allarimmata 200
ingaaq 200
uqquusivalli@@ 200
agj@@ 200
angirrarijau@@ 200
taimaatuinnaq 200
government 200
guraant 200
pillatta@@ 199
tillusi 199
kiinaujalirijikkunni 199
arutiksanik 199
amalu 199
tamakkuninga@@ 199
tiuri@@ 199
alimaami 199
ttinirmik 199
kigusirij@@ 199
akiliiv@@ 199
ksauta@@ 199
alak 199
taitsu@@ 199
apiqqutiujuq 199
umallutik 199
aaqqiumajjuti@@ 199
aqsugu 199
uqausiuqattaq@@ 199
tukimuatti@@ 199
sivulliut@@ 199
sauminni 199
aqtatit 199
auqtut 199
utauniaqtuq 199
tikila@@ 199
atuagarnit 199
amata 199
illumi@@ 199
aqtavu 199
rli 199
tunisijau@@ 199
maligaksa@@ 199
inugialu@@ 199
maliktu@@ 199
iva 199
iliqqusinginnik 199
sanirva@@ 199
quq 199
aturnir@@ 199
utigilugit 199
ilinniarnirmik 199
iqqaumajuksau@@ 199
arpata 199
tigujauqq@@ 199
ujut. 199
ikpiarjuk 199
150,000 199
aikpangani 199
imminiiqtailimatittinirmut 199
angin 199
qapluna@@ 199
the 199
rr@@ 198
avis@@ 198
gavamalima@@ 198
upigu@@ 198
talliman@@ 198
tamatumuuna 198
piviqaqtitti@@ 198
silaqju@@ 198
100@@ 198
ulaurmangaata 198
aaqqiksiman@@ 198
angilaaq 198
uqaujjijunn@@ 198
taiguq@@ 198
aqtaujunik 198
arit 198
tuksirautiliuq@@ 198
angilluni 198
iqaluktuuttiarmi@@ 198
aulajjutinginnut 198
mut@@ 198
tarrija@@ 198
qaujisariaq@@ 198
simangmangaat 198
saalak@@ 198
angilaak 198
quakku@@ 198
arjuumi@@ 198
015 198
uqarunnaqqaa 198
llutik. 198
itinnut 197
galuaqpat 197
liqullugit 197
uqausilirijikkut 197
aanniaqarn@@ 197
ariangita 197
isumallunga 197
umajakka 197
usima@@ 197
atittini@@ 197
aulautiq@@ 197
aak@@ 197
qari@@ 197
illutillu 197
avu@@ 197
kattu@@ 197
sanikiluarmut 197
alaurmangaaq 197
qaujimajuinn@@ 197
aqpitaa 197
pijariakittu@@ 197
uqaujjigiaqti@@ 197
unnaqsila@@ 197
uqaqtimut 197
160 197
ilimatittinirmut 197
kiinaujak@@ 197
iglulirij@@ 197
qikiq@@ 197
tuavir@@ 197
viujunut 197
suunguvut 197
taissuma 197
vinir@@ 197
tunniq@@ 197
ikuit 197
ministaujumik 197
aipur@@ 197
tupa@@ 197
aglattiu 197
pigiaqtitat 197
atinginnik 197
imminiq@@ 197
manilaak 197
angajuqqaangannut 197
pilirivikkut 197
taimailiuq@@ 197
ilagiinullu 197
utigisimaj@@ 196
kamisinamut 196
ikajuruti@@ 196
arput 196
utiksamik 196
aulauqtumi 196
ilijauni@@ 196
giaqtur@@ 196
juaq 196
sika@@ 196
iqalummiut 196
aah@@ 196
armangaagu 196
niriugijau@@ 196
uqausis@@ 196
atainn@@ 196
auliq@@ 196
tauniaqpat 196
tukisigiakkanniruma@@ 196
unnusami 196
tunijaujut 196
arialinnut 196
uuna 196
iqattaqtangit 196
angil@@ 196
7. 196
tusaajiit 196
atuinnarmata 196
ilagijaulluni 196
taqaqpat 196
ilaat 196
nakituinnaq 196
qanigija@@ 196
tigujausimajut 196
armangaarmi 196
maliganginnit 196
ikittu@@ 196
uqarunnaqqa 196
giaraj@@ 196
aqtattinni 196
pijittiraqtu@@ 196
ilinniarutiit 196
puijjur@@ 196
kiinaujaliurutiq@@ 196
angajuqqaarijaujuq 196
piugi@@ 196
katimajjutiksat 196
titiraujaqtau@@ 196
qaujisarniujuq 196
malirmi@@ 196
maligaksat 196
qisiit 196
piusivalli@@ 196
aqpaktu@@ 196
muusali@@ 196
vallianginn@@ 196
iqailis@@ 196
014 196
iluunanginnut 196
services 196
qulluktuq 195
qaujimavugut 195
uniqpaang@@ 195
arnullu 195
nunalik@@ 195
auti 195
alliq@@ 195
akitujummari@@ 195
naksi@@ 195
kkuur@@ 195
sanajauninga 195
sijariaq@@ 195
nalunaijaqtau@@ 195
taapsuma 195
pinasuarusiik 195
arnitinni 195
uqsualulirinirmut 195
aanniqtulirijikkut 195
alugu 195
urlu 195
ullut 195
tamarmittiaq 195
annginni@@ 195
vapput 195
agiiq@@ 195
sivuv@@ 195
iksi@@ 195
piugaj@@ 195
uttigut 195
tikippalli@@ 195
atussau@@ 195
aluanngu@@ 195
anginniqsau@@ 195
katimajjutiksatinnut 195
arvinnut 195
gamailaak 195
sivuniktinni 195
maligaliurvitinni 195
kiungmat 195
igluligaarju@@ 195
uqausinng@@ 195
tamapta 195
akitujuqturutissanut 195
liqtavut 194
jumajunik 194
upl@@ 194
arvigij@@ 194
simajuinnau@@ 194
kak@@ 194
taujju@@ 194
ungas@@ 194
aulattiniq 194
kajusiniqatti@@ 194
saqqitittini@@ 194
parnautimik 194
alinnit 194
ataa 194
rijattinni 194
utiminik 194
kinatuinnarmut 194
ijiq@@ 194
iqqanaijaqtitillu 194
tigasu@@ 194
qanittu@@ 194
taulau@@ 194
siutinit 194
sta@@ 194
taimaittuni 194
nunamiuta@@ 194
piujumik 194
aniguqsimaliq@@ 194
urasunningani 194
tuksiraut@@ 194
anniaqarnangittu@@ 194
gavamakkunginni@@ 194
vinnit 194
aulataujut 194
vinirnut 194
kiinaujartu@@ 194
qimirrunangni@@ 194
taqqakkun@@ 194
akkuur@@ 194
plu@@ 194
angijuqqauti@@ 194
kinguumaj@@ 194
gavamauqatigiittulirinirmi 194
attikkut 194
013 194
016 194
ingirran@@ 193
tunng@@ 193
qaujimanir@@ 193
arniarr@@ 193
nunavutmiunut 193
igaj@@ 193
kivallirmiut 193
aqtauquj@@ 193
aivajju@@ 193
unningani 193
nalujunga 193
parnautinit 193
inirmillu 193
attalu 193
ninginnit 193
gama@@ 193
lirnir@@ 193
atiri@@ 193
08@@ 193
aqpattutik 193
parnagutiq@@ 193
jusi 193
tunngavikkunnut 193
iliksinnut 193
illuqatti@@ 193
ura 193
asingi 193
tuti 193
ingitigu 193
nalunanngitti@@ 193
atausiq@@ 193
naujaanut 193
arraagulima@@ 193
isaallit 193
qquuj@@ 193
ivunga 193
talurjuarmi 193
nuatau@@ 193
saujumik 193
aulajjut@@ 193
arivat 193
saang@@ 193
takkununga 193
akitujummarialu@@ 193
qaujimajakkut 193
piqujaqju@@ 193
aaqqigiarij@@ 193
tauqattarlutik 193
attigu. 193
akiliititti@@ 193
aaqqiigi@@ 193
apirsuq@@ 193
piliriarmut 193
naisautilik 193
arpaa 193
aikp@@ 193
sapummiusiq@@ 193
aglukkaq 193
makimautiillu 193
taimaittuuninganut 193
uqaqqautillunga 193
juttauq 192
arraagutamaaqsiutinik 192
taujumi 192
akiliqsuqtau@@ 192
saqqititauningit 192
asini@@ 192
aanniasiuq@@ 192
inasunni@@ 192
aqpapput 192
tuqquq@@ 192
iksivaaq@@ 192
kinamut 192
utingita 192
mmaripp@@ 192
ausirij@@ 192
tavvuun@@ 192
takulaur@@ 192
kangir@@ 192
autaaq 192
amimmata 192
utauniaqtunik 192
jumajunut 192
akannirunn@@ 192
nalunaiqsilaur@@ 192
ariq@@ 192
allavvinga 192
uuma 192
alian@@ 192
taullunga 192
raangat 192
akilli@@ 192
annginniq 192
anniar@@ 192
kigusi@@ 192
simanngittunut 192
aqpisiuk 192
ingmagu 192
ulluqatti@@ 192
aqtunigit 192
tikkuaqsiniq 192
pilimmaq@@ 192
uqalimaaqtauniq@@ 192
inulimaaqsi@@ 192
arsimajunik 192
unikkau@@ 192
ukiassaaq 192
tuqqaqtar@@ 192
ikajuqattar@@ 192
ia 192
innus@@ 192
012 192
angiqsima@@ 191
quan@@ 191
vinganut 191
maliganginni 191
tanganut 191
luuk@@ 191
utiliit 191
simallugit 191
sijj@@ 191
illiur@@ 191
ippin@@ 191
qallunaatut 191
nunaliq@@ 191
qaujimallatta@@ 191
arunnarmat 191
anaru@@ 191
alianaigusu@@ 191
atangir@@ 191
naasautit 191
tamajjau@@ 191
qaujimajatuqangi@@ 191
aariaq 191
pilirijiq@@ 191
attali 191
tallimanit 191
175 191
tungalu 191
nilliruma@@ 191
mikk@@ 191
simajugu 191
tunillu 191
aqsimajuit 191
qitirmiunik 191
nunalimmut 191
akigij@@ 191
arnira@@ 191
turju@@ 191
tatatir@@ 191
saliuq@@ 191
taqqir@@ 191
llarikk@@ 191
anuri@@ 191
mattauq 191
nalianni 191
uqattaratta 191
inulirijikkunullu 191
iruluuj@@ 191
suullu 191
019 191
maligaliurviliarsimajut 191
qaritaujatiguungajuq 191
policy 191
katimajiuqatau@@ 190
arnirlu 190
pijunnarniqta@@ 190
atuliqujivut 190
uqautig@@ 190
tukinga 190
alauqpugut 190
piqasiutilugit 190
nakatiq@@ 190
ais@@ 190
via 190
lauqtunga 190
qanuqtuuri@@ 190
pilirianguniaqtut 190
aanniqtu@@ 190
13. 190
tirinirmut 190
nuj@@ 190
ilagimmagu 190
uqausiriqqaujakka 190
ikki@@ 190
ingirrani@@ 190
irngata 190
takugu@@ 190
taimainna@@ 190
liqattarmata 190
uqquuji@@ 190
innatuqarnik 190
mannginn@@ 190
nis@@ 190
tuinnaraj@@ 190
katimaniqaqtilluta 190
tuglira 190
sannginiqta@@ 190
sanirajammi 190
gunnaqtunik 190
kkutik 190
inuulisaij@@ 190
aliqlhutik 190
aniittu@@ 190
kangiqlhinirmik 190
juur@@ 189
igluru@@ 189
nunalilimaanit 189
pigu@@ 189
nunang@@ 189
kuug@@ 189
ingin 189
ulauqsimammata 189
pijauni@@ 189
akisu@@ 189
arvingmut 189
qullugillu 189
tauqqa@@ 189
maliganik 189
mallu 189
alaaqtut 189
tauniarninginnut 189
lirijikkunnu@@ 189
illuliriji@@ 189
aqpalla@@ 189
haamlakkunnit 189
rasuk@@ 189
pimmariummata 189
qanullarik 189
qqaugama 189
paktut 189
tungilir@@ 189
tuinnaummat 189
nunalilirijikkut 189
gillutik 189
kajusigunn@@ 189
ilanganit 189
amisunngu@@ 189
aqattaqsimajut 189
kuujju@@ 189
issiva@@ 189
sinik@@ 189
viivvuari 189
kamajiujuq 189
majjuti@@ 189
uummaqqutiq@@ 189
isumassaqsiuru@@ 189
annau@@ 189
pill@@ 189
qikiqtaalummut 189
sanaliri@@ 189
igluliga@@ 189
pimmarialuummat 189
tapiriit 189
juvini@@ 189
tuugalu@@ 189
pigiakkanniqtutik 189
15,000 189
pattatuqtu 189
017 189
qangatajuukku@@ 189
atjigiingittunik 189
qujannamiingaasit 189
irnit 188
nigi@@ 188
makimajjuti@@ 188
ukiunit 188
inngittunga 188
autta@@ 188
angujumit 188
kiinaujaqaqtitt@@ 188
tiks@@ 188
upigusuqatigi@@ 188
inuinnaqtut 188
ummangaat 188
taimak 188
van@@ 188
uqausirijait 188
ktauq 188
qallun@@ 188
uvalu 188
attu 188
aqtaulauqtut 188
unnginga@@ 188
akailliurutiq@@ 188
pijjusi@@ 188
aippaanit 188
ilinniarutiksa@@ 188
unikkaaliuq@@ 188
ukiumi 188
arraaninit 188
kampaniujut 188
aqattaqsima@@ 188
ippiarjummi 188
iksivautap 188
uqausiqarni@@ 188
silak@@ 188
aanniaqtulirijikkunnit 188
makkuttunik 188
uvaat 188
anginnut. 188
niuviqattaq@@ 188
maannarataangulauqtuq 188
taqqakkuninga 188
700,000 188
pijarn@@ 188
apiqsuqtauvimmut 188
urunniiqtuq 188
018 188
cabinet 188
katiklhugit 188
arnialirmi@@ 187
nunatta 187
taan@@ 187
uqataujuq 187
itsi 187
isumaaluguti@@ 187
angaju@@ 187
tsuta 187
jumatuinn@@ 187
gajaqtunit 187
qimirrujauni@@ 187
akiliqtau@@ 187
125 187
aanniasiuqtiunirmut 187
urluta 187
sunamut 187
valliajavut 187
saugajaqtunik 187
aulainn@@ 187
unngilat 187
apiqsuru@@ 187
palliatillugit 187
arumaliq@@ 187
ajjigiinngimmata 187
anniaqtu@@ 187
titiraujaq@@ 187
ikajuqtauju@@ 187
pinirluk@@ 187
alauqtunik 187
ikar@@ 187
aujjutigi@@ 187
piunir@@ 187
aullutik 187
aturumaaqtut 187
ham@@ 187
maligaliuqtingannut 187
qattarlutik 187
taliqp@@ 187
ilauqtillugu 187
parnagutaujuq 187
qaqi@@ 187
qattaratta 187
ilinniarvittinni 187
uqarataarngat 187
uumajurniatikkut 187
020 187
development 187
vaan@@ 186
tautunn@@ 186
qutsi@@ 186
naasautiq@@ 186
angiqatigiik@@ 186
arvianit 186
utingat 186
tailinirmut 186
apiqqutinnut 186
taunikkut 186
2.5 186
tusaqtitt@@ 186
taununng@@ 186
uqausituinnakkut 186
arajaqpat 186
anninga 186
tikisai@@ 186
tuqaq 186
arianginnik 186
qujagij@@ 186
ataus@@ 186
qanuil@@ 186
lirijinginnut 186
quviag@@ 186
innulimaaq 186
tusannginnama 186
guu 186
tisa@@ 186
sapu@@ 186
piqujivungaarummit 186
qanuiliurunn@@ 186
naammagij@@ 186
atinni@@ 186
nuqqaqtitau@@ 186
sauniaqtunik 186
alirniqpat 186
ajjigiingittunut 186
uqausiliriniq 186
un. 186
sivaalli@@ 186
iqqaumatti@@ 186
sina@@ 186
ngujunut 186
ungnut 186
nunavummiulimaat 186
qaujimagalu@@ 186
30,000 186
ussi@@ 186
aaqqissi@@ 186
pag@@ 186
pijjutiqaqlhutik 186
ilingajuni 186
aipurul 186
niqitsiav@@ 186
niriupp@@ 185
saali 185
tigumiaqti@@ 185
irijanginnut 185
allunga 185
arru@@ 185
ksaujuq 185
urmik 185
taampsan 185
irnirmut 185
asikkann@@ 185
piusigiaq@@ 185
la 185
atuqtuanirmut 185
arasunnirmut 185
kiinaujaup 185
aijunn@@ 185
sanajaugiaq@@ 185
ingmiut 185
ttara 185
miutanut 185
alaurmijuq 185
aksuruqtu@@ 185
arumanngi@@ 185
iniarnir@@ 185
paliisikkunnit 185
qutinginnik 185
jaangi@@ 185
miglu 185
atuqtutik 185
135 185
sivuniriniaqta@@ 185
arijaujunut 185
ugajaqtunik 185
samu 185
angiqtulimaat 185
vattuq 185
tauvattu@@ 185
tukisigiarutiksanik 185
tavvanissainnaq 185
klhuni 185
akitujuqtu@@ 185
silattusarvijju@@ 185
uvikkaujut 185
uvugut 184
piqatigilugit 184
angali 184
aulats@@ 184
gavamanganut 184
amisuun@@ 184
atuq 184
katimaq@@ 184
kkan@@ 184
tanganit 184
nunalinginnut 184
nuiti@@ 184
uqausituinn@@ 184
piru@@ 184
qamanittuami 184
uqsuqtuurmi 184
arumajunik 184
alauqtuugaluat 184
tujurmivik 184
aqpalliajut 184
namminiqaqtunit 184
innguaq 184
utaulluni 184
ttitti@@ 184
tinu 184
tattinnut 184
mittimatalingmiut 184
paami 184
gajaqtanga 184
uqsualuk@@ 184
uksi@@ 184
mis. 184
agij@@ 184
saqqippalli@@ 184
qanuiliuri@@ 184
akuniuniq@@ 184
nunatsiarmi@@ 184
aaqqigasu@@ 184
turaangajunut 184
unulluunniit 184
nalunaikainn@@ 184
uumajulirijiit 184
niruarnirmut 184
summalli 184
arvin@@ 184
luti@@ 184
ttauti@@ 184
pijassaq@@ 184
amisukallannik 184
aqni 184
ungilaak 184
piuj@@ 183
avittuqsimajuq@@ 183
agullu 183
sanngiju@@ 183
isumaqsaqsi@@ 183
sauniaqtut 183
piri@@ 183
ungu 183
pilirijariaq@@ 183
akiliij@@ 183
ilinniarunn@@ 183
innariaq@@ 183
iniaqtatinni 183
aluarmat 183
sukku@@ 183
akaall@@ 183
araviuk 183
igutiq@@ 183
inninga 183
atausitu@@ 183
tavvunga@@ 183
angunasuttiit 183
iqqanaijaarij@@ 183
taujumit 183
nukaqti@@ 183
niqinit 183
tunngasuttiguma@@ 183
qamaniʼtu@@ 183
sulii 183
taisi@@ 183
kiunas@@ 183
pingajunganni 183
nalunaijatti@@ 183
uqaruti@@ 183
ilukta@@ 183
ssangit 183
ilinniarviujut 183
parnauti 183
iqanaijaqt@@ 183
isumaksaqsiurningit 183
nuqqangakainnaqtuq 183
katutiqatigi@@ 182
pinirl@@ 182
pilirianginnut 182
kamajunn@@ 182
piusiv@@ 182
uming@@ 182
jalunai@@ 182
atigullu 182
kkannilaur@@ 182
avittuqsimani@@ 182
unikkaani 182
piqutingit 182
taujarialik 182
angiqtaujariaq@@ 182
ilauqsimammata 182
jjut@@ 182
piliriaksaq 182
inik. 182
aruk 182
aqpallaijuq 182
illurusi@@ 182
taulauqtillugit 182
pijarningi@@ 182
aliqpuq 182
kaansu@@ 182
unani@@ 182
aku 182
angiqtaujumajuq 182
paluk 182
aqatti@@ 182
simajanginni 182
mikilligiaq@@ 182
qaujisarnir@@ 182
tusaumajjutinik 182
anngata 182
arniarngata 182
giarut 182
arumallugu 182
60,000 182
tigujausima@@ 182
asuqattaq@@ 182
turaaqtinniaqtara 182
taapk@@ 182
ukunanga 182
act 182
angiqti@@ 181
ikarra@@ 181
lara 181
matna 181
paani 181
isumar@@ 181
itinnik 181
vaktunik 181
tusaqtau@@ 181
naamman@@ 181
utiginiaqtavut 181
qujannami 181
maija 181
uqaqtau@@ 181
ilitaqsijuma@@ 181
aranilu 181
pigiarningani 181
utinillu 181
arlutalu 181
takunnaqtugit 181
ningiq@@ 181
alutta@@ 181
tauvunng@@ 181
tunijaulauqtut 181
uqausiqaratta 181
gavamakku 181
katimaniqput 181
simaluni 181
muung@@ 181
akkanniqullugit 181
immik 181
aanniavimmi@@ 181
attugu 181
silaurmat 181
singa 181
arilluta 181
ariaqarninga 181
arniarngat 181
maligar@@ 181
kangiqtugaapik 181
qujagitti@@ 181
silattuqsarvingmi 181
iluaniittuq 181
jjuti 181
tittiji@@ 181
angajuqqaangit 181
avatimiuta@@ 181
makkutt@@ 181
alirattigu 181
pusamik 181
aquttuq@@ 181
kuuli@@ 181
arnanik 181
tammaqsimajuqsiuqti 181
lirinirmun 181
ilisaqtiit 181
simanngilat 180
tauqata@@ 180
annginiqsau@@ 180
qiturngavut 180
unniiqtuq 180
tuinnani@@ 180
saqsiur@@ 180
miullu 180
tukku@@ 180
pallianirmut 180
lirijikkunnullu 180
ugajaqtumik 180
jumin@@ 180
miliantaal@@ 180
piqujivungaarummik 180
pisimajavut 180
qutinginnut 180
kingu@@ 180
apsi 180
utigillugu 180
ataat@@ 180
tauvaktunik 180
angiqatigiigunn@@ 180
alirai@@ 180
lak@@ 180
arvingani 180
qangit 180
taikung@@ 180
najur@@ 180
unnirmangaata 180
kanniruma@@ 180
atula@@ 180
amisuuniqsanik 180
uqausiqaqqaugama 180
sivulliqpaangani 180
sivaalliq@@ 180
tusaajikku@@ 180
qaujisainiq 180
aqtuqaqpat 180
attarniarmata 180
rataarama 180
ilisaijiq@@ 180
aqtaunasu@@ 180
ammimmata 180
tammaqsimajuqsiuq@@ 180
nangminiqaqtut 180
ilinniaqtunik 180
attaku@@ 180
laurngat 180
pikkugijauninga 180
niruarniq 179
inuusuttu@@ 179
nati@@ 179
taana 179
pigumaj@@ 179
piuniqs@@ 179
arvili@@ 179
atinnit 179
isumaqsuq@@ 179
qanuilingalirninga 179
ajunit 179
qitiani 179
apiqqutiqaqtunga 179
9. 179
sugiaq@@ 179
aminiit 179
simajuuja@@ 179
tauniarmangaat 179
aqtangat 179
kamatsi@@ 179
gamali 179
uqausituinnaq 179
tuksirautiq@@ 179
aqtunu@@ 179
kik@@ 179
ukpir@@ 179
pinasuarusiq 179
qaujigumatuinnaqtunga 179
assinni 179
kiinaujaqar@@ 179
miinnga@@ 179
araluaqpat 179
piunngittu@@ 179
ars@@ 179
inulirijikkunni 179
pijass@@ 179
ilitaqsijumallunga 179
aulattijikkut 179
ilinniarnirminik 179
taujunnarniarmata 179
vaktunut 179
katimajingannit 179
aqattaqtutik 179
lirijjutiit 179
jaanu@@ 179
ikuma 179
allagvi@@ 179
piqqusilirinirmut 179
angummat@@ 179
jussau@@ 179
angajuqa@@ 179
innakku@@ 179
community 179
tauqatikka 179
kau@@ 178
tarni@@ 178
titirarvigi@@ 178
atsur@@ 178
ajavut 178
ullunit 178
aqtini@@ 178
tauniarmangaaq 178
muuna 178
artara 178
piliriqatigilugit 178
minirn@@ 178
jjutaujut 178
arniarakkit 178
apattut 178
araigatta 178
taqqinit 178
tanut 178
titaugiaq@@ 178
ttiarmata 178
saluma@@ 178
apiqqutigijanganut 178
unikkausiq@@ 178
qqai 178
kiggaqtuqtakka 178
naliannutuinnaq 178
ataq 178
angiqtauqqa@@ 178
tuktuit 178
apiqqusiksait 178
aqpungali 178
pusantimik 178
arngi@@ 178
tamainu 178
sivunis@@ 178
tauq. 178
aqlhutillu 178
simammijut 177
piuniqsamik 177
iktuq 177
paakkut 177
attautigi@@ 177
juunimi 177
aqtillusi 177
unnaqpa@@ 177
tamatta 177
ingirrasi@@ 177
arillugu 177
makkuktunullu 177
piliriangujariaq@@ 177
iniaqtuq 177
taunirmik 177
ajurnangippat 177
milianut 177
valliatillugit 177
kiujjutigij@@ 177
julimaat 177
8. 177
parnautiliuq@@ 177
simavisi 177
piliriaksanginnut 177
taujarialinnik 177
auqatt@@ 177
uqsuqtuumut 177
sukaqalu@@ 177
liriv@@ 177
illuqutiq@@ 177
atuva@@ 177
nanisijunn@@ 177
uqattaraj@@ 177
hamal@@ 177
lirijimut 177
qanigi@@ 177
pinasuarusiit 177
asir@@ 177
aniarngata 177
angunir@@ 177
qangataq@@ 177
isumagijara 177
jjutit 177
pularaqtuliriniq 177
qimirruji@@ 177
silattuq@@ 177
unniirmata 177
tusaqattar@@ 177
lirinirm@@ 177
inuusilirijikkunullu 177
ikupivvi@@ 177
ulaaq 177
lauri@@ 177
atauttikku@@ 177
taunani@@ 177
qanuq@@ 177
pititti@@ 177
gavamauqatigii@@ 177
nakummiik 177
vvigi@@ 176
qaujimavut 176
iqullugit 176
tavvaniittut 176
gijaujumut 176
tiklu 176
quv@@ 176
arillugit 176
nutaqqat 176
tausimanngittut 176
qanuilingaliq@@ 176
utiillu 176
alunnut 176
namunnga@@ 176
arumaviit 176
tait@@ 176
tamakkualimaat 176
ikkanir@@ 176
kkutta 176
tukiliur@@ 176
taimaittumi 176
itiq@@ 176
uqausiqaqqaummat 176
arnar@@ 176
taimainninganu 176
apiqqutiksaqaqtunga 176
alauqtara 176
uqausiujut 176
aturumaarniaqtu@@ 176
amisuuniqs@@ 176
illuquti@@ 176
ttiaqtuq 176
qakugu 176
simag@@ 176
maimi 176
tukisinir@@ 176
ilinniara@@ 176
aqsimammangaata 176
arijaulauq@@ 176
pijunnaraj@@ 176
pilirivinnut 176
nangminirij@@ 176
nanurnit 176
simakainn@@ 176
utiqtuk@@ 176
pat. 176
pijjutigillu@@ 176
niqik@@ 176
akiliss@@ 176
ilauqtillugit 176
arctic 176
laupill@@ 176
taapna 176
qujannamiiqta@@ 175
sas@@ 175
05@@ 175
anura@@ 175
gavamalirijikkunni 175
tikittu@@ 175
avani 175
gaks@@ 175
ikajuutinit 175
ilinniaqtit 175
uniinga@@ 175
lauqpuq 175
gusi@@ 175
ikkutta 175
arukkit 175
b@@ 175
aksat 175
iqalunnik 175
aulajju@@ 175
aqlhutigu 175
nalau@@ 175
ulaurtuq 175
niriukpunga 175
aliraangatta 175
pingajuannit 175
qaujisaqtuq@@ 175
alauqtuit 175
illir@@ 175
ngujuit 175
130 175
miuri 175
ilasi@@ 175
kiinnaujj@@ 175
autillunga 175
likiaq 175
aulajjutingit 175
ingutillugu 175
arniqpaang@@ 175
kusu@@ 175
qaukpat 175
luni@@ 175
mikijuutinut 175
angirut 175
niqpata 175
qaujisaqtauninga 175
ikajurutaujut 175
atikkut 175
iqaluktuuttiarmut 175
nangiqsini@@ 175
aqattaqlhutik 175
maqru@@ 175
katimasigiaqtut 175
sinnut 174
kinguva@@ 174
namminiri@@ 174
ininginnik 174
inniaqtuq 174
kaanata@@ 174
maliganginnut 174
maligial@@ 174
qaujikkaqtau@@ 174
arriaq@@ 174
utigu 174
ilauqtugut 174
kiinaujaqtulu@@ 174
angiqatigiigutiit 174
angijualu@@ 174
inirnit 174
innuk 174
pilirianit 174
ungmik 174
attur@@ 174
uqausigi@@ 174
115 174
naluliq@@ 174
ministang@@ 174
atuliqujausimajut 174
ungajunut 174
qaujimaquj@@ 174
vut. 174
kkani@@ 174
tausimajuq@@ 174
ilaurama 174
liriniujuq 174
40,000 174
ukpirusuktunga 174
ilinniaqtittiniq 174
simalirama 174
arviujuq 174
uas@@ 174
uumajuq@@ 174
aktar@@ 174
hir@@ 174
gunnarmangaaq 174
taungittu@@ 174
tikittuq@@ 174
nunavutmiu@@ 174
piqattar@@ 174
matailaak 174
taala@@ 174
ikajuqtingit 174
unikkaangujut 174
arnirsau@@ 174
sanirvaqtausimajut 174
nguqqu@@ 174
suliguma 174
lhlhuni 174
taissuman@@ 174
ajuli@@ 174
qimirrunagunn@@ 174
isaak@@ 174
angnirmut 174
makpigarmi 174
ujjirusukput 174
nalunaiqtuq@@ 174
nalungilanga 174
aqtara. 174
paati 174
silattuqsarvikkut 174
nuqqatti@@ 174
hun@@ 174
ggi@@ 173
pijjutaulluni 173
uplugit 173
igunnaq@@ 173
sanngitti@@ 173
jummat 173
autimik 173
nangi@@ 173
ilinniavinni 173
akilik@@ 173
ukiuqtaq@@ 173
tusatti@@ 173
ikarranut 173
iksaq 173
pinng@@ 173
ii. 173
taujjutigi@@ 173
mitsa@@ 173
aniluunniit 173
tuksirautit 173
tamainni 173
209 173
unasugi@@ 173
mamisa@@ 173
utsi 173
lirijikkun 173
ilagijangit 173
arijausimajut 173
talik 173
tavvaniittu@@ 173
gama. 173
takujaqtur@@ 173
ikajuqtauni@@ 173
nalliatuinnaq 173
aqpammat 173
anullaksi@@ 173
naalautiq@@ 173
hakiq@@ 173
iqqanaijaqtiujunut 173
alauqtuugaluaq 173
nunalingnik 173
ivva 173
vikta@@ 173
nauj@@ 173
ajunnginniq@@ 173
suli. 173
armataguuq 173
inuulis@@ 173
iqqanaijaqtingita 173
aqlhu@@ 173
naliat 173
atuutiniq@@ 173
ungaugaluaq 173
niuvirnirmut 173
sirna@@ 173
021 173
sivuliqpa@@ 172
akisu 172
allarittuq 172
halu@@ 172
amigalu@@ 172
utigijara 172
annginiq@@ 172
huli 172
qattaqullugit 172
agi 172
utanut 172
piqatigillugit 172
uqtunit 172
simalaurmata 172
juinn@@ 172
ikajuqti 172
piliriarijariaq@@ 172
unnginatta 172
uuttuutiq@@ 172
piliriviujunit 172
tii 172
aqtaqaqpaa 172
tuinnaqpunga 172
qangattautinut 172
innaqtut 172
nuqqangalauk@@ 172
pitaqari@@ 172
ikajuqtauvik 172
katilima@@ 172
pijjutiqaqtuni 172
aturluni 172
angiqtaujumajunga 172
angujuit 172
nunattinnik 172
pujur@@ 172
pilirivviq@@ 172
akunik@@ 172
ulaurngata 172
angiqtaula@@ 172
tami 172
pijariiqpalli@@ 172
manniq@@ 172
ikkanirni@@ 172
qaujimajussau@@ 172
urviq@@ 172
75,000 172
piqatigij@@ 172
kiggaqtuqt@@ 172
paliisiq@@ 172
tusaqtittijumallunga 172
pigianng@@ 172
artutit 172
apiqqutigijuma@@ 172
qanuiliuruma@@ 172
ssinni 172
kanatau 172
gavamakkuulluta 172
auqattarmat 172
ilisarijaujjuti@@ 172
simajakkut 171
nunaqaqqaaqtu@@ 171
giakkanniruma@@ 171
pattatuq@@ 171
katimajiuqata@@ 171
nangminiqta@@ 171
parnata@@ 171
quvakka 171
taimannatigi 171
tamatumaup 171
iliqqusing@@ 171
ttinni@@ 171
asiman@@ 171
vigijunn@@ 171
sivata@@ 171
isumaaluuta@@ 171
sukkali@@ 171
takujumin@@ 171
sulikkanniiq 171
106 171
tamakkuang@@ 171
tamatsuma 171
atautsi@@ 171
avatinut 171
pimmariuninga 171
aqqaujuq 171
aratsi 171
angmangaata 171
munga 171
ulauqsimagama 171
ugi 171
tau 171
aaqqiti@@ 171
katujjiqatigiinik 171
inirs@@ 171
imaigunn@@ 171
jurulu@@ 171
mingnut 171
apiqut@@ 171
kalaak 171
137 171
siit 171
aqtailinirmut 171
maligat 171
arraagung@@ 171
apiqqusiq@@ 171
qulaagu@@ 171
ilinnialisa@@ 171
2002mi 171
angamik 171
ingirrajulirijikkunullu 171
uqariaqtuq@@ 171
iqanaija@@ 171
inuulisa@@ 171
pisimannginn@@ 171
ilisarijauningit 171
kinguvv@@ 171
attaqtunut 171
alikiaq 171
tirviu@@ 171
tunut. 171
angiqqisi 171
iglulirijirjuakunnut 171
uinipaig@@ 171
naisautinga 171
ikiaqqi@@ 171
anniaqtuq 170
ajjiq@@ 170
jimi 170
uqausirilugu 170
anninginnik 170
pivalliajainirmut 170
uqarv@@ 170
annginattigu 170
jumanngi@@ 170
ulauqtinnagu 170
tauma@@ 170
unniirama 170
105 170
sivulliqpaat 170
juan@@ 170
uvaktunik 170
uqumainn@@ 170
gunnaqpaa 170
inunnu 170
kkannirunnarmangaata 170
iqaluktuuti@@ 170
ikarrangit 170
nunasiutiq@@ 170
titiraqtausima@@ 170
takunnaqtugu 170
liqlhutik 170
ukuangujut 170
aqsimangmata 170
tauniaqtunut 170
paippaanik 170
ukkiaq 170
simaniaqtut 170
simajattinnik 170
anilaak 170
tuksirarvi@@ 170
qurluqtuumut 170
jumatti@@ 170
aaqqigiarut 170
ukkusi@@ 170
uqaqatiqarunn@@ 170
maannamunut 170
araarju@@ 170
kkunnik 170
pluni 170
angajuqqaq 170
pijittiqtikkunnit 170
uqausiqa@@ 169
aliqput 169
malitta@@ 169
arnittinnik 169
gavamangat 169
maligaliuqvi@@ 169
liuqtuq@@ 169
ilinnianirmik 169
upigusuk@@ 169
iru@@ 169
arniaqtuni 169
kkanniqullugu 169
angiqatigiigutimik 169
pulaaqtinik 169
matsi 169
ilinniaqtuliriniup 169
angut 169
atan 169
ingilluunniit 169
angijukall@@ 169
angiqtausimajut 169
paktatuqtut 169
naammattuq 169
qanuilingammangaata 169
ilinniaqtaminik 169
aktunik 169
simagattigut 169
sivunittinnut 169
aulattijunn@@ 169
ilautitti@@ 169
anginir@@ 169
angijunut 169
namminiliit 169
ain@@ 169
aluup 169
illumit 169
atuqlhugu 169
piujunik 169
ttau 169
aqattaqsimammata 169
kikkulima@@ 169
nunalinni. 169
tungilirma 169
urniq 169
arraaguga@@ 169
tauqati@@ 169
ilunga 169
ujunnaqtut 169
kamisanamut 169
taulauqtillugu 169
parnaummit 169
paqsaij@@ 169
viningit 169
06@@ 169
tamaq@@ 169
pivijju@@ 169
school 169
atingnu 169
tamakkiinnik 168
sivulliq@@ 168
inguj@@ 168
aqunagit 168
ilauqtatinni 168
attanaqtaili@@ 168
atigiit 168
qaujimalluta 168
simaniqsau@@ 168
piqatta@@ 168
niuviang@@ 168
sini 168
tuunngittuq 168
unnaqpara 168
puuqq@@ 168
anginnakkit 168
vagiir@@ 168
isulimmat 168
akikilligiar@@ 168
llungit 168
akitujuuti@@ 168
utila@@ 168
ministami 168
tauningi 168
jalunaiv@@ 168
ilulinginnik 168
ilagiinik 168
7,@@ 168
kinguvalu@@ 168
pitaqaqti@@ 168
qangatajuu@@ 168
qquuji@@ 168
atuaqpat 168
malinga@@ 168
nunavuulima@@ 168
kuris 168
umiarjuaq 168
nirjuti@@ 168
qunga@@ 168
aqtauq 168
pangniqtuuq 168
ingitti@@ 168
iksivautarij@@ 168
arj@@ 168
gaapi@@ 168
akitturiarni@@ 168
upirngassa@@ 168
uummaqqutinik 168
aanngajaarn@@ 168
ilam@@ 168
talurjuani 168
aksamut 168
tungal@@ 168
aaqqisi@@ 168
kuapuraisakkut 168
uqausit 168
nni 168
taimannaqai 168
him@@ 168
tavvauvuti@@ 168
jaiq@@ 168
uqaqtittiji@@ 168
qarasaujakku@@ 168
iluangi@@ 168
nuqqangakainnarnialirmi@@ 168
allutillu 167
juukaan@@ 167
itsa@@ 167
apiqusi@@ 167
uqumaittu@@ 167
ikumma@@ 167
arutsi 167
aqsunga 167
lirinirmillu 167
piqju@@ 167
piliriangujunit 167
vaktavut 167
ktumik 167
ippigijau@@ 167
ilirmi@@ 167
kaanturaakti@@ 167
kiinaujalirijjuti@@ 167
taimailingajuq 167
iqqasaij@@ 167
atuqtuts@@ 167
angittuugaluaq 167
uqautigu@@ 167
illuata@@ 167
tauqqu@@ 167
pijariiqsima@@ 167
liina 167
utitut 167
ilinniarvialummi 167
uinipai@@ 167
aqpallianirmut 167
lii 167
niruaqtausimav@@ 167
kuj@@ 167
liqattaq@@ 167
pammata 167
nangir@@ 167
248 167
utanit 167
nunaliuju@@ 167
sat@@ 167
taimang@@ 167
aqquurmata 167
angajuqqaangujut 167
naukkutuinnaq 167
pigiarutigi@@ 167
ungitt@@ 167
arilauqt@@ 167
anur@@ 167
pijariirasu@@ 167
tuttuit 167
anginniq 167
anginnattigut 167
qaujimagassi 167
utiksangit 167
titautti@@ 167
akanniriaq@@ 167
piusigiar@@ 167
ullutalu 167
qaujimangmat 167
angijuqqaarijaujut 167
nguni@@ 167
pilirivinganut 167
tuavirnaqtunut 167
makimainnarutinut 167
taaksilirinirmut 167
arngagu 167
pingannanga 167
qullik 167
maa. 167
kajusititsi@@ 166
arnit@@ 166
kiuv@@ 166
aqtulimaat 166
innani@@ 166
gani@@ 166
unngilanga 166
tamani 166
aaqqitsi@@ 166
qamaniqtuarmut 166
uqalimaarnirmik 166
iqqanaijaaksa@@ 166
iqi@@ 166
kiujjutiq@@ 166
tat 166
allait 166
simajanginnit 166
isumatsaqsiur@@ 166
ilisaijiujut 166
annur@@ 166
gutau@@ 166
aliraimmat 166
ungittugut 166
qquurmat 166
arvimmik 166
tikir@@ 166
isuani 166
anaana@@ 166
nanurnut 166
isumagitsugu 166
nalimu@@ 166
103 166
qaujimajuq 166
nalunairsijunn@@ 166
pimmariujunut 166
qallunaanit 166
iqtauninga 166
iniaqtangit 166
igluligaarjummi 166
tusag@@ 166
liari@@ 166
quttingniq@@ 166
utigija@@ 166
jumajuq 166
qimiq@@ 166
aqtinnit 166
ajulirutiq@@ 166
isulittar@@ 166
lutik. 166
naammaksanngittut 166
qanuiliu@@ 166
ajauqtuivut 166
aanniaqannangittulirinirmut 166
aqlhutalu 166
nangiqsijjuti@@ 166
saimma@@ 165
ullumut 165
qullu@@ 165
qanuiliurn@@ 165
jutsau@@ 165
iluunatik 165
qikir@@ 165
simanirmik 165
aqattauti@@ 165
kiggaqturlugit 165
alaurakku 165
lirijiqju@@ 165
anguniaqtuq 165
nuat 165
uqalau@@ 165
igluks@@ 165
inuktu@@ 165
utaqqituinn@@ 165
sulivuq 165
117 165
suungullutik 165
takuqatta@@ 165
qilan@@ 165
mamianaq. 165
aippii@@ 165
uks@@ 165
ikta@@ 165
inngippat 165
nalauttaaqtausimajut 165
pitaqangimmat 165
pigialirata@@ 165
tukisigiaq@@ 165
tuquj@@ 165
iglulik@@ 165
atuqtauniaqtuq 165
qattinit 165
aquvakka 165
tillugu. 165
mmin@@ 165
tausimajuit 165
gumat@@ 165
aqtukulu@@ 165
uns@@ 165
ajjigiingittunit 165
tukisigiakkannir@@ 165
iniglu 165
uvagu 165
luuttaat 165
uqaqsimajuq@@ 165
tukisigiaqtitti@@ 165
amisukallait 165
maanna. 165
taliqpinniittuq 165
ullutik. 165
saqqiij@@ 165
innap@@ 165
uqausingit. 165
ikannir@@ 165
ttiaqtavut 165
viiv@@ 165
tukiliuqtausimajuq 165
qir@@ 165
aqattarniarmata 165
ang 165
iluanni 165
maannarulu@@ 165
aqtunut. 165
taikkunga 165
022 165
ullugit. 165
kamagijaqattuq 165
federal 165
aliqpugut 164
kajungiqsa@@ 164
tatinnik 164
aulati@@ 164
pallianginn@@ 164
nunaliik 164
tii@@ 164
aulata@@ 164
maak 164
qanuqtuuru@@ 164
tuinnaqtuq 164
sit 164
natir@@ 164
naliiraaruti@@ 164
aaqqiktausimajut 164
utiksaujunik 164
pimmariujut 164
sallirmi 164
avuttauq 164
taimaattiaq 164
utikku@@ 164
pijjutinga 164
07@@ 164
anirmu 164
ilitarijumajara 164
unnarsi@@ 164
alimaanut 164
arumagalu@@ 164
rur@@ 164
pitaqau@@ 164
kangirlhinir@@ 164
sinut 164
anirni@@ 164
qalir@@ 164
ilinniaqti 164
apiqqutiksaqarama 164
qaujimangmata 164
timikkut 164
annuraaq@@ 164
takuss@@ 164
aruqti@@ 164
piqujaks@@ 164
iqqanaijaqtiillu 164
ajauqtuq@@ 164
ikkaniq@@ 164
tukisiumajakkulli 164
rijiit 164
maili 164
muusa@@ 164
qats@@ 164
kaanturaangujut 164
qujannamiiqparattauq 164
tulak@@ 164
iqqattu@@ 164
aanniaqanngittu@@ 164
atuliqujaliuqput 164
givut 163
apirikainn@@ 163
sivullipa@@ 163
qal@@ 163
akut 163
arapta 163
maannarata@@ 163
usuungu@@ 163
tsivalli@@ 163
sukka@@ 163
kiinaujaqtaari@@ 163
aqtuqtaq@@ 163
tittin@@ 163
104 163
kisuummangaata 163
gajaqtavut 163
taugajaqtut 163
qqaujunga 163
kangiqtugaap@@ 163
tamakkuattauq 163
iluunnanginnik 163
iliqqusirij@@ 163
unniiqtut 163
autsuni 163
atuaganginnik 163
164 163
lauqsimagakku 163
taunik@@ 163
pigiaqtiti@@ 163
agalait 163
arutini 163
majjuk 163
uman@@ 163
asiani@@ 163
gillugit 163
innaruqpalli@@ 163
iqqanaijaaminik 163
ilauqsimajuq 163
nijjausij@@ 163
iqqanaijaqtinginnit 163
qaujiqattaq@@ 163
igutigi@@ 163
taas@@ 163
nalunaiqsiviu@@ 163
aaggi@@ 163
innaillu 163
alauqqut 163
alaaqtuq 163
piliriassait 163
kina@@ 163
surusiq 163
tauqattarmat 163
anniqpat 163
tuniq@@ 163
alluaq 163
katimajiralaangukainnaqtunut 163
paul 163
agvi@@ 163
9,@@ 163
tuksirautinut 163
kisunut 163
arniarmanga@@ 163
unnuksakkut 163
ajjaikku@@ 163
angutinut 163
isumassaqsiurutigi@@ 163
mianiqsi@@ 163
aaqqigiaqtauqullugit 163
ajjaangi@@ 163
paqqijau@@ 163
tsungalu 163
assanik 163
piuniqpaang@@ 163
suunik 163
ariaqarngata 163
uplumi@@ 163
aippitaullunga 163
katimajiralaaliuqtikkut 163
kigga@@ 162
saattinni@@ 162
sivitu@@ 162
aqsimaliqtut 162
kala@@ 162
annirmik 162
mur@@ 162
piliriarivalli@@ 162
inuktituuliq@@ 162
kiinaujaqaqtittini@@ 162
taarunn@@ 162
tamatumunnga 162
ippalli@@ 162
taaruti@@ 162
alirmangaaq 162
takuksa@@ 162
naittumik 162
kiinaujaqturutiksangit 162
gijjutiq@@ 162
maanna@@ 162
136 162
qujannamii@@ 162
lirijikkut. 162
alaunngittut 162
asinginni@@ 162
aktunut 162
apirigu@@ 162
arniaqtillugit 162
ilisaijiunirmut 162
angittuni 162
ajjigiitti@@ 162
gissi 162
katinngaj@@ 162
simanikkut 162
niruaqtauqatigisimajara 162
kiinaujaqaqtitsi@@ 162
qattiriji@@ 162
nanijau@@ 162
illuniuk 162
kappiasu@@ 162
qaujimatitti@@ 162
arraagugij@@ 162
luq@@ 162
giaqsimajut 162
mmiunut 162
qanuiliuqtuq@@ 162
nalliukkumaat 162
qupir@@ 162
taimaatsa@@ 162
saanti 162
arvinni 162
suuqaimmat 162
upagunn@@ 162
uqalimaaqtaujunn@@ 162
8,@@ 162
iniqtiri@@ 162
isii 162
aanniaviup 162
kiarngai 162
aaluit 162
illuligaarjummi 162
saqqijaatti@@ 162
livi@@ 162
ukiutaq@@ 162
tisamangannik 162
iiʼ 162
tamannaguuq 162
kajusikkaniqtutillu 162
pijunnautingit 161
alaarmata 161
inuusiliriji@@ 161
ingira@@ 161
katimanirmut 161
nunguti@@ 161
laan@@ 161
uqautiguma@@ 161
ivit 161
sinnaat 161
ttailima@@ 161
pigialaunnginittinni 161
aqtugulu 161
akiliijariaq@@ 161
taur@@ 161
uqaju@@ 161
qaujisaqtauningit 161
ikpigusu@@ 161
ilauqsimammat 161
aujunga 161
atuagat 161
ilinniaqtuq 161
uqallaq@@ 161
armangaataluunniit 161
arniqsaugaj@@ 161
132 161
nuqqangati@@ 161
siniarmata 161
ajjigiik@@ 161
pilirivviujuq 161
taimailiur@@ 161
kit@@ 161
iglulirijirjuakk@@ 161
manngin@@ 161
nunaliralaang@@ 161
parnainirmut 161
sanagiar@@ 161
iing@@ 161
niruaras@@ 161
nirmi 161
qanuilir@@ 161
tuinnariaqarmata 161
pirjuang@@ 161
katimajii 161
tann@@ 161
akitturiaruti@@ 161
iraj@@ 161
imminiiqta@@ 161
09@@ 161
maatsimi 161
inniittuq 161
taqqimi 161
katimajituinn@@ 161
aanniaqtulirijinut 161
muu@@ 161
akkattauq 161
giaqarninginnut 161
supuuqtuq@@ 161
tiguannguaq@@ 161
arngat. 161
pitaqarma 161
uqapilu@@ 161
nunalirij@@ 161
amih@@ 161
ukiutaqtumit 161
taapku@@ 160
avuq 160
arumajugut 160
taatsu@@ 160
limaanginnut 160
ttillugu 160
tunisiv@@ 160
isumaaluutitaq@@ 160
sivulliqpaanganik 160
ulluunnik 160
naammattumik 160
inuktituu@@ 160
lirmangaata 160
ilauju@@ 160
vigisimaj@@ 160
atsiuk 160
angirutinik 160
laq@@ 160
juni@@ 160
tuksirautili@@ 160
gavamalirijiit 160
akkua 160
tamarmi 160
nalunaiqsisimajut 160
agli@@ 160
ruj@@ 160
arunnarmangaat 160
akitujuutiit 160
suungujut 160
gillunga 160
ita 160
gajaqtugut 160
nalulir@@ 160
amiqqa@@ 160
nunalinniittut 160
tauvattuq 160
maligau@@ 160
qulugu 160
vviit 160
ttiq@@ 160
aqtittiji@@ 160
gass@@ 160
apiqqusirijara 160
arvimmit 160
piija@@ 160
kapp@@ 160
pitasan 160
6,@@ 160
ilinniarutinik 160
43@@ 160
arvinnit 160
saanng@@ 160
paktunut 160
qaujimajakkulli 160
uqsualuqau@@ 160
uqalimautiq@@ 160
pilirivingani 160
liraanga@@ 160
alilaurmata 160
pijunnautinginnut 160
ariaqarninginnut 160
niaqu@@ 160
juksa@@ 160
uqsualukta@@ 160
givaa 160
ikajutti@@ 160
taimailu@@ 160
tusaajititigu 160
qaujisaqniq@@ 160
nuqqariarumaliq@@ 160
upla@@ 160
simajun 160
maʼnallu@@ 160
atsanut 159
qaiq@@ 159
illutigu 159
pinasuk@@ 159
autigini@@ 159
nattilingmut 159
ilinniaqtulirij@@ 159
aurmat 159
agalu@@ 159
qimirrunatti@@ 159
pinasuaga@@ 159
pijunnarni@@ 159
naalatti@@ 159
uqallau@@ 159
kamagijaujut 159
ingav@@ 159
suu 159
tukisigiarutiksaujut 159
qatsikall@@ 159
tiliurij@@ 159
angajuqqaamik 159
arivakka 159
kiinaujaqtaaru@@ 159
titiqqa@@ 159
pijariila@@ 159
iqqanaijaqtuq 159
quvianaq 159
angirra@@ 159
anginut 159
ministagijaujuq 159
gijaujumik 159
tamakkiinnut 159
taujariaqaqtut 159
piqujivungaarutimik 159
ilisai@@ 159
185 159
taukpat 159
simavaa 159
taikannga@@ 159
katimajiralaallu 159
pijittiraqtulirinirmut 159
irnir@@ 159
tusagaksanit 159
aulatauninganut 159
arraagutamaaqsiutit 159
north 159
lav@@ 159
artitsi@@ 159
nuuppalli@@ 159
uvaktunut 159
liripit 159
qattalauq@@ 159
aqattangi@@ 159
ulauqpat 159
gasuarnirmut 159
nailligiar@@ 159
llikiaq 159
ilaak. 159
kiggatuqti 159
manirajak 159
pianiguma@@ 159
pijjutigillugu. 159
unginni@@ 158
titiqqangit 158
giaqar@@ 158
taukpata 158
alugit 158
sanngijumik 158
kinngarmi@@ 158
taaksiija@@ 158
ammu@@ 158
qimirrunirmik 158
iqqanaj@@ 158
2000mi 158
utauniaqtut 158
akitujunu@@ 158
utaa 158
tausimavut 158
liang@@ 158
gilauqtavut 158
1.2 158
nalliukkumaanut 158
parnautitaq@@ 158
anginngi@@ 158
gavamattinnut 158
unnaqulluta 158
anilluunniit 158
108 158
galau@@ 158
tausimaningit 158
ariniaqta@@ 158
1,8@@ 158
unirmi 158
tukisijunn@@ 158
siutit 158
uta 158
inuusuktunut 158
gluni 158
uuktuq@@ 158
ttummari@@ 158
kamma@@ 158
gavamakkutigut 158
pijuq@@ 158
tavvanga@@ 158
vai@@ 158
atuliqujaujuq 158
apiqqusira 158
arniqsa@@ 158
aqqutit 158
attuqtauniq@@ 158
sanajuq@@ 158
nunavuumiu@@ 158
04@@ 158
katititau@@ 158
unikkaalianga 158
kisianili@@ 158
maligaksamut 158
panniqtu@@ 158
apiqsuqattaq@@ 158
junnaqpaa 158
taannatu@@ 158
taissu@@ 158
gialinnut 158
utik. 158
ʼs 158
alaarmat 158
qurluqturmi 158
nungaj@@ 158
tuullu@@ 158
katimagjutiksaq 158
kanann@@ 157
akkun 157
jumallusi 157
aqtauniaqtut 157
miuq 157
upigusutti@@ 157
alauqsimanngi@@ 157
kuapuriisakkunnut 157
aruman@@ 157
avunga 157
sanajauninganut 157
liuti@@ 157
minirmik 157
ilaaq 157
unikkaarij@@ 157
pijittirautiit 157
qulaani 157
tuinnaummata 157
pitaqainn@@ 157
inulirijiillu 157
akkanniq 157
aqujara 157
aaqqitsui@@ 157
tuksianikkut 157
nunaqaqtut 157
uqquurmat 157
taimannainn@@ 157
tamar@@ 157
simavaat 157
avvigi@@ 157
unniirmat 157
irnira 157
ilinniarniujuq 157
alaaq 157
saqqijaaqtitau@@ 157
isumaksaqsiurutigi@@ 157
ammarimmata 157
aulaqti@@ 157
pilirivingannut 157
arviarmiut 157
atuqtaula@@ 157
aliqtunga 157
ging@@ 157
ilinniaqtuit 157
lugu. 157
innilu 157
tittunn@@ 157
igli@@ 157
arningillu 157
jjutinut 157
jutinullu 157
piqasiutillugu 157
ulirmangaata 157
tinginnik 157
quvvasinniq@@ 157
utittiav@@ 157
ppaallir@@ 157
taiksumani@@ 157
nalliukkumaalirij@@ 157
ajurutilinnut 157
iqaluttuuttiarmi@@ 157
uini@@ 157
qutigi@@ 157
aqtaunginn@@ 157
tauvani@@ 157
taalai 157
inia 157
tuktu 157
qimirrunanni@@ 157
nanuq@@ 157
naammasangittut 157
nunanga 156
ujusi 156
ilangannik 156
aqni@@ 156
gijauningit 156
atulaur@@ 156
irninga 156
ikajuqatta@@ 156
paniga 156
hi 156
nammini 156
ajjigiinngitt@@ 156
nuqqa@@ 156
uqsuqtuumi@@ 156
luuttaaq 156
nua@@ 156
avin@@ 156
tusaumatitau@@ 156
113 156
litu@@ 156
iksanganut 156
uqsuqtuu@@ 156
ungali@@ 156
taimaim@@ 156
kiinaujaqutiq@@ 156
silattusarviup 156
kiinaujaqturutiit 156
aturniaqtut 156
munut 156
tamaaq 156
unnusa 156
arniraqtuni 156
ungataujji@@ 156
arajaqpuq 156
tillutigu 156
ikiaq 156
tavvanit@@ 156
ugianga 156
apku 156
iqqanaijaqtigijavut 156
taimaiqattaq@@ 156
uaq 156
tinnata 156
qanutuinn@@ 156
imma 156
nguti@@ 156
angaa 156
qangattautiit 156
angullutik 156
qimirrulaur@@ 156
taanna@@ 156
quviasullar@@ 156
lluti@@ 156
ilinniartulirijiit 156
sanajju@@ 156
tavva@@ 156
akaunngiliuru@@ 156
uvikkait 156
ajurutiqaqtunut 156
angajuqqaarju@@ 156
qujannamiirumaj@@ 156
akiujut 156
207 156
umit 156
alirmimmat 156
mun@@ 156
qikiqtarjuami 156
1,5@@ 156
kangilh@@ 156
quviasugutiq@@ 156
taimaimut 156
sanajiruri@@ 156
qatsiuninginu 156
ajikkut 156
sivukkaqtaq@@ 156
mapsalaaq 156
ministuujumut 156
tusaajikkuuliqtuq 156
irjuaq 155
isan 155
tavvau@@ 155
aqsimavugut 155
qaujuq 155
iqattaqtavut 155
ikumut 155
iluunna@@ 155
atiliurutau@@ 155
uqausirnit 155
isumagilugu 155
simannginnama 155
ilitarija@@ 155
ikajuutik 155
aqtittinirmik 155
muangajunit 155
anittu@@ 155
titiqqan@@ 155
unajaqtuq 155
qaujimajavut 155
innarasu@@ 155
ippigus@@ 155
asainnaq 155
nunaliralaat 155
angirunnaqpaa 155
kaman@@ 155
apiqsuqtauv@@ 155
kuvijuq@@ 155
ksaqsi@@ 155
pavvis@@ 155
taakua 155
nulianga 155
pijumajjuti@@ 155
piliriariniaqt@@ 155
qattiuvat 155
liraimmata 155
iga@@ 155
mmarikk@@ 155
angiqtauq@@ 155
tausanit 155
ajunngitti@@ 155
aqujau@@ 155
pisimangi@@ 155
apakka 155
ilaurngata 155
aata@@ 155
inulirijikku@@ 155
utigijanga 155
ungniq 155
tavvangat 155
arunnarniarmata 155
qanutuinnattiaq 155
ingnirmut 155
lirinirlu 155
1,6@@ 155
nuqqaqtitti@@ 155
naujaarmi@@ 155
tusaruminaqtuq 155
sivuningani 155
iqaluttuuttiarmut 155
paal@@ 155
tavvanili 155
nauttiqsu@@ 155
avulli 155
guqqai 155
kingunittinnit 155
taiksuminga 155
artui 155
attaqtavut 155
saiji 155
niqaituq@@ 155
aanniaqvili@@ 155
gunnaqqaa 155
angiqtauvagiiqsimanngittut 155
gutinut 154
alang@@ 154
nalim@@ 154
gavamaqarvi@@ 154
alirmijuq 154
nunalingmi@@ 154
katimajini 154
minillu 154
piqutit 154
qiit 154
samu@@ 154
qanuittuma@@ 154
vvimmi 154
pigiaqtittijjuti@@ 154
anganiittuq 154
iqqanaijaqtiminik 154
kiinaujaqaqtittinirmut 154
malikkaj@@ 154
avittu@@ 154
immangaaq 154
tukisiaj@@ 154
utinni 154
llarinni@@ 154
sukattu@@ 154
atuinnautitsi@@ 154
atuinnaujunik 154
irijanginnik 154
muarisan 154
155 154
taujunnaqtuq 154
apiritti@@ 154
qujaulluni 154
imannail@@ 154
ariaqaqpat 154
uqausiqaqtunga 154
allarittut 154
nalunaijaq@@ 154
tuk 154
qanuiliurasu@@ 154
kannirni@@ 154
atuqattaqtavut 154
ministarijaujumut 154
nunalingannit 154
kiinaujanginnik 154
sulijur@@ 154
agas@@ 154
gasupp@@ 154
ikajuutaujut 154
maligaqta@@ 154
186 154
uangnanganut 154
2020 154
aqtauniarmata 154
iqqanaijarn@@ 154
siila 154
aklhutik 154
pitaqanngippat 154
tuinnakainn@@ 154
aturumaaqtangit 154
kuugaarjuk 154
armangaaqta 154
innaj@@ 154
taanna. 154
kiinaujaqtuutigi@@ 154
aijjuti@@ 153
sulijuqs@@ 153
pinngi@@ 153
uqausirisa@@ 153
qaumma@@ 153
nunaqaqqaaqsimaju@@ 153
aqutiq@@ 153
titiqqaqta@@ 153
llutikku 153
akitujut 153
piruqpalliaju@@ 153
tunngavigij@@ 153
gulait 153
ikajuraj@@ 153
taikanilu 153
parnautinginnit 153
utirvigini@@ 153
134 153
qikiqtarjuarmi 153
alluata@@ 153
attiarmat 153
makpi@@ 153
asingitigut 153
apiqsuqtauvimmi@@ 153
nuuv@@ 153
tuniuqqaqtau@@ 153
mijara 153
akausi@@ 153
pingasuit 153
arunniiqtuq 153
quliit 153
ttiani@@ 153
aqtanganit 153
panni@@ 153
qimirruq@@ 153
aliraigatta 153
tausa@@ 153
qalli@@ 153
aliqlhuni 153
simala@@ 153
pigiarunn@@ 153
naammasaqtu@@ 153
maligaliuqtinganut 153
aqtuqai 153
katimajjutittinnut 153
alauqtinnagu 153
nguna 153
marruungnut 153
kapi@@ 153
jumaliq@@ 153
pairiviit 153
simallunilu 153
sanannguaqtiit 153
ingirrajjutinut 153
anigui@@ 153
aaggaluunniit 153
aqtinginnut 153
jua@@ 153
mianiri@@ 153
alianaigusuppunga 153
y@@ 153
iqqaqtuini@@ 153
ilaannit 153
committee 153
innarij@@ 152
tatinnut 152
tamatsu@@ 152
aulagunn@@ 152
ujunillu 152
asaq 152
pijjutigijanga 152
qaujisaqpalli@@ 152
arnirilauqt@@ 152
aulauqtunik 152
akkanniraj@@ 152
qanulimaaq 152
qutikka 152
nui@@ 152
tuksirarunn@@ 152
kiinaujaqturutik@@ 152
arningata 152
piliriarigiaq@@ 152
iqqanaijaaksat 152
miunit 152
uqarumatuinnaqtunga 152
taqqini 152
tusarumatuinnaqtunga 152
apiqqutinganik 152
tusaqtitaulauq@@ 152
tusaqtitaulaur@@ 152
maannamaakkut 152
akkanirn@@ 152
151 152
123 152
vinnik 152
anngittumit 152
ilira@@ 152
utinganut 152
akiit 152
jumagalu@@ 152
taimaittun@@ 152
artilluta 152
saqqiiniq 152
takilli@@ 152
arutinginnik 152
aaj@@ 152
tamanna. 152
angiqatigijara 152
tukisinaqsitigi@@ 152
ttumi 152
lirijikkunullu 152
aarijau@@ 152
inirmut. 152
143 152
arumajakka 152
aniguqpata 152
asuuq 152
157 152
allavimmi 152
angusimajut 152
taimanngani 152
qaujigiatti@@ 152
uliqqat 152
inginnama 152
amigaqs@@ 152
upigijau@@ 152
qilalug@@ 152
iqalungnit 152
tamakkuning@@ 152
anngimma@@ 152
iqqaqtuivikkut 152
akkannirnik 152
iqqanaijaaksaq 152
&apos; 152
pinann@@ 152
qatsira@@ 152
angajuqqaangata 152
tamarmilimaaq 152
katimautiksaq 152
gattailaak 152
ujjirn@@ 152
maata 152
alaurmimmat 152
map 152
autaulauqtunut 152
ilinniaqv@@ 152
qimirruaqtau@@ 152
tauvanngat 152
unukallaktunik 152
aqraag@@ 152
aaqqiumagutinullu 152
makmalan 152
kamajiit 151
inulirijituqakkunnut 151
katuk 151
auji@@ 151
anaanaga 151
aniqsauni@@ 151
arniarutta 151
pijunnarningit 151
pijumajangit 151
quvianaqtuq 151
aqqutiit 151
qutittinni 151
upigijumallugit 151
ilinniaruma@@ 151
ullulimaaq 151
titiqtuq@@ 151
aqtitaulauq@@ 151
arning@@ 151
timiujumut 151
akuluit 151
qaujimannginnama 151
kiuqqau@@ 151
tauqattaqullugit 151
mangata 151
ilannga@@ 151
akituniqsau@@ 151
avigit 151
4mi 151
5mi 151
iqtuq 151
qanuqtuuruti@@ 151
simanngitavut 151
laurmijut 151
uqattalauq@@ 151
viujunik 151
qujannamiirumallunga 151
saqqittuma@@ 151
illulirij@@ 151
innginnama 151
piliriarijunn@@ 151
kaanturaanut 151
kaiv@@ 151
llarimmat 151
210 151
tukisiumagama 151
apiqqutiksa@@ 151
ilinniartiit 151
piqujivungaaqtuq@@ 151
aulaninganut 151
mmarittuq 151
illut 151
itillunga 151
kigu@@ 151
ru 151
ataqsinn@@ 151
pilirivvisi 151
apiqqutigijumaj@@ 151
aksanginnik 151
naigli@@ 151
qalu@@ 151
angininga 151
aksuruqti@@ 151
mamisarnirmut 151
quttinniq@@ 151
aanniarvik 151
ktillugu 151
naangmak@@ 151
arniraqtau@@ 151
ilinniaqtittiji@@ 151
saqqittu@@ 151
parnautinga 151
akinik 151
laukkit 151
nallianu 151
atiani 151
angajuqaaq 151
sivuniksauni@@ 151
unataqtus@@ 151
katimagjuti@@ 151
premier 151
aliksaantu 151
gavamakkun 150
jumav@@ 150
pigiaqtitsivunga 150
saannga@@ 150
iqatigij@@ 150
tsiar@@ 150
kajungi@@ 150
nalira@@ 150
gavamaujuq 150
unar@@ 150
auliqtuq 150
nalautsaaqtau@@ 150
alaang@@ 150
ilinniarviq@@ 150
ukali@@ 150
ministauvvi@@ 150
utigijariaq@@ 150
naks@@ 150
iluanngiliurutiq@@ 150
aupalu@@ 150
ilinniarniup 150
nalliannik 150
in. 150
piqutinit 150
uluri@@ 150
uqaras@@ 150
kiinaujaqturutiksait 150
attumini@@ 150
12. 150
17. 150
kanannanganut 150
takuti@@ 150
uqausirijumajara 150
qanigijangani 150
gumatuinnaqtunga 150
avit@@ 150
liqtunga 150
annginga@@ 150
umani@@ 150
apiqqutii 150
unikkaanit 150
kiujauni@@ 150
kiinaujalirinirmu 150
uqauji@@ 150
iluti 150
aaggai 150
ukata@@ 150
ikpiarjung@@ 150
qallunaatitullu 150
pilirianginnik 150
tikinnasu@@ 150
ulauqtunga 150
ariaqarninginnik 150
giniaqtangit 150
isauti@@ 150
sanajjuti@@ 150
arniaqtillugu 150
upigijuma@@ 150
tatalu@@ 150
aniri@@ 150
138 150
tamas@@ 150
isumaliuri@@ 150
taala 150
arnga 150
mittimatalimmut 150
uvaktu@@ 150
vigju@@ 150
inginniglu 150
saqtut 150
tunisiqattar@@ 150
lirijikkunnillu 150
uqaqsimalluni 150
kiks@@ 150
kangiqsinirmi 150
lhungalu 150
saan 150
ungai 150
katujjiqatigiikkut 150
uqausissakka 150
aulattijju@@ 150
uqallag@@ 150
uqautilauq@@ 150
ssainnaq 150
uqausirirataaqtanga 150
ungmat. 150
isumaksaqsiuq@@ 150
tutsirauti@@ 150
qangatasuuq 150
hml@@ 150
minilhta 150
saqqiinirmut 150
uumajurniaqtiit 150
nivingata@@ 150
iqaluktuutiarmi 150
aanniaqtailima@@ 150
taimaittuummat 150
pilai 150
angajuqqaaqp 150
angajuqqaaqt 150
taiguusiliuqti@@ 150
uinmiul 150
aksaujuq 149
nunavup 149
.... 149
takuna@@ 149
gavamatuqakkunni@@ 149
gasunn@@ 149
piqujali@@ 149
najuuti@@ 149
iniaqtavut 149
inuusirij@@ 149
utinu@@ 149
kangiqtugaapingmi 149
ippigij@@ 149
ttin@@ 149
118 149
tauqattaqtunut 149
jutinginni 149
sivur@@ 149
kajusigiarunn@@ 149
asinng@@ 149
titirarviq@@ 149
angiqta@@ 149
uqausiujuq 149
maligarni 149
maligalirij@@ 149
1970 149
alitu@@ 149
saqqitaulaur@@ 149
pilirijuq@@ 149
mittarvik 149
urmit 149
[...]
