#version: 0.2
a n
i n
t i
t a
t h
m a
u n
a r
l i
u t</w>
a q
t u
s i
a u
g i
m i
th e</w>
e r
a l
u q
an n
r e
q u
a k
e r</w>
g a
o n</w>
i t</w>
i r
e n
i l
i k
a t
a t</w>
i k</w>
in n
j u
i s
t o</w>
p i
o n
in g</w>
u l
a v
r i
a m
a ti
m r
mr .</w>
l u
s u
y o
o f</w>
t a</w>
o r
i t
m in
an d</w>
s a
i q
a mi
yo u</w>
un n
qu j
e d</w>
a p
i n</w>
c o
e s</w>
an k</w>
th ank</w>
p e
th at</w>
i s</w>
ti on</w>
quj ann
qujann ami
j i
min is
k u
in g
r o
m en
qujannami ik</w>
n un
c h
o r</w>
o s
si v
a s
a q</w>
t er
ta u
k i
v i
an g
l u</w>
u r
s pe
aq ti
e s
gi t</w>
aq t
ar n
co m
a li
p re
a s</w>
u ti
un g
ak er</w>
l e
g ut</w>
al u
si ma
spe aker</w>
a ir
f or</w>
a g
ap os
& apos
r a
&apos ;
@ -
@- @</w>
w e</w>
men t</w>
au j
li ri
an ga
t er</w>
au ta
w h
ma li
nun av
ch air
siv auta
a l</w>
aq tu
ta tion</w>
in ter
p ro
ma n</w>
o u
m ut</w>
ik k
am ma
ar i
d e
k k
ku a</w>
th e
inter pre
tu sa
m i</w>
a j
interpre tation</w>
chair man</w>
ann a</w>
ik sivauta
m e
a n</w>
m ma
t s</w>
q an
t ti
a c
h av
ar e</w>
an i</w>
a i
e l
minis ter</w>
n o
a tu
t t
k ati
at ta
er e</w>
l e</w>
l lu
an gi
u j
ung a</w>
c on
un i
m b
ak k
ti gut</w>
hav e</w>
i li
ma j
b e
t o
a ji
l y</w>
v er
a k</w>
tusa aji
amma lu</w>
b e</w>
e n</w>
g u</w>
ta ma
m a</w>
aq q
uq aqti
g o
au q
u t
on s</w>
ta i
il l</w>
th is</w>
tusaaji tigut</w>
mali ga
in u
p ar
d i
2 0
q a
g u
nunav ut</w>
p p
l o
a b
mi s
t ;</w>
ati on</w>
m e</w>
ul d</w>
c i
s o
c e</w>
it h</w>
er s</w>
uq au
minis ta</w>
an i
&apos; s</w>
a ma
s e
w ith</w>
aqt i</w>
li r
inn i
pi liri
ta ak
uq aqti</w>
s t
s e</w>
o p
me mb
a pi
ir mut</w>
k e</w>
ju q</w>
qu es
w ill</w>
maliga li
ju ti
j uq
un i</w>
iksivauta q</w>
gi j
in i
the y</w>
li q
v e</w>
o uld</w>
u ma
ki in
u v
kiin auj
t ut</w>
s ta
n i
q au
s an
ga v
mi k</w>
com m
d ing</w>
tu q</w>
aq ta
uqaqti i</w>
p a
h on
q qu
ing inn
taak kua</w>
liri j
pi j
un ik</w>
ai j
mis ta</w>
s t</w>
th ere</w>
r e</w>
r u
s o</w>
a ju
p or
w ould</w>
n e
ikk ut</w>
m an
kati maj
il inni
m anga
ta anna</w>
ou r</w>
uqau si
hon .</w>
m anna</w>
sima j
a y</w>
p u
al li
in git</w>
f i
ul lu
arn i
f or
nunav u
iksivauta aq</w>
l a
uq ti
h o
iq qan
ti ons</w>
juq qa
a su
at ti
ki si
iqqan aij
u p</w>
gav ama
a d
ing a</w>
n u
il a
anga juqqa
m y</w>
w as</w>
qau ji
un ut</w>
al l
u k</w>
unn i
go ver
gover n
p l
t e
qan u
ti k</w>
ti es</w>
ma ta</w>
th er</w>
no t</w>
au r
par t
am ma</w>
ann i
ta q
re s
e x
au l
un it
ta ik
g t;</w>
& gt;</w>
angi q
d s</w>
p o
w or
c an</w>
s on</w>
tu q
al l</w>
o ut</w>
d u
i f</w>
c h</w>
u g
govern ment</w>
aq p
p er
en t</w>
an ut</w>
c es</w>
g e
in irmut</w>
d o
ann gi
h e
de part
a ta
api qqu
al a
men ts</w>
at e</w>
v v
20 0
i g
l h
tai ma
a r</w>
at t
y e
t ed</w>
tu inn
ta manna</w>
m mi
t h</w>
li ke</w>
20 1
an git</w>
at a</w>
ma t</w>
d e</w>
n al
f ro
qu o
aqq i
kk ut</w>
fro m</w>
atta r
ang inn
com mi
t i</w>
ti ti
ques tion</w>
no w</w>
memb ers</w>
q i
tau j
mma t</w>
t r
ari aq
ir i
quo t;</w>
& quot;</w>
s er
u s
unit y</w>
d er
m o
t tu
llu gu</w>
atta q
k ing</w>
kati ma
ar v
a si
aqt ut</w>
llu git</w>
maligali uqti
depart ment</w>
s h
h as</w>
on e</w>
atu q
l l
ta r
re c
gi ar
i m
so me</w>
wh at</w>
0 0
in gi
il u
tama k
commi tt
su pp
h ou
q auj
sa q</w>
mali g
in ga
u k
committ e
il l
memb er</w>
an ik</w>
p on
ang a</w>
d o</w>
an t</w>
au se</w>
t y</w>
ver y</w>
is uma
nal un
n a
inn i</w>
nun al
m mi</w>
b y</w>
d ay</w>
apiqqu ti
un it</w>
comm unity</w>
&apos; t</w>
ar manga
pro g
es s</w>
ar u
au ti
i r</w>
inu it</w>
ati gi
m u
the ir</w>
il lu
ta vv
ag u
mma ta</w>
angajuqqa aq</w>
b ut</w>
uni ties</w>
tamak kua</w>
taik kua</w>
un ga
ta l</w>
c or
t u</w>
ar ra
ab le</w>
ser vi
s aq
committe e</w>
ag re
in ut</w>
be en</w>
mi t</w>
v ut</w>
c l
iq alu
res pon
ar d</w>
it tu
a anni
o l
e m</w>
c t</w>
f e
comm unities</w>
j a
o f
tusa aj
a d</w>
ati ons</w>
g e</w>
ul lu</w>
t ing</w>
ar lu
wh en</w>
o ther</w>
pi i
unni it</w>
in ir
v er</w>
con t
os e</w>
f in
t un
lir inirmut</w>
sa n</w>
ge t</w>
s au
d er</w>
an ce</w>
v alli
b le</w>
ar vi
el l</w>
unn ut</w>
al ly</w>
ik aj
p le
tau q</w>
akk ut</w>
ti me</w>
n ir
m or
pe op
al u</w>
al so</w>
peop le</w>
en ts</w>
ques tions</w>
ir ala
b u
go ing</w>
ac t</w>
c ur
ul i</w>
j au
kisi ani</w>
u p
lo o
l li
ab out</w>
ar unn
un inga</w>
g a</w>
uj ut</w>
nun ali
p ri
servi ces</w>
gi aq
sta te
aqtu q</w>
inginn ut</w>
he al
ikk a
ul auq
katimaj irala
siv u
b o
, 00
u r</w>
at tu
to o</w>
r r
du c
at ta</w>
f un
i v
inn ut</w>
pro vi
ju st</w>
si r
s ing</w>
lirij ikkut</w>
si m
ang u
g h
w ere</w>
tu k
uti q
l lu</w>
to o
at ed</w>
is su
tusaaj ikkut</w>
ye ar</w>
f ir
ci al</w>
re por
wh o</w>
ag e</w>
s aqqi
as e</w>
a m</w>
yo ur</w>
it em</w>
un ikka
ji i</w>
ma r
alu k</w>
tu ra
a it</w>
th ose</w>
heal th</w>
uqaqti tti
,00 0</w>
ar a</w>
in c
j o
unn gi
o o
k now</w>
iqalu it</w>
simaj ut</w>
qi mi
d ed</w>
tu r
lirij ikk
ikaj uq
k an
ji it</w>
malig ak
t si
ik aju
k ama
tai ma</w>
an s
u q</w>
mor e</w>
v el
es e</w>
in ik</w>
an y</w>
titi r
th ese</w>
per son</w>
m s</w>
s ch
al auq
s ti
ul l
a tau
ju ma
qauj is
av ut</w>
ho w</w>
ma t
e l</w>
m on
nalun a
ar mata</w>
ta un
ar s</w>
siv ul
k a
s am
st an
the m</w>
gavama kk
too too</w>
pi gi
ann ir
of fi
wor k</w>
sa it</w>
su r
ap p
h e</w>
as t</w>
tu s
pi quj
liq pa
nu ta
vi e
in for
be c
b ill</w>
c u
s i</w>
il lu</w>
ju k</w>
pij juti
com e</w>
ta uq
fir st</w>
m s
uqaqtitti jii</w>
le t</w>
ali ma
v alu
ul u
&apos; re</w>
li ma
p arn
pe ter
peter son</w>
nunavu mmi</w>
ter s</w>
c al</w>
k aju
bec ause</w>
it ti
c er
r am
a f
w e
de vel
ra m</w>
ali k</w>
qauji ma
ali r
prog ram</w>
katimaj juti
is u
t or
hou sing</w>
atu inn
j e
pii ta
ri j
i j
in di
l auq
on al</w>
ms .</w>
m ann
tu kisi
piita san</w>
titi q
tu tu</w>
a aqq
w n</w>
maligaliuqti it</w>
l l</w>
arra agu
en ds</w>
t e</w>
n am
f er
un unga</w>
ro ug
re vie
c c
al aur
ini q</w>
repor t</w>
gh t</w>
naluna iq
cor por
ar mat</w>
il angit</w>
iqqanaij aqti
k e
an it</w>
aq sima
minis ta
maligali ur
ta k
un gi
t ra
m p
ga j
c ti
in asu
h ad</w>
b li
uq alima
mma ri
supp or
gi s
uqau s
al s</w>
d is
su re</w>
aq tau
f u
ma k
maligali uq
it t
ta akk
sivu liq
qanu q</w>
un a</w>
e ment</w>
ti t</w>
a ga
ap pro
unn aq
chair person</w>
e duc
ta inn
u ju
ak i
co l
si on</w>
ne w</w>
ti k
devel op
pro c
a aqqi
n g
th in
i ma
inn ik</w>
am a</w>
tama kk
uti k</w>
tu re</w>
ing n
d ers</w>
f ac
hou se</w>
u juq</w>
gis l
d on</w>
agre ed</w>
le gisl
infor ma
s tu
w ant</w>
tar y</w>
am i</w>
k ing
ak ili
nir u
in iq
col le
mi k
informa tion</w>
qimi rr
h ere</w>
gavama kkut</w>
g o</w>
thin k</w>
si ble</w>
h i
&apos; m</w>
k s
nunavu mmi
t ly</w>
e v
y ing</w>
ar mi
ma ke</w>
t ta</w>
c y</w>
ul a
supp le
educ ation</w>
wh i
c an
t tuq</w>
ma anna</w>
whi ch</w>
men tary</w>
o un
c en
le y</w>
ig lu
ann g
re g
g ni
au t
t en
y s</w>
si man
a w
am p
n ak
th roug
u s</w>
supple mentary</w>
ar uti
ar ju
qu ti
o ri
mb er</w>
uv valu
t unn
kaju si
aqti tti
s es</w>
ill s</w>
suppor t</w>
o d</w>
api q
o k
n iq
ati ve</w>
wh ere</w>
h is</w>
akk a</w>
ing s</w>
aj ji
ga t</w>
ki uj
g unn
ma ann
tt ut</w>
in to</w>
fun ding</w>
min ga</w>
co uld</w>
ali q
pro je
tama tu
inginn ik</w>
aqtu q
inn gi
as se
su k</w>
ila ak</w>
ta p
min i
ta uni
stan ding</w>
t tauq</w>
cur ley</w>
r an
i i</w>
c ul
corpor ation</w>
ar aj
aqt unik</w>
ila giar
ta l
su m
tavv ani</w>
re co
es t</w>
th ing</w>
kama gij
ga su
u ki
j j
li ur
pi valli
arn ir
co un
un der
to day</w>
ku uli</w>
as ed</w>
s uq
as si
m mut</w>
at si
uvvalu unniit</w>
revie w</w>
ati q
ar ri
be ing</w>
state ments</w>
w i
w ell</w>
n o</w>
p en
p ut</w>
pre s
stu d
il auq
as s
qauji maj
ir n
pu bli
asse mb
ta ku
ur lu</w>
c api
en er
k ti
develop ment</w>
op er
si l
qu vi
armanga ata</w>
p os
a ari
inn gu
ac k</w>
e f
reco gni
sivul liqpa
th ou
tau v
ug alu
as k</w>
ili ty</w>
po si
capi tal</w>
b l
tainn a</w>
l i</w>
o pp
or al</w>
u si
ann u
k ed</w>
throug h</w>
provi de</w>
c tion</w>
pij ari
sta f
ik ku
katimajirala at</w>
qu i
uq q
pl ac
nunal inni</w>
wh o
con si
ti tti
maligaliuq ti</w>
state ment</w>
con cer
ne ed</w>
b ills</w>
re d</w>
uti gi
loo k</w>
t uni
s aqq
aqt unga</w>
iq q
in let</w>
inn it</w>
ou s</w>
so me
ak a
p inga
publi c</w>
mo tion</w>
ik u</w>
unn i</w>
ami k</w>
sa i
su urlu</w>
unn it</w>
mi lli
assemb ly</w>
o ver</w>
l uni</w>
ju t
man y</w>
ap iri
maligak saq</w>
b ay</w>
manga ata</w>
mu ch</w>
ilinni aqtu
pu gut</w>
se e</w>
pijjuti gi
. .
an iq
k s</w>
atu r
milli on</w>
ta bl
tr ans
pi taq
do cu
ta ke</w>
1 9
it tuq</w>
re a
ok alik</w>
tau sima
il ak</w>
aki tu
who le</w>
al ak</w>
cc o</w>
o t
un der</w>
pi cco</w>
mi li
it s</w>
ga q</w>
gi v
oo l</w>
1 0</w>
sch ool</w>
l in
anga t</w>
l aur
spe ci
sivuliq ti</w>
l ast</w>
ami su
p ir
g alu
for e</w>
uk ali
t w
k in
the n</w>
respon sible</w>
u ta
pl an</w>
di rec
t s
arn irmut</w>
prog ram
ye ars</w>
me e
s uli</w>
uqausi q
iqqanaij a
aq attar
arni q</w>
e mp
ukali q</w>
z e</w>
g y</w>
katimajjuti k
ti gu
uqausi kkut</w>
h el
in ing</w>
an il
staf f</w>
al i</w>
ar uma
unn g
di f
1 2</w>
bu il
issu e</w>
wor king</w>
tau juq</w>
pre mi
k tu
auj ut</w>
c ts</w>
en ing</w>
so cial</w>
re s</w>
ga ma</w>
tai manna</w>
go od</w>
tauj ut</w>
ing anut</w>
aari ak</w>
av v
ullu git</w>
v ed</w>
ari j
re n
on g</w>
maliga q</w>
st r
rea ding</w>
a i</w>
ma p
j ut</w>
w er</w>
se con
p at</w>
m ani
bu d
un iq
a il
katima jiit</w>
inc lu
aq lh
kan ata
angajuqqa a</w>
program s</w>
fe der
li k</w>
ik u
premi er</w>
ag lu
inc re
ju maj
tw o</w>
cont ra
sa y</w>
a al
llu ta</w>
gij au
ar alu
c le
r is
si q
wi th
tama ani</w>
ti llugit</w>
co ur
aq attaq
ci p
iri j
av i
feder al</w>
lu gu</w>
titiq q
emp lo
tai mann
kiinauj ali
uq tu
lirijikk unnut</w>
n or
d en
aaqq ik
s in
anginn ik</w>
maligaliur vi
iq ta
ajji gi
1 5</w>
0 0</w>
san ik</w>
e ve</w>
v es</w>
ki g
pro b
ma tu
p inasu
po li
n uqq
n s</w>
av ik
cont inu
p au
d ate</w>
be fore</w>
sh ould</w>
ter ri
n ik</w>
q il
el li
vi si
katima ji
l angu
nu mber</w>
kk a</w>
p ur
en d</w>
legisl ative</w>
k il
kk aq</w>
u ri
piliri v
ullu mi</w>
pi iku</w>
jj iq
ku su
or t
re so
tor s</w>
it sivauta
mar ru
b ack</w>
p alli
sima ju
ali at</w>
el y</w>
ak ku
k attu
unn ik</w>
ap pl
res s</w>
e y</w>
indi c
i mma
ot t</w>
aga in</w>
es s
anginn ut</w>
uti t</w>
g ra
elli ott</w>
an s</w>
il d
in v
ma y</w>
2 0</w>
can ad
b us
inginn i</w>
canad a</w>
am ut</w>
y uk</w>
lo w
aanni aq
na amma
ac h</w>
akk u</w>
tt ing</w>
uqaus ingit</w>
san it</w>
b ri
1 3</w>
ma de</w>
be li
lu tik</w>
pu q</w>
j unn
opp ort
kattu k</w>
h u
q ik
ann ik</w>
ar ds</w>
bud get</w>
c re
isuma alu
ul aur
ar e
com ments</w>
po in
i aliat</w>
un a
in it</w>
cti c</w>
anil i</w>
k atu
ar ctic</w>
consi der
at ing</w>
kiinauj ait</w>
tra ining</w>
ar atta</w>
re gi
piliri q
fi c
s s
com ple
w ard</w>
mi s</w>
lir inir
d ge</w>
ir ju
ri ght</w>
plac e</w>
m es</w>
pi q
ar asu
q anga
on ly</w>
pij unn
king ul
appl ause</w>
uq aq
an u
proc ess</w>
arv aluk</w>
y es</w>
r mi
at es</w>
issu es</w>
beli eve</w>
ar mi</w>
nunavummi ut</w>
il li
aqt unut</w>
cen t
f ami
bus in
angi ttu
ann iq
ga tta</w>
u u
c us
aqtu gut</w>
au juq</w>
nalunaiq si
ta ble</w>
ka an
unni iq
u se</w>
f e</w>
ai pp
pi v
na as
a ys</w>
si d
ar r
ne e
llu tik</w>
colle agu
kisi anili</w>
is sivauta
p atta
simaj unik</w>
1 6</w>
t .</w>
ar y</w>
con s
1 1</w>
ar ut
por t
an ir
d ur
p age</w>
vi du
indi vidu
ut .</w>
e ar
tuq tut</w>
iqqanaij aqt
man ag
pe ter</w>
arra ag
rec e
aq si
be t
de p
ch ang
dif fer
el ders</w>
uti k
ili qqu
k in</w>
es ti
arn iq
san aj
ll unga</w>
lo t</w>
ur mi
ma in
1 4</w>
katimajjutik saq</w>
n ing
aq qu
su ru
saq si
com men
pii ta</w>
for ward</w>
w ay</w>
ann ut</w>
nunal ingn
nunali it</w>
sta r
aqta r
f is
piquj iv
c am
mon ey</w>
lo c
gu ma
iq al
agre e</w>
su b
at e
kiinauj aq
ta as
wh y</w>
appro pri
uq su
ai r</w>
pigi aqti
en ce</w>
tauj unn
s y
loo king</w>
aqp at</w>
sh i
inginn it</w>
u su
ta ulauq
uti it</w>
stud ents</w>
re e</w>
nunavu u
j juti
ut y</w>
k tuq</w>
g ener
tamakk uninga</w>
n iri
minis ters</w>
us ed</w>
me di
h ig
uq ati
kil ab
kilab uk</w>
ullu gu</w>
aul l
ak s
im port
ti llugu</w>
d one</w>
ga ta</w>
piliri vi
dur ing</w>
aqta vut</w>
st ru
ur n
with in</w>
v unga</w>
le v
si g
ran kin</w>
er y</w>
pi si
h er</w>
k ku
cur ren
k angiq
do es</w>
ilagiar ut</w>
con o
w el
f ol
e cono
op ening</w>
to tal</w>
tau ju
ri aq
tun a</w>
sima ilak</w>
ilinni aqti
ad d
tap tuna</w>
un ir
os t</w>
inu k</w>
attaq tut</w>
qil avv
dep uty</w>
ti onal</w>
ilu ani</w>
anngi ttu
patta tuqtut</w>
proje ct</w>
piqujiv unga
w ri
g ro
li uq
tr y</w>
a ch
u tti
kiuj juti
aqq au
r ing</w>
ta vut</w>
pij itti
com p
no ti
secon d</w>
v a
in i</w>
qanu ili
il u</w>
o t</w>
aqtu mik</w>
a gut</w>
g h</w>
e le
angi r
san ut</w>
wh e
h un
lu git</w>
lh u
ma ʼ
arv a
inn g
1 8</w>
su minga</w>
un ingit</w>
w is
av ail
sa anut</w>
assi st
1 7</w>
af f
trans por
par t</w>
aqta uq
taima li</w>
oper ations</w>
sai d</w>
ak e
kaan tura
st and</w>
aqti llugit</w>
langu age</w>
it tuq
x t</w>
am s</w>
re l
kanata mi</w>
mi c</w>
ga k</w>
ac c
sti tu
ili ties</w>
lirij irju
amma lu
uqausi r
j ju
g all
ata aq</w>
ing ani</w>
lo w</w>
ta pa
wor k
sam e</w>
o ur
taima ak</w>
respon se</w>
par ti
iq aq
busin ess</w>
se e
th er
d juk</w>
uti gij
uqausi ri
ap ir
men tal</w>
h a
ta par
ti g
re qui
inu kti
avail able</w>
ini ti
gall ery</w>
pau l</w>
k suk</w>
qilavv aq</w>
su ch</w>
tapar djuk</w>
t ri
b en
s el
map s
differ ent</w>
c ted</w>
q ut</w>
t unut</w>
s avik
whe ther</w>
z ed</w>
mma qqu
re commen
v ing</w>
armanga aq</w>
sam m
c are</w>
kiinauj anik</w>
reso ur
akk annir
mo ve</w>
ti mi
sima juq</w>
n ut</w>
3 0</w>
&apos; ll</w>
ut h</w>
atti gu</w>
arlu tik</w>
t inut</w>
sim anngi
201 0</w>
ne xt</w>
nunavu mi</w>
ak is
ak saq</w>
ake suk</w>
savik ataaq</w>
pijjutigi llugu</w>
ll ars</w>
t unik</w>
hav i
di d</w>
katu jjiq
do llars</w>
proc e
arva arlu
ar a
d es</w>
it e</w>
u mi
tor y</w>
angiq pugut</w>
ingi r
ta ikk
ang ani</w>
dis cus
transpor tation</w>
pi mmari
amp le</w>
hel p</w>
poli cy</w>
gi ve</w>
t ru
posi tions</w>
aanniaq arn
import ant</w>
yo uth</w>
n alli
q am
ex ample</w>
sy st
tamatu m
ar k</w>
nak urmi
or der</w>
tr ying</w>
bo ard</w>
f ur
prob le
f ul
re tur
au p
taak ku
mat es</w>
k no
ev en</w>
arvaarlu k</w>
1 9</w>
tuk sir
gavama tuq
s p
g ini
ili s
ingir ra
manag ement</w>
ik .</w>
th an</w>
lin e</w>
piliri aq
com ing</w>
ple ase</w>
fin ance</w>
v e
h am
v ir
min ik</w>
ra is
opport unity</w>
aqt uni</w>
cl ause</w>
a inn
ti tt
uj unik</w>
cent re</w>
l ak
econo mic</w>
r ju
th ings</w>
akis uk</w>
uj unut</w>
ann gu
nee ds</w>
n g</w>
ch ild
re ad
ar ama</w>
th ree</w>
ta ann
m ost</w>
q all
en cy</w>
fami ly</w>
i al</w>
oo k</w>
liri ji
m ullu</w>
uj j
offi ce</w>
se t</w>
nuta ra
ing anik</w>
tabl ed</w>
some thing</w>
ti gu</w>
ad di
continu e</w>
sti ll</w>
qimi r
quvi asu
l ong</w>
apiqquti it</w>
qa i</w>
p ilu
angiq pisi
l and</w>
aqtar a</w>
katujjiq atigi
ear li
en ook</w>
ri alu</w>
iqaq rialu</w>
taakk ununga</w>
re ques
gu uq</w>
tu ki
maligaliur v
under stand</w>
il inga
201 4</w>
maps alak</w>
ikaju r
il aur
ta ri
minis t
ac tu
at tut</w>
atuq tu
ut inut</w>
n i</w>
il ing
aqtu r
ann i</w>
g ani
mis tu</w>
proje cts</w>
kingul liqpa
aul auq
mma r
g i</w>
w on
apiq qut</w>
p ra
as i</w>
v o
b ro
en g
s ts</w>
con stitu
den ti
anginn i</w>
m manga
tu mi</w>
2 2</w>
tt en</w>
fin an
pp at</w>
tr av
maann aujuq</w>
akili q
nutara k</w>
angiq atigi
ori ty</w>
offi ci
ull uni</w>
earli er</w>
h app
l d</w>
sima liq
uki uq
aul atti
i mmat</w>
p ul
sim ang
ann gat</w>
en vir
pa al</w>
docu ments</w>
envir on
fu el</w>
ung u
do wn</w>
ho me</w>
read y</w>
s and</w>
n atti
kk alu
uj a
uq arunn
titir aq
s un
thou sand</w>
do ing</w>
pa a</w>
ung inn
or gani
q ar
ni uv
kangiq lh
t ta
re ak</w>
q attar
to ri
arn ut</w>
tamakk ununga</w>
ikk arri
ati gut</w>
1 5
c k
offici als</w>
it y</w>
t or</w>
wel come</w>
af ter</w>
sum unga</w>
gener al</w>
resour ces</w>
mili an</w>
agre ement</w>
kk annir
we e
fur ther</w>
aul aj
ang anut</w>
h ap
q a</w>
par a</w>
sh e</w>
qi ti
g re
qu llugit</w>
hon our
an ik
ten ance</w>
main tenance</w>
2 1</w>
uti llugu</w>
pi qa
nakurmi ik</w>
wri tten</w>
un git</w>
mini q</w>
re spe
c ri
add ress</w>
per i
1 0
so ci
as ked</w>
ans wer</w>
inukti tut</w>
ti ve</w>
incre ase</w>
taik ani</w>
fac ility</w>
syst em</w>
co st</w>
honour able</w>
emplo ye
201 5</w>
on ce</w>
mee ting</w>
ila gi
201 1</w>
nam min
qimir ru
m u</w>
armanga at</w>
ju sti
shi p</w>
201 3</w>
esti mates</w>
tunn gasu
aqp ut</w>
aqti llugu</w>
aqtu tik</w>
u maj
q atti
pl ann
n ur
ali it</w>
consider ation</w>
si ons</w>
tu g
angi rr
a p</w>
3 1</w>
e p
s ma
servi ce</w>
mo tions</w>
f r
w ays</w>
t re
str ate
lak e</w>
pres en
re n</w>
ing mi</w>
pijitti r
su li
anginn it</w>
re sid
pivalli aju
an other</w>
arraagu tama
am oun
iliqqu si
uq tuq</w>
ar luni</w>
organi z
f y</w>
reg ul
atau si
t y
ta am
v in</w>
aqq a
un asu
il e</w>
uqalima aqta
child ren</w>
inn ga
aup alu
aq atta
re as
w an
buil ding</w>
i mi
aipp a
u uma
it tut</w>
qu ite</w>
av ati
tabl ing</w>
d y</w>
e ach</w>
san git</w>
or ders</w>
ullu tik</w>
cor rec
cl ari
fu ture</w>
tamatu minga</w>
li fe</w>
docu ment</w>
tura anga
an y
concer ns</w>
aq ai</w>
2 5</w>
w s</w>
i manna</w>
201 2</w>
qall una
recogni ze</w>
s ou
sin ce</w>
ma ta
ar ding</w>
bri dge</w>
lh utik</w>
hig h</w>
la r</w>
au th
an irmut</w>
de li
d n</w>
ammalu ttauq</w>
justi ce</w>
ti mes</w>
in u</w>
b aker</w>
provi ded</w>
at er</w>
n ali
en sure</w>
av ik</w>
ju mik</w>
ikkarri aluk</w>
wis h</w>
p inngu
legisl ation</w>
san ik
lu ta</w>
qanga ta
im pro
de al</w>
ti llu</w>
taakk uninga</w>
ple ased</w>
n ing</w>
aupalu ktuq</w>
annu al</w>
al ak
200 9</w>
aglu kkaq</w>
f t</w>
ugalu aq</w>
si ut
tu gut</w>
t es</w>
cle an</w>
ukiuq taq
issivauta aq</w>
o k</w>
com mis
poin t</w>
ener gy</w>
ami s
tt unga</w>
ati onal</w>
ik s
ll uni</w>
tusaaji tigu
p ata</w>
as king</w>
h an
th o
aqt unit</w>
v en
ang anik</w>
ni q</w>
ilinni arvi
taakk un
aw are</w>
mmaqqu ti
de ci
v is
2 5
c tions</w>
ti on
inn iq
recogni tion</w>
sanik ilu
uj unit</w>
i pp
cl er
n ed</w>
fu l</w>
t uni</w>
ti tau
.. .</w>
rece iv
assist ance</w>
p ati
ol t</w>
nunalingn i</w>
pijari iq
s ed</w>
o b
depart ments</w>
cons ul
si b
ris e</w>
ilinni arv
cler k</w>
pri v
qik iqta
2 4</w>
ru mb
p ang
200 8</w>
finan cial</w>
sta ted</w>
rumb olt</w>
si tu
e c
1 4
minista it</w>
ak sa
piliri ang
ak ittu
19 9
terri tory</w>
nunav ut
ho we
howe ver</w>
k sa
kiinaujali rij
imma qa</w>
thou gh</w>
c ap
os ed</w>
es ter
e very</w>
in come</w>
aq puq</w>
ex pen
th ir
colleagu es</w>
ag es</w>
tuinn aq</w>
uv att
lo cal</w>
colle ge</w>
taq q
au la
m mangaata</w>
uj ar
qimirr un
tu u
tt unik</w>
mak ku
respon d</w>
visi tors</w>
sta tu
indic ated</w>
pl ans</w>
aqta q
ci l</w>
o wn</w>
fin al</w>
oun d</w>
i vi
ang nak
b arn
katima tuinn
angnak ak</w>
kusu gak</w>
cam bridge</w>
al lir
coun cil</w>
minis taujuq</w>
barn ab
ar mut</w>
barnab as</w>
ajjigi inngi
terri tori
resid ents</w>
arn akk
fol low
qu lli
c ture</w>
al lu
sivul li
n a</w>
c ase</w>
ke ith</w>
as es</w>
ta ul
recommen d
2 6
taun ingit</w>
n ess</w>
su i
uqaus inga</w>
qa it</w>
ter min
t ro
ram pu
ben ef
ci es</w>
an ap
uq aqqau
s s</w>
atu li
e p</w>
anga ta</w>
ki it</w>
hi m</w>
re ally</w>
unniiq tuq</w>
pinga ju
giv en</w>
un ilu</w>
repor ts</w>
ju gut</w>
cul ture</w>
contra ct</w>
fis cal</w>
qan git</w>
i denti
uq qu
201 6</w>
aanni av
uq auj
ol s</w>
e d
tu sau
respe ct</w>
app li
j i</w>
posi tion</w>
parn auti
rampu ut</w>
ar ti
arnakk aq</w>
thir d</w>
kig g
co sts</w>
qujannami iq
attar n
t unga</w>
re fer
b ased</w>
atau p</w>
es ses</w>
m clean</w>
inv ol
atuq tau
trav el</w>
fi ed</w>
aqp a</w>
environ ment</w>
a gi
ku ap
s iniq</w>
k isu
tun gi
1 3
u tau
ty p
aju r
tunn gav
atu ag
2 3</w>
m uni
amoun t</w>
mi ut</w>
ap pre
e ver
won der
fin d</w>
fac ilities</w>
kusu gaq</w>
im ple
amp ;</w>
& amp;</w>
ever y
taq qi
ari jau
sivuliq ti
pa anap
offi c
u m</w>
kan ataup</w>
con stru
tauj ariaq
aka inn
s ini
te ach
o w
ex pe
nalun air
h er
ut inik</w>
tuk is
ma mi
g r
0 ,000</w>
unikka ali
m mik</w>
ro ss</w>
1 8
qauj ikk
itsivauta q</w>
aglu u
appropri ation</w>
itt unik</w>
uqau ti
employe es</w>
plann ing</w>
g lu
maligaliuqti uqati
uv v
k ikku
uk ku
si on
or s</w>
si la
mar ch</w>
uq attaq
arn ik</w>
cont ri
ex p
ur unniiqtuq</w>
individu als</w>
ili taq
ak tu
muni cip
agluu kkaq</w>
committe es</w>
inga t</w>
q attaq
unit s</w>
au p</w>
v ik</w>
p ast</w>
arvi at</w>
s he
pij it
n it</w>
uqausi rij
emplo y
aanni aqtu
sima lir
kiinauj at</w>
qu tti
actu ally</w>
nor th</w>
uti r
inn a
mi kk
strate gy</w>
aqp unga</w>
medi cal</w>
akitu ju
pinasu aru
pro pos
s ho
ar juk</w>
iqq aqtu
ma in</w>
gij a
&apos; ve</w>
uqsu alu
200 4</w>
s en
to k</w>
1 6
hav ing</w>
ta ge</w>
bet ter</w>
ka inn
ar mik</w>
speci ally</w>
1 7
lev el</w>
u liq
e specially</w>
c ent</w>
ikaj uqti
all ar
ch air</w>
isu li
p ula
apiqquti gi
mik saanut</w>
sch o
fun ds</w>
f o
200 7</w>
h ar
b aff
baff in</w>
m er</w>
pijjuti q
in e</w>
v u
li es</w>
mp son</w>
aq ullugit</w>
tho mpson</w>
al ready</w>
cer ta
ma y
ac ross</w>
star t</w>
w o
uj au
amma ri
pe n</w>
auj unik</w>
ga tti
nal lu
amma ta</w>
h op
attar mata</w>
o c
lima at</w>
wan ted</w>
p illu
nunavuu mi</w>
tar a</w>
tavv unga</w>
tavv a</w>
alak annu
ra j
may be</w>
ig l
h t</w>
sima mmata</w>
sou th</w>
g g
ug yuk</w>
h ik
tap tu
paanap as</w>
ter ms</w>
he ar</w>
s h</w>
gavamakk unnut</w>
atuli quj
ar reak</w>
qujannami ir
p er</w>
uuma ju
v uq</w>
qu ir
maligaliuqti up</w>
aqti tau
ul u</w>
itsivauta aq</w>
hi ck
hick es</w>
se ar
maʼ nallu
ti ki
200 2</w>
pi li
la in</w>
o ver
scho ols</w>
v it</w>
b asi
liri jiit</w>
kiinauj alir
taptu una</w>
per cent</w>
ullu mi
mmi t</w>
u ut
arn gat</w>
ingirra ju
qangata su
katimaj ingit</w>
ikajuq tu
w ing</w>
sel f</w>
con c
are a</w>
a sa
att inni</w>
work ers</w>
f oo
ou t
pi giar
a aq
arn gata</w>
tal king</w>
hav en</w>
tak en</w>
k ami
c k</w>
ingi llu</w>
qu t
inn ir
sivulliqpa amik</w>
ho me
to ge
regi on</w>
ta il
toge ther</w>
hik s</w>
re p
c ed</w>
tamatum unga</w>
00 ,000</w>
mali k
hap s</w>
200 3</w>
maʼnallu avik</w>
akk it</w>
tu l
proce ed</w>
per haps</w>
en tly</w>
akitu juq
comple ted</w>
taam san</w>
kati man
ati ves</w>
i si
200 5</w>
sa k</w>
wh ile</w>
po wer</w>
res ul
tau p</w>
ge tting</w>
wonder ing</w>
ki aq</w>
200 6</w>
min g
ingi ta</w>
w ak</w>
me n</w>
ung wak</w>
mikk ungwak</w>
h ard</w>
2 6</w>
is i</w>
ga s
b est</w>
u pp
t ment</w>
li st</w>
qaujimaj atu
u mmat</w>
ang ujut</w>
7 5</w>
ta mann
statu s</w>
uti li
ou s
inngu aq</w>
ing mut</w>
nun aq
w it
aanni asi
sima juq
gavamakk ung
siv un
ki v
acc ess</w>
aaqqi gi
c arri
apiqquti t</w>
piliriq atigi
g in
arni ar
kan a
pi lir
curren tly</w>
individu al</w>
ta ilak</w>
en d
atu liq
siv au
f er</w>
ullu ta</w>
2 4
r ul
n gu
aru maj
por t</w>
we en</w>
sh or
n ang
at si</w>
aqtu mi</w>
ous ly</w>
up date</w>
bro wn</w>
fi ve</w>
uq aqsima
kno w
nir tun
tau ti
5 0</w>
ju an
ann iri
b ring</w>
pres ent</w>
e qui
c a</w>
t ell</w>
fr as
ch uk</w>
e t</w>
mat ter</w>
ga n</w>
kiinauj aqta
au n</w>
w chuk</w>
she wchuk</w>
curren t</w>
2 8</w>
tusaajitigu urunniiqtuq</w>
pinga s
isu mali
nam miniq</w>
know le
pro duc
anngi ttuq</w>
at tuq
at tauq</w>
sa ij
g n</w>
200 1</w>
mik innguaq</w>
ak uni
ta lli
al loc
hu man</w>
en cour
i at</w>
fi c</w>
aqti tt
im p
mma q
su cc
uq all
maligak sanit</w>
b r
in fras
infras tru
bet ween</w>
tion ed</w>
commis sion
respon sib
jo h
pos sible</w>
av ittuq
unni ir
spe ak</w>
ut i</w>
inclu ding</w>
en ti
ac ti
ar ound</w>
m er
an u</w>
parti cul
aanniaqarn angittu
appre ci
ki valli
ung mat</w>
an ittu
infrastru cture</w>
au d
uti s
maligak sait</w>
ar ms</w>
ta g
k saqsi
wee k</w>
uj aq</w>
tukisi giar
ar tu
me ot</w>
asi e</w>
qaujimajatu qangit</w>
s es
ori ties</w>
nunal innut</w>
colleagu e</w>
ki tik
it .</w>
taik ku
siut sak</w>
kitik meot</w>
de termin
g lu</w>
i p
bo dy</w>
n ingi
maligaliurvi mmut</w>
tuk si
ilinniaqtu lirijikkut</w>
pre vi
de al
sear ch</w>
pang nirtun
pangnirtun g</w>
jo an
piliri vv
de sig
ugalu at</w>
kin d</w>
carri ed</w>
auj unn
receiv ed</w>
kk anni
l ar
sa ying</w>
joan asie</w>
follow ing</w>
fi ci
simaj unut</w>
lirijirju akkut</w>
es ta
ning ark</w>
ma king</w>
atau sir
at tigut</w>
inir mik</w>
ju it</w>
addi tional</w>
sim ani
ap pe
p ment</w>
y ak</w>
aw ak</w>
an awak</w>
qam anittu
tu av
iq qau
ku glu
u l</w>
situ ation</w>
di dn</w>
pi ta
proble ms</w>
taima ittu
juan asi</w>
mat ters</w>
ati tti
mi ke</w>
u vi
tt le</w>
isuma ksaqsi
pro te
juti it</w>
ma ki
ham let</w>
ll ar
akitujuq tur
iqal unni</w>
b i
angiq tau
constitu ents</w>
r in
ami t</w>
as soci
men tioned</w>
i de
k saq
ak sur
chang e</w>
equi pment</w>
200 0</w>
pul ar
imple men
6 7</w>
inu usi
ma ik</w>
commission er</w>
air s</w>
i gu
q qauj
prog ress</w>
iqqanaij aq
as inginn
gavamatuq akk
kivalli q</w>
re presen
aqp alli
samm ur
attar ni
pir i</w>
ke ep</w>
sammur tok</w>
simaj unit</w>
tt unut</w>
tapa arjuk</w>
inn gaq</w>
fun d</w>
t su
esta bli
concer n</w>
pe ti
al la
k is
ktu k</w>
ther n</w>
provi ding</w>
employ ment</w>
1 ,
ag u</w>
ini up</w>
vi sion</w>
kiinauj aqtur
invol ved</w>
he ard</w>
ak tut</w>
retur ns</w>
n ani
her i
ra ta
li ttle</w>
er ship</w>
amma ttauq</w>
an aru
nu tar
kig ga
mi tti
qiti rmi
f act</w>
arlu gu</w>
isuma gij
kuglu ktuk</w>
g uq
aq juk</w>
2 3
ttu git</w>
w in
ful ly</w>
un ti
conc lu
spe cial</w>
kiinauj anit</w>
ug juk</w>
sima mmat</w>
c tor</w>
recommend ations</w>
y er</w>
h al
niru aqtau
un g</w>
speci fic</w>
p uq
vi gi
un irmut</w>
ab ly</w>
n inngaq</w>
unti l</w>
p ali
4 0</w>
us ing</w>
noti ces</w>
reg arding</w>
l ess</w>
w illi
u kua</w>
j un
o yak</w>
foo d</w>
t inni</w>
ung alu</w>
constru ction</w>
part n
l ing</w>
u mmata</w>
ts er</w>
ne tser</w>
v ari
tapa aqjuk</w>
ila gij
unng inn
nunal innit</w>
havi oyak</w>
ann oun
ima ak</w>
2 8
isuma q
unikka angit</w>
il anga</w>
i tu
sma ll</w>
qu ali
j ai
qulli q</w>
of f</w>
ti li
re ad</w>
d avi
po lar</w>
mee t</w>
u li
qikiqta alu
siv e</w>
saqqi ja
m ed</w>
isuma gi
2 7
m ma</w>
saqq iq
ti q
pinasuaru si
ar ata
noti ce</w>
ju k
gra du
gav am
al e</w>
2 7</w>
ex ec
aaqqi giar
su ma</w>
ju a
organiz ations</w>
tuinn ait</w>
w ards</w>
ge or
jo b</w>
ut ta</w>
ses sion</w>
n anu
aka unngi
parti cip
uti ve</w>
kiv allir
iqqanaij aqtu
geor ge</w>
mon i
taas suminga</w>
anaru aq</w>
uq atigi
davi d</w>
ter m</w>
s k
par aun</w>
juti t</w>
pp ata</w>
arn ingit</w>
piv iq
willi ams</w>
knowle dge</w>
m anngi
ku ksuk</w>
yo ung</w>
ti it</w>
maligaliurvi mmi</w>
sa mik</w>
naas auti
v ara</w>
c ting</w>
sila ta
lh uni</w>
ser ge
exec utive</w>
al ways</w>
199 9</w>
or d</w>
serge ant</w>
nammin iq
anng inn
hop e</w>
ann it</w>
on g
ull i</w>
fic ation</w>
katimaj inginnut</w>
bo th</w>
natti q</w>
cle ar</w>
kati mani
sil attu
ma d
pi quti
t en</w>
a ag
angiqpisi uk</w>
samm uqtuq</w>
reas on</w>
apiqquti gij
pon d</w>
qujannami ik.</w>
iqqanaijaqti it</w>
saqq itti
ter i
sch ell</w>
chang es</w>
angiq tut</w>
si ti
auj a
ac y</w>
u ili
reg ard</w>
piliriq atiq
qu ksuk</w>
cti ve</w>
aqp ata</w>
rais ed</w>
c ation</w>
pijjutigi llugit</w>
jua j</w>
alaur mat</w>
n ak</w>
appro ved</w>
o lo
cl os
ar as
san ir
vi it</w>
kamagij au
opp osed</w>
pigiaqti ta
w ild
tamak ku
mi t
de tail
lhu gu</w>
uqaqti tsi
si j
tau simajut</w>
l au
tus aqtitti
reques t</w>
r y</w>
wild life</w>
ta king</w>
ak su
g akku</w>
ad minis
ng utillugu</w>
fe w</w>
angu juq</w>
cour se</w>
kangiqlh inir
sivulliqpa ami</w>
at s
ung mata</w>
ass a</w>
ili ma
ning e
uut tu
prob ably</w>
uti ks
&apos ;</w>
j am
3 3
taimann a
requi red</w>
man it
m p</w>
o la
as a</w>
piqa si
aj j
requi re
2 9</w>
c ann
lir iniq</w>
ola yuk</w>
direc t</w>
sum mer</w>
anngi ttut</w>
cons ent</w>
ukiuqtaq tumi</w>
tu res</w>
al ung
si al</w>
nur ses</w>
aq paa</w>
mami an
havi ujaq</w>
le t
hal f</w>
ninge on
regi onal</w>
ningeon gan</w>
unga ta
at tuq</w>
ac coun
qanu ittu
proble m</w>
uni q</w>
as ingit</w>
tusa g
c all
tavv ani
aq para</w>
iq attaq
go t</w>
it tauq</w>
aq .</w>
to ur
j unik</w>
tukis in
uj uni</w>
pa at</w>
ili tari
lirinir mullu</w>
arn inginnut</w>
siv alli
atuq tuk
anngi mmat</w>
ir q
qik iq
c li
t unit</w>
qan uqtu
wo men</w>
w ater</w>
ow n
tu tik</w>
contri b
irq ittuq</w>
ar ly</w>
pigi aqtitti
tau san</w>
pa y</w>
qu assa</w>
taikk ununga</w>
sanikilu aq</w>
c ab
b it</w>
apiq suq
lin es</w>
angiqpisi i</w>
ap poin
c e
titiq qait</w>
k el
qu asa</w>
uili ams</w>
ef fe
p s</w>
it ta
gu maj
angi ttut</w>
aq pugut</w>
ull unga</w>
uq palli
uj jau
itt inni</w>
d ays</w>
7 7</w>
ulauq tuq</w>
q atsi
aff airs</w>
taima immat</w>
to wards</w>
initi atives</w>
al though</w>
tusau ma
akaunngi liur
q ang
uu mmaqquti
si tting</w>
tal k</w>
th s</w>
i ve</w>
akittu ri
ikajuq tau
w est</w>
tu ju
tak unn
ta lu</w>
n an
tu saq
mi uta
tauq attaq
minista mut</w>
gavamakk ungit</w>
are as</w>
tt inni</w>
o p</w>
opport unities</w>
ur a
com ment</w>
cab in
ou tsi
to b
a di
ki u
ta .</w>
vi mmi</w>
ch all
anniri aq
.. ..
nalun aij
as sa
naas aut
tus aqti
qanuili ur
ningi unga
y ester
pra yer</w>
inn ar
lirijikk unnit</w>
ilinniaqtu lirinirmut</w>
asi jjiq
yester day</w>
un uq
rece ive</w>
il d</w>
ang unasu
auj unut</w>
stan d
cann ot</w>
con gra
congra tul
angi mmata</w>
s or
on a</w>
cen tr
i ti
uv ani</w>
king uv
outsi de</w>
arraagutama at</w>
matu iq
al low
u pi
au ju
aanniaqarn anngittu
du e</w>
qu r
ili r
du ce</w>
qauji gi
jumaj ara</w>
iq nak</w>
pra cti
manga aq</w>
aqlh utik</w>
sima tti
as saq</w>
qu llugu</w>
q atta
d es
issivauta q</w>
in ed</w>
uqaq atigi
p unga</w>
2 9
ex peri
ex ac
p h
can adi
arv ik</w>
kel vin</w>
an a
qanu ilinga
ch ild</w>
tauj unik</w>
ag o</w>
naamma s
al ag
f our</w>
manga at</w>
e ms</w>
1 00</w>
parn aut
li in</w>
jam es</w>
l ou
unn gu
n ational</w>
cabin et</w>
arn it</w>
p op
kigga tuq
inga ta</w>
illu tik</w>
ang annut</w>
aj uq
qanu iling
ningiunga n</w>
puq iqnak</w>
exac tly</w>
ak iq
f av
al ar
l unga</w>
pop ul
minis taup</w>
ef for
im ann
ulu uj
arlu git</w>
su ung
j unnaq
h os
propos ed</w>
le arn
un u</w>
te ch
ful l</w>
auj ariaq
g ran
ap ri
apri l</w>
alaur mata</w>
6 0</w>
aul an
su ungu
& #
&# 9
ha am
atu aga
ari aliit</w>
d ent</w>
ma atsi</w>
piliri ar
ne go
nego ti
tuni jau
sanaj au
att ani
aaqq it
ta uninga</w>
v a</w>
le ona</w>
arnir mik</w>
uqaqtitti ji</w>
s arvi
b roug
ol d</w>
ingi rr
m mu
tu lli
rel ated</w>
piliri ari
in tro
aanniav ili
li una</w>
simaj uni</w>
aqtu mit</w>
under standing</w>
ar ut</w>
minis tu
clari fy</w>
inn au
fi cul
dif ficul
wor ks</w>
f ri
per s
kamagij alik</w>
un ani
ma l
arni armata</w>
ye t</w>
kiinaujali ur
piliriv vi
m ul
tra di
at ely</w>
u atti
ac cor
t angit</w>
appropri ate</w>
al lu</w>
1 .
stud y</w>
in de
inclu de</w>
inn aq</w>
e ver</w>
ikaju usi
am end</w>
kiinaujalir inirmut</w>
c tors</w>
f all</w>
expen di
ta ulaur
municip ali
com es</w>
ak ul
a de
teach ers</w>
ri jau
unngi ttu
ex ten
particul ar</w>
gavamatuq akkut</w>
sa uni
aju k</w>
lu i</w>
ar ma
qaujimaj unga</w>
i gi
uqaqtitsi jii</w>
ill uni</w>
h ir
mmi j
q atigi
m ous</w>
langu ages</w>
reg ards</w>
broug ht</w>
stud ent</w>
w as
c ing</w>
lou is</w>
o pen</w>
gh ts</w>
n gata</w>
qan gi
ai p
aaqqi uma
pur ch
piliri j
dis tri
un inginnut</w>
ri ver</w>
pri ority</w>
akk unnut</w>
alag alak</w>
c au
llu tit</w>
adminis tr
tu it</w>
iqqanaijaqt inut</w>
uq atta
titir aqsima
su k
mu st</w>
asi jj
s uni</w>
pi g
amma r
on going</w>
li sh</w>
benef its</w>
sa fe
tuav irn
nor thern</w>
u gaj
ullu unniit</w>
he ad</w>
ati tt
ex c
n irmut</w>
att an
ti r
j unut</w>
mon ths</w>
arlu ta</w>
ro o
nu mb
fav our</w>
territori al</w>
pu k
see ms</w>
pro f
mak liin</w>
marru uk</w>
ilitaq siniq</w>
di es</w>
aqtauq ullugu</w>
uri is
si s</w>
gatti gu</w>
m ang
ni gi
deal ing</w>
l ed</w>
gij avut</w>
alar alak</w>
ungi ttuq</w>
uj ji
par ents</w>
jut inut</w>
ut e</w>
as ing</w>
arn inga</w>
nam es</w>
ili sai
angi ju
nutar aq</w>
con ta
c s</w>
c all</w>
pijari ir
peri od</w>
gu ess</w>
establi sh
lhu git</w>
mi u
le ad
kuap uriis
angi juqqa
d ra
gro up</w>
alakannu ark</w>
auth ority</w>
sa p
tulli a</w>
or y</w>
unn ir
m l
aqti lluta</w>
la w</w>
w ed</w>
lu unniit</w>
apiqquti ga</w>
pijit sir
ak ik
tuinn a
numb ers</w>
simaj avut</w>
offic ers</w>
t inik</w>
pri orities</w>
gre at</w>
happ y</w>
g s</w>
deci sion</w>
safe ty</w>
ut ingit</w>
n au
ula ajuk</w>
u ji
centr ali
ja uni
ak suru
mi ght</w>
inclu ded</w>
it ing</w>
i mmi
inn u
si te</w>
qar as
aippa anik</w>
aul aur
unikka angat</w>
j ji
na am
is m</w>
typ e</w>
ar attigu</w>
p anniq
qaujikk ai
haam l
uqalimaaqta uningit</w>
ac tion</w>
kk u</w>
ill uq
unani mous</w>
alauq tut</w>
kigg aqtu
vari ous</w>
c ally</w>
an ts</w>
iqalu ktu
comple te</w>
nunavut mi</w>
ilu unn
mmanga aq</w>
aqtu gu</w>
le ga
titiqq ak</w>
ta x</w>
pre par
aqattaq tut</w>
ga aq</w>
any thing</w>
aul att
pillu gu</w>
contra cts</w>
fol low</w>
nun atsi
cu s</w>
k ut</w>
g ur
di vision</w>
ag o
ti lluta</w>
lauq tut</w>
a a</w>
jumaj unga</w>
3 0
some times</w>
pali isi
uqalima arniq</w>
pi qqu
uq suq
av it</w>
encour age</w>
rec ently</w>
p a</w>
sivu mu
taas sumunga</w>
ou gh</w>
anngi l
201 7</w>
20 0</w>
ta issu
ikk unnut</w>
juti gi
qaras auj
kiujjuti t</w>
llu gi
correc t</w>
ta mmaq
c ar
appreci ate</w>
w ent</w>
niuv ir
gh ter</w>
ig unn
devel op</w>
pati ents</w>
su sta
kaantura ak
lirijikk ullu</w>
in unnut</w>
aqti it</w>
aj ja
arraagu mi</w>
s saq</w>
ij ju
ilinni aruti
aj auq
v ini
niri u
buil d</w>
retur n</w>
qur l
kati ttugit</w>
su mmar
a uni
ul la
commi t</w>
ati llugit</w>
taima ili
ati liuq
tik ku
v in
sivau ta</w>
angi ttuq</w>
8 67</w>
o i
ll er</w>
certa in</w>
x i
r ate</w>
pen s
eng lish</w>
canadi an</w>
arni aqtut</w>
vi ties</w>
de centrali
ven tion</w>
n auja
ili saij
sivulliqpa aq</w>
mis i</w>
iqq ittuq</w>
katimajirala anut</w>
c le</w>
af ter
comm uni
c ases</w>
mer g
ju mut</w>
b ran
is a
ch ar
basi s</w>
associ ation</w>
ab ility</w>
com pens
jai misi</w>
responsib ility</w>
uq attar
uq aal
ori gin
it or</w>
p ass
pro per
offi cial</w>
un ullu</w>
tuni si
re quir
popul ation</w>
w w
aqtu it</w>
acti vities</w>
imp act</w>
hun ter</w>
c amp
pi t
olo gi
indic ate</w>
auj unit</w>
in ung
fi el
aul luni</w>
ak sait</w>
min d</w>
uvv alu</w>
sil attuq
ad vis
u lir
kingulliqpa aq</w>
utigi lugu</w>
assi st</w>
ed ul
uqausi s
il ali
k sau
tauj unut</w>
cent res</w>
ulauq tut</w>
with out</w>
priv ate</w>
n e</w>
gav it</w>
aj ut</w>
lima anut</w>
apiri juma
piquj aksaq</w>
territori es</w>
tama ani
ung ali</w>
let ter</w>
4 0
a .</w>
call ed</w>
jo a</w>
g joa</w>
sch edul
na ys</w>
win ter</w>
minis tu</w>
mmi ut</w>
tuni j
al low</w>
summar y</w>
air port</w>
aanniasi uqti
aw ay</w>
e merg
to ld</w>
p rin
n esses</w>
mamian aq</w>
tu t
aqq a</w>
t ings</w>
atur uma
he ar
s av
katimajjutik sait</w>
impro ve</w>
arra ani</w>
do es
does n</w>
v iq
uv anga</w>
initi ative</w>
r ates</w>
anga juq
att en
qalluna ati
pinga su
uj unn
llu unniit</w>
susta in
sui ci
b s</w>
tt innut</w>
n gat</w>
vu gut</w>
en cies</w>
hun ters</w>
uv agut</w>
jun e</w>
min ing</w>
niuv iq
n y</w>
aksu aluk</w>
e li
consi der</w>
sam ut</w>
aaqq is
z ation</w>
ili q
ilinni aqt
aq ullugu</w>
laur mata</w>
heri tage</w>
rec ent</w>
n on</w>
e f</w>
se ver
qaujis aqtau
mo ving</w>
discus sions</w>
al au
uqaq atiq
atuq tauni
tuju rmi
ta si
ila ann
ho ut</w>
atu utiq
exp lain</w>
throug hout</w>
expendi tures</w>
arut ta</w>
9 75</w>
joh n
identi fied</w>
m ing</w>
u uk
iqalu ttu
incre ased</w>
unn us
ti tsi
apiqqu si
sen i
siman inga</w>
ing u
prote ction</w>
ex is
taku j
ju ris
re ali
aq quti
qauji giar
q ai
desig n</w>
no .</w>
juris di
angi lli
uju mik</w>
aqq at</w>
kamagij aq
apiqqu t
li st
0 7</w>
moni ca</w>
c o</w>
titiq qan
ll ari
ukku ma
apiq sur
unngi ttuq</w>
p at
sma ller</w>
unnaq ullugit</w>
lu tit</w>
fe el</w>
ilinni aq
q iniq
lu k</w>
fiel d</w>
un ing
marru unnik</w>
mon th</w>
v ol
v akka</w>
&apos; d</w>
s pen
p ai
iqqanaijaqti ta
regul ations</w>
h arv
unn iq
en ces</w>
imma qa
ati k</w>
aqlh u
wor ked</w>
uqausi k
ungi ttu
regul ar</w>
lirinir mik</w>
iv a</w>
ar akku</w>
ut si
no on</w>
nalli ukkuma
mis saanut</w>
ni uvi
anik a</w>
all ai
taakku alu</w>
r c
no te</w>
simang mata</w>
u taqqi
tuki mu
pro u
in a
represen ta
mali r
ro le</w>
ali rij
ujar anni
ar i</w>
titiqq akkut</w>
rc mp</w>
pij ariaq
ak saq
offic er</w>
typ es</w>
auti q
5 ,000</w>
unnaq si
hos pi
ga ar
es ted</w>
h ans
ta at
qaujis aqta
john ny</w>
tausima juq</w>
in ullu</w>
peti tions</w>
aqt angit</w>
bran ch</w>
after noon</w>
alauq tuq</w>
aqtu lirinirmut</w>
tai vit</w>
qujannamiir uma
poli cies</w>
l or
k ta
iqal ung
t inn
ma anika</w>
co up
aal lir
es cor
kami san
or d
li uqti
aqattar mata</w>
prou d</w>
hel d</w>
ur s</w>
un ani</w>
ser i
tob er</w>
oc tober</w>
ja ani</w>
ar mit</w>
co p
cam e</w>
piqujivunga arut</w>
su gg
learn ing</w>
ve mber</w>
suru si
maʼ na</w>
home own
u pigi
coup le</w>
hans ard</w>
c ations</w>
akk anni
ti gi
fami lies</w>
chall eng
2 ,
mad am</w>
compens ation</w>
pi gaq</w>
sa ma
pilu aqtumik</w>
aqtu tit</w>
op tions</w>
uni uk</w>
no vember</w>
lima aq</w>
govern mental</w>
c ra
u una</w>
nunali ujut</w>
arraag unut</w>
angi ta</w>
ang anit</w>
il au
tour ism</w>
star ted</w>
amma t</w>
apiqquti mut</w>
mee tings</w>
benef it</w>
0 8</w>
soci e
uju mut</w>
en ough</w>
nee ded</w>
ati gij
infor m</w>
al ong</w>
tug li
nun ata
unn araj
man ir
angi mmat</w>
bu tion</w>
tradi tional</w>
s to
un illu</w>
simang mat</w>
ai v
revie wing</w>
piqujivunga aruti
manit ok</w>
cap ac
pili mma
requir e</w>
ele c
f el
aqlh uni</w>
sever al</w>
qu tt
lirijikk unni</w>
aqta ili
inir mit</w>
a alu
inn ait</w>
gra de</w>
arju aq</w>
priv acy</w>
es ting</w>
kiinaujaq aqti
ev a</w>
clari fication</w>
angirr aq
b ility</w>
ur u
ta tions</w>
su uq
ma kua</w>
le ft</w>
ikaju uti
s po
uv it</w>
de b
ut ta
en ed</w>
aaqqi giaq
den ce</w>
be ar</w>
nu tti
ik saq
fir e</w>
o cc
ini a</w>
d ings</w>
3 5</w>
siman ingit</w>
p ap
s sau
ta gak</w>
tauq atta
pi u
re no
asi jji
li it</w>
am e</w>
tt unit</w>
a aji
f le
mor ning</w>
se ction</w>
apiqquti q
require ments</w>
wit nesses</w>
in as
taak si
ju u</w>
asinginn illu</w>
qaujima tti
aqtu mi
aag ga
an ti
e ments</w>
qan uti
f ar</w>
aniq tu
g ulu</w>
b our</w>
i iva</w>
capac ity</w>
rec ord</w>
suici de</w>
j unga</w>
mali q
ev y
alauq sima
su kk
st re
inter governmental</w>
tura ang
sustain able</w>
ac e</w>
s ent</w>
add res
t anga</w>
pingaju annik</w>
jo e</w>
in uq
lh uti
pa y
ke y</w>
ass ess
f lo
ajur n
gu .</w>
am end
nuqq ang
arlu tit</w>
angi llu</w>
b er
ari es</w>
akituju utinut</w>
ak ir
speci fic
reno v
pri or</w>
nang min
ali ra
ilinni aqtitti
effor ts</w>
aqt anga</w>
unn ar
le ts</w>
commi tment</w>
iksivauta a</w>
produc ts</w>
kiinaujalirij ikkut</w>
v ak
piliri arij
is s
q att
ili saq
ap ologi
ben e
inu tti
atuinn aq</w>
el se</w>
kama gi
ilu ani
re search</w>
katimajirala anit</w>
har bour</w>
apiqqu tinut</w>
ig loo
resul t</w>
pu san
evy ago
evyago tailak</w>
arn inginnik</w>
be come</w>
av vi
arn ait</w>
ikk annir
qutti ktuq</w>
e i
d son</w>
lor ne</w>
ari al
tuinn ariaq
rais e</w>
liq p
ing mi
aaqqiuma inn
ta gaaq</w>
difficul t</w>
tusaaji tigu</w>
re pul
municipali ties</w>
ilinniaqti it</w>
certa in
repul se</w>
atur ni
kana yuk</w>
iq atigi
n ami
nor th
k all
im mini
0 9</w>
siv unit
iv j
igloo lik</w>
as inginnik</w>
uti ons</w>
tuinn aqtunga</w>
qurl uqtu
ta a</w>
aq su
taun inginnut</w>
arraagutama aqsi
ai li
ab or
deli very</w>
c ess
2 .
alloc ated</w>
usu ally</w>
prof es
maligaliurv ingmut</w>
contrib utions</w>
sta te</w>
lu an</w>
concer ned</w>
sk ills</w>
coun sel
emerg ency</w>
u al</w>
ne ver</w>
tai l</w>
ade qu
uqauj ji
ati liur
aqtu ta</w>
so on</w>
li ving</w>
parn ak
pula ariaq
pi usi
ta ap
ta pp
uk ainn
qaujima ju
kana juq</w>
j ariaq
ord in
accor ding</w>
a head</w>
b ru
re duc
in corpor
i giaq
expe ct</w>
immaqa a</w>
tama s
aq simajut</w>
angiqatigi ig
wh ale</w>
for ce</w>
cap e</w>
at or</w>
7 0</w>
n w
le av
ear ly</w>
pri ce</w>
ir ata
tre at
s alu
q at
piliri angu
loo ked</w>
imi alu
bri en</w>
ul uni</w>
si gni
att innut</w>
&apos; brien</w>
3 8
shor t</w>
pi uniq
mat ely</w>
g uti
be half</w>
3 4
so lu
na al
am mi
ali ri
in unnik</w>
3 5
rijau juq</w>
k anng
w er
n illi
jo bs</w>
ap ik</w>
tunngasu tti
c ro
q atiq
nun asi
pi ju
mitti mata
ta kka</w>
roo m</w>
succ ess
aqqa a</w>
uqaqqau gama</w>
tau giaq
s arv
isuma s
ujj ir
piliri alik</w>
p il
ex pl
ulauq tu
p as
app ly</w>
iglu li
d or
ver ed</w>
armanga atta</w>
v at</w>
tauq attar
revie wed</w>
v vi
tama innut</w>
gavamakk unnit</w>
en s</w>
gavamakk unni</w>
auti gi
un d</w>
am inik</w>
u sa
th y</w>
te am</w>
si ur
ra su
lauq sima
p ik</w>
municip al</w>
suuq ai
maj or</w>
iqqanaijaqt ingit</w>
anil u</w>
qanuqtu ur
katimajirala ang
ivj aru
all ari
tuinn arnut</w>
naasaut inga</w>
ik p
utik sait</w>
li cen
b re
naasauti lik</w>
kiinauj atigut</w>
w a</w>
ex pres
aqtu mut</w>
ot ta
matu ir
0 4
qauji man
otta wa</w>
kanng un
ip pi
previ ously</w>
af fe
st e
sa l</w>
too k</w>
n angiq
e valu
tau valli
iq attar
3 2</w>
uqausi lirinirmut</w>
iq s
ik pi
pivalliaju lirinirmut</w>
3 4</w>
katimajjuti ks
tau tti
implemen tation</w>
ag aq
z ing</w>
0 8
0 6</w>
tik ir
at ors</w>
se en</w>
ar en
ul dn</w>
ong er</w>
consider ed</w>
ti al</w>
qan ur
ni ur
it ed</w>
ilaann ikkut</w>
un inganut</w>
tauq attaqtut</w>
illu lirijirju
me ans</w>
lev inia</w>
qimirr uj
ni aq
ki ul
gavamakk ungi
tungi l
taikk uninga</w>
quviasu k
uq a
ki mmi
ar su
it ems</w>
gu su
kiinauj aqtu
qanuti gi</w>
kiujjuti it</w>
v it
amma l
previ ous</w>
il ul
lega l</w>
ri ty</w>
inn ga</w>
on es</w>
la ak</w>
infor med</w>
illu unniit</w>
inn atuq
iku mmaqquti
ge ts</w>
f ill
si gi
provi des</w>
pi anik
v al</w>
t ments</w>
tal ked</w>
nalun anngittuq</w>
le ast</w>
dor set</w>
aq att
tar ju
mani ittuq</w>
as ingillu</w>
apiq su
mi ki
kivallir mi</w>
f a
ad jo
li q</w>
r ni
certain ly</w>
talli man
sor ry</w>
qan i
as inginnut</w>
uq attaqtut</w>
ukiuqtaq tu
cl ai
aqta uni
ho mes</w>
origin al</w>
ajjigi ingi
tura l</w>
asu ungu
anngi mmata</w>
q anga</w>
titir aqtau
rul e</w>
auq attaq
sta tes</w>
r ala
mat e</w>
pir aj
ru n</w>
mak lain</w>
north west</w>
ivjaru tailak</w>
detail s</w>
ther e
katimajjuti ss
saqqi tauningit</w>
l ater</w>
g inn
v ac
kangiqlhinir mi</w>
0 9
p aippa
c ari
aud itor</w>
si x</w>
3 3</w>
el l
sau gaj
re plac
kiinauj j
arn inganik</w>
u kkut</w>
hu dson</w>
tt innik</w>
si mi
treat ment</w>
saqsi ur
ang annik</w>
il angat</w>
hel p
g es</w>
tuksir auti
kkanni q</w>
katima vi
si de</w>
minista a</w>
att innik</w>
angajuqqa at</w>
ro ad</w>
pre vention</w>
p air
of f
uvatt innut</w>
arn inganut</w>
ta s
le ase</w>
appro xi
hospi tal</w>
pp unga</w>
n alu
co ve</w>
v ik
ach i
ta lu
see king</w>
ik siv
bo u</w>
angajuqqa ap</w>
q auta
cari bou</w>
pro mo
nunalingn ut</w>
ilinni ar
ing anit</w>
buil t</w>
organiz ation</w>
uqalimaaqta uninga</w>
ta ullutik</w>
concer ning</w>
puk irn
d ani
conclu de</w>
0 5
tukisi tti
some one</w>
nam e</w>
sivul lir
ne cess
ila gijau
seni or</w>
kajusi juq</w>
ullumi mut</w>
i mmata</w>
g guuq</w>
ilinni ari
tunn ga
fe bru
alakannu aq</w>
ta ula
febru ary</w>
qikiq tarju
ide a</w>
min e</w>
ing inu</w>
bo arding</w>
aq i
atausi q</w>
go es</w>
atuinn auti
arn i</w>
qanu ittunik</w>
pij ju
dani el</w>
ing i</w>
comp ani
b reak</w>
mo ved</w>
ag unn
cor al</w>
aqta kka</w>
man date</w>
tukisi gi
kangiqlh iniup</w>
aq s
anng in
cour t</w>
isumaksaqsi uq
u mi</w>
lu si</w>
c gs</w>
iglu lirijirjuakkut</w>
kami sin
niq i
lima ami</w>
l avi
ang i</w>
ham lets</w>
aul atsi
atuinn au
ad ul
taakkun ani</w>
qi tur
tuinn au
ta ani
inni a</w>
es day</w>
unng in
ta in</w>
mmari alu
every one</w>
taul utik</w>
secon ded</w>
v att
tukisi uma
pp alli
p isi</w>
p ak
ma i
uv annut</w>
ho l
as si</w>
q inir
maligaliuqti t</w>
inu lirijikkut</w>
uq ari
unikka at</w>
qaujimaj atuq
kingul lir
ve hi
ug unn
kiuj unn
c ement</w>
ull ar
tech ni
qauji manngi
iqqau ma
n ti</w>
it si
cl ose</w>
pass ed</w>
actu al</w>
m ani</w>
escor t</w>
approxi mately</w>
spe ak
ut tauq</w>
po ten
avati lirinirmut</w>
tag v
k o
hap pen</w>
amis ut</w>
un ik
specific ally</w>
sho o
aulaj jutiit</w>
kama ji
jut inik</w>
auta a</w>
aqtu git</w>
titt inirmut</w>
qauta ma
uni aqtuq</w>
k annir
ingn ut</w>
l ack</w>
minista rijaujuq</w>
ju mit</w>
committ ed</w>
me t</w>
maligaliuqtiuqati kka</w>
th ers</w>
ne ws</w>
kiinauj anut</w>
g inngi
i i
cont ro
lau ghter</w>
j unit</w>
hou ses</w>
c ity</w>
no ted</w>
gi n</w>
niq tun
inu liriji
wit ness</w>
challeng es</w>
w a
3 7
. 00</w>
pi iq
piliri ji
akk ann
,00 0
igl uq
tavv uuna</w>
tu ga
st ri
ri ghts</w>
k ulu
reso lu
tau gi
qu vv
v an
piqqu si
tar alu
pigiaqti tak
akkannir unn
iqq ai
qanga t
uri aq
comp li
aqp avut</w>
simaju gut</w>
ma yo
iqaluktu utti
yo ok</w>
tti gu</w>
quvi as
compani es</w>
quvi an
ig ht</w>
kajusi tti
uqausiri qqauj
sa pu
titir arv
sa ys</w>
iqaluttu utti
3 8</w>
uni aqtut</w>
juti q
con di
al akk
unngi ttut</w>
quali ty</w>
gij aujut</w>
ingn ik</w>
resul ts</w>
busin esses</w>
qam aniqtu
h all</w>
ti ri
it sivauta</w>
be ars</w>
alir mi
taima i
sp ring</w>
inu u
depart mental</w>
a atu
li k
aq atigi
shoo yook</w>
po sal</w>
parn a
un aj
m angi
6 2</w>
administr ation</w>
tuu mi</w>
direc ted</w>
a anniq
ta lo
develop ing</w>
all avv
de tail</w>
9 0</w>
qu la
uv ut</w>
adequ ate</w>
ho pe
ter ed</w>
j ack</w>
aanni arvi
0 5</w>
itt unit</w>
3 6</w>
talo yo
sh are</w>
adjo urn
6 8</w>
tuk iq
ti llu
titir aqti</w>
buil dings</w>
determin e</w>
pi giaq
im medi
naluna ikku
appli cation</w>
signi fic
qauj ikka
maki ma
kk ann
inclu des</w>
minist angannut</w>
aq pa
there fore</w>
q assi
tamatu ma</w>
pi jumaj
an inga</w>
ullu tit</w>
taloyo ak</w>
niqtun aqtuq</w>
ani q</w>
ob vi
q at</w>
pitaq ariaq
isuma gijau
inu k
tauni aqtut</w>
se p
re fle
al most</w>
uq aruma
umi arju
lavi innia</w>
kiujjuti k</w>
t tuq
clos ely</w>
p ose</w>
mi lu</w>
taun iq
re si
l es</w>
inter est</w>
proper ly</w>
taik unga</w>
kigg aqtuq
atu re</w>
4 5
tti gut</w>
sep te
m ut.</w>
septe mber</w>
ei ther</w>
agu uq</w>
r mik</w>
ma i</w>
ingi tta</w>
l onger</w>
ro w</w>
nw t</w>
ili ta
experi ence</w>
iqqaqtu ivi
wor ld</w>
iq atta
illu gu</w>
cl y
cly de</w>
ga mes</w>
3 7</w>
taakkun anngat</w>
saqqi taujuq</w>
li mi
pijitti q
fr on
aqtu n</w>
ak sanik</w>
ami g
q qau
success ful</w>
li ve</w>
ini ar
ta al
su ujuq</w>
simanngi ttut</w>
lirijikk unn
uq atau
pro vin
contri bution</w>
constitu ency</w>
for m</w>
auth ori
thou ght</w>
sp ent</w>
ho ld</w>
c are
niru aqti
happ ening</w>
up al
uq qau
su ittu
apologi ze</w>
li ght</w>
reas ons</w>
flo or</w>
an aij
unnus akkut</w>
signific ant</w>
h and</w>
u taujut</w>
suru sir
aq uj
w on</w>
ilagiar utiit</w>
uni agut</w>
u ku
2 ,000</w>
s c
qu ar
suuqai mma</w>
pigiaqtitak sanit</w>
ter n
p lu
arumaj unga</w>
4 1</w>
ch ester
ser v
cre d
comm o
illu lirijirjuakkut</w>
ang iniq
g unnaq
aq pi
ulauq tumi</w>
u ga
tig ujau
th ur
s sa
ingn i</w>
in te
tamakk un
cul tural</w>
commis sion</w>
tti av
sh el
gavama uqatigi
chester field</w>
tauj unit</w>
s ing
i vv
du ct</w>
4 5</w>
be gin</w>
pilu aqtumi</w>
nun attinni</w>
galu aqtunga</w>
cer ti
w at
gi llu</w>
star ting</w>
uuk tu
saqqi ti
rep lies</w>
o ak</w>
oper ation</w>
nang miniq</w>
le vel
tusaaj i</w>
titiqq atigut</w>
h en
at i</w>
8 0</w>
t unga
pro per</w>
t an
sub sid
nuta aq</w>
won der</w>
f re
uv ani
u igu
n ik
iq anaij
tun uniq</w>
subsid y</w>
nuta anik</w>
distri ct</w>
de pen
au si
ti me
tau tu
san aju
mma gu</w>
identi fy</w>
nunal ing
nal aut
h ing</w>
giar unn
mar ks</w>
sp ace</w>
discus s</w>
asu ung
poten tial</w>
maann amut</w>
katimaji uqati
ja an</w>
li qu
congratul ate</w>
up irn
qanuilinga lir
inn atu
sta y</w>
ut init</w>
maligaliurvi up</w>
aaqqik su
ik ainn
up innar
silattu sarvi
man irmut</w>
ll i</w>
joh n</w>
inv es
rec ru
piquj arju
armi ut</w>
ac commo
uti llugit</w>
tavv anngat</w>
tamatum ani</w>
qu l
j ara</w>
taikku alu</w>
staf f
qimirr ujau
taani ul</w>
lar g
d ates</w>
unikka aq</w>
it self</w>
sil aur
pa ang
gu s
kati mma
atti aq</w>
ta ulluni</w>
bene fici
level s</w>
k sait</w>
visi t</w>
uq ar
recommend ation</w>
to m</w>
ami ttuq</w>
of ten</w>
lar ge</w>
in stru
uqausik sangit</w>
taik ani
ir ng
addi tion</w>
0 7
hig h
every thing</w>
at ji
tusaaj ikku
a gij
sim angi
pai d</w>
ingi tigut</w>
l y
inde ed</w>
gradu ates</w>
pij au
nur sing</w>
isumaalu uti
vol un
upal unga
katimani q</w>
assist ant</w>
3 9
l ess
indic ates</w>
ur ni
k inng
co ordin
ga so
anga gut</w>
uv uq</w>
purch ase</w>
k am
gaso line</w>
ak ingit</w>
inn arnut</w>
iglu lirijirju
atuq tauv
hun ting</w>
ut es</w>
t innik</w>
ati on
i ce</w>
ag ency</w>
sima gama</w>
comp any</w>
at uni</w>
work er</w>
upp ir
t sait</w>
leav e</w>
il y</w>
armi jut</w>
st ep
ka maj
n u</w>
auq atta
bre ak
sil arju
j ung
is e</w>
arni armat</w>
map piq
il aq
un ikk
si uti
offi ces</w>
wee ks</w>
ne w
makku k
ag encies</w>
uuttu utigilugu</w>
nu vi
ma teri
liqu or</w>
ila a</w>
cri teri
up s</w>
ann ga
uju mi</w>
sivu q</w>
pro posal</w>
u aq</w>
mar ke
quj ali
prin cip
mi jut</w>
intro duce</w>
me an</w>
4 9
unngi mmat</w>
tammaq simajuq
rul es</w>
in du
maliga it</w>
kkannir unn
katimajjuti ssaq</w>
ar ed</w>
succ ess</w>
ku gaar
f oun
d on
qujannami i</w>
wh er
ill aqtut</w>
ilisai ji
so ur
consul tation</w>
maligaliuqtiuqati ga</w>
upinnar ani</w>
c arr
res cu
k si
ilitaq si
f ill</w>
tau t
in spe
vel y</w>
parn ag
anir ni
ak oak</w>
katiman iq
ja ak</w>
all atta
inu lirij
api quti
alu it</w>
uq ai</w>
auti llugu</w>
s at</w>
aaqqiumainn aruti
pigiaqtitti vunga</w>
materi als</w>
liq tut</w>
se ctor</w>
uq alaur
j ja
5 00</w>
.... ....
sivun iks
s sait</w>
eli gi
c ir
apiqquti gini
ili saqsi
vi mmut</w>
talu rju
00 0</w>
establish ed</w>
te le
tt uni</w>
n il
min it</w>
atuinn ar
ur unn
iq su
4 2</w>
tau gunn
anni e</w>
1 ;</w>
&#9 1;</w>
uju mit</w>
pi juma
v ur
gran ts</w>
han tu</w>
assess ment</w>
acc ep
pos t</w>
ik sivau
appro ach</w>
3 ;</w>
&#9 3;</w>
nun gu
maligaliuq tinut</w>
exis ting</w>
atuliq ti
al co
6 5</w>
k inngu
alco ho
nunavu mmut</w>
nuta amik</w>
fir m</w>
akiliq su
3 9</w>
qi ma
k en</w>
qikiqtaalu up</w>
sa al
i itu
ti cal</w>
recogni zed</w>
kugaar uk</w>
fo cus</w>
piliri aks
pivalli ati
taann aqai</w>
kimmi r
inu inn
discus sion</w>
tama unga</w>
ik arr
develop ed</w>
am en
aaqqik sui
attu tik</w>
socie ty</w>
nunaq aqqa
aulatt inirmut</w>
ag guq
tig lu</w>
j avut</w>
con fer
taulauq tut</w>
arraag u</w>
me asu
l an
ari anga</w>
t innut</w>
ilinni arni
iling ual</w>
str y</w>
ministu ujuq</w>
he ad
direc tor</w>
apiri jumajara</w>
we b
wa iting</w>
direc tly</w>
am mangaata</w>
u tu
mi unut</w>
g one</w>
saqqi titti
pi sima
avik tuq
por ts</w>
detail ed</w>
ta maj
nuqq anga
angiqtau juma
gu i
ma l</w>
ter ial</w>
taq qa
su mmat</w>
aqattar ni
tauq ullugit</w>
stand ards</w>
s anngi
piquti rju
pati ent</w>
pre sid
m y
ariaq arni
responsib ilities</w>
isumaalu utiq
hir ing</w>
vie w</w>
san anngu
angi ru
akul liq</w>
uq tut</w>
aq ju
rec all</w>
r unn
atuliquj ali
tun ir
pu tting</w>
u gut</w>
ta ta
s how</w>
mini it</w>
arv iq
an ittauq</w>
auti it</w>
aj a
ul utik</w>
tamann alu</w>
pigiaqtita q</w>
k at
coun try</w>
prepar ed</w>
k sanik</w>
4 3</w>
3 ,
q ari
alcoho l</w>
ima ili
g al
e qu
d ation</w>
criteri a</w>
de ce
titir auj
aka ungi
saqqi i
jo in</w>
h in
ani guq
uqaqqau mmat</w>
qimirr uja
cle arly</w>
tt ed</w>
re marks</w>
kati llugit</w>
ga ma
19 0</w>
stu dies</w>
gij unn
techni cal</w>
ho urs</w>
tu uq</w>
inu usu
tau gaj
st or
rescu e</w>
supp ly</w>
siman ir
mittimata li
akiliq suq
i .</w>
fri day</w>
ar utiq
volun te
ti ves</w>
incre asing</w>
n iku
min irn
kk unnut</w>
att unut</w>
s al
kk anniq
ta am</w>
sima llutik</w>
qallunaati tut</w>
oc cur
qanur li</w>
qanu immat</w>
fac e</w>
nanu lik</w>
d a
alu unniit</w>
uqsu al
quir ke</w>
pos sib
ver s</w>
taun gi
qalluna at</w>
mit tar
l anga</w>
taun asu
as inginni</w>
t si</w>
siv i
g ed</w>
qujannamiiq para</w>
lir mata</w>
liq tuq</w>
fill ed</w>
sima gatta</w>
jurisdi ctions</w>
tu gu</w>
pur su
malig aq
hope fully</w>
clai ms</w>
taima ilinga
qujannami illu</w>
ju uni</w>
inu uli
gij angit</w>
26 6</w>
inn uk
i ji
trans l
regi ons</w>
ing inni
illu li
akitu junut</w>
lu ti</w>
intro duc
jut ingit</w>
aqti gut</w>
mata .</w>
ill ing</w>
cour ses</w>
arv aal
taann alu</w>
n ut
pillu git</w>
akk anniq
ml a</w>
refer red</w>
presid ent</w>
ak annir
aatu va
s saq
kin ds</w>
h is
cl es</w>
pivalliaju lirijikkut</w>
taas suma</w>
sa fe</w>
ch ec
ar ma</w>
iqta uninga</w>
for tun
of fer
see k</w>
se cu
4 7
pri ces</w>
iqqanaijaqti q
ch i
tus sir
b ir
a taq
p in
katimajirala angujut</w>
uti ss
sur lu</w>
shi ps</w>
s anng
gavamakkung innut</w>
qaujis aq
it tar
akk unnit</w>
v en</w>
nunali rala
sanir v
necess ary</w>
gro ups</w>
iqqanaija aqta
ar unniiq
pi uju
ang anni</w>
ta k</w>
pijit siq
cur ri
uq alauq
tu mik</w>
propos als</w>
ikaju ru
armi juq</w>
aqq ut</w>
announ ced</w>
d ated</w>
arn irij
com pre
was n</w>
iksivauta aq.</w>
pu l</w>
nuqqang akainn
ju mi</w>
ati t</w>
c lo
ta v
ta aq</w>
p ages</w>
dece mber</w>
arni aqtuq</w>
amisu uniq
ele cted</w>
qujannami ingu
nunal inni
isumali ur
w ar
qutti ttu
qujannamiingu jutit</w>
unngi mmata</w>
s end</w>
peti tion</w>
us i</w>
laur mat</w>
ele ction</w>
al lutik</w>
33 4</w>
qaujis aqti
llu ti</w>
min ut</w>
matu inga
4 8
n ni</w>
liq pat</w>
heal thy</w>
ang in
4 4</w>
in ten
mi llu</w>
ing annut</w>
ari aksaq</w>
partn ership</w>
minist angat</w>
fel low</w>
4 8</w>
iliqqu s
aaq uaq</w>
kno wn</w>
al un
turaanga jut</w>
parn au
sur ance</w>
pur u</w>
loc k</w>
li ra
i siq
ju u
adjourn ed</w>
tusau maj
cop y</w>
alir inirmut</w>
t sa
sub je
qi si
ng ujut</w>
adul t</w>
uqausi ks
consider ing</w>
uti gini
tama rmik</w>
aqp akka</w>
nu li
mi d
respon ses</w>
pingas ut</w>
nuta at</w>
l ab
every body</w>
ang ni
ab original</w>
qujannamiir umaj
gi lauq
el der</w>
direc tion</w>
to mor
ti t
gavamakk unn
my self</w>
ikaju utiq
fin is
akkannir uma
w ait</w>
tomor row</w>
at sa
uju it</w>
ren t</w>
1 ,000</w>
schedul e</w>
ilauq t
3 6
ti sam
f ree</w>
cli ents</w>
ve ments</w>
sum ani</w>
0 a</w>
v ey</w>
si amma
isumaksaqsi ur
atur unn
ikajuq su
4 9</w>
taaksi ij
p la
aqp ak
galu aq</w>
continu ing</w>
os hu
anti cip
aj ju
avati lirijikkut</w>
auj uni</w>
ur ge</w>
taimanna ittu
s mo
w age</w>
itt unut</w>
inginn ullu</w>
aqtu uja
anginn gi
taun ir
siv unga</w>
as su
iq qu
im ma</w>
fron t</w>
ev ent</w>
ar unniir
a ilaak</w>
decentrali zed</w>
akaungi liur
ajjigiinngi ttunik</w>
oper ating</w>
contro l</w>
mmanga at</w>
ll atta
aanniaqarnangittu lirijikkut</w>
deci sions</w>
b arri
anir mik</w>
mali llugu</w>
s too
nuta ang
atuq ta
ari ali
a un
taikk un
re member</w>
lo b
vi ol
utik sanik</w>
the ms
thems el
themsel ves</w>
simaj akka</w>
p ini
con fi
atu riaq
ari alik</w>
nunavummi unut</w>
n aliq
compre hen
cir cu
uni git</w>
bi g</w>
re present</w>
pigiaqtita it</w>
ch ed</w>
y ed</w>
sima lluni</w>
natti lik</w>
ver si
taissu mani</w>
ar unni
ar l
8 77</w>
isumaalu utigij
stoo d</w>
fici ent</w>
ess ed</w>
simaj angit</w>
qimirru jiit</w>
impro vements</w>
ilis ari
of fer</w>
indu stry</w>
pi tti
m innik</w>
des cri
aqtuq simajunik</w>
aq pu
vo te</w>
u ann
aaqqiumainnaruti illu</w>
tus aru
c ulu
at innut</w>
trav el
o thers</w>
n ag
seri ous</w>
reso l
maligaliuq t
chang ed</w>
inv esti
atausir mik</w>
valu es</w>
curri culu
speak ing</w>
quj au
de fin
aul uni</w>
iniq s
ar ai
uqausi ksaq
tagv ani</w>
qauj inasu
v ement</w>
ng unir
ac knowledge</w>
curriculu m</w>
8 5</w>
ma tal
gijau juq</w>
authori zed</w>
wh ate
whate ver</w>
ul uk</w>
tap ik</w>
pat ter
cred it</w>
qaujis arni
pijari atu
ikajuq tuq
arvaal luk</w>
u mmangaata</w>
sapu mmi
fis heri
th an
ram a</w>
g l
fisheri es</w>
u gi
as inginnit</w>
maliga lirinirmut</w>
se em</w>
inir mi</w>
in st</w>
ikk alu
arn ikkut</w>
aga inst</w>
sam i</w>
kangiq tuga
la is
katima qatiq
iqqanaijaq atigi
aralu armangaata</w>
apiqqu taulauq
a is
va a</w>
tak es</w>
iniq sau
stre ng
kno ws</w>
7 1</w>
4 6</w>
str ong</w>
ilisaq siniq</w>
environ mental</w>
oshu tapik</w>
w .
negoti ations</w>
deli ver</w>
consul tations</w>
y si
ven u
si jjuti
pukirn ak</w>
qimirrun ak
tak un
att unik</w>
ak si
maligaliurv ingmi</w>
tasi uj
taqq akk
pe tro
mat .</w>
ini aqta
arij aujut</w>
x 0a</w>
h 0</w>
aqq unga</w>
0 h0</w>
ang ani
au tti
tunngav ikkut</w>
sima vut</w>
s ani
kiinaujali ri
han d
ak it
aal liq
st ance</w>
si e</w>
incorpor ated</w>
d ail
su f
practi ces</w>
lauq tuq</w>
dail y</w>
arr ang
alir mata</w>
pl es</w>
investi ga
aru ma</w>
le um</w>
aul aniq
arut inut</w>
4 6
tauju mut</w>
nutti q
giv ara</w>
for mul
uk ununga</w>
ph ysi
kajusi ti
ac k
uqaqti up</w>
quti q
sub si
petro leum</w>
aulatti jiit</w>
atu uti
ww w.
arlu ti</w>
am u
je annie</w>
correc tional</w>
amisu ru
amis unik</w>
0 4</w>
suungu mmata</w>
sim p
ill ar
atuq taujunn
af for
arn ga
kiul vin</w>
aq uti
usu uta
web site</w>
katima uti
ing mat</w>
di o</w>
atu ri
ara anga
ulu ri
qanu inngi
pur pose</w>
hir e</w>
auq attar
aqqu ur
a juq</w>
qanu i
j a</w>
aanniaqtu lirinirmut</w>
titiraq simajut</w>
taul uni</w>
mi gut</w>
matu iqtauninga</w>
f ram
c ele
. ca</w>
uqauj j
katimatuinn aqtillugit</w>
comprehen sive</w>
aut inik</w>
u tauni
r f
hin d</w>
gu ide
employe e</w>
effe ctive</w>
reduc tion</w>
expl or
be hind</w>
map pigaq</w>
vo lu
f ound</w>
at .</w>
7 266</w>
saqqiq ti
qikiqtaalu mmi</w>
w ers</w>
inn u</w>
happ ened</w>
u taq
in illu</w>
g utit</w>
de cre
al y
reques ted</w>
ma ani
de di
apiqquti ksaq
tt innit</w>
ch ing</w>
agre ements</w>
sivulli uti
pau lusi</w>
partn ers</w>
nigi anut</w>
maligaliuqti ujuq</w>
ili it</w>
uq s
su tik</w>
lir ini
vi ce</w>
niur r
ka attu
ali an
sivun ik
ser ve</w>
qaujis a
cele br
5 1</w>
uni .</w>
qaujikka iniq</w>
giv ing</w>
g rise</w>
unga .</w>
mo de
import ance</w>
imple ment</w>
att i</w>
circu m
1 200</w>
staff ing</w>
aaqqis uq
uumaju rni
uatti ar
tru st</w>
p is
mak es</w>
inter national</w>
auj juti
atten tion</w>
ar tuq</w>
angiq pisi</w>
usuuta apik</w>
ar tut</w>
uk unani</w>
isumaksaqsiuq tauninga</w>
gij ara</w>
uv ikk
simi lar</w>
inter ested</w>
li ves</w>
fun ded</w>
corpor ate</w>
sima v
qimirr uni
ikajur unn
uliq tuq</w>
sur vey</w>
re venu
isumas saqsiur
c al
llu gi</w>
gatti gut</w>
arni aqtu
angir uti
il i</w>
piliri jjuti
ik kua</w>
f os
auth orities</w>
a ther</w>
n ga
kingulliqpa ami</w>
u ʼ
less ness</w>
ele ctions</w>
tusaaj aqtuqsimajunik</w>
strate gi
pers on
over all</w>
k angir
g akkit</w>
fi ord</w>
aut inut</w>
taak suminga</w>
. nu
uq ata
op tion</w>
katimaji ujut</w>
arniq sau
naammas aqtut</w>
n is
hig her</w>
bo ards</w>
arvi gi
5 00,000</w>
tur n</w>
inu tu
in surance</w>
uv alli
lirij ikku
fer red</w>
kaju sini
auj akkut</w>
angajuqqa aq
tu u</w>
qang akkut</w>
p ikku
ta it
confer ence</w>
arti cle</w>
receiv ing</w>
illu ta</w>
aulatti j
tammaqsimajuq si
no lo
j anu
illu it</w>
asijj ir
5 000</w>
un ur
sig ned</w>
gavamakkungi ta</w>
3 .
tech nolo
representa tive</w>
c ated</w>
ulaur mata</w>
taak sumunga</w>
ilinni arn
gi iq
te l</w>
kikku tuinnarnut</w>
aanniaqtu lirijikkut</w>
home lessness</w>
ak tuq
re li
loc ation</w>
ga s</w>
ab use</w>
wel l
refer ence</w>
mi r
discus sed</w>
tor ate</w>
de fic
ang inu</w>
quj agi
ku ak</w>
k tauq</w>
.nu .ca</w>
tukisi umaj
lirij i</w>
ju r
iqalung ni</w>
d ro
titiraq simaninga</w>
eligi ble</w>
t ani</w>
stan ces</w>
sa an
refer ring</w>
juma llunga</w>
dis ab
ar attigut</w>
n inginnut</w>
f f</w>
talliman ut</w>
s inirmut</w>
gi arni
se cre
cra ft</w>
con f
can c
uqausis sangit</w>
tti arunn
teach er</w>
tama at</w>
d ru
vi jju
tunngasu kti
tt y</w>
tai vit
li t</w>
ing ing</w>
up on</w>
qujannami k</w>
du res</w>
silattuq sarvi
proce dures</w>
pir uqpalli
kk anniriaq
inuu sir
g utiq
aqtu alu
taimann ai
ini aqt
an ull
aud it</w>
att innit</w>
5 190</w>
re mind</w>
appoin ted</w>
al tern
tamakku alu</w>
sta ti
pivalli an
mad ame</w>
kimmir ut</w>
kaju sivuq</w>
homeown ers</w>
gij anga</w>
parn agu
unn u
rais ing</w>
dra ft</w>
ar ing</w>
min utes</w>
ham l
taivit i</w>
malig armik</w>
limi ted</w>
kiinauj aq</w>
ga asa
ar si
under stood</w>
qauji mani
incre ases</w>
do l
b ul
all av
aj ungi
taimann g
aqt inut</w>
im um</w>
go al</w>
alauq tillugit</w>
qikiqtarju aq</w>
aj unngi
qanu tuinnaq</w>
l ost</w>
att end</w>
4 7</w>
k ni
iqqanaijaq atiq
tunngasu git</w>
tuinn ar
maligaliuqti mut</w>
gavama kku
mu unga
nunali ujuni</w>
im mi</w>
d r
ariaq armata</w>
uqqu mmiut</w>
q it
mitti matal
mali llugit</w>
alir mat</w>
un as
head quar
t ent</w>
require ment</w>
nangmin iq
ji ini</w>
aulauq tut</w>
ang inni
uti mut</w>
pi an
oi l</w>
la in
ex tre
angajuq qau
qari tauj
lhu ta</w>
nanu it</w>
kaju s
c key</w>
aqsima ju
aaqqigi aqtauqullugu</w>
vi uk</w>
nu kti
cre ated</w>
cau cus</w>
0 1</w>
timi qut
tauj unnaq
supp osed</w>
po ver
br inging</w>
inu lirijikkunnut</w>
aqq u</w>
a alli
sivuliqti i</w>
pover ty</w>
aulauq tuq</w>
par ts</w>
no thing</w>
iitu aq</w>
arnir mit</w>
y el
janu ary</w>
direc torate</w>
subje ct</w>
p hon
makku ttu
urn ingit</w>
ung innut</w>
aaqqik si
we ather</w>
aj au
tik .</w>
simaju mik</w>
nalaut ta
un u
piliri ak
maligaliurv inga</w>
itt uni</w>
ilinniaqt inut</w>
gav a
exc ell
tra des</w>
inu gi
tunngav ik</w>
in ikkut</w>
appro val</w>
amend ments</w>
aq atau
achi ev
contra ctors</w>
an ullu</w>
uv a</w>
na ina
liq tu
g ar
see ing</w>
irij angit</w>
assemb ly
ap alli
uvv a</w>
cor respon
speci ali
siman iq
mar y</w>
man iq
www. assembly
resour ce</w>
mi juq</w>
stan ds</w>
qu mmu
minis tau
tapp a
nut ri
k ap
uq qa
step s</w>
i mar
pers onal</w>
le ad</w>
ilu unniit</w>
ilis arijau
aagga aqtuq
sur ing</w>
arraagu mut</w>
aqtu mmari
angi ttunga</w>
tai gu
hear ing</w>
cre ate</w>
naas autaa</w>
v ity</w>
piqasi uti
kni fe</w>
itti av
0 6
ok ay</w>
ad ver
taam na</w>
nunavummi u
ati r
akitujuqtur utiksait</w>
sti cs</w>
simaj ara</w>
im minik</w>
apiri mmat</w>
www.assembly .nu.ca</w>
suppor ting</w>
piqujivunga aru
benefici aries</w>
ar n</w>
ag l
z es</w>
siv ut</w>
qanuili uq
da y
tigu mi
nuvi piri</w>
alauq tu
vehi cles</w>
immedi ately</w>
guide lines</w>
t ingit</w>
runn ing</w>
reques ts</w>
yel low
ke ep
tt inirmut</w>
tauju mik</w>
f il
av ijju
aqt u</w>
yellow knife</w>
titt ini
un uqtu
sivunit tinni</w>
nur se</w>
san a
aqq auj
uu minga</w>
uqalima aqtauqullugu</w>
p iku</w>
vi up</w>
ij unn
anng uqti
uni versi
p akka</w>
g ala
uluri an
to p</w>
pit jutigi
nun arju
aruti it</w>
titir aqti
nun atti
nun aqq
niku vi
gi al
tura ag
qula ut</w>
atuinn aq
ti tut</w>
secu rity</w>
fi gur
appli cations</w>
an ces</w>
w illing</w>
su ut</w>
representa tives</w>
pang niq
continu es</w>
comm er
ac ts</w>
headquar ters</w>
follow ed</w>
aulatti ji
angu mma
ad van
trans fer</w>
inde pen
ex tr
de a</w>
ata ani</w>
uu mmaqqu
le arn</w>
wi de</w>
resolu te</w>
maligaliuqti ujut</w>
formul a</w>
aanniasi uq
aanniaqarnanngittu lirinirmut</w>
ung ani</w>
un fortun
taku ks
rec re
decentrali zation</w>
b ase</w>
uta it</w>
econo my</w>
wher e
wan ts</w>
patter k</w>
pati q</w>
ma ij
cl as
air lines</w>
loo ks</w>
aip piq
v ingmi</w>
offer ed</w>
inga gut</w>
. .</w>
ne ar</w>
in stitu
aqtu ugaluaq</w>
mayo r</w>
mali t
ilitari jau
ilauq tut</w>
ar uvit</w>
ajuq s
ulaur mat</w>
ma ani</w>
it s
deli vered</w>
uu maj
t j
re st</w>
iri jau
hi red</w>
wri te</w>
tauq ullugu</w>
replac ement</w>
katimajjutiss avut</w>
katimajirala angu
gavamatuqakk unnit</w>
de as</w>
tauv ani</w>
ta x
ilisai jiit</w>
up lu
ste ad</w>
qanuiling an
elec tri
atuaga q</w>
lab our</w>
ima imma</w>
ex am
v attut</w>
in stead</w>
sun akku
sivulli ujjau
akittu r
auq attaqtut</w>
unga si
oper ate</w>
mu n</w>
ill ari
ho ckey</w>
asi anut</w>
ar utik</w>
rf p</w>
implemen ted</w>
arniq pat</w>
4 ,
practi ce</w>
pl ay</w>
ml as</w>
condi tions</w>
arn ingani</w>
ad d</w>
uv at</w>
se ven</w>
itt innut</w>
iqqanaija at</w>
figur e</w>
titiqqan ik</w>
re duce</w>
gu ri
aul la
viol ence</w>
uq arata
p an
ob je
uqauj jau
arju mmi</w>
aliq tut</w>
utir luta</w>
promo te</w>
nik uv
niaq unngu
asi de</w>
gavamauqatigi ittu
ra dio</w>
pijunn auti
lu utta
ikk unnit</w>
particul arly</w>
ki uni
0 2</w>
manit ob
aanniaqarnanngittu lirijikkut</w>
well ness</w>
nunavut miut</w>
g la
deal t</w>
tungil inga</w>
tas k</w>
tauq attarn
t ely</w>
serv ation</w>
manitob a</w>
comp lain
ad s</w>
maligaliurv ik</w>
extr a</w>
expen sive</w>
vi u
si qu
an aly
amisu kall
spo ke</w>
nir mik</w>
c ate</w>
rec or
inutti tut</w>
chi ef</w>
aj unn
addres sed</w>
un d
uki aksa
tunngasu gi
sum ed</w>
qauji juma
occ asi
iq suk
aru ri
iqqaqtu iv
inu tuq
ilinniaqtu lirijikkunnut</w>
aul t</w>
aqp it</w>
v ing
spen ding</w>
m m
utili ty</w>
iksivau taup</w>
d n
si ta
1 00,000</w>
plu s</w>
l at</w>
katujjiqatigi ingit</w>
katimajiralaang ukainn
spen d</w>
mma t.</w>
minist anga</w>
ilu liq
ati i</w>
aqattaq tu
an illu</w>
tusaru min
ilinni atitti
abor ate</w>
aanniaqarnangittu lirinirmut</w>
se as
plann ed</w>
pivalli atitt
gaasa li
counsel ling</w>
be ach</w>
0 3</w>
ra ther</w>
particip ate</w>
contra cting</w>
c asu
ungi mmat</w>
ann angittu
ti si
pre tty</w>
giar ut</w>
ati tsi
atausir mut</w>
n ingit</w>
h ed</w>
arni aratta</w>
app ut</w>
ana an
si uk</w>
re al</w>
per for
defic it</w>
aulan inginnut</w>
ar avit</w>
ani g
il auti
gre en</w>
correspon dence</w>
qangatasu ukku
iqsuk ti</w>
en suring</w>
arut inik</w>
aqta ulauq
anngi kkalu
mon day</w>
lirij inut</w>
se al
mili an
l aq</w>
cro wn</w>
denti al</w>
de f
ani armata</w>
5 2</w>
uni aqtunik</w>
sima mmi
ik i
simaliq tut</w>
ju umi
5 5</w>
se par
con duc
ar p
any one</w>
titiqq aq</w>
katimaji tuinnait</w>
kamagij a
inginn u</w>
ilis arij
reques ting</w>
iqsu kti
ta mma
t inga</w>
quti vut</w>
kangir lh
tausima ju
moni es</w>
pas s</w>
uattiar u</w>
irij anga</w>
basi cally</w>
innir vik</w>
wi fe</w>
utiq ti
qaujikkai gut</w>
vac ant</w>
gi q
aq sa
uq attarmata</w>
uq .</w>
quvi agi
qitirmi ut</w>
inu uj
saq i
mar ine</w>
m man</w>
kati q
con duct</w>
arn ingi
ut inginnut</w>
pi e
marke t</w>
gavamakkung innit</w>
ammalu ktauq</w>
thur s
mon it
min i</w>
mak pigaq</w>
for mer</w>
3 ,000</w>
ti kkut</w>
thurs day</w>
nunav ung
mo b
ikajuq suq
taima inn
sau juq</w>
rel ation
obvi ously</w>
nam mini
aksur urn
pi gg
ni ght</w>
foun dation</w>
es ts</w>
tungi li
titt iniq</w>
q in
ak au
adver ti
4 .
tti ariaq
t anna</w>
shor tage</w>
el s</w>
uqalima aqtau
mi tted</w>
maj unga</w>
ti c</w>
tauj juti
piu siv
innatu qait</w>
aaji iqatigi
vi vv
pinasuaru sir
o tak</w>
co ll
ar lu</w>
lir mat</w>
aqt init</w>
uq uma
posi tive</w>
mali giaq
expe c
tuksi arnirmut</w>
fi gu
appoin tment</w>
un uk</w>
qaujikk aij
ph ase</w>
p t</w>
experi en
asse ts</w>
tauv attut</w>
aaqqik suq
t on</w>
qikiq tani</w>
consi st
atuq tauju
st ep</w>
pilir ini
inu lirijikkullu</w>
establi sh</w>
p .
ma mis
aqtauq ullugit</w>
aqti ta
inter n
gro w
utu piri</w>
ullu q</w>
arvi it</w>
announ cement</w>
maliga lirijikkut</w>
arra agut</w>
amend ment</w>
wo uldn</w>
re ment</w>
p ing
kisi anittauq</w>
iqqanaija aq
ilagiar utit</w>
grow th</w>
at saq</w>
aij an</w>
utik sanut</w>
as sait</w>
aqlh uti
aal an</w>
qan urlu</w>
iliqqusi lirijikkut</w>
f air</w>
b al
si t</w>
ho od</w>
aqtu llu</w>
all uni</w>
vivv u
ch e
go als</w>
anngil aq</w>
u mut</w>
il h
i ju
kiuj au
angi kkalu
ang alu</w>
stati stics</w>
ti liur
tamaj ja</w>
pa ying</w>
maann auju
uqausi t
up coming</w>
surusir nut</w>
in ci
siman inginnut</w>
pilirivi ujut</w>
l os
gla d</w>
yo otak</w>
w r
valu e</w>
taulauq tuq</w>
tau k
renov ations</w>
aw ard</w>
tungi lir
so li
haaml akkut</w>
uv attut</w>
utau simajut</w>
uk uninga</w>
5 4</w>
uniq sau
tuavirn aqtu
map pig
katima qatigi
ti sama
quj an
ke yootak</w>
in s</w>
ingirra jjuti
aanni avi
ur ata
secon d
se le
ari v
sub stan
ing .</w>
g ut
congratul ations</w>
ans wer
anngi lu
no tes</w>
nalunair si
tau simajunik</w>
fos ter</w>
r ang
in put</w>
ar ded</w>
pijunn arniq
n one</w>
mi .</w>
k ajungi
atuq tus
aren a</w>
sima galu
qattar mata</w>
katimatuinn atillugit</w>
gumaj unga</w>
aliq tuq</w>
acti vity</w>
qa inn
llugi llu</w>
5 3</w>
universi ty</w>
qamanittu armi</w>
paliisi kkut</w>
kin atuinnaq</w>
at ory</w>
ttu gu</w>
sanir aj
nu k
mma ta
measu res</w>
,000 .00</w>
uvatt innik</w>
nani siv
in mates</w>
fin ally</w>
all atti</w>
akaunngiliur uti
uj ariaq
si onal</w>
pl ant</w>
ma gu</w>
l s</w>
inves tment</w>
govern ments</w>
ungi ttut</w>
piliri at</w>
nunali lima
ati g
ak ulu
9 9</w>
vi gij
uq atti
tu ut
loc ated</w>
iri aq
b ad</w>
apiqqutaulauq tunut</w>
requi res</w>
katimaj inut</w>
il hu
an is
taima ittunik</w>
lirij iq
f ying</w>
atji gi
as saq
syst ems</w>
uqa taujut</w>
recommen ds</w>
mal ly</w>
3 00</w>
exp an
aqsima juq</w>
vini it</w>
silata ani</w>
quj a
qi juk
maj ority</w>
an irn
tri ed</w>
me ly</w>
kaattu la
at unit</w>
as sure</w>
ar uni</w>
tauj arialiit</w>
talli ma
piquj aq</w>
mis sion</w>
katimaj inginnit</w>
as sur
aru si
simaju it</w>
larg er</w>
iqqanaij arv
ing ni
gro und</w>
apiri jumajunga</w>
uq qai</w>
aanniaq annangittu
t in
qitirmi uni</w>
pingaju anni</w>
pi q</w>
mik illi
ill i</w>
exten ded</w>
allow ed</w>
tamak ki
j uni</w>
contra ctor</w>
arn ik
ac tive</w>
extre mely</w>
apiqqutigij ara</w>
kanngun aqtu
h c</w>
ass ent</w>
ajauq tu
ut ini
uqsuq tu
piliri tti
k unnut</w>
junnaq paa</w>
ila akku
differ ence</w>
as pe
was te</w>
qaujimaju innau
min ute</w>
llu tigu</w>
conta ct</w>
uqausir ilauq
ha ammal
clos ing</w>
aqti tsi
upalunga ij
pita a</w>
on d</w>
ar lunga</w>
ani ittut</w>
ajjigiinngi ttu
par ent</w>
encour ag
care er</w>
be ginn
an asu
we dn
ima ittu
atau tti
aqti q
p i</w>
wedn esday</w>
upirn ga
unn ga
sou thern</w>
si tes</w>
naamma ks
iqsukti i</w>
inukti tu
heal ing</w>
alloc ation</w>
akir aqtuq
titiqq at</w>
sh all</w>
reali ze</w>
pp ing</w>
ja ga
effe ct</w>
unn uk</w>
li ter
is n</w>
ar ala
amoun ts</w>
ili jau
gran d
uti ta
ti c
kk it</w>
ati quti
aqlhu gu</w>
angi juq
some body</w>
medi a</w>
gi anga</w>
con firm</w>
ulla akkut</w>
pingas unik</w>
p ta</w>
aruma llunga</w>
alaur mi
w inni
ir a
uniq s
kkannir uma
ch oi
gunn araj
pi simaj
gro wing</w>
aruti gi
technolo gy</w>
inuinn aqtun</w>
ilaur mata</w>
uti t
uni on</w>
llu si</w>
kikku tuinnait</w>
anginn ama</w>
tut sir
stu ff</w>
ad vice</w>
ati n</w>
aki liri
fac tors</w>
bu y</w>
beginn ing</w>
arni aqtugut</w>
ai an</w>
su u
qijuk taaq</w>
niq ittiav
mann er</w>
ta av
fis hing</w>
atuinn a
tuut u</w>
mma ta.</w>
lead er</w>
qarasauj akkut</w>
expres s</w>
b ell</w>
arunn aqullugit</w>
silattuq sarv
inniq s
counsel l
atu lu
tt ini
r mut</w>
p aq
kiinaujaliur asu
indepen dent</w>
si k
un ik.</w>
men tion</w>
inn a</w>
at su
arsu ti</w>
amisuru ri
alaur atta</w>
help ing</w>
aq taujut</w>
phon e</w>
gi t.</w>
excell ent</w>
akaunngiliur utiq
u taujuq</w>
taku juma
figu res</w>
uk pir
ilita rij
ara alu
tak kua</w>
a an
ko mo
akitu lu
tal ly</w>
arvi ani</w>
aanniarvi li
ar tok</w>
aqqu gut</w>
uni aqtumi</w>
tinn agu</w>
n unngu
kiinaujalirij ikkunnut</w>
direc tors</w>
cont ents</w>
all atti
addres sing</w>
n irij
ilinni av
ming mata</w>
marru ung
hop ing</w>
aqtau simajut</w>
komo artok</w>
k saq</w>
c ks</w>
asuungu mmata</w>
sanikilu armi</w>
s ci
miuta it</w>
l ate</w>
iq qa
com pu
aw arded</w>
aqtu ksau
sing le</w>
qitur ng
inn asu
ig lu</w>
nalunaiqsi gunn
isuma al
a siv
saqq itt
produc tion</w>
iliqqusi lirinirmut</w>
un inganik</w>
tuinn arnik</w>
iqqanaijaqtu lirijikkut</w>
ill atta
uuma qqu
taakku ali</w>
na is
il utik</w>
ati gini
am b
ming mat</w>
ij juti
aul at
un gav
qu ll
nunavu up</w>
nunalingn it</w>
mak piq
gavamakkung inni</w>
appreci ation</w>
alir atta</w>
volu tion</w>
uummaqquti lirijikkut</w>
t esting</w>
kajusi inn
il liur
h ug
evalu ation</w>
atta riaq
al anga
pe g</w>
mi sis</w>
ku uga
ilinni ariaq
il in
winni peg</w>
tunngav iq
sugg es
katimaj it</w>
itt innik</w>
apiqqutigini aqtara</w>
or ing</w>
g ut.</w>
ar sima
cri tical</w>
bud ge
naam man
de volution</w>
arv ik
aqtitt ini
unga ttauq</w>
katujjiqatigi it</w>
ittar nis
com pe
aqta ilima
annginn ama</w>
ut inginnik</w>
tauq attarni
re pe
ipp aksaq</w>
ing anu</w>
cus to
tau juma
on i
ki ut
juk sau
d ata</w>
iliqqusi tuq
ilinni aqtut</w>
ilagij auq
el aborate</w>
au galuaq</w>
armanga ata
minista qai</w>
lh utit</w>
ja uningit</w>
anga tta</w>
ang uti
5 9</w>
pp ed</w>
k sanut</w>
alu ar
uqausir irata
lead ership</w>
attu gut</w>
il s</w>
effor t</w>
armi mmata</w>
akk anniriaq
where as</w>
turaanga junik</w>
siv uniagut</w>
d ou
comple tion</w>
com pon
5 6</w>
5 0,000</w>
plac ed</w>
list ening</w>
i q</w>
h es</w>
g utta</w>
u a</w>
re main</w>
aqqu tit</w>
tuni uqq
k ikkut</w>
aniq sau
uti mik</w>
maliga ssaq</w>
kiuj jut
ima ilinga
exten d</w>
tama rmi
qauji guma
mili anik</w>
ma terial</w>
happ ens</w>
expen ses</w>
cli mate</w>
at tauti
teach ing</w>
qikiqta aluk</w>
katimaj i</w>
iqq at</w>
se wage</w>
cli ent</w>
chec k</w>
angilli gi
5 8</w>
anni q</w>
affe cted</w>
uigu giarut</w>
simaj unga</w>
s ul
jurisdi ction</w>
his tory</w>
c ate
tu esday</w>
sivu liuqti
fin ali
air line</w>
ull atta
ta ullunga</w>
qattar ni
nunal inn
kis unik</w>
communi cation</w>
akili r
surusi it</w>
aull aqti
piliri arijau
uv annik</w>
st ra
rec essed</w>
ikk aj
camp ai
appli ed</w>
pil ot</w>
e asi
ati llugu</w>
appro ve</w>
appoin tments</w>
pp ut</w>
chall en
arunn aq
aqq ata</w>
angajuqqa angujuq</w>
u taqq
pi qut
fis h</w>
a ali
san irmut</w>
piv iksaq
taann ali</w>
kk ullu</w>
ipp assaq</w>
aliq tu
a th
ulu gu</w>
presen ted</w>
ll ungalu</w>
challen ge</w>
atta vut</w>
ki utti
iqqanaij arvi
titiqqan it</w>
me an
k ata
inng inn
inna git</w>
un ilaak</w>
tt i</w>
ingirraju lirinirmullu</w>
ili tar
te m
mo ther</w>
co vered</w>
uq tuq
qanu inn
katima tillugit</w>
e ight</w>
shel ter</w>
profes sional</w>
apir ini
6 6</w>
pular aqtu
lirinir mit</w>
ar us
tik illugu</w>
nil lir
mai l</w>
ikk ullu</w>
silattu sarv
dol lar</w>
circum stances</w>
tob acc
tobacc o</w>
taima ittuq
piliri qa
nalunaiqsi junn
lirinir mi</w>
it tun
e k</w>
4 ,000</w>
unnaq pi
re sumed</w>
qangatasu u
provi sions</w>
c lock</w>
c king</w>
vi li
ug juq</w>
qujannami ik
nutri tion</w>
aulaj jutinut</w>
aq ata
alung mi</w>
alaur ama</w>
ti ta
stru cture</w>
malig arnik</w>
ilinni arniq</w>
for mal</w>
fo cus
appe ar</w>
ani aqtut</w>
angi tigut</w>
amisu uningit</w>
w al
niru aqtu
il angillu</w>
ro ads</w>
piliri aq</w>
niri uk
mik .</w>
ke e
ikajur niq
ga ju
qummu attuq</w>
nu utti
min ingit</w>
k amp
expe cted</w>
b ilingual</w>
as ingi
ad vo
tr app
qujannami ittauq</w>
plac es</w>
n aj
simaj ariaq
s ak
qu e</w>
inasu k
ga ve</w>
uppir usu
tuki li
is saq
in a</w>
aqatta riaq
under taken</w>
de la
ura is
tili uri
sivul liqp
piqasi ujji
particip ants</w>
accoun ts</w>
7 ,000</w>
t on
piv aallir
ara angata</w>
9 5</w>
pijittir aqti
ev ents</w>
e ast</w>
vo ted</w>
tra ined</w>
situ ations</w>
gas si</w>
as ung
ani gu
qui ck
on to</w>
in determin
tsu gu</w>
titiq qau
sc ale</w>
me ch
issu ed</w>
auj j
ajji ginngi
aipp anga</w>
advis e</w>
piquj aksait</w>
niri upp
giar uma
suq qu
repor ting</w>
n amma
kee w
ungi mmata</w>
tau tuk
ra i
proce ed
proceed ings</w>
mis ta.</w>
llu gulu</w>
armi jugut</w>
apiqqu ti</w>
pos ed</w>
lir mi
iglu rju
al le
uk ta
keew atin</w>
h as
anngittu gut</w>
ak u
vv ik</w>
sta ge</w>
ju ly</w>
coun c
ur g
ten der</w>
quti gij
niru aqtauq
ing ani
unuq si
ullu ti</w>
tauv ak
inniq sau
bri ef
angiqatigi igu
all ag
akk anir
uq si
qar is
lo wer</w>
kajusi gi
ilinni aru
con sum
ulu unniit</w>
turaanga juq</w>
pay ment</w>
lir iniup</w>
keep ing</w>
indetermin ate</w>
apiqsuq tau
ali sa
wr ong</w>
makku ktu
ilinniarv ik</w>
ar ulu
6 1</w>
5 7</w>
tion ing</w>
ra l</w>
piq atigi
la w
camp bell</w>
arn it
tusag aksa
sa li
oper ational</w>
llugi t.</w>
ja it</w>
fe asi
arunn araj
uqaqti i.</w>
ariaq araj
announ ce</w>
1 2
wri ting</w>
tu ttu
ta ining</w>
sor t</w>
recru it
profes sion
inte g
integ rity</w>
con servation</w>
anginngi ttut</w>
ab i
va at</w>
tu qau
taun inganut</w>
suppor ts</w>
schedul ed</w>
pp uq</w>
katima rju
iglu ta
for ms</w>
auti tti
at unngi
ala ak</w>
tukisin aqsi
mode l</w>
kingullir mi</w>
kil li
gu vit</w>
ar ali</w>
ti llunga</w>
tamas suminga</w>
nigi a</w>
ki mb
d ance</w>
upi gusu
rel ation</w>
is land</w>
aq atiq
u ivi
saqq ir
mmi juq</w>
ch ur
aqtitt inirmut</w>
ull ari
u aj
taq armat</w>
sivullir mi</w>
q inngu
o bli
itsivauta a</w>
uv ag
piliri anut</w>
nu q</w>
cl ass
aqt anginnik</w>
tai jau
p iri
p ho
ma s</w>
gavamatuqakk unnut</w>
ala unngi
uqaqsima mmat</w>
qallunaati tu
qall un
nag gaj
legisl ature</w>
ilinniarvi it</w>
ch ris
sto p</w>
q irng
pilu aqtumit</w>
palli an
iglu it</w>
can di
atuq attaq
piliriang ujut</w>
juma llugu</w>
ingirraju lirinirmut</w>
illu ta
er ing</w>
anngi tti
uv unga</w>
titir arvi
correc tions</w>
allu unniit</w>
1 st</w>
t ung
pu ig
inni q</w>
d ri
commer cial</w>
bir th
arni armangaata</w>
unn irmut</w>
sanaj a
qirng nuq</w>
nan cy</w>
lirij iku</w>
ilir inirmut</w>
gi aliit</w>
bri ef</w>
ar en</w>
uv ak
siman iku
seas on</w>
saqqija aqtitti
in stance</w>
he av
gava malir
n inga</w>
ila giaq
hug e</w>
gr ap
consul t
tra de</w>
tr an
guri in</w>
basi c</w>
arut i</w>
6 4</w>
tru e</w>
siti piri</w>
ma ri
en ga
alian ai
7 3</w>
ung in
tri b
il anginni</w>
corpor ations</w>
thin king</w>
recruit ment</w>
app unga</w>
refer ences</w>
quo te</w>
ex per
co ver</w>
as h</w>
akk aniq
taigu usi
r uluuj
katimajiralaangu inn
di al
ar ts</w>
administr ative</w>
ur mat</w>
ujjir usu
sugg est</w>
fo re
ami sur
tus aruma
re min
pro cu
parnauti it</w>
aq paat</w>
trans ferred</w>
su kku
minista mik</w>
llu tillu</w>
lirijikk unnik</w>
kiggatuq tuq</w>
au suittu
arr agu
angi tta</w>
tugli a</w>
monit oring</w>
kimb all</w>
innga aqtut</w>
h ammal
f air
aaqqi i
ut ini</w>
second ary</w>
pl an
iliqqu siq
ikk atta</w>
appre n
unni q</w>
ts ini
kati lima
in unnit</w>
e c</w>
titir ar
qanu ilu
kuap urais
in e
g utik</w>
tama t
sivulliqpa amit</w>
resi dential</w>
pigi ala
municipali ty</w>
lu gi</w>
ikajuq tauv
at s</w>
aqtar alu
9 ,000</w>
anngi ttunga</w>
kangiqtuga api
hol ders</w>
d ly</w>
apiqqutigij anga</w>
maj ut</w>
ikaju u
g ullu</w>
coll abor
uti vut</w>
taimann gat</w>
nunali mmi
naas au
mali ktu
lh unga</w>
ittu r
than ks</w>
piliri jju
pap er</w>
off en
ll ed</w>
ess enti
arn inginnit</w>
se al</w>
qinngu q</w>
to pi
se qu
qau suittu
q aij
k pat</w>
deb ate</w>
atti tti
all i</w>
valli aj
se tting</w>
procu rement</w>
nu u
child hood</w>
atiliur utausimajut</w>
at inni</w>
aralu ara</w>
akk ulli</w>
wis hes</w>
main tain</w>
in ik
utis sanik</w>
sur vi
re ci
miki ju
il e
il anginnik</w>
conclu des</w>
arasu gi
all ak
6 .
katu jj
cre ation</w>
canc er</w>
8 ,000</w>
uq alaurmat</w>
taqqakk ununga</w>
kiinauj at
ans wers</w>
an d
uqausi ksa
under take</w>
gumaj ara</w>
all avvi
ak sau
6 9</w>
malik lhugit</w>
kan ann
iqs uqti
taujunn aqtut</w>
sivu mut</w>
q ec</w>
out lin
maani tu
d able</w>
wee k
uqsualu it</w>
tut tar
ris k</w>
r un
pula ari
harv est</w>
fre e
amen ded</w>
sivuliqti up</w>
kingulliqpa amik</w>
ver s
uti ujut</w>
revenu e</w>
liter acy</w>
h y
qamanittu aq</w>
niriu gij
ni ce</w>
ittu mik</w>
in t</w>
g ju
v u</w>
tt u</w>
quviasu ppunga</w>
obli ga
ma ku
jut .</w>
fa x</w>
at tau
apiq s
tus aqtitau
tu ri
ti z
quick ly</w>
alakk annu
t innit</w>
su per
nunal innu
ig g
homeown ership</w>
gu si
gr ation</w>
mali ttugit</w>
l anga
it ely</w>
iku u</w>
ikaju rasu
ci tiz
sub mitted</w>
represen ting</w>
pular attu
panniq tuuq</w>
j alun
ilu un
expl an
ta kk
akik illi
saqqi taujut</w>
has n</w>
angi tti
to s</w>
refle ct</w>
quviasuk punga</w>
p alu
no w
ilali uti
d ations</w>
communi cations</w>
com petition</w>
att uni</w>
arni aqtavut</w>
7 2</w>
ok pik</w>
il anginnut</w>
gavama lirijikkut</w>
5 .
uu mma
tasiuj arju
separ ate</w>
pivalli aj
m os
k unuk</w>
ik a
c ut</w>
au g
arij avut</w>
tul attar
tta ili
pimmari alu
igluli ga
apiqquti ssaq
y ers</w>
vi mmi
uni que</w>
tik ittu
qaujima ji
pos es</w>
ow ned</w>
nal au
illu liur
ch amb
tu mut</w>
tir iniq</w>
sta ke
pulaariaq simajunik</w>
pi ti
juma vunga</w>
illu tit</w>
tuksi arniq</w>
ikajuqti it</w>
casu al</w>
at ingit</w>
op ini
n atsi
aq u
uti gijau
sour ce</w>
s co
r s</w>
occur red</w>
unfortun ately</w>
program ming</w>
li raj
ariaq aratta</w>
unn u</w>
ta ala
niru aqta
nani si
lima amut</w>
d ang
d ama
uju gut</w>
respon ded</w>
ilauq ta
gre en
en jo
ath le
su ur
m es
v inir
uq arasu
to wn</w>
pair iv
king unit
attu iniq
ull unilu</w>
t anginnik</w>
s ter</w>
q qa
pilirivi ujuq</w>
utiq arunn
si tion</w>
nunatsi armi</w>
provin ces</w>
profession als</w>
pi qu
gaj aqtut</w>
ga li
defin itely</w>
uqausi ss
itt unga</w>
iqqaqtu ij
imi q
giv es</w>
ur i</w>
sen se</w>
le ases</w>
itt innit</w>
in f
att end
su uq</w>
solu tion</w>
fac ts</w>
arn aq</w>
app at</w>
akk ullu</w>
tura aqti
taat suminga</w>
qaujikkai gutit</w>
pre p
prep are</w>
ju ugaluaq</w>
i sir
e as
decre ase</w>
de n</w>
appe ar
uq ta
timi migut</w>
ch a
un ut.</w>
tugli ani</w>
qiti qqu
possib ly</w>
barri ault</w>
arra ani
ad op
6 ,000</w>
kin s</w>
ka am
bec ame</w>
arni arnir
urn ga
tus ar
tauq uj
ma x
kinngu umaj
kiinauj ani</w>
fac ing</w>
day care</w>
arn inginni</w>
up ag
certi fic
atuaga it</w>
prote ct</w>
matuir utimut</w>
un inginnik</w>
king uniagut</w>
al unnik</w>
a anga
sa mit</w>
pi sim
iq atiq
depen ding</w>
clas s</w>
15 0</w>
sav ings</w>
li n</w>
aaqq issu
re lease</w>
h our</w>
gavama ulluta</w>
b ar
all an</w>
aju inn
wh en
when ever</w>
tauq attarmata</w>
relation ship</w>
inngi ttu
ilaur mat</w>
fel t</w>
aup ill
tuki ta
sima vuq</w>
let ters</w>
apiqqut inga</w>
8 8</w>
quali fied</w>
maann ali</w>
m b</w>
fi cial</w>
correc tly</w>
7 9</w>
tusa n</w>
s port</w>
pingas unut</w>
kk aj
ki uq
isumaq saqsi
es sing</w>
aq simajunik</w>
angijuq qau
ajjigiinngi ttut</w>
qanu kiaq</w>
mir ngu
ju llu</w>
a git</w>
a ding</w>
ill unik</w>
continu ed</w>
aw aren
awaren ess</w>
angiqatigi i
al d</w>
ak inga</w>
piliri angujuq</w>
lev i</w>
implemen ting</w>
i v</w>
ang mata</w>
ullumi ujuq</w>
lu kta
bi e</w>
akk alu
ur asu
up i</w>
taik sumani</w>
simalir mata</w>
secre tari
provi sion</w>
nalunair i
mak ununga</w>
9 1</w>
uqatau juq</w>
saqqija aqti
pij unnaq
ill unga</w>
aqt unilu</w>
tti ar
inter i
coun ter
aqq ara</w>
25 0</w>
siman irij
q attaqtut</w>
dis cre
d le</w>
to ll</w>
sunakku ta
panniq tuumi</w>
mo ment</w>
le ased</w>
aqattar mat</w>
aj ji</w>
9 8</w>
uqarunn aqtunga</w>
unir mik</w>
nukti q
ik tu
en for
al one</w>
ac ted</w>
suppor ted</w>
suli juq</w>
ru si
niruaqtauq atigi
jumaj akka</w>
g n
tuksi ra
immini iqta
8 7</w>
siq inng
minis tauq
me at</w>
ari iq
titiraq simajunik</w>
t init</w>
san agi
resol ve</w>
piv vi
birth day</w>
attend ance</w>
ut inga</w>
up gra
person ally</w>
nun att
naamman a
llu gu.</w>
ati lluta</w>
akku vik</w>
ver ing</w>
uj ja
pi ani
b ank</w>
arn g
achi eve</w>
ta kan
sanng iniq
min ga
m and</w>
asi anik</w>
1 1
san aji
katimaj ingita</w>
inir mullu</w>
complain ts</w>
volunte ers</w>
s sanik</w>
pita qangi
laur mi
ing mata</w>
bud gets</w>
allai juq</w>
t ou
consul t</w>
alakkannu aq</w>
aka illiur
naliq qangit</w>
gama ilaak</w>
fi re
valli ani
k unnit</w>
tuu mut</w>
tuki siv
pijunn aut
u ma</w>
qau ppat</w>
finis hed</w>
e vi
arraag unit</w>
u n</w>
quo ta</w>
princip le</w>
nau kkut</w>
kajungi q
ittu gut</w>
in ingit</w>
dedi cated</w>
unniir ama</w>
unga jut</w>
ta bility</w>
re main
re ly</w>
qaujimaj au
nunavuu mit</w>
mak pig
anginn atta</w>
pur poses</w>
pula aqtinit</w>
pilirivi up</w>
par ties</w>
taimaittu mik</w>
si ght</w>
harv es
gi ali
g inasu
a akk
tra in</w>
t t</w>
naal auti
iq att
carr y</w>
vivvu ari</w>
tau juq
r inirmut</w>
qauji mangi
parn ai
e ag
aru ttigu</w>
qull uqtu
o ds</w>
manag er</w>
kkannir ni
jut inginnut</w>
don ald</w>
nalliukkuma aq
kk unnit</w>
iqqanaij aqtut</w>
p ys</w>
min imum</w>
ilauq tuq</w>
campai gn</w>
tu gaq</w>
iqqanaijaqtu lirinirmut</w>
b or
atuag aq
ac tions</w>
v an</w>
up ak
ilu anut</w>
expres sed</w>
do g</w>
atuq p
9 6</w>
uv ang
ujar arni
timi ujut</w>
p aqqi
mit saanut</w>
l ay</w>
juma llugit</w>
ann ik
tsu tik</w>
silata ani
resid ent</w>
k .</w>
iqqanaijaqt inik</w>
iq attaqtut</w>
ar d
apiqqu sir
taak suma</w>
nauja at</w>
il angagut</w>
explan ation</w>
proper ty</w>
m anga</w>
kiinaujaq aqtitti
ini it</w>
ing alu</w>
g utigij
angittu gut</w>
stor e</w>
simanngi mmata</w>
ima immat</w>
ikajuq si
gu n</w>
gavama q
aqtu tillu</w>
aqtu mini
re ti
qaujis aqtauq
pir ju
pigg an
gr av
ch es</w>
ar uluuj
akk unni</w>
tunir r
strategi c</w>
saqqi taulauq
occ ur</w>
ili ss
g uni</w>
atti av
aks at</w>
tauni aqtuq</w>
stand ard</w>
spo ken</w>
secretari at</w>
ri ding</w>
qautama at</w>
par k</w>
nuta angu
impro vement</w>
b igg
pu s
proc esses</w>
na asa
n app
loo sie</w>
iqqanaijaqti ujut</w>
ata r
uqausiri jau
tti aq
imma q
b a
au gu
angirraq anngittu
accoun t</w>
tti q
ne t</w>
an a</w>
tigu una</w>
s all
piliriv ik</w>
lead ers</w>
iku pivvi
c c</w>
aull ar
aqtu gi
affor dable</w>
6 3</w>
200 ,000</w>
utis sait</w>
unn ingani</w>
tauj arial
tai j
katimajiuqati kka</w>
avi is
advis ory</w>
vi git</w>
niru aru
li gh
inu ksuk</w>
gaj aqtuq</w>
auq qu
appear ance</w>
anull aksi
alirij ikkut</w>
a aluk</w>
liq tillugu</w>
kisi ani
ili sa
gij attinni</w>
disab ilities</w>
b in
uq p
mak uninga</w>
gavamatuqakk unni</w>
ex er
bro ad
b ur
athle tes</w>
ar t</w>
aqsima mmata</w>
alla at</w>
5 ,
san av
re fer</w>
por tion</w>
introduc ed</w>
essenti al</w>
bo ok
ang uni
4 00</w>
uj uq
solu tions</w>
qaujimanngi ttunga</w>
nalunaiqsi junnaqpaa</w>
jo bie</w>
attu it</w>
maligaliuqti uq
ma ajji</w>
la ws</w>
kk anir
g nwt</w>
cl osed</w>
apiqqutigi jumajara</w>
........ ........
travel ling</w>
trapp ers</w>
sh ed</w>
p inir
nunavuu mut</w>
interi m</w>
bo x</w>
allar ik</w>
tig uj
t taq
w ai
quj ana
lhuti glu</w>
unn ga</w>
ga mi</w>
fram e
colle ctive</w>
ati kka</w>
ar akkit</w>
ac cur
salu mmaq
op s</w>
ikajuqti gi
exer c
atu ru
uqausir ng
stake holders</w>
si ze</w>
nauja ani</w>
mob ile</w>
jumaj ut</w>
auti llugit</w>
ag gu
ag giq
ag ala
mili annik</w>
kisu tuinn
aka uniq
v inga</w>
unngin ittinni</w>
per cen
alauq put</w>
8 4</w>
vehi cle</w>
t inni
quvi agij
qaujima gatta</w>
pinngu avijju
obvi ous</w>
ming nik</w>
mi q
katimaji ujuq</w>
kajusi titti
den tal</w>
atuinn ariaq
arraagu it</w>
rel atives</w>
qil ami
piviq aqti
mmi jut</w>
mma tik</w>
lauq tu
il angi</w>
com par
av er
au mmat</w>
anginn u</w>
ang annit</w>
9 7</w>
ut ed</w>
uki ukkut</w>
uju up</w>
taann attauq</w>
ing anni</w>
alau k
ide as</w>
all aij
8 3</w>
uqaus inginnik</w>
te ach</w>
pisi i</w>
mmij unga</w>
mali rmi
ju upi</w>
feasi bility</w>
do ctors</w>
auj aq</w>
armi mmat</w>
ai vi
uqausis saq
uq tur
termin al</w>
er i
ak kua</w>
nunavu ut</w>
na in
kinng arni</w>
k tut</w>
inuliriji tuq
hear ings</w>
aul anirmut</w>
7 4</w>
tammaqsimajuqsi uqti
sur plus</w>
n inganut</w>
l ai
employ ed</w>
char ge</w>
ani ar
uta q</w>
ungata ani
tau s
ilagiar uti
conclu ded</w>
bro ken</w>
tusaajitigu uqtuq</w>
tal aviis
st eve</w>
sh ared</w>
nunavung mi</w>
lauq tavut</w>
iqqanaijaqti tti
ur mi</w>
taik anngat</w>
pitjutigi llugu</w>
par li
mes sa
kaam pul</w>
ilinniarvi mmi</w>
guma llunga</w>
d au
aulaj juti
as unni
akili i
uqqu rmi
enti re</w>
pay ments</w>
p u</w>
liq ti
ki m
ikajuq sur
cro w
ch ance</w>
uti es</w>
tauti gi
pau loosie</w>
kanata limaami</w>
b el
qauji giaq
n atu
ingn u</w>
arraag unik</w>
akuni aluk</w>
a h</w>
titt inasu
frame work</w>
exp and</w>
chris t
allatti up</w>
ajjigiinngi ttunit</w>
u uv
seri ously</w>
qaujis aru
qangata ju
heav y</w>
any body</w>
answer ed</w>
ag g
ti mmi
ri ch</w>
qau r
naluna itti
mang mat</w>
ilinniaqtu lirijiit</w>
con ne
atuliq titti
appro ach
sima mmangaata</w>
s ati
niaqunngu u</w>
ll uniuk</w>
inng uqti
list ed</w>
ima i
ilinniarvi up</w>
ari assaq</w>
ak ta
ac compli
8 9</w>
ol der</w>
n ine</w>
angi kku
8 6</w>
wor ds</w>
tal ks</w>
nunali p
iqsuqti i</w>
asi agut</w>
aqtuq .</w>
vi a</w>
uqsualu mmut</w>
sim angittut</w>
tauni aqtunik</w>
jjuti it</w>
ingn it</w>
educ ational</w>
all s</w>
aanniasiuqti it</w>
uʼ vur
tor al</w>
ri s</w>
piliriv inga</w>
ir ni
bo ok</w>
unn arni
tusauma titti
si ku
me mor
araj aqtuq</w>
ik sivauta</w>
do ctor</w>
ar ani</w>
aki aq</w>
ta n</w>
re place</w>
nanisiv ik</w>
ij ut</w>
comm on</w>
aqlhu ta</w>
sanaj auni
ple asu
pie ce</w>
parn atau
nunavu limaami</w>
nakurmi i</w>
ma a</w>
gija uni
en ding</w>
wis e</w>
siv uni
simanngi mmat</w>
malik lhugu</w>
gradu ation</w>
ch o
taku gi
ques tioning</w>
pi uri
nammin irij
maliga liriji</w>
ju la
9 3</w>
tungilir a</w>
kiinaujat sama
for th</w>
f ts</w>
b ack
aqattar atta</w>
ann ga</w>
al vin</w>
ajur utiq
un irij
seal s
quvv as
n aju
mayo rs</w>
inu lima
iglu lirijikkut</w>
gu ma</w>
aruti t</w>
unikka arunn
reci pi
pir uq
min or</w>
la aq</w>
inu us
arraag uni</w>
ts uni</w>
tik is
stru c
saqqi tau
qu pp
pa allir
kinguv ari
ke pt</w>
intern al</w>
week end</w>
nunal innik</w>
hun d
deci ded</w>
att unga</w>
aqtu si</w>
vi cti
maligaliuqti limaat</w>
inginn illu</w>
ilagi li
asinginn ullu</w>
anir mit</w>
tu tuu</w>
qutt iniq
p re</w>
nunali ujunut</w>
mid dle</w>
arn iku
accoun tability</w>
u tauj
sivu kk
re vis
k a</w>
isuli vv
olo gy</w>
m .
ingirra j
il anga
aq simaj
uki ung
pair ivi
mmij ara</w>
ef ficient</w>
9 2</w>
ta anut</w>
f ast</w>
di ag
ar ini
apiqqutigi qqauj
ang ulauqtuq</w>
vo ice</w>
tu qa
qu e
j u</w>
aqp attut</w>
v aktut</w>
sig gali
l eng
kiinauj aqtaq
ing an
fa ther</w>
aqta uningit</w>
aqp utit</w>
unga junik</w>
siamma q
fac ilita
counsell ors</w>
air ports</w>
tre ated</w>
taun irmut</w>
secon der</w>
elec toral</w>
conduc ted</w>
t tar
s arvik</w>
qu li
pleasu re</w>
nam unng
iqal unni
c ause</w>
ari aqtuq
ar ily</w>
ap ta</w>
priv ile
enti ties</w>
bo urs</w>
atiquti qar
us es</w>
te mp
taun ani</w>
taikku ali</w>
t sau
re ach</w>
qallun auj
offen ders</w>
m mu</w>
katimaj irju
ingi ttu
fair ly</w>
en h
easi er</w>
alima at</w>
urnga gut</w>
uqattaq tuq</w>
ts inirmut</w>
perfor man
lirijikk unullu</w>
l .
katiman ir
ju ti</w>
uv anga
tujurmi vi
tak uni
nun ami
n hc</w>
itta riaq
arniq s
ans i</w>
00 2</w>
wor d</w>
tikir a
s inn
qaujima gama</w>
lir ni
conf li
ammari alu
uqausit sangit</w>
siti iv</w>
sig n</w>
recogni zes</w>
panniq tu
illu lirijikkut</w>
ho p</w>
ex act</w>
b on
atten ding</w>
nunngu ani</w>
man age</w>
lu tillu</w>
iqqanaijaqti kka</w>
inu lirinirmut</w>
ut in
su ti</w>
pijunn arn
ke vin</w>
atuutiq atti
am manga
tu pik</w>
ta q</w>
simanngi ttuq</w>
deci de</w>
ariaq ar
aka una
ad ju
wai ve</w>
uatti aru
tun is
titiraq simaningit</w>
retur ning</w>
qauji jau
mik iniq
ma tik</w>
ilu anngi
illulirijirju ak
f as
aliq tillugu</w>
1 20</w>
yo ung
ut tu
roo ms</w>
pa angu
niurr utiq
kaju sivalli
enh ance</w>
appe al</w>
akiraqtuq tut</w>
ag uma
7 8</w>
201 8</w>
tungi lirij
tasi luk</w>
qattaq tavut</w>
me tho
lh unilu</w>
katimaj inginnik</w>
iqqanaijaqti vut</w>
counc ils</w>
associ ated</w>
aqt inik</w>
ak uni</w>
a iq
recogni zing</w>
qaujima vunga</w>
pi tsi
nunata aqatau
ki ds</w>
emp h
accommo dations</w>
pro mis
mmari aluk</w>
initi al</w>
tukisi j
pivalli atitti
m. l.
k ul
uj unu</w>
th i
part y</w>
li ghts</w>
f ren
en han
altern ative</w>
25 ,000</w>
ti s
t ank</w>
q ats
niruaqti gi
li mit</w>
kin atuinn
katima utinik</w>
discus sing</w>
arraagu ani</w>
uj ju
tauv aktut</w>
ta liqp
si ka
niru ar
nali ira
mata guuq</w>
it taq
aqt inni
uv ann
uti gut</w>
katujjiqatigi ing
katu tj
iqqanaijaqt inginnut</w>
ar is
tuksir au
na ansi</w>
help ed</w>
ga mik</w>
fren ch</w>
fin e</w>
ati li
ajauq tiit</w>
ukpir usu
qi m
pusan ti
mi ut
kk ama</w>
gr ant</w>
f ile</w>
cor e</w>
una git</w>
takunn a
smo king</w>
recommen ded</w>
qanuiling ani
ilul ingita</w>
experien ced</w>
emph asi
5 0
uqauti junn
uqausi it</w>
uqalima ag
tusaajikku urunniiqtuq</w>
recre ation</w>
mappiq tug
atuqtuk sat</w>
aqtu t.</w>
ang anu</w>
amis unut</w>
unngi lu
sti c</w>
reas on
parnaut ingit</w>
kajus iniq
ikk unni</w>
comple x</w>
co de</w>
angiq atiq
ammar ik
al ber
sati s
aver age</w>
atta .</w>
at angiq
arunn aqsi
anngi ttunut</w>
aliq tillugit</w>
ak sanit</w>
a at</w>
re b
qautama amut</w>
pij aks
malig angit</w>
iqaluktuutti armi</w>
il angani</w>
hun t</w>
8 2</w>
t angi
s allir
re gis
piliri aksaq
iqal unnut</w>
citiz ens</w>
camp s</w>
anngil at</w>
ta li
nali ak</w>
ilagi it</w>
f it
7 6</w>
ing annit</w>
ang an
v avut</w>
uq attarni
unur niq
thur st</w>
ga it</w>
g en
cti ves</w>
ba thurst</w>
atur lugu</w>
ara angat</w>
, 8
ung inni</w>
ll ing</w>
kiinaujaqtur uti
armanga attigu</w>
ang n
analy sis</w>
ak all
agguq tuq
uqarunn aqpaa</w>
uqaal autaa</w>
tig ullu</w>
tau ght</w>
str ong
recommen d</w>
r ati
kajusi luta</w>
j ikkut</w>
iq sau
ikajuq taujariaq
igl ul
atuqtuk sanut</w>
aqsu tik</w>
a ittu
ungata ani</w>
uj u</w>
tra ck</w>
tauv unga</w>
ta it</w>
isumagij aq
irn iliit</w>
be coming</w>
ami akku
ali raj
titiqq akkuvik</w>
se ali
pingaju at</w>
opini on</w>
li f
kamp ani
tax es</w>
s alli
r ulu
qupp irniliit</w>
nangiq sivunga</w>
kkalu aqtunga</w>
effe cti
auj uq
angunasu kti
tikittu gu</w>
matuiq si
kk anirni
fin ding</w>
ar suni</w>
any where</w>
aippiq taullunga</w>
u rij
tisi piri</w>
quttittu mut</w>
la unngi
isu man
impro ving</w>
determin ed</w>
atu raj
aqlh utit</w>
ama l
ju ugaluat</w>
iglu liur
distri b
de mand</w>
aqp ammata</w>
sun aqtuq</w>
seali ft</w>
n gi
explor ation</w>
cre ating</w>
clos er</w>
aqtitt iniq</w>
apiqquti g
s aujut</w>
q ap
d uties</w>
00 1</w>
tu llu</w>
tili jau
tikir arju
suf ficient</w>
sa w</w>
aliq pat</w>
affe ct</w>
ungata anut</w>
piliri as
ma le</w>
kanngunaqtu lirinirmullu</w>
un ilingual</w>
shel ters</w>
performan ce</w>
m unga</w>
kin auj
iqq attu
ilauq ata
establish ing</w>
arni it</w>
akk anirni
valli an
uqausirij anga</w>
unn ani
ung innik</w>
li br
iqqai ti
fo li
cer e
b is
armi javut</w>
anticip ate</w>
who m</w>
w ester
unnaq paa</w>
tau tillugit</w>
talli mat</w>
sour ces</w>
socie tal</w>
kiinauj akku
katimauti miningit</w>
g li
choi ce</w>
8 1</w>
upi gu
un ds</w>
ulu ta</w>
su s</w>
rep ly</w>
port foli
it inni</w>
ilu gu</w>
iksivauta q
fun d
advan tage</w>
tus ari
n ature</w>
maligak sanut</w>
iqqai titti
de mon
consul ting</w>
aqlhu git</w>
aaqqiksui jiit</w>
v ullu</w>
uqsuq tuumi</w>
tu lak
topi c</w>
pursu ant</w>
pisi uk</w>
nalunaiq tausima
lik ely</w>
ju lirinirmut</w>
ingirraju lirijikkut</w>
g utigi
exc ep
christ mas</w>
arunn aqtut</w>
arnik samik</w>
piquj arjuaq</w>
niqi ta
nikuvi ppunga</w>
ilinni atitsi
f ans</w>
demon str
cri sis</w>
angunasu k
wester n</w>
tamatum innga</w>
taat sumunga</w>
subsi dies</w>
su mma
qu ki
learn ed</w>
fri end</w>
a aq</w>
urn irmut</w>
siq attar
pri me</w>
piqqusi liri
piliri junn
nuqq aqtuq</w>
kaan tu
il a</w>
g ingi
augu st</w>
atti aq
ab solu
tunnga vi
percen tage</w>
lu k
kk alu</w>
katimajjutiks avut</w>
contrib ute</w>
tiki uti
pre v
kin akku
juma vakka</w>
iqqanaij akainn
inuuli saq
ilinni ara
appropri ations</w>
uq attarn
tu n</w>
t saq
pers ons</w>
maligaliuqti i</w>
liuqti it</w>
lan ds</w>
iqqanaija anik</w>
in sta
ev en
arni arama</w>
arma gu</w>
aqlh unga</w>
40 71</w>
ut inginni</w>
ur su
quviasuk tunga</w>
ku u
c ents</w>
avik tur
ata ata
apir ikkannir
ala unnginn
akkannir ni
adju st
su rr
revie ws</w>
q ata</w>
pimmari ummat</w>
out post</w>
maps alaak</w>
giar uti
g ri
f ur</w>
co uldn</w>
akili ks
uqausiq aqqau
up dates</w>
under way</w>
outlin ed</w>
knowle d
immedi ate</w>
b an
purch ased</w>
interpre ters</w>
esti mate</w>
condi tion</w>
arraagu up</w>
angumma ti
angiq qisi
t saq</w>
sivulliqpa angannik</w>
n ap
laur atta</w>
iglulirijirju akkunnut</w>
tunn g
tamas sumunga</w>
nu uvi
mittimatali mmi</w>
home less</w>
at temp
angir unn
qaujis aruti
qaujigiar utit</w>
qanu inni
qai quj
niq sunaqtuq</w>
ilinni artu
ig h
discre tion</w>
dau ghter</w>
au k</w>
arvi mmi</w>
ak inginnut</w>
utili ze</w>
sanirv ai
re lev
minist anganut</w>
in inga</w>
arni up</w>
unuq sigi
siv unir
recor ds</w>
qauji j
nalunaiq tau
lirinir mu</w>
k u</w>
ili j
gre ater</w>
ali ur
alber ta</w>
aktu iniq
ad ded</w>
, 9
up a</w>
simp ly</w>
piq ann
parnauti q
mon itor</w>
maliga tigut</w>
ilinni arnirmut</w>
ef fici
aqta uninga</w>
aqattar niq</w>
angir utiq
uqaujji gi
to tally</w>
sel ves</w>
n ai
mi mmat</w>
lima atti
constru cted</w>
asi t</w>
app alli
amisu ulu
uumaqqu ti
tuinn aqtara</w>
sivu liuq
ping ann
pijari ak
makkuk tut</w>
ing annik</w>
il anginnit</w>
e m
angiqatigiig uti
vis i</w>
u mmi
saqq it
rang e</w>
kim pul</w>
gavama lirijikkunnut</w>
ar illu
air craft</w>
tu tit</w>
qanu kkanniq</w>
presen tation</w>
nain aaq
lo ts</w>
liq tillugit</w>
arrang ements</w>
ann ura
9 4</w>
2 2
vac an
ung ni
p. m</w>
nunavu miut</w>
minis terial</w>
kati qatigi
j juk</w>
impro ved</w>
gavamakk unillu</w>
comple tely</w>
aqtau juq</w>
&apos; clock</w>
utir vi
uki uq</w>
time ly</w>
taann ailaak</w>
sur ve
sima vugut</w>
sil aup</w>
s ports</w>
pijariiq si
n as
gija uningit</w>
budge ted</w>
utir vigi
piquj assaq</w>
lirijiq ju
la at</w>
kiut inni
iq ata
col d</w>
b la
aspe cts</w>
pro duct</w>
mik sau
li mmut</w>
inung nut</w>
aru taa</w>
ila inn
aqta un
uq tau
ujar angni
substan ti
san u
lauq t
ir aj
aqtu ssau
a h
visi ting</w>
uuttu utigi
up dated</w>
tura agaq
tt iniq</w>
sa innaq</w>
qu an
le asing</w>
la gut</w>
hel ps</w>
dis e
. 5</w>
wer en</w>
tu git</w>
qaujis arniq</w>
mu aqpat</w>
inu lirinirmullu</w>
cam p</w>
arijau juq</w>
vigi simaj
un able</w>
saqqiqti taujuq</w>
qujannamiirumaj ara</w>
qujannamiiq par
qa itti
piliriq ati
nuqq aqti
men d
assu me</w>
uqti tti
tai mali
ta unginn
ser ved</w>
iglu lirinirmut</w>
compon ent</w>
ci ans</w>
ata ani
uqausi q</w>
un ch</w>
umaj unga</w>
tre mend
s sanit</w>
maann ama
kiinaujaliri ji
kig li
desig n
cur red</w>
aqattaq tunut</w>
taikkun anngat</w>
t ini
t est</w>
quj al
kati lh
jula i</w>
initi ated</w>
can ts</w>
ar aal
anngi ttunik</w>
am innik</w>
, 7
some where</w>
nunatsi ap</w>
investiga tion</w>
inn irmut</w>
aq suni</w>
angiq tausima
anginn ir
ak unik
ullu tillu</w>
s now</w>
pijjutiq aqtuq</w>
nuta amut</w>
minis tauju
katima v
iqaluktu utsi
iq attarmata</w>
for um</w>
aatuva ami</w>
taimanng anit</w>
qatti rij
pi tuq
parnaut inik</w>
namminiq aqtunut</w>
mata am</w>
th ly</w>
taku ss
sco tt</w>
rep air</w>
mali tti
iksiv a
ikaju ri
carr yo
atuliq titau
araj aqtut</w>
anngi ppat</w>
1 10</w>
taun aj
taima iling
taas su
r mi</w>
nunalirala ang
mmar ik
mini si
messa ge</w>
kajusi giar
inves tments</w>
in ungit</w>
am u</w>
uti llu</w>
tre at</w>
qani gija
ni pi
isumaq su
distri bution</w>
b ed</w>
aqp isi</w>
volunte er</w>
u ini
tusag aksanik</w>
tem por
strong ly</w>
sima llu
ou ght</w>
ki ug
isumaalu u
atiqutiqar unniirama</w>
appli cants</w>
aippa ani</w>
unga juq</w>
t el
ri der</w>
provin cial</w>
naam m
mani q</w>
imma llu</w>
imialu lirinirmut</w>
green land</w>
gavamalir inirmut</w>
anngin atta</w>
ac ade
qat anng
q ak
malig armut</w>
imp acts</w>
ilagiar uti</w>
atuq tauqattaq
aruma vunga</w>
aanga ja
uki unut</w>
nuta anngu
niri un
mu ur
min iq
una taq
takuj agaq
qanuiliur ni
pingas unit</w>
kiu juma
ik a</w>
aqta minik</w>
akk atta</w>
vi mmu
uqalima arniksamik</w>
sau p</w>
g utiit</w>
fic ations</w>
atu tti
ami akk
ak ti
uumaju lirinirmut</w>
tusag aksaq</w>
sukk arutaa</w>
manag ers</w>
iq atti
gener ally</w>
enfor cement</w>
angajuqqa ang
aanni aqtaili
y ond</w>
uqausi u
tuk tu
tu de</w>
qiti anut</w>
oni c</w>
mann ginn
mali ttugu</w>
ma ti
jjuti gi
irn is
in aj
il innut</w>
ga tta
finan cing</w>
be yond</w>
b lu
avittuq simajut</w>
atuqtuk sait</w>
tusaajikku ungittuq</w>
sa ang
qaris auj
qangat tau
mappiq tugaq</w>
in tent</w>
gi aq</w>
consul ted</w>
book s</w>
associ ations</w>
sugges tions</w>
soli d</w>
simaliq tuq</w>
qanu ingi
pa aq</w>
nunali ujunik</w>
n inginnik</w>
ll unilu</w>
imar miuta
au v
aqq avut</w>
aga su
uq arumajunga</w>
taku jau
sub mit</w>
rep airs</w>
pit juti
pinasuarusi ulauqtumi</w>
pijjuti qar
ne ga
natu ral</w>
lirij it</w>
ikaju utit</w>
deli vering</w>
allow ances</w>
tu aq</w>
pukirn aq</w>
pen sion</w>
immi kku
han ds</w>
cri min
cap able</w>
as suru
aqti llunga</w>
aksur ur
tta u</w>
taat suma</w>
suli kkanniq</w>
relev ant</w>
over sight</w>
maligaliuq tinik</w>
k sanit</w>
constitu ent</w>
a in
&apos; na</w>
v ar
uut tur
uqsu aluk</w>
uqalima aga
taap kua</w>
qanu itu
per man
particip ation</w>
niruaqtau sima
ef ul
auq attarmata</w>
akiliq tu
, 6
tal i</w>
mi mmata</w>
kiinaujaq atti
ju uni
harves ters</w>
ter ing</w>
siti iv
pivalliaju lirijikkunnut</w>
over crow
mu anga
k pata</w>
ili si
annu ally</w>
a taujut</w>
uumajurni aqti
ti liuq
ta m
simaju tigut</w>
s pir
s inna
qutt inniq
our selves</w>
iqqanaij aari
de lay</w>
ar tunga</w>
ar pat</w>
allow s</w>
o s</w>
chang ing</w>
b c</w>
aw ards</w>
aqpu si</w>
vie ws</w>
utik sanit</w>
na ittu
mul ti
lu ukta
ki ugunn
in es</w>
ik sa
atur niq
utili zed</w>
tukisin atti
pij jut
n aq</w>
i vut</w>
wor ks
uqaqqau gamailaak</w>
pri de</w>
possib ility</w>
lo an</w>
inte gr
c ru
10 ,000</w>
ungata anu
tri p</w>
s now
nuta annguqti
nu mer
giv akka</w>
at inga</w>
streng then</w>
sau m
s ell</w>
nunavu mi
na illi
mo der
mmar ik</w>
katima vimmi</w>
k angi
f red</w>
chamb er</w>
am inut</w>
ak uk
adop ted</w>
aaqq itti
uqall aqatigi
nigi ani</w>
malig arala
isu ungu
aull unga</w>
ar t
qulli kkut</w>
nuta aruri
kaantura aq
immi gration</w>
il aj
expec tations</w>
en ter</w>
eful ly</w>
cri me</w>
bla is</w>
aul ani
aqt inn
aqq ik
angi laak</w>
qamanittu armi
ing ly</w>
ilagij aujut</w>
h ur
difficul ties</w>
ac ting</w>
visi ted</w>
up inn
te ams</w>
tamann aqai</w>
sap uti
s ung
qa angi
pii tusan</w>
minis taujut</w>
iq suq
dis t
desig ned</w>
clo sure</w>
aq tauj
seni ors</w>
saqqi tiriniq</w>
sam inik</w>
qaujis arnirmut</w>
pij a
nunali ujunit</w>
naamma mmat</w>
los s</w>
ing ini</w>
ap er</w>
00 7</w>
tu mit</w>
piliriang uni
piliri anik</w>
katimatuinn alauqtillugit</w>
ju uja
ikajur ni
armi gatta</w>
appe als</w>
an it
accep table</w>
works hop</w>
uqausiq arunn
tun unirmut</w>
n uq
mar sh
ks at</w>
kingul li
ju kkut</w>
illu mut</w>
expe cting</w>
atsi aq</w>
accommo date</w>
00 3</w>
subsi di
su gu</w>
nu atti
alaur alu
alauq puq</w>
uʼ pur
piq atiq
p tion</w>
n ann
ki hi
katimaji uqataujut</w>
high est</w>
han ta</w>
fri ends</w>
at ri
1. 5</w>
taqq akkua</w>
statu tes</w>
qujannamiirumaj akka</w>
obje ctives</w>
malig lugit</w>
lima anik</w>
ji ujut</w>
il angi
establish ment</w>
e ding</w>
consist ent</w>
at h</w>
ttu ma
san u</w>
on er</w>
naammas anngittut</w>
liq pata</w>
laur ama</w>
inuq uti
g ing</w>
der ed</w>
compli ance</w>
akku ur
ver age</w>
uqalaur ama</w>
tauni armata</w>
p uv
inni ittuq</w>
ilagi inut</w>
hund red</w>
gavam angit</w>
break down</w>
apiri j
3 00,000</w>
tuni jauni
qu si
nu taq
iluunn anginnut</w>
en ro
ar simajut</w>
alu k
uq ullugit</w>
qatt inik</w>
qanuiling aninga</w>
nalunaiq sivi
kisi mi</w>
b and</w>
wat ching</w>
tau tillugu</w>
san ani
reb ate</w>
pilimma ks
iling aniq
dep ends</w>
ai puru</w>
ulauq simajuq</w>
publi c
pijariir uma
malig arnit</w>
m.l. a.</w>
ja annu
he ating</w>
h to</w>
avittuq simajuni</w>
aqtu ugaluat</w>
wor th</w>
tu ta</w>
tu ally</w>
s a</w>
kap pi
ju up</w>
fi gh
fac ed</w>
exp la
atten ded</w>
ar di
up aktut</w>
sima gi
nun anganni</w>
mann gat</w>
malig aup</w>
inng in
accur ate</w>
aag ga</w>
unga a</w>
ju mani
gu e</w>
arumaj ut</w>
aru maliq
tama pta</w>
su red</w>
sima gakku</w>
ser ving</w>
re leased</w>
public ly</w>
pij at
pi us
par ks</w>
mon y</w>
inir mu</w>
bal ance</w>
av u</w>
auj unnaq
an ikkut</w>
ak i</w>
00 6</w>
00 5</w>
sho ws</w>
shi pping</w>
re vol
on tari
oc e
ma rr
kiinaujj assa
confli ct</w>
c y
bo und
bene ficial</w>
atuq attar
apiri junn
amma tauq</w>
tukisi titti
tour nam
pi tuinna
l ago
gur ait</w>
ari aks
ro ll</w>
pivalliatitt inirmut</w>
p avut</w>
op ened</w>
ontari o</w>
mis sions</w>
inter vention</w>
at unng
ajjigi i
ag al
unikkaali angit</w>
titiraqti i</w>
taima ikkalu
minis taujumut</w>
m .</w>
lirij ik
k as
inci dent</w>
er ed</w>
arri ja
victi ms</w>
uti tti
tus si
tan ks</w>
sa im
palli aj
l a</w>
iksiv aut
b cc</w>
utigij avut</w>
titiraqsima juq</w>
supp lies</w>
sim anngittu
nunaling ni
n ajuq
descri be</w>
deli ber
de als</w>
car efully</w>
aqqu q</w>
ab o
00 4</w>
tau tuinn
taima igunn
qaujima jugut</w>
prepar ing</w>
kin a</w>
kamagijau tti
e u
allar ik
, 5
valu able</w>
p ack
min es</w>
kiul van</w>
katimma jjuti
ju si
dra f
be comes</w>
anni aq
20 ,000</w>
uʼvur aijan</w>
tunngasutti ar
ta qa
sima vat</w>
re mo
pinasu ag
obliga tions</w>
nuqq akainn
lauq simammata</w>
irn gu
ilu git</w>
confi dent</w>
bo dies</w>
b an</w>
advis ed</w>
addi ctions</w>
x ed</w>
visi uk</w>
u taujunn
su san</w>
niru aqtulirinirmut</w>
ill unut</w>
ikajuq tur
auti t</w>
aqpi ta</w>
young er</w>
qaujima llunga</w>
numer ous</w>
marruung nik</w>
illu mi</w>
his tori
aras si</w>
ul y</w>
u gatta</w>
tun ilu</w>
taulaur mata</w>
taima a</w>
renov ation</w>
re new
qutti ktu
pijariiq tau
ma ch
lif es
gij akka</w>
aaqqi u
tu qu
ori en
op er</w>
lauq put</w>
im mut</w>
exerc ise</w>
de cl
arraagu u
arasu arnirmut</w>
aqta it</w>
an tu</w>
2 1
y uk
uq aqqa
saal aks
qamanittu armut</w>
out standing</w>
kamisan a</w>
juq .</w>
jo int</w>
gre at
tu piq</w>
taakku attauq</w>
sin aa</w>
origin ally</w>
o l</w>
kiinaujaqtur utiks
ing mik</w>
har d
fill ing</w>
com for
asi anu
arn anut</w>
al h
uummaqquti lirinirmut</w>
utik sa
revis ed</w>
p assa
nau kku
instru ction</w>
ilul ingit</w>
eu ro
dru g</w>
co oper</w>
auj arialiit</w>
z one</w>
ut inginnit</w>
tapp ik
so le</w>
sivun iss
sima lluta</w>
qut ingit</w>
qqu ur
pur aun</w>
physi cal</w>
ju alu
harv esting</w>
finis h</w>
e x</w>
arnir minik</w>
arni aqtunik</w>
aqta uninginnut</w>
ak inginnit</w>
,00 0,000</w>
uuktu utigilugu</w>
unga t</w>
ta ili
ri es</w>
qurluqtu uq</w>
minis tauv
mik sa
mik ilu
l ose</w>
kisu mik</w>
iluanngi liur
ikaju utiit</w>
counter parts</w>
aqtu lirijikkut</w>
ts iniq</w>
remin der</w>
qaujima llar
proce dur
minis taq
kiggaqtu i
jut init</w>
atuinn aru
aq attani
apir ilaur
aaqqi umaj
tion ally</w>
tainn alu</w>
se l</w>
s sanut</w>
ngu liqpat</w>
nalunaiq sima
li iv
katimajirala angit</w>
ingi t.</w>
ilu ta</w>
arlu tillu</w>
ani aqtuq</w>
uk pik</w>
trib ute</w>
t ga
simaj anga</w>
piliriar ini
pi lirinirmut</w>
per spe
at innik</w>
8 .
tamann ailaak</w>
taimann ak</w>
remain s</w>
plan e</w>
m annir
h ab
f ran
c arv
tukisi u
tama unng
siman irmut</w>
nor mally</w>
mik ittu
m man
isu majunga</w>
arra an
apiqquti ttiav
apiqqut inganut</w>
14 0</w>
ullu .</w>
uki unik</w>
particip ating</w>
minirn ut</w>
kinngu uma
kikku limaanut</w>
isuma lu
inter esting</w>
ikp aksaq</w>
armi j
al liq
qaujimajatuq anginnik</w>
portfoli o</w>
miu taujut</w>
king uvv
isu ung
fun ctions</w>
er ous</w>
aq uji
aju ri
uatti aq</w>
tremend ous</w>
passa ge</w>
maj ara</w>
7 00</w>
work place</w>
visi ts</w>
uki assa
repe at</w>
r on</w>
nalunaij ai
mor tga
i jau
disab led</w>
alir alu
pinasuarusi up</w>
pijit si
katimavi jju
k anni
atuqtuk s
aqpi it</w>
un less</w>
sivuliq t
poin ts</w>
lauq simajut</w>
glu unniit</w>
atuqtauni aqtut</w>
arn angittu
uk un
sur unn
prin ci
princi ples</w>
nun ami</w>
mal s</w>
kuapuriis akkut</w>
ing mit</w>
be c</w>
av a</w>
att ra
ani mals</w>
vi de</w>
urg ent</w>
tuu tuu</w>
tuq q
taimann ail
siman inganut</w>
rel ations</w>
pro duce</w>
pa ami</w>
nalli uniq
katimaj iq
ikummaqquti lirinirmut</w>
gradu ate</w>
gavamakkung innik</w>
c at
atausir mit</w>
armi junga</w>
apirijuma vara</w>
affor d</w>
.. ..</w>
uqti it</w>
tata tiri
taima im
minista .</w>
min ir
maki maj
h iv
f ers</w>
expendi ture</w>
co operation</w>
at angi
an ingit</w>
unngi ttunik</w>
ti ujut</w>
tari up</w>
sivukk aqtaq
piuri u</w>
out fit
kk aniq
iq attarn
cra fts</w>
ann irmut</w>
ang unas
akitujuqtur utinut</w>
vur it</w>
uq sima
ullu it</w>
ul au
sav e</w>
r ase</w>
qitur nga
la unnginn
kikku tuinn
inu uqatigi
titiqqau si
regis tered</w>
isumaalu utigi
g uttauq</w>
diag n
certific ate</w>
su gi
recipi ents</w>
qangat tauti
nalunaikku taq
h tos</w>
er al</w>
di visi
c ley</w>
aralu armata</w>
9 .
uk si
tti arni
sivulli q</w>
simalir mat</w>
silata anut</w>
ri ed</w>
qattar niq</w>
pro motion</w>
poin ted</w>
mi li</w>
lirijikkunn ullu</w>
katima tilluta</w>
kaantu la
k innga
aqt anginnut</w>
anga mik</w>
akik inniq
u un
sta ting</w>
pri ori
perman ent</w>
particip ated</w>
kamagij ariaq
isumaksaqsiur utiq
is ul
akili u
ti kku</w>
sh ops</w>
r d</w>
inv ited</w>
ikk ann
aqp aktut</w>
am mangaaq</w>
a c</w>
utik saq
uplu mi</w>
tal s</w>
taima assa
pu ri
pi simatti
nunavummi t</w>
ci an</w>
appe ars</w>
ajjigiinngi ttunut</w>
aanniavili aqtunut</w>
vi ujut</w>
su res</w>
princip al</w>
pi it</w>
p ani
man asu
hol ding</w>
atuliquj au
ab ilities</w>
00 8</w>
usi k
unga ju
ung mangaata</w>
taul utit</w>
siqu mi
re ver
po wer
piqujivungaaruti it</w>
maliga lirijikkunnut</w>
kuap ur
inv ite</w>
giaq araj
congratul ating</w>
wat ers</w>
qikiqta alungmi</w>
pilimma ksa
ilin gav
elec tr
conta min
ari angit</w>
lo gi
isumas saqsi
f our
ti m
pres ents</w>
piliriak sanut</w>
kiinaujaqta arusi
illuli ga
illu lirinirmut</w>
angilli giaq
alaur ngata</w>
a ikp
uqausir ini
uni aqtumik</w>
tauj unnaqullugit</w>
sun ilu</w>
me d
iqqanaija allarik</w>
es hi
eas y</w>
constru ct</w>
w inn
uann anga</w>
qujannamiik tauq</w>
qitirmi unit</w>
mmi mmat</w>
kisu mut</w>
it ta</w>
en tered</w>
d ents</w>
utigij unn
su ra
sta ges</w>
speci es</w>
silattusarvi mmi</w>
piqqusi tuq
liriji ujut</w>
liiv ai</w>
inutti tu
gis si</w>
en n</w>
arasu k
ad v
absolu tely</w>
a an</w>
ujjir us
tait sumani</w>
t anginnut</w>
stor age</w>
simp le</w>
si t
repor ted</w>
quvi a
occasi ons</w>
ob tain</w>
nir mit</w>
katimajirala anginnut</w>
ju uk
inv en
ima g
hou se
co pi
uq uj
uq aqq
iqaluttuutti armi</w>
har bours</w>
arr ag
anginn illu</w>
aaqqik sima
ur as
tamann ali</w>
s ari
ri aliit</w>
q u</w>
pursu e</w>
pro to
piqujivungaaru mmut</w>
pas sing</w>
ki a</w>
candi dates</w>
atti llugit</w>
aktu aniq
aanni arv
wh at
uqalima agaq
unikka anga</w>
ti sa
taakku aguuq</w>
sun au
respon ding</w>
recre ational</w>
p inas
maann asa
docu men
d or</w>
a ak
unngi kkalu
tusa ji
tori es</w>
tic eshi
que bec</w>
p ris
kamisin aup</w>
iqalu gasu
encour ages</w>
auti gij
appren ticeshi
angi ppat</w>
7 .
uqausir nut</w>
uqaqti llugu</w>
tamakk unani</w>
qangatasu ukkut</w>
promo ting</w>
partn er</w>
nuqq aqpuq</w>
necess arily</w>
kati qatiq
kamagij auni
innga aqtunik</w>
z z
uqaal auti
transpor t</w>
sy m
str ik
nuta anut</w>
minirn ik</w>
katimajjuti it</w>
katima g
dro p</w>
aulaur mat</w>
apir ilauq
angiq tauv
accoun ting</w>
tukisigiar utiks
simaj u</w>
pi ta</w>
mang mi
kanata mi
isumaksaqsiuq tauningit</w>
is ts</w>
gi ir
g ory</w>
fi f
cate gory</w>
apiri jau
uq att
titiraqsima juq
se tt
s ullu
ren tal</w>
mu aqtillugu</w>
kiggaqtu ij
ivv it</w>
ar ilauq
so und</w>
presen tly</w>
nunalip auj
nunali limaat</w>
lima anit</w>
l ying</w>
ku ta
gavamatuqakk unnik</w>
gav ama</w>
f it</w>
adv ance</w>
work shops</w>
ulu git</w>
tau simajunut</w>
tap iri
st ory</w>
s si
priori ti
p ila
nutaanngu ri
kimmi ru
k ill
ima immallu</w>
ilinniarv ik
compu ter</w>
yuk on</w>
tuinn akkut</w>
s tation</w>
ri ts</w>
qi mmi
lo ve</w>
liq qat</w>
ga asi
atuq taujariaq
arni armangaaq</w>
ar tu</w>
aqtu limaat</w>
aq ullu
aaqq isu
un uk
tunngasugi tsi</w>
sta b
sap ujji
s inasu
mittimatal ingmi</w>
lifes ty
interpre ter</w>
encourag ing</w>
aliq tugut</w>
uv aktut</w>
unit .</w>
tiki titti
super vis
sivul liq
sil a</w>
ro les</w>
palli ani
nun agij
lauq tugut</w>
iq atau
ga tsi</w>
fram e</w>
fe es</w>
ar jung
aq ra
tauj ja
tamak suminga</w>
tak ula
reali ty</w>
jjuti q
iq si
inn aruri
cal cul
benefici ary</w>
angiq tugut</w>
uʼpur aian</w>
sum ani
rel ates</w>
pu san</w>
max imum</w>
facilita te</w>
ar illuni</w>
aksur unn
uqqu us
taulaur mat</w>
ni p
jalun ai
illulirijirju akkunnut</w>
gui de</w>
for mally</w>
dedi cation</w>
aqquti gi
an der</w>
amis unit</w>
silattu r
q ati
katimavi up</w>
cop e</w>
aqta v
al ex
a giaq
uqaqti .</w>
niru arn
nalunaiq simatti
llu tigut</w>
k ann
iqalu mmi
iliqqu sir
gavamakk unnik</w>
atausir mi</w>
aru kku</w>
arni ujuq</w>
apiqquti ks
tauj uni</w>
taralu ara</w>
su pu
sci enti
piqujiv unga</w>
nuta anit</w>
maligaliuq vimmut</w>
inn auj
apiri ju
tti aq</w>
sivulli ujj
revol ving</w>
niqi it</w>
nalun anngi
iqqanaijaqt init</w>
inter ests</w>
exam ples</w>
auj ji
ati vely</w>
alaur ngat</w>
3 rd</w>
tag va</w>
ta ined</w>
so l
sivuliqti it</w>
s unga</w>
nunavummi uta
ku uli
inngi mmat</w>
colle ction</w>
co ali
asu ut</w>
akul lir
silarju armi</w>
niur ru
nega tive</w>
maligak sanik</w>
lir alu
g akkut</w>
arva aluk</w>
aqti ujut</w>
8 00</w>
14 9</w>
v attu
strategi es</w>
siut inik</w>
piliriv ingat</w>
isumaqsaqsi urningit</w>
arn inganit</w>
angirr arij
amisu mmari
ag a</w>
aanniaqtu lirijikkunnut</w>
unn armangaata</w>
ulla aq</w>
timi quti
qanuinngi tti
pro spe
nak uq
indic ation</w>
incorpor ate</w>
g akk
v ammata</w>
uti taq
tauq attani
tauni q</w>
sh aring</w>
s si</w>
s cre
pig vi
na alak
na a
lu tta
k attuq</w>
ing in
even tually</w>
coali tion</w>
ch ill</w>
atur lugit</w>
adul ts</w>
00 9</w>
vv a</w>
ung innit</w>
piliriv iq
n ar
katujjiqatigi inginnut</w>
kangiqlh iniq</w>
inni .</w>
haml akkut</w>
fi es</w>
aulatsi j
atjigi ingi
at uni
abo ve</w>
u tuinn
tusagaksa lirinirmut</w>
tuq .</w>
silattuqsarvi mmi</w>
qitiqqu u</w>
qa akkanni
pur ul</w>
nunali up</w>
makku ttunut</w>
ju n</w>
iq attarni
iku pigvi
gavamakk ullu</w>
en u
def ini
assist ing</w>
anni vers
ake eag
valli ajut</w>
uq alu
uning inu</w>
tunnga suq
tik ilh
tavv ung
simaj anginnik</w>
se a</w>
qan utigi
q ass
procedur e</w>
pi ikuu</w>
no min
niq ais
m c
ex pi
dang erous</w>
communi cate</w>
asi uti
arni aqtunga</w>
al utik</w>
uq aqattaq
taala it</w>
sivuliuq ti</w>
qurluqtu umi</w>
pijunn autiq
nau ttiq
l avut</w>
inuusu ktu
institu tions</w>
bo at</w>
ap alu
akeeag ok</w>
advo cate</w>
uq tunik</w>
tug ulu</w>
si tama
p ala
nun ang
metho ds</w>
m ulluunniit</w>
kamisin a</w>
inung nik</w>
illu rju
ilinniaqt inik</w>
g ulli</w>
en ty</w>
de ad
cam pu
ang mat</w>
ami ik</w>
akittur auti
vi ujuq</w>
tsu git</w>
tempor ary</w>
sap ujj
r ap
palli ajut</w>
p lo
mma git</w>
kamisan aup</w>
iqqau maj
inn ut
h im
foo ds</w>
attan aqtaili
ar lhutik</w>
app a</w>
anngil anga</w>
alir utta</w>
aksuru utiq
tre al</w>
te en</w>
su git</w>
s w
re stri
occ up
mon treal</w>
it i</w>
gaar jung
ati gu
arni armangaat</w>
arni aqpugut</w>
aqtu ti</w>
apirijuma llugu</w>
amisu ummata</w>
utik .</w>
unni i
u giaq
tar rij
tamak sumunga</w>
resol ved</w>
l er</w>
kis ut</w>
hon our</w>
gunn aqtut</w>
co verage</w>
call s</w>
alauq simammat</w>
aanniq tu
uqaus ingat</w>
tulak tar
si arrija
nuta ami</w>
mi ittut</w>
list en</w>
ik uma
ij ariaq
arni aqpat</w>
aqta ullutik</w>
aq ut
apprenticeshi p</w>
va an
tau tunn
ksa antu</w>
kk unni</w>
ke en
kama tti
kama gini
inter net</w>
innatuq arnut</w>
in sured</w>
imag ine</w>
gr ati
gavamakkungi tta</w>
consult ants</w>
an g</w>
allow ance</w>
aaqq ig
uuk tur
tikir arjuaq</w>
sika at</w>
si me
rel ating</w>
qimirr uniq</w>
parn aij
malig lugu</w>
malig aqtigut</w>
li angu
ima q
exten sion</w>
dial e
de lega
class room</w>
su ta</w>
qujannamiiq lhugu</w>
privile ge</w>
l innut</w>
kajusi git</w>
ii puru</w>
cont ing
arraagutamaaqsi utiit</w>
angi t
aliq pata</w>
ala at</w>
ti cs</w>
stab ili
revenu es</w>
piqqu s
p r
niri utti
maligaliuq vimmi</w>
katimag juti
inspe ctions</w>
inga aqtut</w>
ikajuq taujunn
fun ction</w>
aulaur mata</w>
ari uq
annivers ary</w>
angi ttunut</w>
alauq tillugu</w>
accompli sh
qatti ri
parn apalli
killi sini
katimauti ts
ilauq atau
i ja
grap h
eng ine
ata lu</w>
arvi up</w>
any more</w>
annginn atta</w>
am ong</w>
alauq tugut</w>
acade mic</w>
uqalima aqtauqullugit</w>
unikka aq
ta arasu
st one</w>
kuapuriis an
in is
ga ther
evalu ate</w>
chur chill</w>
avati lirijikkunnut</w>
ar ch
ani ittuq</w>
v ali
ulauq put</w>
ul utit</w>
tun ullu</w>
siqinng uj
sele cted</w>
saim aniq</w>
pilu aqtumi
pilirivvi up</w>
per mi
negoti ate</w>
n amma</w>
mmi gama</w>
liur ni
iq tu
ga tik</w>
ul inga
s at
quviasu tti
pilirivi gij
mar k</w>
fac tor</w>
com b
araj armangaata</w>
appl ying</w>
am mi</w>
ac knowled
aanniaqarnangittu lirijikkunnut</w>
a ik
saqq ilauq
qimirr uvalli
qau mmaqquti
katimmajjuti ksaq</w>
in inginnut</w>
illulirijirju akkunnit</w>
iliqqusi lirijikkunnut</w>
di plo
ate ful</w>
arvi mmut</w>
akili uti
umiarju akkut</w>
tama q
piqa taa</w>
pigiaqti taujuq</w>
nikuv ittunga</w>
imi al
gr ateful</w>
dama ge</w>
atta ili
arniar attigu</w>
aj unik</w>
unnginn ama</w>
under taking</w>
tamakkun anngat</w>
taima ilaak</w>
ra ce</w>
pre ven
pijittiq ti
pho to
nunali quti
niq pat</w>
mul ti</w>
kama juq</w>
ilinni arr
ikajuqti q
ex tent</w>
aut ingit</w>
assist ed</w>
alex ander</w>
utis sanut</w>
uqausiri juma
uqaqtitti ji
uqaqtitsi ji</w>
taik unng
sima va</w>
r li</w>
quali fy</w>
ke t</w>
g y
collabor ation</w>
ata kka</w>
ak sanut</w>
aakk a
v i</w>
uta lu</w>
tuksirauti it</w>
time line</w>
shor tly</w>
ro und</w>
q ing
negoti ating</w>
nan ur
k alla
g lob
coordin ator</w>
cha el</w>
atti llugu</w>
visi i</w>
unnir lu
uni aqtumut</w>
ula ajuq</w>
u ig
tuki liuq
katilh lhugit</w>
isumaalu gutiq
gl enn</w>
electr onic</w>
e mb
atuinnauti tti
uni ar
u mmut</w>
ten tion</w>
t sanik</w>
siman ek</w>
res er
pivalli ani
pijjuti lik</w>
p ilauq
occasi on</w>
lirij inik</w>
ikajur uma
work force</w>
unuq sivalli
pijari iqta
pii j
ma q
le ading</w>
invol ve</w>
fur ther
d c</w>
atti arunn
appli es</w>
angiq paat</w>
unikkaali angu
ttu tik</w>
se cur
ne l</w>
n d</w>
laur alu
ili uqq
esti ma
electri cal</w>
canadi ans</w>
arij angit</w>
v ungali</w>
siman inginnik</w>
quviasu utiq
qamaniqtu armi</w>
qam utauj
ple bis
plebis c
ning anik</w>
maligaliur tiit</w>
li t
en able</w>
contra cted</w>
car es</w>
aqqu uj
apiqqusi it</w>
aniq s
wher ever</w>
uqaqsima mmata</w>
ugaj aqtuq</w>
titiq tug
qaujimaj autti
mi chael</w>
maligak sa
larg est</w>
l uq
isumagi llugu</w>
iq qauj
inu uqati
ikk a</w>
go ods</w>
finali zed</w>
e t
cle an
atu g
9 9
unga ilaak</w>
ullu tuinnaq</w>
ulauqtu mik</w>
to ols</w>
manga atta</w>
lir atta</w>
lago on</w>
kiinaujaqta aqti
gi akkannir
c r
ata ble</w>
aralu aqtunga</w>
aqt uni
angiq taulauq
takuks auti
taima qai</w>
siv urngagut</w>
pij arningi
nunatsi aq</w>
nunali t</w>
lu tigu</w>
llu talu</w>
katimma j
ingirraju lirijikkullu</w>
imp acted</w>
ilitari jauningit</w>
gi liq
aq taujunn
anga n</w>
al luta</w>
ver sion</w>
uqalima arvik</w>
unit ed</w>
ti gij
ta mmar
perspe ctive</w>
p it</w>
licen ce</w>
lauq ta
ilu aq
anng uti
aip piq</w>
ag aks
uqauti junnaq
tw enty</w>
tu gu
sav iraj
salu mma
person nel</w>
nunasi uti
nammini quti
nak innga
ku vi
iqqanaijaqt ingillu</w>
iqqanaija as
ilitari juma
il anng
consum er</w>
auq attarni
auq attarn
atigij unn
aq simajunut</w>
0 11</w>
taun unga</w>
s tories</w>
re tention</w>
king un
iku mmaqqu
galu ar
escor ts</w>
ati tut</w>
angi ttunik</w>
unikka ari
uni aqtunit</w>
t our</w>
quj i
niruaqtau vigisimaj
mamian augaluaq</w>
kuapur is
k new</w>
ir niq</w>
es el</w>
di esel</w>
conta ined</w>
ati gu</w>
al innik</w>
ajuri q
1 16</w>
taimaikkalu aqtillugu</w>
prev ent</w>
nunavut mi
inn illu</w>
gi all
gavam anga</w>
ak ittuq
aivi lik</w>
tournam ent</w>
tig ulu</w>
pa sij
il ag
ga i
g ree</w>
avi uk</w>
aqattaq tuq</w>
an irij
ami ttu
am ent</w>
199 8</w>
0 10</w>
valli aju
te xt</w>
qatta riaq
q is
kihi ani</w>
kigg aqtur
iqqanaijaqti t</w>
iqqanaij arti
iqal unnit</w>
identi fying</w>
de gree</w>
bi d</w>
attan aqtumi
ani .</w>
ung anut</w>
ulauq tunut</w>
tau mmat</w>
tasiuj arjuaq</w>
tar get</w>
taku junn
qa ta
naasau tik</w>
lob b
k p
ikajuqtu i
du st</w>
commi tments</w>
va git</w>
ur uma
uki ut</w>
s cope</w>
qaujigiar unn
qani gij
p ik
mmi mmata</w>
ittu it</w>
ip pigi
il laak</w>
f ru
celebr ate</w>
arrang ement</w>
arraagu ttinni</w>
aqt anginnit</w>
ak unn
uqsualu up</w>
u ppat</w>
tu tsi
suli tti
siq attaq
sai ji
o v
nunavummi unik</w>
mi l
kingunit tinni</w>
fun cti
b all</w>
vi mmik</w>
tri es</w>
tik isa
sukku aq
o m</w>
niri unniq
maʼ na
ge ared</w>
c as
av ullu</w>
arut init</w>
aqtu tigu</w>
al innut</w>
ag ing</w>
tamat suminga</w>
sur ak
purch asing</w>
produc ed</w>
pilirivv ik</w>
ngu mmata</w>
k autigi
ju ullu
iqqaqtu iju
ikk unnik</w>
grav el</w>
er ships</w>
d rin
anng innir
agi iq
accep t</w>
uqaus inginni</w>
ung aqai</w>
taku ksau
taima inni
ta t
suu san</w>
si junn
ra ma
qaujima mmata</w>
pi cture</w>
o vide</w>
nammin iqta
mis sing</w>
lob by</w>
itt unn
ilu li
gro w</w>
gavamakkunn ullu</w>
gaj armangaata</w>
en ok
ei a</w>
atiliuq simajut</w>
aksa mik</w>
u se
tr uly</w>
suur l
regul atory</w>
parli ament</w>
katimautits a</w>
ikaju utinut</w>
clai m</w>
assess ments</w>
angi lu
ang uj
am ullu</w>
aktu tik</w>
ug ulu</w>
taku min
piqujivunga aruti</w>
pa si
mortga ge</w>
llar ik
katutj iqatigi
ini aqtut</w>
copi es</w>
ang ujunik</w>
sp ou
piusi gi
piliri ass
p aniq
go ld</w>
v iks
sen ding</w>
sanaju lirijikkut</w>
qaujimajuinnau gatta</w>
piquj assait</w>
nali atuinnaq</w>
i man</w>
deb atable</w>
continu ally</w>
arnir mullu</w>
appli c
alloc ate</w>
tran sition</w>
sc r
prob ation</w>
out line</w>
maligaliuqti limaanut</w>
mali kti
katimaj inginni</w>
k unni</w>
bo tt
asi an
aralu avut</w>
aniq ai</w>
ami lu</w>
aj unng
un ilu
taralu avut</w>
ta unngi
spe e
sh ort
makpiq tug
lirij ingit</w>
k kiaq</w>
inga tta</w>
in unni</w>
ilis av
gi llugu</w>
gi aksaq</w>
clo thing</w>
certi fied</w>
utik sangit</w>
uqausiq arumallunga</w>
upi gij
tunng an
streng th
san iq
replac ed</w>
qau ma
ma an
kiinaujaq aqtitau
do or</w>
barri ers</w>
at unik</w>
aru mani
apiquti tsait</w>
akunik all
uti g
uqsu alung
titiraq simajunit</w>
quttinniq paat</w>
oce ans</w>
ne t
nami tuinnaq</w>
nalun anngimmat</w>
kamagij aujariaq
it er
isumassaqsiur utiq
il inirmut</w>
gavama gij
aq a</w>
adminis tered</w>
usi j
uk p
uju llu</w>
tau tug
su vi
statu tory</w>
simaju mut</w>
qanu imma
orien tation</w>
isumaalu gutigij
inu lirijiit</w>
illu mik</w>
ilinniarv ingmi</w>
giaq armata</w>
d a</w>
cate go
c ked</w>
b as
angunasu tti
alu ummata</w>
ag gu</w>
unga aq</w>
tigi lugu</w>
tel ling</w>
tausima lir
simani q</w>
naggaj ja
malig anga</w>
lir iniq
katimaj ju
enok i</w>
di am
cy cle</w>
comple ting</w>
cau sed</w>
ap par
accor dance</w>
acc es
uvatt inni</w>
utti gu</w>
uqausirij angit</w>
un urningit</w>
tu t.</w>
titti junn
ta aqti
sivuliqti mut</w>
palli atuinn
noti ced</w>
maligaliuqti kkut</w>
inngi kkalu
glob al</w>
electri city</w>
di c
armanga angit</w>
aqq ai</w>
apiqquti ss
ali tainn
wis hing</w>
v innut</w>
urmi ut</w>
tag es</w>
sitiiv an</w>
ri ja
quali fications</w>
piv issaq
pi simanngi
partn erships</w>
lhuti llu</w>
focus ed</w>
angiq tauninga</w>
angi t.</w>
ajjigiingi ttunik</w>
ail li
ttu mik</w>
ti rij
si lu</w>
rep h
qanu igi
pivalli aniq
kiinauj angit</w>
gi r
gi aqtuq
gavamakk unullu</w>
con sequ
certi fication</w>
aqta ulluni</w>
qauj ut</w>
occur ring</w>
nutaq qan
nunaqq ati
nalli uti
invol vement</w>
dou b
compu ters</w>
alianai gu
alauq tavut</w>
tusaqti tsi
tura arut
tukisi titau
re iter
ra an</w>
qanu ittunit</w>
maliktu git</w>
inn aq
i ilaak</w>
gunn ani
deb t</w>
bu s</w>
10 7</w>
v akk
tusaajitigu uliqtuq</w>
transl ated</w>
step h
stand ardi
si ck</w>
s pon
rea ched</w>
piuniq pa
four th</w>
au ma
aqquti q
aj ak</w>
ag ga
uri ash</w>
tra l</w>
tama una</w>
ta ulu
su ittuq</w>
qanuili uqpalli
piqasi ujj
pili mmaq
niq inik</w>
inutu qait</w>
ing miut</w>
imminiiqta ili
cul tur
avittuq simajunit</w>
ut inu</w>
tunngasugi tti</w>
taku ju
pp ir
libr ary</w>
lh o</w>
imann a
i ta
gu ar
dela yed</w>
ti t.</w>
sal ary</w>
re presents</w>
lirij juti
isiq ti
inven tory</w>
ikku tigut</w>
ho li
gas unni
au mmata</w>
ar tunik</w>
aqtauq attaq
alauq simajuq</w>
aippa a</w>
6 00</w>
unikkaali am
un inginni</w>
sima gattigu</w>
naj anngu
ki alvin</w>
j uni
j jau
iqq ata</w>
inuusu k
gavama vut</w>
dru gs</w>
bound aries</w>
ata agut</w>
asi ani</w>
aqsima mmat</w>
upag uti
tusaumaj juti
te p</w>
taik ua</w>
pri mar
o ther
malig aujuq</w>
kti llugit</w>
indi an</w>
gi lin</w>
bor n</w>
aru ju
ak anni
2 nd</w>
tappa ani</w>
sana giaq
san illu</w>
qujannami i
qui ck</w>
primar ily</w>
pi vi
mu usi
main ly</w>
katimajiralaanguinn aqtut</w>
k ak
ilali ujjau
igl unik</w>
h r</w>
expec tation</w>
b ull
aqtau sima
anticip ated</w>
ang nik</w>
tusaji tigut</w>
tauq att
talaviis akkut</w>
suungu mmat</w>
sk i</w>
silattur saq
sanajau gi
nainaaq simajut</w>
n uv
mittimata lik</w>
malik taujariaq
gradu ating</w>
fre ight</w>
d uty</w>
c bc</w>
air stri
25 0,000</w>
uni armata</w>
un inginnit</w>
tiguj auq
taqqi it</w>
taimann ga
taima atsa
substanti ation</w>
sap ujjau
piqasi ujjau
niru arunn
il uni</w>
gij juti
fami li
dela ys</w>
aula tauninginnut</w>
ari vugut</w>
ari ja
amisur uqpalli
al uni</w>
uqqurmi ut</w>
up grade</w>
uki u
tikilh lhugu</w>
tai m
qauji gasu
q alir
piv aalliq
piv aalli
makku ttut</w>
kiuj ju
kinnga it</w>
kan ata</w>
isa ac</w>
ilinniaqti ujut</w>
ilinni aqtunut</w>
ikaju riaq
ho s</w>
br ings</w>
6 00,000</w>
uq t
unnaq qu
tele health</w>
sir lu
qujannamiiq tugu</w>
nunali k</w>
mat tauq</w>
ili k</w>
ikajuusi aqta
ik ut</w>
aqtu up</w>
aqqu uji
ann ingit</w>
aaji ir
wonder ful</w>
vu n</w>
uvang ali</w>
utili it</w>
unikka anik</w>
ullu tuinn
transl ation</w>
taiguusi liuqtiit</w>
reti ring</w>
qaujis arniq
pay roll</w>
p an</w>
niru aq
ki unasu
enti t
enjo y</w>
arut ingit</w>
arlu unniit</w>
alauq simammata</w>
uummaqqu tinut</w>
uq ali
qats inik</w>
p ingu
maligaliur ti
leng th</w>
ila akkut</w>
ikajuqtau juma
gradu ated</w>
fi x</w>
expan sion</w>
cen tral</w>
ajj inngu
unuqsi giaq
taap suminga</w>
st res
sivumu atti
reph rase</w>
reduc ing</w>
quan aqqutit</w>
o w</w>
nun aup</w>
naasauti it</w>
maku alu</w>
le n</w>
ki uv
ge ment</w>
aut inga</w>
arlu si</w>
ar ta
apiqqutig ali</w>
ann ur
allow ing</w>
akullir mut</w>
aaqqigi aqta
win d</w>
uvanga ttauq</w>
tus arn
tikku aq
ti se</w>
saqqi titsi
piqa ta
pinngu aqtu
mu uq
gav ut</w>
experien cing</w>
euro pe
em power
am e
4 00,000</w>
use ful</w>
uki utaq
tun u</w>
tau mmata</w>
taqqi tamaat</w>
taimainn inganut</w>
sima llunga</w>
qujannamiiqpar alu</w>
piliriang uvalli
maann arulu
iqqanaijaqtu lirijikkunnut</w>
ilisaij inut</w>
ilis ar
fo rec
el se
apir ingmat</w>
aksuru utigi
akili ksaq
10 1</w>
ullu kkut</w>
tukisigiar uti
taakku aqai</w>
speciali st</w>
s auti
r lu</w>
nun g
nam ut</w>
n t
lu gillu</w>
l hos</w>
ju tigut</w>
ippi gusu
illu git</w>
gavama up</w>
ga me</w>
else where</w>
av it
a z
sanikilu armi
saal aq
pigi alisa
nan uq</w>
mi ittuq</w>
inginn ut.</w>
gij aujunik</w>
aq uv
uqti llugit</w>
uann anganut</w>
tuav inn
tinn asu
saqqi ini
qitirmi unut</w>
qaujima v
qanuittu mik</w>
obje ctive</w>
nun am
nalunaiq silaur
mon thly</w>
isuli tti
exper tise</w>
asi agu
ar atik</w>
aqt ungali</w>
vacan cies</w>
ungittu mik</w>
tukis inn
suli ju
pinga jung
pa alu
oper ators</w>
n uqqau
matuiq sijjuti
maann ar
kk anniri
kiinauj amik</w>
kajusi titau
k iks
inn ullu</w>
ingirraju lirijikkunnut</w>
ilinni arti
ga immata</w>
f alls</w>
ak titti
ulu it</w>
stabili zation</w>
nun ait</w>
n aq
mang mata</w>
maann akkut</w>
li min
fin dings</w>
f light</w>
an ti</w>
tikku aqsi
tauv uq</w>
tau simajunit</w>
talliman ik</w>
sugg ested</w>
pingaju ani</w>
pij ats
palli aju
nunavu lima
nunav u</w>
mp tion</w>
mis sed</w>
mean ing</w>
maann au
kiinaujaliri jiit</w>
depen d</w>
d river</w>
aqta si</w>
aqquur mat</w>
appar ently</w>
angajuqqa anga</w>
aggu tuq
wh ose</w>
uqsuq tuuq</w>
p ikk
p attut</w>
p ann
nunavummi utait</w>
nun a</w>
n ations</w>
mirngu iq
mami appunga</w>
kangiqtugaapi mmi</w>
ivv a</w>
ing inut</w>
atuqtau gunn
aqattar ngata</w>
alir ni
2. 5</w>
uk tu
tusauma ti
tu ap
ton y</w>
sivulliqpa ang
sho uldn</w>
qatti t</w>
mr az
mraz ek</w>
kin der
kiinaujalir inn
ju mmari
iqqanaij aliq
in irij
i puru</w>
grati tude</w>
further more</w>
encourag ed</w>
av ut.</w>
aruma llutik</w>
aqtu kkut</w>
angiqqisi i</w>
alle vi
1 26</w>
ve ga</w>
uni aqtunut</w>
tigu ma
su vega</w>
speciali zed</w>
receiv es</w>
qutt ingn
own ership</w>
m r</w>
kinder gar
isumali rinirmut</w>
ila aqai</w>
fe e</w>
at ut</w>
aspe ct</w>
al lo
10 2</w>
v inni</w>
tusag aks
tunn iqqu
ten ants</w>
sto res</w>
sci ence</w>
qujal iniq</w>
ng ani</w>
ki uju
iqaluttu utsi
iluani ittut</w>
giaq aratta</w>
gavamauqatigiittu lirinirmut</w>
gavama gijavut</w>
fe el
challeng ing</w>
av enu
aulaj j
ati gi</w>
,000 .</w>
saqqi tausimajuq</w>
san aug
qat tauj
nunavu miunut</w>
ne tsi
liq tuni</w>
katu jji
ja anu
ipp alli
introduc tion</w>
inten ded</w>
ilu ittu
de si
atuinnar uqti
aqp attunut</w>
aju lir
tuavirn aqtuq
ttuq .</w>
tern al</w>
ten d</w>
taun iku
sun atuinn
sime on</w>
simaju mi</w>
s ar
pij aujariaq
pangniq tu
nan urn
muusi si</w>
man ual</w>
isuma ks
iqqanaija anut</w>
exis t</w>
ed mon
atuqtau tti
at angir
aqattaq tugut</w>
alu mmi</w>
advo c
var dy</w>
unginn ama</w>
ungi ttunik</w>
un ding</w>
tussir auti
tuk tu</w>
tauqatta riaq
tauj aqtuq
minista ullunga</w>
kulu it</w>
gener ation</w>
for ced</w>
conc ep
arv ingmi</w>
ali rata
alauqsima gama</w>
ak .</w>
ai d</w>
tu uni</w>
ta t</w>
st ress</w>
si i</w>
sanaju lirijikkunnut</w>
poli ce</w>
pinngu arvi
nalli a</w>
maliga tsaq</w>
keen ain
keenain ak</w>
kangiqlh inirmut</w>
iq aili
edmon ton</w>
bo ats</w>
apiqqusi rij
ang ujunut</w>
accoun table</w>
0 20</w>
uti lluta</w>
taqq inut</w>
taima lu</w>
ro te</w>
pre limin
lan d
kigga tur
kat inn
iqqanaijaqti tit</w>
iluunn angit</w>
determin ing</w>
bigg er</w>
arr atta</w>
uqausi ts
uqaqqau gavit</w>
upgra des</w>
unn aqtut</w>
recor ded</w>
qanuili uriaq
piqutirju anut</w>
pili tsi
kangiqlhinir mit</w>
fe ed
cho ose</w>
cere mony</w>
b urn
av at
artu mik</w>
aq ta</w>
apir irata
ak lh
0 13</w>
tigu anngu
si ki
prelimin ary</w>
niriu gi
n inng
minista u</w>
iq ittuq</w>
inn arni
inga .</w>
galu armangaata</w>
feed back</w>
f ar
ev ening</w>
effici ency</w>
distrib uted</w>
accep ted</w>
ac qui
0 15</w>
uqausik sait</w>
ungasi ttu
ukiaksa aq</w>
tu ar
s ale</w>
proje cted</w>
pp a</w>
me ant</w>
imann ai
ilagili uti
giaq arni
fis h
expla ined</w>
char ged</w>
aulatsi ji
asijji i
arju mmi
aq a
0 14</w>
uqau t
u ms</w>
simaliq pat</w>
represen ted</w>
qujannami it</w>
qaakkanni agut</w>
piuju mmari
nalunaiq siv
nalaut sa
l agu</w>
k tunga</w>
ili ks
ikk anni
hand le</w>
h ima
con fir
c ell
aula taun
atur lutik</w>
arri ve</w>
aralu aqtugut</w>
aqqau gama</w>
angiqatigii gasu
umi akku
st ly</w>
pinga tsi
kiin ainn
iqaluktuutsi aq</w>
e arn
des er
consult ant</w>
commen d</w>
colle cted</w>
aqqa at</w>
what not</w>
taqqa ani</w>
taimali qai</w>
sub sequ
s iniq
pie ces</w>
nak it</w>
makkuk tunut</w>
ini ujut</w>
ilima tittinirmut</w>
gavama it</w>
fle xi
anngittu mik</w>
alloc ations</w>
0 16</w>
ungi kkalu
tusauma qat
tura aga
tillu gi</w>
tauju it</w>
sig ning</w>
prepar ation</w>
overcrow ding</w>
ku upa</w>
ha akiq
gaj aqtunik</w>
defini tion</w>
d ding</w>
bus y</w>
beli ev
aw a</w>
atu aq</w>
aru q</w>
aqp ali
ak inginnik</w>
0 12</w>
w rote</w>
utir ni
uivi iti
tili si
taq ariaq
supp unga</w>
pa alli
nunavu mut</w>
nalliuniq si
makkuttu it</w>
ma kk
li tainn
kindergar ten</w>
iq ti
initi ate</w>
i tillugu</w>
for get</w>
fol ks</w>
der ing</w>
ari jauni
ar minik</w>
am ong
akaungiliur utiq
a akka</w>
un ali
tunn uniq</w>
titt inirmit</w>
timi ujunut</w>
thou ghts</w>
nu taqq
n bcc</w>
ki ummat</w>
arn iri
aqt anginni</w>
among st</w>
amisu aqti
16 0</w>
vo i
vi mmit</w>
upigi tti
unngittu mik</w>
tikku aqtau
tauq siq
steph en</w>
re ma
qallunauj arunn
nunal innu</w>
n tep</w>
malig armi</w>
ki gusi
ilinni ati
fil m</w>
aqtu vini
aqqi it</w>
am mangaat</w>
aipp aq
aanniav immi</w>
1 25</w>
uumaju r
taimann aili
surve ys</w>
sivunik sami</w>
rema ining</w>
qujannamiiq tugulu</w>
qanuilingalir mangaata</w>
pijjutiq aqtunik</w>
p. m.</w>
netsi lik</w>
naggaj jau
mos es</w>
mi aniq
mech ani
matu ing
leav ing</w>
kaantura ak</w>
inu up</w>
inginn u
g un
ce ments</w>
aut init</w>
ar tuni</w>
aqtu uj
aqpa git</w>
aqlh unilu</w>
aip pii
15 0,000</w>
uqausis sa
uqall agunn
uniq sait</w>
tuinn aqpunga</w>
tu lu
qau mmat</w>
piv ik
piliri amut</w>
pigiar lugu</w>
pi te</w>
other wise</w>
maligaliuqtiuq atinnut</w>
lo ans</w>
lo ad</w>
kati mann
f ail
ch equ
av alu
aru tau
aqp allai
ulauqtu mit</w>
strik ing</w>
secur e</w>
sanav alli
s akku
pivalli aja
nammin ir
n or</w>
ksa mik</w>
ja uninginnut</w>
is siv
effecti vely</w>
commen ce</w>
atuq atta
asi uji
arni aqpunga</w>
angajuqqa amut</w>
akkann ila
15 ,000</w>
upi gus
umaj ara</w>
tur ned</w>
tuinn atti
ttu gut</w>
t innagit</w>
sim angimmata</w>
pij aksaq
pi tuqau
nunavuu mi
mili anit</w>
kajusi junn
iqqanaija aks
ilisarij aujjuti
hear t</w>
guar an
f mb</w>
ci vi
ari simaj
ar mat.</w>
ang ujunit</w>
aj unut</w>
unnginn ingani</w>
under stand
un urn
tiki ti
ses sions</w>
resolu tion</w>
qulli it</w>
q unga</w>
po wers</w>
pinasu aga
p 3</w>
mi lluunniit</w>
it tu</w>
inu unasu
ilu lik
ilinni atitt
iku ma</w>
guaran te
diplo ma</w>
colle ct</w>
aul ats
al unnit</w>
ak uta
aipp angani</w>
utik saq</w>
ut ing</w>
ur mata</w>
unuq tut</w>
ull uq
tukisi ti
tigu si
tak ulauq
qaritauj akkut</w>
pres s</w>
piliri atsaq</w>
pi iqta
paliisi kkunnut</w>
p ull
licen sing</w>
k uluk</w>
ilinniarn ilirinirmut</w>
gunn ar
giar u
f are</w>
confi dence</w>
cat ch</w>
care ful</w>
ata .</w>
aqtitti junn
ap pugut</w>
alu kta
aj u</w>
turaanga junit</w>
tunir rusi
sw im
sur ro
siv itu
ra f
qauji m
pijittiq tiit</w>
permi ts</w>
negoti ated</w>
nalunaiqsi sima
me th
asijj iqta
arraag ungani</w>
armanga attigut</w>
aqt un
an ut.</w>
akuni utigi
aaqqik tau
0 19</w>
uliq pat</w>
uigu ri
sur urn
sau si
saqq ittuq
na ang
lirijikk unni
kk atta</w>
isumagi llugit</w>
iqqanaija aksait</w>
ingi ttut</w>
au galu
att angit</w>
asu illaak</w>
aqt unillu</w>
an inginnut</w>
ai ti
17 5</w>
utigij aujut</w>
uqaq ati
turaarut ingat</w>
trans par
tauni armangaata</w>
suru sila
str ation</w>
s ara
qurl uqtur
propos ing</w>
nalautta aqtau
lobb ying</w>
li lauq
l uniuk</w>
kiinaujalirij ikkunnit</w>
ju gu</w>
inn ov
in iks
con curred</w>
atautti kkut</w>
arraagu gijattinni</w>
aqta ulaur
aqatta qullugit</w>
apiri gavit</w>
anti uri
ani gur
angajuqqa arij
ak tar
uti ri
swim ming</w>
sub missions</w>
q ini
pulaariaq simajunit</w>
pijjutiq aqtut</w>
mode ls</w>
li ved</w>
isumaq saqsiur
ikk anniq
ikajuq attaq
free z
fi xed</w>
direc ting</w>
at j
aru vigit</w>
arni aliq
aliri jiit</w>
alira angata</w>
ajuqs aqtu
aaqqiumainn arut
uumaju it</w>
un ingani</w>
tusaq attaq
tunngasukti tti
supp li
sivu lir
on e
nunaqaqqa aqsimaju
nilli utigi
nangiq sijjuti
mi j
marsh al</w>
haammal akkut</w>
fire figh
famili ar</w>
experi ences</w>
do w
dis as
ara .</w>
aqp attu
ani armat</w>
akk ungit</w>
tukisin aliq
trans parent</w>
sta ying</w>
nun akkuur
naamma gijau
mit sa
katimajirala anik</w>
katima qa
k kua</w>
inspe ction</w>
ha ak
explor e</w>
evi dent</w>
e at</w>
bott om</w>
ar ujj
alir iniq</w>
ali s
akk alu</w>
adjourn ment</w>
0 18</w>
uqarunn aqpa</w>
u mmangaaq</w>
takuks autitti
suung ungmata</w>
staff ed</w>
simaliq tugut</w>
sh ing</w>
s ingit</w>
own ers</w>
nutti r
irala at</w>
ilinni anirmut</w>
avail ability</w>
ari ir
aqti gi
aq vi
ala aq</w>
ajur uti
ab sent</w>
tungili a</w>
sivu li
si i
si arma
saan ut.</w>
ra angata</w>
qaujikkai vunga</w>
q attani
m ur
kinguv ariaq
iqaluttuutti aq</w>
inuk i</w>
ho tel</w>
ha z
ga in</w>
equ al</w>
d re
bull ying</w>
attar atta</w>
apiqsuq tauv
uti ts
ru uq</w>
poli tical</w>
po ol</w>
ju d
inu illu</w>
ini armata</w>
ili ppalli
ila unngi
d ating</w>
att unit</w>
arraagu ula
armanga armik</w>
araanga mik</w>
aqpalli aju
aqattaq tuit</w>
apiqqutigi rata
6 0,000</w>
uni armat</w>
uju tigut</w>
taimannaittu mik</w>
t anganik</w>
sivukkaqtaq tinga</w>
re hab
qanui giar
piq ati
mu una</w>
licen sed</w>
la it</w>
k ullu</w>
ila anni</w>
iku mma
ikajuqti a</w>
exc iting</w>
en ded</w>
ar atti
aqt unu</w>
a .
0 17</w>
ur r
uq attani
tus arasu
s uqti
pusan t
pri mary</w>
pigiaqti t
juu n</w>
inuk tut</w>
hy dr
gaasali i
g unniiq
cour ts</w>
consum ers</w>
class rooms</w>
cau ght</w>
c es
au to
aqtu uq</w>
ama .</w>
ac es</w>
aanniaqarnanngittu lirijikkunnut</w>
v aallir
unnaq ullugu</w>
th re
taimanng anik</w>
sugges tion</w>
seal ing</w>
sananngu ag
sall ini</w>
s .</w>
quviasu ttunga</w>
qujannami iglu</w>
qil ana
qaujimaj ut</w>
pingatsi q</w>
pilu anngu
pilirivi it</w>
nunal ingmi</w>
nali anni
miksau sak
licen se</w>
kisu tuinnait</w>
juma gama</w>
irn ut</w>
ikk u</w>
galu aqtugut</w>
conduc ting</w>
catego ries</w>
aujunn aqtut</w>
ati it</w>
arraagu uk</w>
amig aqsi
aju liq
acti vely</w>
13 5</w>
uqatta riaq
taak sij
rec ti
ng inni
mili anng
j ac
iqqanaij ari
il ang
iksivauta rij
bon us</w>
anginn ullu</w>
akk unnik</w>
uq alla
tusag aksait</w>
tauqattarn ingit</w>
siq atta
simaliq tillugit</w>
seals kins</w>
quvv ari
qaujima mmat</w>
pijitsir aqti
nunatti ap</w>
ngunir aqtau
mo tor</w>
miuta q</w>
main taining</w>
laur akku</w>
gu ys</w>
g ani</w>
educ ators</w>
cl ar
atu lir
asi st</w>
ar cy</w>
ang ulauq
3 0,000</w>
taun inginnullu</w>
taimanna ittunik</w>
qaujikkaij jutit</w>
provin ce</w>
p lugu</w>
makima inn
lh lh
kin aal
gl o</w>
conf used</w>
atuag arnik</w>
arma ri
ar tunut</w>
angi jumik</w>
ami ali
unn ullu</w>
uning i</w>
unikk au
ta s</w>
ta luunniit</w>
sal es</w>
ru ma</w>
nw mb</w>
kanata lima
inu is
in her
h or
en ter
eli min
d ingly</w>
armangaata .</w>
armanga arma</w>
uti illu</w>
uq aqtuq
unniq pat</w>
tu al</w>
sima tillugit</w>
sho wing</w>
san am
qanu ig
pilirivi mmut</w>
min eral</w>
mi t.</w>
kkann ila
k app
immini iq
giar lugu</w>
ga p
dra w</w>
doub t</w>
co ach
brief ly</w>
aturuma arniaqtut</w>
arv inga</w>
ariaq aqtut</w>
ajuinn ari
ag end
aaggaaqtuq anngimmat</w>
ul anga
tusaaj iq
tukisiuma tti
st en
sima lluti</w>
raf ter</w>
qu aqsa
qaujima galuaqtunga</w>
par ag
paanap a
outfit ters</w>
naalauti kkut</w>
l as
kivallir mut</w>
it e
inuusi qatti
ila gija
de vi
de duc
auti llunga</w>
atuq tauqattaqtut</w>
arumaj uq
ad option</w>
aanniaqtu lirij
tti llugit</w>
tauq qa
substan tial</w>
simalir mangaata</w>
sima inn
re location</w>
pij ik
katimajirju anginnit</w>
kaan tur
isumaalu gij
inngi ttuq</w>
g unniir
europe an</w>
effe cts</w>
arri ved</w>
arni aqpuq</w>
aras unni
araj armat</w>
aqattaq tavut</w>
ac quir
7 00,000</w>
tukisi jau
the less</w>
tauni armat</w>
t tavut</w>
piliriaq aqtuq</w>
ma git</w>
ma atsi
m us
liri iq
katima titti
ill ness</w>
estima ted</w>
di ed</w>
choi ces</w>
che aper</w>
cau ses</w>
atsu aluk</w>
aruma gama</w>
arniq pata</w>
utiq titti
tuinn attiaq</w>
suurl uqai</w>
sa ata
qau mmaqqu
naammaks aqtut</w>
manga angit</w>
m ers</w>
lirijikku tigut</w>
k tur
ing ujut</w>
ilagijauq ata
atuag angit</w>
as inginni
arnir mi</w>
ar re
ar lhuni</w>
aqqauj unga</w>
ala ungi
vi tal</w>
uqausirij unn
uq akainn
tru ck</w>
tag s</w>
spee ch</w>
speak s</w>
sim on</w>
satis fied</w>
recru iting</w>
piv iks
piliri aksait</w>
pi ck</w>
parag rap
niq ai
ministau vv
mi ali
ma unng
kkannir asu
ilagijau juq</w>
i a</w>
govern ance</w>
ex emp
day cares</w>
co l</w>
campu s</w>
bul k</w>
aulaj ja
assi uk</w>
alu armangaata</w>
aanni avik</w>
piliriv viit</w>
pilir inasu
nun a
mmata guuq</w>
kiinauj aij
katimajiralaangukainn aqtullu</w>
kamagij auj
inf lu
il es</w>
gui dance</w>
attu aniq
asi tj
ann uk</w>
allevi ate</w>
accor dingly</w>
aaji iqatiq
unfortun ate</w>
ulu uja
u ming
transpar ency</w>
titiqq aq
ten ce</w>
tammaqsimajuqsiuqti up</w>
ro y
qima av
pres sure</w>
pi gasu
ng ulauq
manir ajak</w>
maanitu uv
licen ces</w>
l at
iqqanaij arunn
du m</w>
be gan</w>
back ground</w>
ati kkut</w>
arti sts</w>
aralu aqtillugu</w>
all ing</w>
ajau ri
1 30</w>
unn ukkut</w>
uk .</w>
turaang alu
tu tillu</w>
taun inginu</w>
tammaqsimajuqsi uq
quvi appunga</w>
qu llu
pa anga</w>
nalun angittuq</w>
kingul liq</w>
illu ru
iliss innut</w>
econo mi
cle ar
aqtu tigut</w>
aqsima liq
ali lauq
v allai
uti kkut</w>
uqattar mat</w>
uqaq simajut</w>
uq asi
ulir mata</w>
uliq tut</w>
ts unga</w>
quvias uqatigi
proto col</w>
piqqusiliri vvik</w>
patta tuq
organiz ational</w>
mu usa
katimajjutik sanut</w>
inuusi lirinirmut</w>
inn arnik</w>
in iksaq
ikaju uti</w>
entit led</w>
e ts</w>
aul auti
aru ttigut</w>
ar puq</w>
allu ded</w>
aksur uq
a ata
uqqu uqtuq</w>
ungata an
u tauv
tunij aulauq
tauq si
success fully</w>
si ster</w>
sai jiit</w>
re moved</w>
qimi ru
qaujima giaq
pp d</w>
matuiq sij
maligaliurvi mmit</w>
k tuq
ingi mmat</w>
in angiq
ilaj aari
igl uqaqti
fer y</w>
comfor table</w>
ar illutik</w>
anngi tu
alauq tunga</w>
akk an
ulaur ama</w>
tradi tions</w>
tim innguqti
nalunaij a
king uni
irn irmut</w>
il ajau
gi akkannirunn
e ous</w>
compar ed</w>
arni arluni</w>
ar mata.</w>
7 5,000</w>
uvatt unik</w>
uumaju lirijirjuakkut</w>
utir niq</w>
unngi ttunut</w>
uku ang
to ward</w>
reli ance</w>
qanga tuinnaq</w>
qa angiq
niriupp unga</w>
niriugij aq
nali a</w>
nalau ksa
mik inniq
loc ally</w>
ks aujut</w>
ju uk</w>
indic ating</w>
ilinniaqti tau
dial o
clas ses</w>
bigg est</w>
ass ess</w>
armi gama</w>
araj armangaaq</w>
aqatta lauq
ani ti
achiev ing</w>
a all
sym posi
saqqiq tuq
pular aqtulirinirmut</w>
pinasuarusir mi</w>
pan el</w>
mm anga</w>
lima angit</w>
l unilu</w>
ima itu
hydr o</w>
ex pir
brief ing</w>
at sait</w>
aqta ulutik</w>
appren ti
ak ann
adverti sed</w>
uqalima arunn
tunngasu gissi</w>
tunisi junn
tti aqullugit</w>
taima ttauq</w>
stri es</w>
si uq
pa git</w>
kiinaujj aksa
kan tura
isuma tuinnaqtunga</w>
inu ug
inir nik</w>
ingirr aqattaqtu
i h
expi red</w>
documen tation</w>
arut inga</w>
arni alirmi
aqtu kku
aqi aruq</w>
an inganut</w>
1 15</w>
uqaq atta
u mmanga
titiraq simaj
termin ology</w>
taaksiij aij
qing au
qangatasu ut</w>
pijittir arnirmut</w>
pi tta
net work</w>
maki ta
ij ag
e ty</w>
arni aqpara</w>
ariaq arniq</w>
app en
aliq tilluta</w>
13 7</w>
x es</w>
uvatt unut</w>
ung nik</w>
tuinna ungittuq</w>
ten ant</w>
t angani</w>
suppor tive</w>
regul arly</w>
qutt inn
plebisc ite</w>
niruaqtauqatigi simajakka</w>
ne y</w>
il ed</w>
artu it</w>
aq siman
alir ngat</w>
ajuq salu
20 20</w>
0 .
wat ch</w>
uqaal avi
unnaqpi uk</w>
resul ted</w>
reduc ed</w>
qamaniqtu aq</w>
p sy
kiinaujalirinn aup</w>
imi r
imi alung
ilinni aqsima
do m</w>
diam ond</w>
aulaniq atti
ariaq armat</w>
aqtaili manirmut</w>
ami e</w>
am eri
aliri ji
akitujuqtur utiksanut</w>
akiq anngittuq</w>
4 0,000</w>
ukiuqtaqtu mi
ug gu
suf fer
signi fi
signifi can
significan tly</w>
s mi
princip als</w>
parnag uti
pala is</w>
n ga</w>
maann arata
kangiqlhinir mi
inuusir mut</w>
inuuj unniiq
illu liuq
go tten</w>
g lo
ar iqattaq
appen di
aniq sa
anga i</w>
allo tted</w>
a itta
v ikkut</w>
ulurian aqtumi
ul ti
tur bo
tunn ir
se ctions</w>
inn ut.</w>
ij ja
iglu lirijiqju
co ast</w>
cl ini
at saq
arn a
aqti llu
aqqu uq
anga .</w>
al lugit</w>
agend a</w>
v ingani</w>
tar nik</w>
pu gu</w>
pijjutigi lugu</w>
pijittir utiit</w>
pe l
paragrap h</w>
panniq tuumut</w>
maligaliuqti ulluta</w>
je t</w>
innuk suk</w>
ig n
homeown er</w>
con fu
atuinn aqtaq
0 21</w>
wi fery</w>
unga junit</w>
tigujau ma
tausima jumik</w>
symposi um</w>
speciali sts</w>
prof it</w>
p ikuu</w>
nuta amit</w>
ne igh
katimajjuti ssait</w>
katima vvi
kati ti
ikkarri alu
grand children</w>
fish ery</w>
uqausiri qattaq
turbo t</w>
tru cks</w>
tisam anik</w>
qaujis atti
qauj inas
ple x</w>
piri mi</w>
piliri jau
p le</w>
os en</w>
lir lutik</w>
ks en</w>
kinguv vi
ilinniaqtu liriji
aqt ini
appreci ated</w>
aip pi
1. 2</w>
unir aqtau
supple ment</w>
rati o</w>
q inu
produc tive</w>
pin ksen</w>
nam u
matuinga tti
lu talu</w>
ku ujju
kikku limaat</w>
ikajuq atigi
igl unut</w>
f low</w>
clear er</w>
cal end
aull aqtitti
auj u</w>
ari mi</w>
aqt anganik</w>
angittu it</w>
angirr ami</w>
am init</w>
agl ag
200 2
10 6</w>
10 5</w>
0 s</w>
wonder ed</w>
uqausir ilaur
uqattaq tunik</w>
tuu liq
tu ugaluat</w>
too l</w>
takun ak
succ e
spir it</w>
simaju mit</w>
quj illutik</w>
qarasauj atigut</w>
moder n</w>
mid wifery</w>
instru ctors</w>
inngi ttut</w>
ilu ikk
ilu agut</w>
exten sive</w>
do gs</w>
arvi anut</w>
aanni avik
uuv iti</w>
uqaruma llunga</w>
uning alu</w>
u al
tuju mmi
taqqa unga</w>
tamas suma</w>
taima it
saqq ila
recru it</w>
quja givara</w>
piliriarij avut</w>
pijjuti gij
nunaqaqqa aqsimajut</w>
new sp
ma iku
lifesty le</w>
kiinaujaq utingit</w>
kiinainn aq</w>
katujjiqatigi ikk
ill ed</w>
hospi tals</w>
gu ard</w>
great ly</w>
develop ments</w>
compon ents</w>
be auti
arraagu anut</w>
ang utiit</w>
aaqqigiar inirmut</w>
uv attu
uqtu tik</w>
uq arvi
unni it.</w>
ung mangaat</w>
un aq</w>
spe ed</w>
sivuliuqti i</w>
simi uni</w>
sett le
naggajja u</w>
m innut</w>
laur ngata</w>
juma llutik</w>
isuma gija
iqsuq ti</w>
iqqanaijaqti quti
ilinniarni lirijikkut</w>
ch osen</w>
arumaj ara</w>
alauq simajut</w>
aanniasiuq tinut</w>
aangaja arn
20 9</w>
w are
vi ujunn
usu al</w>
upirn gaaq</w>
uiguri arut</w>
tus aruti
sima tsi
n aki
maligaliurvi mmi
malig arnut</w>
kno wing</w>
ja un
ikajuq tauj
i tuinn
i at
b ought</w>
arni aqput</w>
ar te
aqqau mmat</w>
an ism</w>
allar inni
aj unnginn
utili ties</w>
ut j
uqsual uqauti
u taujunik</w>
tuk sau
ta ki
re tail
nor mal</w>
miki juu
isuma vunga</w>
irnis uksi
iqqattu ivi
galu arama</w>
dead line</w>
de ferred</w>
aud its</w>
ann a
uni armangaata</w>
uk s
tusaaji tugu
taik uuna</w>
taav ani</w>
t wi
surro unding</w>
star ts</w>
qanuilingalir mangaaq</w>
pack age</w>
naasaut ingit</w>
kiu gavit</w>
iqqan aiq
ipp ata</w>
ima iling
ilinniaqtu lirijikkunnit</w>
ig alu
g unnaqsi
c m
bo o
aralu aqtillugit</w>
angajuq qa</w>
alle n</w>
akiq angittuq</w>
ver e
usa ge</w>
uqaqqa ungmat</w>
unni irn
tuinn armik</w>
tuinn arata
taas sum
t ests</w>
se ts</w>
reason able</w>
qangi mmat</w>
qangatasu uq
pro pon
pitaq anngimmat</w>
piquj aksat</w>
pijjuti liit</w>
pap atti
p c</w>
kiinauj a
katilima aqtugit</w>
isuli k
ili qusi
gu ttigu</w>
de man
complain t</w>
as sau
aqlhuti glu</w>
aqattar nirmut</w>
annik ittur
ak as
uvv al
uini pai
tusaqti ti
tu uk</w>
tamann attauq</w>
sima tuinn
si iti
respe cting</w>
ra av
qaujimangi ttunga</w>
qaujima tsi
pijittir autinut</w>
pijariatu ju
nunali mmi</w>
mik iniqs
k sangit</w>
k i</w>
iqanaij aqti
ip ika</w>
g ul
auq qau
arvi armi
aralu armangaaq</w>
ara aluk</w>
angiq tauju
angilli giar
akili ksa
accommo dation</w>
v ingmut</w>
utis sanit</w>
uqaruma vunga</w>
uq u
twi ce</w>
strength ening</w>
sima lutik</w>
s man</w>
rever t</w>
qaujis ai
p illari
maj unik</w>
is sa
irij avut</w>
ilinni arniq
eligi bility</w>
carryo ver</w>
arte facts</w>
arni arlutik</w>
arlu gi</w>
ajur unniiq
ajji liur
uqauti gunn
uann angani</w>
taissu munga</w>
t anginni</w>
seals kin</w>
premi ers</w>
pimmari uvuq</w>
on ers</w>
mis take</w>
mi qqu
kiujjuti gi
kannir unn
k it
jo ur
iluunn atik</w>
ilali ujji
ikajuq t
i titti
f lu
civi l</w>
candi date</w>
ari aqtu
alu ummat</w>
ad ap
acces sible</w>
sivulliq pau
quvvas inn
qangat taut
pita li
pe ace</w>
kk uni</w>
ke ts</w>
gra des</w>
con ven
con su
arai mmata</w>
angajuqqa arijaujut</w>
akul uk</w>
akiliri aq
24 8</w>
wal k</w>
vo ting</w>
ungav ari
understand able</w>
un iluunniit</w>
titi t</w>
ti ts
ta ullutit</w>
sivumu ak
shor e</w>
sanaj aun
s inir
requir ing</w>
qauji mat
pimmari u
piliriqatigi itti
nunal inginni</w>
naju g
mi jugut</w>
maiku l</w>
lauq tara</w>
ilinniaq vi
g ura
den cy</w>
cm hc</w>
ag laat</w>
va ati</w>
tusaajitugu uqtuq</w>
titir au
ti min
sta tions</w>
sin ik
sima lu
qujannami iri
qauj ji
pro active</w>
maligak s
llu .</w>
l innik</w>
help ful</w>
h ine</w>
gi angit</w>
gaj armangaaq</w>
f ly</w>
de ath</w>
atuq tauqatta
arni vut</w>
aqtu ugalu
apiqsur n
alira i
affe cts</w>
aaqqigi ariaq
10 3</w>
win do
war ran
uqsualu lirijikkut</w>
unikka ar
uni jjuk</w>
tuinn angi
tta riaq
timi qutigij
t anginnit</w>
sho wn</w>
regul ation</w>
piusiv aalli
pilirivv inga</w>
pij ar
nunarju armi</w>
ng ullutik</w>
li ability</w>
ks anginnut</w>
katimajiuqati ga</w>
ju lirijikkut</w>
in vi
illulirijirjuak unnut</w>
ikummaqquti it</w>
fe els</w>
beauti ful</w>
av i</w>
ari aqtur
ar gu
anullaksi iv
v atta
usi q
uqtu gut</w>
uqati kka</w>
uni aqtuni</w>
unga ti
tuksi aqtut</w>
tausima liq
ou red</w>
namminiq aqtut</w>
mmij avut</w>
jun ction</w>
irn ik</w>
inn ik.</w>
in it
enti ty</w>
empower ment</w>
du mp</w>
call ing</w>
appe ared</w>
ann e</w>
anga aq</w>
10 4</w>
wo man</w>
v ai</w>
urr c</w>
ug guuq</w>
tau gasu
tamat sumunga</w>
tama p
ta tive</w>
so vere
sch ol
pigiar utiq
man u
katimavi mmut</w>
in iri
im mangaata</w>
fe male</w>
desig ns</w>
clari fying</w>
bir th</w>
b ac
arunn armangaata</w>
arniar akku</w>
arni ujut</w>
aqtu uk</w>
ad minister</w>
aali ksaantu</w>
va gi
uq atiq
uq ariaq
upp ata</w>
ujj iri
tukisinaliq tis
tor onto</w>
t ren
sim angimmat</w>
se ctors</w>
qauj ilauq
prog res
loc ations</w>
it innut</w>
iqqanaija angujut</w>
iqattar niq</w>
immaq alu</w>
imi rmut</w>
d den</w>
auti lik</w>
ati llu</w>
arni aqtunut</w>
appl au
angir utiit</w>
angi gli
1 17</w>
vatt angit</w>
utigij angit</w>
unni i</w>
tu ugaluaq</w>
tauqattaq tuq</w>
tau sanik</w>
taakku tiguuna</w>
sir inirmut</w>
sima giaq
reg ard
regard less</w>
ra n</w>
quttiktu mut</w>
nammini qutiq
li ais
katimaj ir
isumaalu gu
isulivv iq
iqqaqtu iji
inten tion</w>
identi fication</w>
de le
arn iqqat</w>
aqtu innau
answer ing</w>
angittu mik</w>
ai mmata</w>
achiev ed</w>
0 22</w>
uuttu uti
utiks at</w>
unn arniarmata</w>
tisa mat</w>
tik ik
tau li
silata anu
sele ction</w>
resolu tions</w>
qaujimajatuq anginnut</w>
qanuilingalir mangaat</w>
nalunaiqsi tti
law yers</w>
il uv
fre qu
dise ase</w>
devi ces</w>
atuinn aujut</w>
aqtinn agu</w>
aqta tinnik</w>
apiqqutigij ait</w>
vari ety</w>
uqau sivut</w>
ulauq tuni</w>
tunngasutti tti
tag vunga</w>
taann aguuq</w>
suvi gaq</w>
sum ing</w>
s ann
qaujiman iq
pres cri
pre fer</w>
popul ations</w>
piqujivunga ali
pijunn aqti
per fe
p al
l en
isu maj
inngi mmata</w>
inc en
gijau tti
ar mata
vi vu
ta in
sub mission</w>
so ld</w>
pre am
piqann arij
mmij akka</w>
mittimatali mmi
kiinauj ak
ini ujuq</w>
im possible</w>
ilinniarv inni</w>
ikpi arjummi</w>
dialo gue</w>
aralu armat</w>
aqtu talu</w>
apiri gumajara</w>
ann u</w>
angikku vit</w>
ajjigiingi ttu
7 ,
16 4</w>
10 8</w>
wel coming</w>
va alli
ur aj
uqauj ju
ungasi ktu
un al</w>
ulauq tillugit</w>
tar ge
spo t</w>
sivulliqpa atti
sivulliqp auti
sin it</w>
san arr
qaujima gi
pla ying</w>
pit jutiq
nuli ara</w>
marru unnut</w>
kil liq
kajusi la
immi kkut</w>
ilulik uluuj
ilinniarn ilir
g uli</w>
bu ying</w>
bro ther</w>
au vuq</w>
arunn ani
arumaj unut</w>
aqqu sa
angir utigi
ala unngimmat</w>
akku t.</w>
aipp ari
4 4
13 6</w>
ur ani
uqausirij ara</w>
ung u</w>
tukisinaliqtis simajuq</w>
tu ang
tour ists</w>
ti ming
tama tsu
qi mat
piqa siut
p ag
mmari it</w>
mi ali</w>
katiq su
incen tive</w>
igl unit</w>
b lock</w>
aqt anganut</w>
apiri juq</w>
angajuqqa angu
13 2</w>
ur mut</w>
uqsu aalu
unga tauj
s pre
run way</w>
represen tation</w>
qanu iss
nun amut</w>
nipi liuq
meth od</w>
lirij ju
lai d</w>
iqaluktu uti
in adequate</w>
i l</w>
house hold</w>
galu at</w>
difficul ty</w>
crimin al</w>
comp ly</w>
chur ch</w>
car go</w>
aulan irij
attarn ingit</w>
at ori
9 ,
uqausir mik</w>
unit tauq</w>
ungi ta</w>
tuksir autinik</w>
tu qait</w>
reco gn
recogn ise</w>
pitaq ar
piraj ak
pi gunn
paippa at</w>
nunatti armi</w>
niuvi aksaq
natti l
mirnguiq sir
man ingit</w>
inher ited</w>
inci dents</w>
ill uqaqti
ilinniaqti tt
ikkannir uma
ig guuq</w>
gij aujunut</w>
d ata
ari vuq</w>
aqsima lir
anngu su
a antiuri
20 7</w>
1 mi</w>
vi de
re sear
quttittu mi</w>
niruaqtigi simaj
mi vv
mann iq
mali tuinn
ma ppir
liais on</w>
li kiaq</w>
lais aq
kiinaujaq uti
ikajuqtau giaq
h us
gu mani
atuqtu arnirmut</w>
atti aqullugit</w>
ar siur
aqta ula
aqt unik.</w>
ali rama</w>
va giiq
unnaq sini
u pa
titiqq amik</w>
s inc
rul ing</w>
reli ef</w>
qalluna ani</w>
prote cted</w>
minirn it</w>
med al</w>
manag ing</w>
maligaliurvi li
ll unigit</w>
l an</w>
kis u</w>
ir nir
ikummaqquti lirijikkunnit</w>
ga suq
firefigh ters</w>
coordin ate</w>
confu sion</w>
b ra
angiju utinut</w>
amisuuniq sait</w>
ali ty</w>
airstri p</w>
a u</w>
8 ,
ul unga</w>
uju kkut</w>
titti j
tikira arju
tauqsiq tauninginnullu</w>
taima igiaq
sovere ign
sim angittuq</w>
s inik</w>
qujannamiiruma llugu</w>
pijjutigi lu
nunali ttinni</w>
naam mangi
mob iles</w>
miksa anu
inuusi q
innga aqtuq</w>
ing mu
in ill
ili h
ikajuq tinga</w>
ik arra
he at</w>
ed ward</w>
differ ences</w>
araj armangaat</w>
appendi x</w>
apiqquti ssait</w>
anngi tara</w>
uummaqquti lirijikkunnut</w>
uqarunn angittunga</w>
tu aqpata</w>
titt inirmik</w>
tausima llutik</w>
taima ittunut</w>
su it</w>
sovereign ty</w>
saqqitt ini
quti ttinnut</w>
qimirr uniq
qanu ittuq
piliriv isi</w>
pilimma s
naamma k
kamisan kunnit</w>
k ki
itta ili
iq ati
integr ated</w>
iglu liriji
calend ar</w>
attanaqtaili julirinirmut</w>
alauq tuni</w>
akku .</w>
18 5</w>
urani um</w>
sima tillugu</w>
qassi t</w>
q aj
pass port</w>
pali is
niq sau
naamma ksi
map pi
manag ed</w>
kk a
katimajjutiks atta</w>
jut inginnik</w>
inngi ttunga</w>
im min
do cking</w>
coun tries</w>
av oi
ariaq aqtugut</w>
apologi es</w>
amisu aqtiq
achiev ement</w>
aaqqit su
uni aqtumit</w>
tuinn aq
ti lluunniit</w>
sima llugu</w>
si tive</w>
sel ling</w>
se x
qanuiliur u
on line</w>
kaanturaak ta
is uq
hol ds</w>
high light</w>
auj arial
ap puq</w>
alirij ikkunnut</w>
ak ata
ajjigi iliq
aanniaqannangittu lirijikkut</w>
1, 8
uv anni</w>
tu mi
ti ous</w>
silaur mata</w>
pigi arni
mik lh
lu tiglu</w>
lira angata</w>
katimajirala a</w>
inn ikkut</w>
g lutik</w>
follow s</w>
dis ci
disci pl
coun sel</w>
con text</w>
atuq taun
arunn aqtuq</w>
aqp uqai</w>
aqattaq tunik</w>
angi tt
ammalu ttau</w>
akku tigut</w>
ac ci
................ ................
uq qauj
uq atuinn
u mma
tu lu</w>
trib unal</w>
taul uti</w>
sen sitive</w>
s cen
refle cts</w>
piliri angit</w>
pigiar uti
no body</w>
nam ed</w>
nalunaiqsigunn aqqaa</w>
minista lu</w>
mi gama</w>
maligaliuqti tuinn
kigli sini
iqqanaij arnirmut</w>
him self</w>
hammal akkut</w>
gin aj
atuq tauqattar
atuag armik</w>
anginn akku</w>
al aupill
ak unnut</w>
aaggaaqtuq aqpaa</w>
un illuunniit</w>
ula aq</w>
ti e</w>
sal aries</w>
parnauti gi
parnau tik</w>
organi zed</w>
or r</w>
nak asu
minista rij
katiq suq
katimatuinn aqtilluta</w>
kangiqtuga ap
jumaj avut</w>
iq alli
inv est</w>
institu te</w>
ingn a</w>
excep t</w>
divisi onal</w>
celebr ating</w>
auj ju
attemp t</w>
arre ars</w>
arij unn
ani aqtugut</w>
ang ugalu
amis unngu
aksuru us
aanniasiuq tinik</w>
1 13</w>
&apos; arcy</w>
titti gasu
tit le</w>
sij unga</w>
sauni armata</w>
saqq ik
qu lluta</w>
qaujis aqtiit</w>
qatsi t</w>
qanu it
piviq atti
pilirivv ingat</w>
inn ammari
i valli
gij anginnut</w>
di vi
ari vut</w>
araanga tta</w>
aqtu ullu
aqt unullu</w>
allaij ut</w>
all avi
agl atti
18 6</w>
1. 6</w>
ven ess</w>
unnaq puq</w>
unikkaali aq</w>
tunga ani</w>
taqq it</w>
tainn ait</w>
sub stance</w>
sp aces</w>
sani ani</w>
sa att
rin t</w>
qqauj ara</w>
qanu iks
law yer</w>
kin aalu
inir s
ilinniaqti tsi
ila annik</w>
disas ter</w>
con junction</w>
blu ep
atur n
attar mat</w>
angi ppata</w>
ut suni</w>
uqaq simangmat</w>
unngi tti
unir mit</w>
uni glu</w>
u in
tur no
tavv unng
tav u</w>
taqqakk un
taima ipp
stru gg
sil aqju
schol ar
sa unaj
qimi q
qanu ittut</w>
proce eding</w>
pilirivi a</w>
paanapa asi</w>
nam i</w>
nalun ai
n ajji
manir mik</w>
maliga liriji
ks anginnik</w>
katimajirala ani</w>
ju j
illu up</w>
gi anng
gavamakk unginn
gala it</w>
e y
conting ency</w>
av u
auj ja
arraag uq
arnga i</w>
ar mu
apirijuma llunga</w>
akit sir
14 3</w>
1, 6
uvvalu uvva</w>
uvag ulli</w>
uqarata armat</w>
tuni ja
tau tsi
taimannga limaaq</w>
taima ittunit</w>
sta ble</w>
sima llar
siamma kti
sa angani
rep atri
re ne
re be
rebe ka
rebeka h</w>
qu k
pingasu ujuq
pilirivi vut</w>
nun angannut</w>
nalunaiq tausimajut</w>
na v</w>
iqqanaijaaqta arasu
invol ving</w>
inulirijituq akkut</w>
introduc ing</w>
il ini
fin land</w>
en de
char ter</w>
atta ri
ata n</w>
ar iniaqt
aq simanngi
wor ding</w>
utigij auni
uqall aqatiq
tukimu aqtitti
tamakki ik</w>
t inginnut</w>
simani armat</w>
silarju ami</w>
see med</w>
sat elli
pu sh</w>
nunavummi unit</w>
nunavu miu
measu re</w>
kanata miu
kajusi tsi
it siv
ingi ra
guma llugu</w>
cre di
con dol
clari fied</w>
bu re
be d
arus si</w>
armi lu</w>
ar tur
aqattar lutik</w>
apiq suru
am ingnik</w>
aksuru tti
2 10</w>
uqattaq tunut</w>
ul uti</w>
tukis inir
tt e</w>
suungu gatta</w>
simaliq tillugu</w>
sanikilu armiut</w>
qikiqta alung
pijittir auti
nunali ujuq</w>
mann gin
mak pir
ktu gut</w>
kkalu armangaata</w>
katujjiq atiq
inung innut</w>
gi ak
gavam anginnut</w>
condol ences</w>
ata luunniit</w>
aralu ar
anig uqti
al lugu</w>
akiliq sui
addi tionally</w>
200 0
unga juni</w>
unataq tuk
tamakku ali</w>
str onger</w>
sima vunga</w>
resi dence</w>
reiter ate</w>
piqu tinut</w>
piju min
pigi aqpalli
nun attinnut</w>
n er
marru unnuk</w>
kku ma</w>
kiggaqtu iji
inga tigut</w>
ikummaqquti lirijikkut</w>
attar niq</w>
assi stan
an ili
15 5</w>
ut anut</w>
uqaq atigij
uju uk</w>
tiliuri vut</w>
tausima mmata</w>
saqqitti junn
saqq ini
saputi jau
s low</w>
ra .</w>
qu q</w>
qimirrun irmut</w>
qaujima ti
proc essing</w>
piliri aksanik</w>
nun amik</w>
katima vingmi</w>
kanann angani</w>
iqal unn
illu lirijikkunnut</w>
ilaur atta</w>
guq ai</w>
focus ing</w>
f f
ele mentary</w>
de fer</w>
counsell or</w>
cons en
clar ity</w>
be er</w>
atuq ti
at sanik</w>
aru viuk</w>
aqta uninganut</w>
apiqqusi ri
akuni uniq
uqausiri qqau
uq alauqtuq</w>
tamaq mi</w>
snow mobiles</w>
smo ke</w>
renov ate</w>
qul inut</w>
qan ima
pilir iniq
mmi gatta</w>
malig armit</w>
maannauju mi</w>
jalun aiv
ili tation</w>
ilauq tavut</w>
il la
commen ced</w>
avittuq siman
assistan ts</w>
arvi ap</w>
an iri
alu mmik</w>
aliq tuni</w>
a taujunn
17 8</w>
1, 5
yo ur
va c</w>
uqsualu mmik</w>
uqaqtittiji i.</w>
up innga
tigu sinirmut</w>
tappik ani</w>
scre ening</w>
saqq ittu
replac ing</w>
qau gama</w>
offer ing</w>
nunavuu mmi</w>
n angir
muunga junik</w>
mmi jugut</w>
maligaliuqtiuqati ma</w>
katinn gaj
ili sap
h abi
gavama ujut</w>
galu aqtillugit</w>
bure au
b af
at t</w>
arnit innik</w>
apir iqqau
anniaq arnangittu
13 8</w>
1 18</w>
v attavut</w>
utis sangit</w>
ulauq tunik</w>
tukisiumaj akkut</w>
taima attauq</w>
tai p
sa mi
ris ing</w>
r ur
pusan ti</w>
pre c
parnauti t</w>
p lugit</w>
nalau kta
marke ting</w>
man turi
luq ta</w>
lu gulu</w>
kkannir u
ingirr atti
gijau llutik</w>
dist ance</w>
descri ption</w>
communi c
c ash</w>
aulaj unn
atiliur u
aru taujut</w>
arraagu lima
armanga a</w>
aqta uluni</w>
angu mmata</w>
angijuqqa aq
angi la
ak auti
aj juti
aaqqigi ari
15 7</w>
15 1</w>
1 21</w>
v iniq</w>
uquma inn
uqqau juq</w>
un agu</w>
ulauqtu mut</w>
takan ani</w>
t v</w>
siman asu
qauji ti
pi ula
per form</w>
nalli ani</w>
naamma gi
lais an
isuli ksi
iksivautaq .</w>
gener ations</w>
g ned</w>
as ing
angu mmat</w>
angiq simatti
an eous</w>
ala unginn
unnir mik</w>
uni aqtu
tir inirmut</w>
taimaassa innaq</w>
taas i</w>
siv ik</w>
sim annginn
sid es</w>
sapu mmij
re tro
qujannamiiq pakka</w>
qaujima gavit</w>
qa si
q ami
provi ders</w>
pla yers</w>
piliriq attaq
memor y</w>
malig aqtaq
kikku tuinnarnik</w>
ilitar si
i tigut</w>
equ ally</w>
bel ow</w>
an uri
adequ ately</w>
6 ,
13 4</w>
0 25</w>
uti up</w>
uq auta
ulir mat</w>
u juma
tikira arjuaq</w>
ten ders</w>
ro ute</w>
relation ships</w>
po or</w>
pitaq anngi
piruq sa
pinngu arv
parna ut</w>
our s</w>
niru arni
nilli utiq
nani tuinnaq</w>
nalunaiq siq
naamma ppuq</w>
n annu
mis s</w>
mirngu isir
maʼ nalu
mannginn ama</w>
lirij init</w>
la ang</w>
kingulliqpa ang
kiinaujaliur utiq
ji alun
ilauq tanga</w>
il ing</w>
ih uma
h ly</w>
gava mali
expen ded</w>
consen sus</w>
atuqtus sait</w>
aqti r
aqt ingit</w>
aqatta laur
angiqatigi ik
am ini</w>
alu armata</w>
aj unit</w>
aga tta</w>
1 23</w>
tra cking</w>
taissu mani
sun anik</w>
si utiit</w>
she et</w>
retur ned</w>
qimirr ujunn
pla ys</w>
pilirivi ujunik</w>
pass eng
nunali gij
nali annu
nag li
matuiq sinirmut</w>
ki ula
katimajjutik sanu
kangirlh iniup</w>
kajusi tuinn
j an
iqalu mmiut</w>
in k
ikkannir unn
for med</w>
con vers
c g</w>
baf finland</w>
au jumik</w>
atau tsi
asuungu mmat</w>
armi jara</w>
anngi tavut</w>
alira angat</w>
a ar
upalungaij auti
unikka aliat</w>
ter y</w>
sima mmangaaq</w>
ru k</w>
qaujis ari
qattaq tangit</w>
panniqtu umi
ning ani</w>
mati cally</w>
j ariaksaq</w>
is t</w>
ingirraju u
ingi q
incorpor ating</w>
ilali ujj
iglu mut</w>
hope ful</w>
h amal
finan ces</w>
enga gement</w>
do ors</w>
b illi
aruti gij
ap point</w>
akit uniq
1 12</w>
tunn iq
tu avi
taima ittut</w>
sivunir iniaqta
sivuni ani</w>
sivu liqpa
qalluna anut</w>
practi cal</w>
pla yed</w>
or dered</w>
ni piq
nalunaiq tu
ma unga</w>
ima a</w>
ilinniaqtu liriniq</w>
guma gama</w>
f lights</w>
des pite</w>
auq ata
aun ingani</w>
atu lauq
ar uk</w>
alis m</w>
akikilli gi
ak u</w>
0 24</w>
uvatt innit</w>
unikk ausi
tugli anik</w>
tautunn gu
tau simaj
taakkun inga
qit ingani</w>
qatanng utigi
pangniq tuumi</w>
oper ated</w>
ni ture</w>
mis cell
miscell aneous</w>
mech anism</w>
li e</w>
katimaj inik</w>
kan aiti
kam ani
k lh
ina c</w>
fur niture</w>
be ds</w>
au di
asi uj
as suming</w>
arunn ar
aqattar ningit</w>
am in
24 9</w>
14 2</w>
14 1</w>
0 26</w>
ut taq
uq armat</w>
uq akkannir
up at
u mmik</w>
tuni uqqa
tukimu atti
timi ujuq</w>
timi mut</w>
tili j
tigujauq q
tauv attunik</w>
tangi ble</w>
satelli te</w>
ru ju
qaujimajatu qangi
qa siuti
puk irng
pu kk
piusiv aallir
pinir lu
piliri valli
milli ons</w>
ilisap i</w>
ikajuq p
exis ts</w>
draf ting</w>
de e
ch and
as inna
arnir a
aqti tauni
utis saq
uni it</w>
ug a</w>
tunir ru
tuni sij
tukisi junga</w>
timi ujunik</w>
su mmit</w>
qatti innaruri
pilirivi ujunut</w>
physi cians</w>
pak taq
p tions</w>
ni v
nalunair unn
nali ang
mi vvi
marru unni</w>
kuuga arju
kiinaujaqtur utiksanut</w>
katimaji ujunut</w>
katimaji tainnait</w>
kangirlh inirmi</w>
ju ssau
ipp atsaq</w>
ilinni arri
ikupivvi lirijikkut</w>
gini aqta
g utinik</w>
cam er
c a
aull aqsima
atuq taujut</w>
asi ag
arvi ujut</w>
ar attauq</w>
aqpali aju
angiq put</w>
alu aqtillugit</w>
aki gi
advoc acy</w>
accomplish ments</w>
18 0</w>
vo ters</w>
uqaujji giar
uq ullugu</w>
tur ing</w>
survi ve</w>
smo o
siv aallir
sir nik</w>
s pi
piusiv aalliq
nunata aqpaliaju
manga t</w>
liur nirmut</w>
katujjiqatigiing ujut</w>
isumali uru
ingi ttigut</w>
imann ail
ikpi arjung
giaq arattigu</w>
fund amen
feder ation</w>
coordin ation</w>
chand ler</w>
aull aqtitau
atuq tauj
anir mullu</w>
anir mi</w>
akk anirn
ajjigiingi ttut</w>
adjust ments</w>
aaq i
1 19</w>
. 9</w>
v iksaq
ut anik</w>
uqausir nik</w>
tele phone</w>
tag ga</w>
taap k
t tau
s le
muunga jut</w>
mili annit</w>
ma assi</w>
kap pian
il innik</w>
giv unga</w>
exam ine</w>
d ry</w>
arij anga</w>
aqtitt inasu
aq alu
ammar ik</w>
akaungiliur uti
aj aur
0 23</w>
utigi llugu</w>
tu aqpat</w>
travel led</w>
tak ullugit</w>
sav ing</w>
s qu
qima avi
qikiqtaalu mmi
q isi</w>
niuvir vi
manir mullu</w>
lir luni</w>
katima q
isuma alun
iqqanaija inn
il anganik</w>
gu k</w>
gasu arnirmut</w>
galu armata</w>
cultur ally</w>
bro ad</w>
av alli
auj jau
4 th</w>
tusaqtitti junn
tama anngat</w>
taku guma
renew able</w>
rec y
qujannamiiruma vara</w>
qaujimajatuq anginnit</w>
nunavummi utaujut</w>
n ati
ma p</w>
m n
lir in
l ap
kiggatuq ti
isumaksaqsi uru
iqalu liri
ch ann
casu als</w>
c b</w>
aull unilu</w>
atuqtau gaj
atuq taulauq
attarn gata</w>
apiqsur ni
ani glu</w>
alu aqtillugu</w>
alir lutik</w>
15 2</w>
10 9</w>
vinir nik</w>
uv attuq</w>
ungi ttunut</w>
ullumi uliqtuq</w>
ullar ik</w>
taak su
sim ann
samm uqtu
re je
qaujima qu
pa amik</w>
mos tly</w>
malig anginnik</w>
los ing</w>
le gg
is a</w>
ing magu</w>
ikupivvi lirijikkunnut</w>
ikpi arju
gavam angita</w>
ende av
concep t</w>
c tly</w>
atuqtu aruti
aquti vut</w>
aq mi</w>
approach ed</w>
app ata</w>
alir ngata</w>
aliq tavut</w>
akk in</w>
akili igiaq
a ani</w>
w ine</w>
vatt unut</w>
vatt unik</w>
uqausiq aruma
tusauma qatigi
tuq ungaju
tuksi arnikkut</w>
tsi av
tou ch</w>
tele vision</w>
taujunn aqtunik</w>
stan tly</w>
siqu mitti
sinna at</w>
sig n
qinir ni
pijariir unn
nuqqangakainn aqtut</w>
nangiq si
nalunaiqsijunn aqpa</w>
nali mu
na aq</w>
kuap akkut</w>
kaantura at</w>
ju mini
ju aq</w>
ilinga jut</w>
ili g
gaasali i</w>
ga ining</w>
de mo
bo ot
avittuq simaj
asijj iri
apiqsur niq</w>
ani mal</w>
aaqqit tausima
16 8</w>
usu ungu
usu ung
taqq inik</w>
taimannail inga
su ij
s ungmat</w>
roug hly</w>
qanigija ani</w>
poli cing</w>
par en
mu se
max imi
katimajjutiss atta</w>
ju innau
ittu tik</w>
iqqanaijaqti ttinirmut</w>
institu tion</w>
ikk ai
ex ce
data base</w>
atuqtuk sanik</w>
attu ta</w>
aralu akka</w>
ar li</w>
ang ini</w>
akir aqtu
ajji li
ais aki</w>
ur nir
uqausit saq
uqaqsima juq</w>
unuq tunik</w>
ula aju</w>
takuj aqtuq
ta ariaq
sivuniks attinni</w>
sima lauq
q unga
pukirng nak</w>
memor an
kivallir mi
kiujjut inga</w>
kisi mili</w>
kamagija uninginnut</w>
juma vara</w>
it ti</w>
iqqaqtuiv ikku
inni aqtut</w>
ingi mmata</w>
iluani .</w>
hand led</w>
galu aqpunga</w>
en coun
c ard</w>
aqt innit</w>
amis uni</w>
ala unngin
15 9</w>
15 8</w>
1 11</w>
ta ttinnik</w>
t ini</w>
sub section</w>
sai man</w>
respe cted</w>
re tail</w>
quj agij
qiniq ti
qausuittu mi</w>
pu ju
piviq aqtitau
pinasu aqtavut</w>
pijjutiq alu
mee ts</w>
kiinaujj as
k oo
is h
iq qai</w>
gi alik</w>
design ated</w>
aturu maj
aqsima vut</w>
apprenti ces</w>
any way</w>
ani aqtavut</w>
aari j
aanni aqta
volu me</w>
ur e</w>
tama ini</w>
taimanna ittuq
t siv
sima llutit</w>
purch ases</w>
nuta ani</w>
nuta angujut</w>
nun angani</w>
natsi lik</w>
nal ly</w>
lir a</w>
kivallir mit</w>
iqatta riaq
innov ative</w>
ilinni aqtau
ikajuq siq
igluliga arjuk</w>
consu mption</w>
coach es</w>
ci ally</w>
av ig
atti kku</w>
ar ami</w>
aqpi uk</w>
angiq tu
akk anniri
ai red</w>
1, 7
1 n
0 30</w>
upigu suq
ung n
u gama</w>
ther n
qa iq
piquti it</w>
maʼnalu avik</w>
laur attigu</w>
iqqaqtuivi lirijikkut</w>
inga aqtunik</w>
in t
in side</w>
ila uniq
iku all
giv avut</w>
enga ged</w>
de posi
constitu encies</w>
con centr
aud ited</w>
aturuma arniaqtu
as unn
aqti tauv
apiqqutiq armat</w>
alir nir
ajj inginnik</w>
aanni aqtailima
2 12</w>
15 4</w>
14 5</w>
uqall ak
uqalimaaqta uninginnut</w>
u ari</w>
tig ini
taku giar
ta tinni</w>
siki tu
san anirmut</w>
qujannamiiruma vakka</w>
promis e</w>
pitaq armat</w>
pilirivi mmi</w>
pen al
occur s</w>
minista i</w>
kk anirn
kiinaujalirij ikk
kig uti
katimaj ingi</w>
jut inga</w>
jju umi
inu lirijikkunnit</w>
illu .</w>
il anganni</w>
expan ded</w>
emphasi s</w>
drin king</w>
d est</w>
atuq tauqattarni
atunngi kainn
angu jumik</w>
akitsir aq</w>
ab sten
13 9</w>
uv aluunniit</w>
time frame</w>
tauq qau
tau ppat</w>
saqqi taula
rehab ilitation</w>
qimirruja uninga</w>
pijarningi ttu
nunavuu limaami</w>
nunali illu</w>
nalunaij aqsima
lirij inginnut</w>
kis unit</w>
k put</w>
in ju
ikajuq s
fri end
bul let</w>
budge ting</w>
av in
ariaq arningit</w>
angunasuk tinut</w>
anga jut</w>
ali uqti
ac comp
13 3</w>
upgra ding</w>
unngi ttunga</w>
ujau llutik</w>
u i
tus i</w>
tura aqtuq</w>
tukimu ag
tti aqtut</w>
technolo gi
sustain ability</w>
raav tu</w>
pingas uni</w>
pi unngi
nun anngu
niri ug
makku tt
k lhutik</w>
iqqanaijaqtita arasu
inclu sive</w>
inc ar
incar cer
ikkarri alu</w>
ex ternal</w>
att angimmata</w>
ation ally</w>
arnir uma</w>
armi ju
appe aring</w>
angunasukti it</w>
3 50</w>
1n 1</w>
15 3</w>
uv angalu</w>
unir s
tappa unga</w>
sima li
sim annir
saqqi titau
reali zed</w>
reali stic</w>
re medi
piliriaq arni
photo graph
niruaqtau simajut</w>
naam manngi
mu si
mi d</w>
malig angat</w>
ligh tly</w>
lais ata
is ed</w>
inu limaanut</w>
inir lu</w>
gija uninga</w>
ey e</w>
boot legg
be havi
aulaj jai
ap u
ang ali</w>
aliq p
aatuva ami
a ani
vi uri
ut inullu</w>
uq ap
ujj iqsu
tungilirij ara</w>
tuinn arni
th or
taima ittariaq
so cc
socc er</w>
qujannamiiruma llugit</w>
ques t</w>
qaujima juksau
qanu igiaq
qan u</w>
pij unnaqsi
ologi cal</w>
off set</w>
nauja anit</w>
nalunaiqsi junnaq
mo ver</w>
maligaliuqt init</w>
li vai</w>
kiinauj aqt
illu ti</w>
h 1n1</w>
expan ding</w>
be gun</w>
atti arni
ari vunga</w>
anginiq s
angi juk
akitu jutinut</w>
ak ta</w>
aaqqiumainnarut inullu</w>
v ul
utik ku
u tauju
tradi tion</w>
timiqut ingit</w>
tauniq sau
suli ilaak</w>
succe ed</w>
sivullir mik</w>
siggali aqtuq
si rij
re f
qujannami itti
piliriq atigij
pij aujunn
pi titau
per mit</w>
per mission</w>
parli amen
nunavummi .</w>
nunatt inni
nunaling nu
nunali qut
man inginnut</w>
malir mata</w>
maannauju kkut</w>
ma up</w>
la ungi
l unch</w>
kin akkut</w>
inga aqtuq</w>
gaj armat</w>
functi onal</w>
fil ed</w>
expe di
dis p
def ence</w>
de ta
d ilig
con soli
chair s</w>
ar tugut</w>
aq ati
amis unng
am mik</w>
ali ru
adverti se
99 pattatuqtut</w>
1 24</w>
uqattaq tuit</w>
ullu tiglu</w>
tunis ini
titir aqta
taakku ang
ta minik</w>
sivuniks avut</w>
siv ur
sari ma
saq iti
q aku
publi shed</w>
pikku gi
physi cian</w>
niruaqtu liriji
kiutinni arakku</w>
kisi anilu</w>
kig gusi
iqqaqtuivi lirinirmut</w>
imialu mmut</w>
igl ut</w>
i tillugit</w>
hus band</w>
hos pitali
g or
cor oner</w>
circum polar</w>
asung ni
aruma lluta</w>
aqsu ta</w>
appro ving</w>
anngin akku</w>
angiqatigii gut</w>
2 16</w>
us si</w>
uq sa
unikka arvi
taakkun angat</w>
siv ely</w>
quvi attunga</w>
p e</w>
mo thers</w>
k asu
jut inullu</w>
iv es</w>
invol ves</w>
inung ni</w>
ingi ttuq</w>
hon oured</w>
harv ested</w>
g are
foun d
cau sing</w>
carryo vers</w>
arraagutama aq</w>
aqqi ta</w>
alaur mangaata</w>
akuniutigi juq</w>
ajji liuq
uqauti j
uqausir mut</w>
upp irij
ugalu aqtillugu</w>
u simajut</w>
tu k</w>
than k
simang mangaata</w>
quj ara</w>
qangi q
pijaks aqta
nuqqanga alauk
nunali limaanut</w>
minist anut</w>
kiinauj aqtigut</w>
katimaj aqtuq
inuusu ttu
ilinni akannir
for got</w>
avittuq simajunik</w>
av innga</w>
asijj iriaq
arunn aqullugu</w>
arsu ta</w>
arij aujunik</w>
amisu alu
ala unngimmata</w>
ad ding</w>
3 .</w>
2 28
14 4</w>
1 28</w>
w oo
uqaus inginnit</w>
uqalimaaqtau simaliq
uki ur
tau siman
taimann attauq</w>
suli juq
sivuliq tik
sim anngittugut</w>
silattuq sarvik</w>
silattu sarvik</w>
sanajau valli
saan tulu</w>
qiniq tiit</w>
pinga sun
piju maniq
paktaq tuqtut</w>
p y</w>
own er</w>
ng ujunik</w>
maannauju rli</w>
lirijikk u</w>
lauq simajuq</w>
k ikk
k al
ja uninga</w>
iqalung ni
ingi laak</w>
h au
galu aqtillugu</w>
determin ation</w>
com petitions</w>
aren as</w>
aqsima jugut</w>
adverti sing</w>
whe el
war m</w>
visi tor</w>
utis sa
uq akkut</w>
un ali</w>
tuttu it</w>
tukisi juma
tuinn arnit</w>
tti aqtara</w>
sto ck</w>
saang anu
s inut</w>
re tain</w>
re loc
qujau llutik</w>
off ers</w>
nunavuu miut</w>
nalun arunni
mittimatal ingmi
m un
ki vin</w>
katimaji innait</w>
k lhugit</w>
k anniriaq
inter nally</w>
histori cal</w>
gas sa
effecti veness</w>
do m
consider able</w>
con stantly</w>
auj unu</w>
atu ut
atir nik</w>
as tic</w>
arunniir mat</w>
araj armata</w>
arai mmat</w>
angiq pitaa</w>
anginngi ttuq
ang un
alu ta</w>
alauqsima gatta</w>
0 28</w>
who ever</w>
ver i
v ingit</w>
ur aijan</w>
ull unik</w>
ulauq puq</w>
tus alauq
taujunnaq ullugu</w>
taakku angilaak</w>
suru siq
sanaj aulauq
retail ers</w>
pimmari uti
piliriq atigini
paqqi j
p para</w>
nunav ik</w>
niriupp ugut</w>
maann am
lhuti gu</w>
ku in</w>
ka alvin</w>
inutuq arnut</w>
ilagijauq atau
ikaju utigi
dis closure</w>
constru cting</w>
car vers</w>
aqqu uqtuq</w>
amisu aluit</w>
ak sangit</w>
aaqqigiaq si
17 0</w>
uqausir ilauqt
uqausiks akka</w>
uq at
tukimu aktitti
tu up</w>
tav ani</w>
tausima lluni</w>
tainn aq</w>
simang in
simaliq tavut</w>
serv ants</w>
reco very</w>
qil alu
qau pp
pres ence</w>
pream ble</w>
plan es</w>
lh utalu</w>
lh ugulu</w>
lauq tangit</w>
kingulliqpa aqsi
kalla it</w>
k api
investiga te</w>
ikk ama</w>
haaml akk
h ak
ful fill</w>
er o
ausuittu mi</w>
arv is
arraagutamaaqsi ut</w>
angirraqanngittu lirinirmik</w>
akituju alu
a annir
4 50</w>
0 27</w>
your self</w>
uti rmi
uti er</w>
uqausirij avut</w>
under stands</w>
ul ukta
uju mu</w>
tunnga vigi
tti ani
tt unn
tsu ti</w>
taik sumani
taal anik</w>
sun amik</w>
siarma q
secre t</w>
pi tuqa
nali qqu
m ould</w>
katimajiralaangukainn aqtut</w>
kati ttu
kanngun aqtulirinirmut</w>
iqqanaij aqtunut</w>
haaml akkunnut</w>
gi k</w>
gather ing</w>
g unnaqullugit</w>
f o</w>
diagn os
conclu sion</w>
clo utier</w>
carv ing</w>
atuqtau giaq
asuungu gatta</w>
artu gu</w>
aq pisii</w>
aliq tutik</w>
ajjigi inginn
absten tions</w>
vi ivv
uvval unniit</w>
uqaqti ksi
unikka amik</w>
tti aqtunga</w>
titir arunn
suli kkanni
si ri
qimirr ullugit</w>
pro hi
pingasu uj
pi ir
peri ods</w>
pap er
pa anik</w>
mittar vi
malig arni
li ga
lau sman</w>
kuapuriis an</w>
kinguvv iq
k anniq
inuulisaq taujaqtuq
fas hi
dise ases</w>
d ul
auq attani
armanga aqpit</w>
announ cements</w>
1 27</w>
valli atuinn
uv aa</w>
utit sanik</w>
uti kainn
uqqurmi unut</w>
ullu gi</w>
tuavirn aqtulirinirmut</w>
taugi aliit</w>
t unni
t ful</w>
su spen
sita man
si ul</w>
recy cl
qaujisaqta uni
pu ijju
piq attaq
n ullu</w>
mik saanut.</w>
maligak samik</w>
lu tigut</w>
liq tutik</w>
lauq simammat</w>
kil ow
kikku ummangaata</w>
katiman ingat</w>
jau juq</w>
isuungu mmata</w>
ilima aq</w>
ikaju utinik</w>
guma vunga</w>
fru str
dom esti
direc tive</w>
c ards</w>
aulaj jutit</w>
arl unilu</w>
angajuqqa angat</w>
am ini
akilir su
2 30</w>
vo th</w>
ur aian</w>
ulauq simajut</w>
u kk
tunga agut</w>
taq ti
t line</w>
simaju ugaluat</w>
ri ipika</w>
qu lugit</w>
qanuitu unirij
qai qujau
piliri ju
pigi alirata
one theless</w>
nunaqq atigi
nangminiq aqtunut</w>
n onetheless</w>
maligaliuqti tuinnait</w>
la aqtut</w>
kiuj autti
kamagij aujunn
juni or</w>
j inut</w>
isumaq sur
imp li
iluunn a
gumaj akka</w>
break fast</w>
atuqta unginn
atti ar
ari aq</w>
aqtu mmarialu
aqattar mangaata</w>
aq par
applic ant</w>
apiqqu tik</w>
anngi kku
anga j
alir luni</w>
akuni ulu
ak unningani</w>
ak autigi
acquir e</w>
a ann
25 1</w>
1 29</w>
1 22</w>
0 29</w>
wh ite</w>
uq akkanniruma
unir sau
uma llunga</w>
ullatta aq</w>
uiviiti tut</w>
titau tti
tau san
talurju armi
sil atitt
ro se</w>
renov ated</w>
quo tas</w>
qujannamii mmarialuk</w>
qu gut</w>
pra c
prac titi
piuniq sau
paper work</w>
nunali rju
mmari ummat</w>
llugi k</w>
lirijikkunn u</w>
lauq tanga</w>
ktu tik</w>
kaanturaak t</w>
ippi arju
inu ulluta</w>
ilinniarv innut</w>
iglu kiks
giv uq</w>
gial innik</w>
exc lu
ce o</w>
carr ying</w>
billi on</w>
aviktur simajuni</w>
atori um</w>
16 5</w>
unnginn inginni</w>
unik kua</w>
tusag aksaq
taimaatsa innaq</w>
taikk unani</w>
sui table</w>
saqqi tauni
qa a</w>
pl ants</w>
p av
nungu ju
na ama
mo u</w>
lo t
kiggaqtui juq</w>
katimajjuti q
iqqanaijaqt inginnik</w>
iqqanaij ar
bluep rint</w>
b ab
aull atitti
atta raj
aqtaralu avut</w>
aq simajunit</w>
apiqsu utigi
ak samut</w>
uq tuni</w>
umaj ut</w>
tuni junn
tapiri it</w>
rel ate</w>
regi stration</w>
qimirrun alauqtillugit</w>
qil ammi
piquj ait</w>
pigi akkanniq
nun atta</w>
niq iq
nalunaiq suq
mik inniqs
maann alu</w>
m minik</w>
kiinauj air
katimajirala aq
jo amie</w>
iqqanaij aqti</w>
inn arnit</w>
ini aqtanga</w>
ilhu aq
iglu lik</w>
gu viuk</w>
deman ds</w>
compe titi
certific ates</w>
care ers</w>
atuqtu aqtau
asingi ttauq</w>
asa innaq</w>
ariaq arattigu</w>
ar uqti
aqti llugi</w>
aqsima llutik</w>
approach es</w>
api qu
angiqtaujuma vunga</w>
allari mmat</w>
akuk ittu
aanniaq aqtailima
25 6</w>
1 31</w>
utili zing</w>
uq araj
taku ts
simaj unn
saqqi tausimajut</w>
sa tur
qinir asu
pivallian irij
pimmari uninganik</w>
nunataaqatau simajut</w>
niru anngittut</w>
new ly</w>
mor atorium</w>
lir inikkut</w>
keep s</w>
kati tsutik</w>
kat inng
juuk aan
irn i</w>
ilauq tangit</w>
gij aulluni</w>
giar lugit</w>
flexi bility</w>
arraagu uniaqtumi</w>
aqti t</w>
aqsima juq
aqatt angimmata</w>
angijuqqa aq</w>
acc essing</w>
uq sanirmut</w>
unngittu gut</w>
uning anit</w>
ull ungani</w>
ulauq tillugu</w>
u tar
tuinn arlugu</w>
tasiujarju amut</w>
spre ad</w>
ru u
quvv asi
qul arn
qujan aqqutit</w>
qu lit</w>
qaujima llungalu</w>
pos ing</w>
piqujarju at</w>
niqi liri
new found
nalunaiqsiv igi
nalli ak</w>
nakuq mi</w>
naas aqtau
mi gatta</w>
inuq utivut</w>
in stances</w>
i ta</w>
dis appointed</w>
atuinn aqtunga</w>
assess ed</w>
18 8</w>
uqausirng aut
upalunga ijau
tukis inasu
taujunn araj
tau ppata</w>
taissu minga</w>
ta tuqtut</w>
survi val</w>
shi pped</w>
qaujis ar
qattirij ikkut</w>
qaris aujakkut</w>
qaij ikkai
pivalli anirmut</w>
out come</w>
nanu limmut</w>
n ill
ju dge</w>
in ut.</w>
imiq tar
ilinniaqti ttinirmut</w>
igluli mmi</w>
iglul ingmi</w>
giv ak
feel ing</w>
el led</w>
dis solution</w>
den i
cu mul
contrib uted</w>
asi anit</w>
arn u
arma tik</w>
aqtu ksa
aqattar ninginnut</w>
angiq pat</w>
angi llutik</w>
alian ait</w>
ag ed</w>
9 00</w>
tura aqtinni
th ro
tausima liqtut</w>
t tautigi
surusir nik</w>
qu galu
pursu ing</w>
piqasi utillugit</w>
pij is
nuta angujuq</w>
nunalilima ani</w>
n akk
me t
katimaniq aqtillugit</w>
ju rai
jaannu ari</w>
iqqanaija ass
in angi
ik pigi
iglu up</w>
i ing</w>
gro unds</w>
gavam angata</w>
diale ct</w>
deliber ations</w>
b age</w>
atuliqujali uq
aqti taujut</w>
aqatt anirmut</w>
ann ikkut</w>
anga tigut</w>
14 7</w>
utiks anginnik</w>
unga jumik</w>
ull unut</w>
tavv anis
simalir atta</w>
sho w
settle ment</w>
ser ves</w>
remo val</w>
qit unng
qanu ittuni</w>
qang akku
mi ittugut</w>
marru uliq
kilow att</w>
katimatuinn aqtut</w>
katimaj init</w>
kama ti
j akka</w>
isuli ppuq</w>
irn aq</w>
inir mi
ilagiar ut.</w>
ikummaqquti lirijikkunnut</w>
iitu a</w>
igluli gaarjung
i ijag
gini aqtavut</w>
domesti c</w>
c ross</w>
ar man</w>
apiri jumaj
alu gi
alir mangaata</w>
5 .</w>
17 6</w>
14 8</w>
1 00
0 31</w>
z en</w>
ving mu</w>
unngi laq</w>
uki uk
tt inasu
te e
talurju aq</w>
taimaim u</w>
taik sumunga</w>
sur pris
sk illed</w>
sivuliqt inginni</w>
sen ate</w>
sammuqtu uq</w>
remo te</w>
re supply</w>
qamaniqtu armi
nungu ppalli
niq a
natti limmut</w>
nangmin ir
mis sau
jurai as</w>
isumaks arsiur
ir i</w>
iqqanaij aqta
ila inna
ig ala
gu ilaak</w>
gar bage</w>
enro l
decre ased</w>
co des</w>
auq atau
aulan ingit</w>
arni aqpa</w>
ariaq arnirmut</w>
ariaq arn
ar ise</w>
aqp auk</w>
aqattar unn
ani armangaata</w>
ami sun
am bul
alima aq</w>
uv agu
uq ainn
tisam anut</w>
tar r
t ested</w>
t ann
seri es</w>
re move</w>
qujannami inga
qauji jumajunga</w>
mmari ummata</w>
malirmi jara</w>
ma tic</w>
liriji illu</w>
lhuti gut</w>
katimaj ing
kajusi juma
iqalu lirinirmut</w>
inir nut</w>
h at
atuinnar uq
atuinna ungittuq</w>
aqqi uk</w>
apiqquti ksait</w>
anngi lagut</w>
angiqtauv agiiq
allu tit</w>
akittu riaq
8 00,000</w>
199 6</w>
. 0</w>
ver sus</w>
usa tuinn
uqalima aq
upp alli
tunngav ikkunnit</w>
taak sum
su me</w>
simani armata</w>
sima mmanga
sh ell</w>
rij avut</w>
qang ali</w>
qan ir
pres sures</w>
poli ti
parnaut inginni</w>
parn ausi
niq iqatti
mann aujuq</w>
maligaliuqti uqataujuq</w>
lirijikkunn ut.</w>
kiuv an</w>
isumaliur utiq
iqqanaija aq</w>
imann aili
ha in</w>
gij aq
gener ator</w>
gavamakk unni
desi re</w>
celebr ation</w>
c ade
ariaq aqtavut</w>
ang ulluni</w>
alloc ating</w>
al a</w>
ak unir
ak inginni</w>
ajjigi innginn
ag s</w>
aanniav immut</w>
vv iq
v aktu
uvvalu kiaq</w>
unga ta</w>
tus aras
squ are</w>
sil uni</w>
si x
sa amu
qilavv a</w>
qauji titti
qam ani
qa tar
pilirij ingit</w>
pijariir ni
opp o
oper atives</w>
mu q</w>
mi qai</w>
mean ing
maannarulu ulauqtuq</w>
lauq takka</w>
kiuj a
kamagijaq aqtuq</w>
ittu mut</w>
ikajuqtu ij
earli est</w>
de ep</w>
commer ce</w>
c l</w>
auqattaq tuq</w>
at taut
arv iks
arni aqtara</w>
ari anganik</w>
aqq it</w>
apiqsuqtau vimmu
ap ex</w>
annur aaq
angiqatigiig utiq
akiliq tuq
15 6</w>
up dating</w>
unngittu ugaluaq</w>
ullu gillu</w>
turno ver</w>
tukisi jara</w>
tik inni
streng th</w>
sivuliqti ujuq</w>
reason ing</w>
profes sion</w>
pimmari ujunik</w>
paq n
newfound land</w>
mikilli gi
makpiq tur
liq q
lh lhutik</w>
le g
kingun ingagut</w>
iqqanaija assait</w>
gunn armangaata</w>
gunn ala
g gu
deta ch
bin der</w>
av un</w>
aqra agu
apiqsu utiq
apiqquti tsaq
angajuqqau ti
angajuq q
ammi jut</w>
alung nik</w>
akkann ilaur
16 6</w>
0 35</w>
0 33</w>
v al
uumaju lirijirju
ullar ik
tujurmi v
trans fers</w>
st ing</w>
so unds</w>
simaliq pata</w>
s aqtut</w>
qqu uq
qauj ini
qatti ummangaata</w>
piliriang ujunik</w>
pi ug
over time</w>
mit sausi
m unut</w>
llu ata
katujjiqatigi inut</w>
katimaj ingitta</w>
it es</w>
inu mmik</w>
ii purul</w>
iglu liuq
gaj anngu
f la
evi dence</w>
employ ers</w>
direc tives</w>
competiti ve</w>
aur mata</w>
aqtaralu ara</w>
aqpak tunut</w>
angajuqqa arijau
altern atives</w>
ajj aqsi
28 5</w>
23 5</w>
23 4</w>
2 .</w>
v es
utiq titau
tun ini
tukisi tsi
ti n</w>
tau rata
tak ku
taimann alu</w>
taimaittu mit</w>
ta ilaak</w>
ta guuq</w>
standardi zed</w>
s ungalu</w>
respe ctive</w>
ra y</w>
p ilaur
ng uti
ne arly</w>
naasaut inik</w>
lima attiaq</w>
lead s</w>
kaantura ata
jut ini</w>
ilis avi
iglu mi</w>
gunn aqtuq</w>
gumaj ut</w>
gis ts</w>
gij anginnik</w>
gavama t</w>
fund raising</w>
evalu ating</w>
educ ate</w>
cont ent</w>
confi dential</w>
char ges</w>
atta ilaak</w>
ari vara</w>
apiqquti it.</w>
anullaksi ivi
anni aqtut</w>
akk at</w>
8 0,000</w>
16 3</w>
v as
unng innir
tuinn armut</w>
tt inut</w>
tak uqattaq
qujannamiiq tara</w>
qimirr una
qaujis auti
qaujimanngi langa</w>
qaujima lu
qanga tuinnakkut</w>
qa at</w>
pingann anganut</w>
piliriang ujunut</w>
pijitsi ru
pigiar titsi
ol ak</w>
ngunir aqtaujuq</w>
maliga ss
list ing</w>
lat est</w>
ipp ugut</w>
in ers</w>
ilinniarvi jju
fer ris</w>
bo ard
aruma lluni</w>
ar tillugu</w>
aqt uniuk</w>
al es</w>
aki ani</w>
24 0</w>
18 7</w>
ungi q
tukisinaqsi ti
tuavirnaqtu kkut</w>
tauqattarn inginnut</w>
tama innik</w>
sukk aju
sivulliujjau quj
saum inniittuq</w>
renew al</w>
pitta si
nunavuu mik</w>
nunavu limaamut</w>
nt cl</w>
nir l
nalunaiqsigunn aqqa</w>
n inginni</w>
memoran dum</w>
maannar uluk</w>
m my</w>
limaatti at</w>
li sts</w>
kanngun aqtut</w>
ing anu
ig uti
i jiit</w>
gijau ju
galu armat</w>
f lu</w>
de c
aula tau
atti aqtuq</w>
arut inginnut</w>
ar mingmata</w>
ar alu</w>
al ex</w>
akik inniqsau
ad ow
18 1</w>
wor ried</w>
uumma quti
uqqu u
tur ning</w>
tele communications</w>
t ingmi
silattusarvi mmut</w>
salli it</w>
qujannamiiri vara</w>
qalluna ani
pimmari uniq
oper ative</w>
nu uta
marru u
kuapuriisan kut</w>
iv ik</w>
ingi gut</w>
ima it
iliqqus ingit</w>
ikajuusi ang
ha amal
gu ulu
fashi on</w>
e thi
custo mers</w>
capi ta</w>
aw arding</w>
atta qullugit</w>
asijjir ni
armanga at.</w>
arma git</w>
aqqauj ara</w>
alh lh
akituju utit</w>
akaunngiliuruti taq
ajji ungittu
agg res
6 .</w>
wel com
welcom ed</w>
uv akka</w>
uqalima ar
ungi llu</w>
un iku
ula aqtuq</w>
tun u
titiraq simajunut</w>
tau kainn
tamaj j
silattu saq
sanir vak
s anngin
refle cted</w>
qiti a</w>
qauji maliq
qass inik</w>
prote cting</w>
piliri tsi
pijunnaq situ
nunavummi ullu</w>
niuvi assaq
nali ra
m mullu</w>
kaattula ak
juq armat</w>
juma v
in ilaak</w>
gij angat</w>
engine ering</w>
deser ve</w>
auj au
asuung ungmata</w>
aqt innut</w>
aqsima jumik</w>
an itti
ami ut</w>
aliq punga</w>
alaur lugu</w>
aksa li
akittur aut
aij a</w>
4 3
18 9</w>
16 7</w>
0 32</w>
v acc
unni ik</w>
ungittu ugaluaq</w>
taralu akka</w>
sima laur
qu titit</w>
qin iriaq
qattar nirmut</w>
qanu ippalli
qa ju
piliriqatiq atti
pat h</w>
nunaq ut
niqa isu
ni uq
nalun gi
mi ll</w>
lauqsima gatta</w>
it saq
ikp inn
ikk anniriaq
ikajuq taujjuti
hard ship</w>
har der</w>
h aw
grap hi
gij ju
gi assaq</w>
en cing</w>
c lu
board room</w>
attarn irmut</w>
asi ujjau
arunn armangaaq</w>
ar amik</w>
aqtu inn
aqti ujunut</w>
aqpalli ani
aq au
apiqquti tsait</w>
ama li</w>
allow able</w>
allavv iq
vivu ari</w>
v aalliq
uni innga
ukku ir
ukiuqtaqtu up</w>
tak unnaq
suq qui
sivullir paami</w>
simaju ugaluaq</w>
san ullu</w>
san avi
s kins</w>
qaangi uti
psy chi
proje ctions</w>
paliisi kk
pa alliq
man inga</w>
li fe
lauqsima gama</w>
l av
kin au
kil o
ilinniaqt init</w>
h lh
ga pta</w>
fran cop
d fo</w>
cred its</w>
colle cting</w>
aviktuq simani
at u</w>
apir sur
anngi tt
accompli shed</w>
0 37</w>
uqauti gi
uqausiq aqtilluta</w>
ulauq sima
tusaumaj jutiit</w>
tus arvigi
tama ung
supervis or</w>
sauni aqtuq</w>
satur day</w>
qaijikkai gutit</w>
piliriv ittinni</w>
piliri jiit</w>
pijunnarn ilima
nun anginni</w>
naggajjau mi</w>
n ani</w>
maanitu up
lu .</w>
kajusi giaq
isuma liriji
inuusi lirij
in inganut</w>
ikajuqtau vi
ik up
i ppat</w>
francop hon
chamb ers</w>
avi ation</w>
angajuqqau tiit</w>
amig aq
alira anga
ak aqs
aippi illuni</w>
aanniq tiri
3. 5</w>
uqaujj aulauq
uq aru
upp ik</w>
unikka anginnik</w>
uni arluni</w>
tunngav ikkullu</w>
thank ful</w>
taqqi ulauqtumi</w>
su tti
su ku
sim angittu
qauji gumajunga</w>
qatti inna
pulaariaq simajut</w>
pivalli ajju
piliriv ingata</w>
pigiaqtita mut</w>
pi guma
nuqq atitti
ministauq ati
inter views</w>
im pres
ilisarijau simajut</w>
ili pp
gi aqtu
g lugu</w>
fundamen tal</w>
fire arms</w>
exper ts</w>
deni ed</w>
c ast</w>
arunniir ama</w>
arraag ug
arr y</w>
aqqu si</w>
an ik.</w>
ammalu unniit</w>
alir niq
ajjigii mik</w>
ac credi
16 1</w>
ware house</w>
v alla
ur uti
unngi ttunit</w>
ul li
tu red</w>
su manngat</w>
silattusarv ikkut</w>
ru u</w>
ra anga
pin ski</w>
piliri ti
pikku gijauningit</w>
niqita aruti
ng ujunit</w>
nar wh
mi llu
ligh ting</w>
lauq tillugit</w>
kanann anga</w>
j iq
irn gat</w>
inter view</w>
initi ally</w>
immi mut</w>
guma llugit</w>
gu kku</w>
fortun ate</w>
comp tro
avenu es</w>
aqtav ut.</w>
aqtauq attaqtut</w>
aqta tinni</w>
aqq akka</w>
aqatta raj
amisuuniq sau
alauq pat</w>
ac cumul
14 6</w>
taulauq simajut</w>
targe ted</w>
sum ma</w>
stre am
snow mobile</w>
simajuq taq
simaj juti
rel ative</w>
r atta</w>
quviasu utigi
qaujis aij
qaujijuma tuinnaqtunga</w>
piqa tau
pimmari ungmat</w>
piliriv ingit</w>
pilimmaq sa
pijari at
piiq si
pi uqsu
paippa aqta
nuqq ari
naliq q
n illu</w>
mmi lu</w>
lauq simaj
l o</w>
k ikkunnut</w>
isuma t
isuma kkut</w>
irij anganut</w>
illuq ut
ill unit</w>
ilisari juma
ilagiar utinut</w>
ik kiin
hospitali ty</w>
educ ator</w>
coun t</w>
compli cated</w>
atu res</w>
att anirmut</w>
armanga ta</w>
aralu armangaat</w>
aliq q
accredi tation</w>
acc essed</w>
aaqqik tausima
aanniavili aqtut</w>
a ʼ
17 2</w>
16 2</w>
0 38</w>
0 34</w>
uut tuq
uummaqquti it</w>
uumaj unni
ursu alu
uqausir ikainn
unngittu mit</w>
ulaur atta</w>
u taujunut</w>
tusaajitigu ur
tug l
tsa innaq</w>
ti ming</w>
ta liq
sex ual</w>
scho ol
ri ji
qur lu
qiti q
puv all
parnauti li
nutaqqan ut</w>
nunali mmiut</w>
ni vi
nangiq sijunga</w>
nalunair uma
naamma tti
mmar innik</w>
minista rijau
mi i</w>
liur niq</w>
ju ugalu
ingi kkalu
immini ir
hand ling</w>
gir ls</w>
fron tline</w>
aul ag
auju mit</w>
atuqtauni aqtunik</w>
attar unn
assi gned</w>
angiq si
26 0</w>
24 6</w>
16 9</w>
0 36</w>
v itta
v ere</w>
uv ikka
uq aqp
uq al
unn ut.</w>
ung manga
taikku attauq</w>
suung uvat</w>
so le
simanngi ttunik</w>
s low
qitur n
qanu ittun
paippa aq
mu uqq
ma tion</w>
ma th</w>
ma ster</w>
ma gguuq</w>
lirijikk ungit</w>
liri aq
katiman ittinni</w>
iqqan auj
iq attani
ini gij
ing anullu</w>
ilisarij auj
ilinni aras
ili tti
gavam anut</w>
g unni
ex hi
cha e
ch ers</w>
aull ariaq
attra ct</w>
asi q
arlu tigu</w>
aralu aratta</w>
ar chae
altern ate</w>
akk unginnut</w>
aanniavili arujj
29 9</w>
19 1</w>
1 14</w>
uumaju lirijikkut</w>
uqausiriqqauj anga</w>
uq taq
upinn aqtuq</w>
unuk all
ungin ittinni</w>
turaanga jumik</w>
tunijau simajut</w>
tukis ini
tou ched</w>
taun inginnik</w>
taikku aqai</w>
ta ttinni</w>
t b</w>
sik ki
short fall</w>
se at</w>
s ang
re treat</w>
piquj as
pimmari ujuq</w>
pijari al
out comes</w>
nunata arnirmut</w>
nali annut</w>
na m</w>
na ala
mi g
maliga ssait</w>
maj unut</w>
lir ama</w>
li sa
l la
kiggaqtuq ti
katimaji limaat</w>
katilima arlugit</w>
inu mmut</w>
inginn ik.</w>
gin s</w>
ga angata</w>
finan cially</w>
et c</w>
bl es</w>
atuq tavut</w>
atu rasu
arraagu gas
ar pa</w>
apiri guma
anngi ti
ai l</w>
aanni arn
20 2</w>
uqausiriqqauj ara</w>
unn illu</w>
un ikkut</w>
ul ar</w>
tura an
ter ly</w>
taun iqs
se vere</w>
salummaq sa
piliriaks at</w>
nor thern
naammas aqtulimaat</w>
m mut.</w>
liur unn
lir unn
ki e</w>
iti lluta</w>
isul inni
imailinga juq</w>
ge o
avittuq simaju
atuqtau juma
arti ficial</w>
arraani ulauqtuq</w>
aqtaq armat</w>
anngittu ugaluaq</w>
angirraqanngittu lirinirmut</w>
angi tara</w>
alu aqtugut</w>
advis or</w>
aanniaq aqtaili
. 1</w>
wor ry</w>
uqaus inginnut</w>
ungi ttunga</w>
ung anik</w>
ujaranni arvi
taulauq simajuq</w>
tauj unnaqsi
taimann aummat</w>
sukku aqi
r ation
qu lin
qanuqtuur utigi
qangatasu unut</w>
piliriar inasu
n git</w>
mmari up</w>
mi ti
lir utta</w>
lima ani</w>
kiv an</w>
ka ans
k ajja
imialu lirijikkut</w>
i mb
h i</w>
aul anir
atuq tut</w>
atu llu</w>
attu mik</w>
assu red</w>
arraagu mit</w>
anngi llutik</w>
anis ms</w>
am pi
am mut</w>
akk i</w>
17 9</w>
0 40</w>
war ming</w>
uqaqtiksi jii</w>
u kku</w>
titiraqtau simajut</w>
tit les</w>
tauj ariali
tar gets</w>
takan unga</w>
simaj anginnut</w>
sil at
saqqi ijunn
sanirv aqtau
s lightly</w>
qul inik</w>
on ing</w>
niuvir unn
maj akka</w>
lirij ini</w>
kk aniqtu
isumaal unn
ilinniara anik
ilinni aqtuq
iks anga</w>
gi lluni</w>
g lugit</w>
explor ing</w>
correc ted</w>
c tures</w>
b loo
avittuq simajutigut</w>
aul au
atsi ar
arniar attigut</w>
aqq isi</w>
apiqquti kka</w>
angiq atigij
2 75</w>
vi gini
utaqqi jariaq
uqsuqtu urmi
tuinn arialiit</w>
transl ators</w>
tama aqsi
tainn ali</w>
ta ingna</w>
some what</w>
se als</w>
saqqiq tauningit</w>
pri cing</w>
nunavu mmu
nalunaikkutaq ta
mi utau
kuuga arjummi</w>
kiinaujj aks
ju umi</w>
ja unginn
in curred</w>
ilinniara an
ilagij anga</w>
i e</w>
habi tat</w>
av ung
atuqtauv attut</w>
atausi arn
at inn
anginn attigu</w>
and re
19 9</w>
17 7</w>
17 1</w>
w in</w>
vide o</w>
v utit</w>
utaq qik
ur utiq
uqti llugu</w>
ulauq simammat</w>
tus sau
tti ammari
titir ari
th a</w>
tauv ammata</w>
tausima mmat</w>
tauqattaq tunik</w>
tauj u</w>
t angat</w>
struc tures</w>
sapummi jau
sam ples</w>
qimirruja uningit</w>
pimmari ujumik</w>
piliriari jauni
nuutti gi
mmata ttauq</w>
matuiq sig
lo gy</w>
llu tiglu</w>
liur asu
lirini mmut</w>
lir ngat</w>
kku uq
kisu tuinnarnut</w>
kiggatuq takka</w>
ja arn
inten d</w>
iglu mik</w>
ho t
ga mattauq</w>
ex change</w>
car pen
aulatsi jiit</w>
atta ched</w>
asse t</w>
apiqsuq atta
akk ik</w>
advan ced</w>
aaqqigiaq tau
27 4</w>
we aring</w>
uvi ani</w>
utir unn
ulti mately</w>
turaang ani
titt inas
suici des</w>
siman inganik</w>
sam u
quar terly</w>
preven tative</w>
piliri arri
pijunnauti ta
nunaq uti
nu ut
n ala
muse um</w>
men tally</w>
mach ines</w>
lot tery</w>
kkanni qullugit</w>
kingulliqpa amit</w>
kiinaujatsama ani</w>
kati mali
kaju siv
isumali r
isumagij angit</w>
iqqaqtuij irala
iqq artu
iqq aqtuq
inuusuktu it</w>
inuinn aqtut</w>
inn akulu
ingirr aniq
gaj armata</w>
di a
co vers</w>
c ap</w>
aqta qar
ann inginnut</w>
angu ju
amisu it</w>
ak unik</w>
ajur utiliit</w>
20 1</w>
2 25</w>
18 3</w>
wel fare</w>
uqaqti it</w>
unuqsi giar
uj uq.</w>
turaanga ti
tuinn arialik</w>
tro u
timiqut inginnut</w>
taujunn armangaata</w>
takuss auti
taima inginn
ta unn
sima mmari
sa ali
qingau mmi</w>
qimirruja uninginnut</w>
pilirias sanut</w>
piliri assaq
nunata aruti
niruaqtau v
niru arumajuq
nalunaiq sini
n uluuja
me adow
maliktu gu</w>
limi ts</w>
in atti
ilisaij inik</w>
ikaju utau
iglu lirijikkunnut</w>
gunn arni
g uluunniit</w>
g ulu
dis crimin
dee med</w>
avoi d</w>
arunn armata</w>
arraagu unnik</w>
appre hen
alu ti</w>
akili iti
aju inna
adjo ur
aanniavi it</w>
vis s
ula aqtumi</w>
ukp irij
uj jauni
ugaj aqtut</w>
tug lirij
tti arasu
tik it
thre at
tauv attunut</w>
taun inganik</w>
rene wed</w>
rea u</w>
photograph s</w>
panniq tuu
out lines</w>
nunaqaqqaaqsimaju lirinirmik</w>
negoti ation</w>
naammas aqtuit</w>
naamma ttunik</w>
mikijuu tauniq
mi javut</w>
mech anisms</w>
mani ma
mal inni
mai ja
maann auningani</w>
k auti
isuma gijauningit</w>
isuliksi juit</w>
iqqanaija amut</w>
inter departmental</w>
ii b
gunn aqqa</w>
gijau mmat</w>
fe et</w>
demonstr ate</w>
deb ts</w>
conta cted</w>
b b
aviktuq simajuni</w>
av a
aulatti jjuti
atuliquj aujut</w>
ati i
arnirij angit</w>
arn illu</w>
aqp an</w>
ak anniq
aippiq taulluni</w>
9 0,000</w>
0 39</w>
v alauq
uvvalu unnit</w>
unga limaaq</w>
uma ju
tukisigiar utiit</w>
titiraq simajuni</w>
tavv anilu</w>
tautug aq
taimannai liuq
simammi juq</w>
sima liri
rais es</w>
qi mak
qaujimaj ara</w>
qatti r
qanuti git</w>
pu shing</w>
pilimma k
pijittiraqti kkut</w>
pijittir aut
pijitsiq ti
per taining</w>
p aqq
o sis</w>
noti fied</w>
niruaqtau simajuq</w>
mittar v
mata lu</w>
ki uti
jaanu ari</w>
iqalu gas
innir mik</w>
ingu is
imann ak</w>
high way</w>
gui ded</w>
gi akkanni
fran k
cre ates</w>
bu reau</w>
aula tauningit</w>
ata q</w>
ar akkut</w>
apiqquti qar
aktu uva</w>
aga it</w>
we ar</w>
unginn ingani</w>
tun uviani</w>
tuki sivunga</w>
tauq ujau
taima ilingav
stu ck</w>
st .</w>
scienti fic</w>
roy al</w>
qu it</w>
pinasu arus
over view</w>
nuqqakainn aqtut</w>
nunavu ta
nunasi utiit</w>
naina arlugu</w>
minista mit</w>
minisi taujuq</w>
memb ership</w>
l una
ko lot</w>
kiggatuq t
kajus inginn
isumaalu gi
imarmiuta lirijikkut</w>
ik ittuq
fis her
emerg encies</w>
easi ly</w>
contrib uting</w>
authori zation</w>
aull aujji
attarn inginnut</w>
atiquti kka</w>
as inga
aqsima lluni</w>
apiqsur naq</w>
aliq ti
akunikall ak</w>
ak e</w>
ajj inganik</w>
aippii juq
2 15</w>
uqarunn aqpunga</w>
ujaranni arnirmut</w>
ugalu aqpat</w>
titiqqan i
tauni arluni</w>
taliqp inni</w>
sil ami</w>
run s</w>
qiturng aq
pp agit</w>
pitaq arunniiq
pijik ata
p isu
nunavu mmu</w>
nunasi utinut</w>
niq ili
nammin irijau
nalli at</w>
nalianni tuinnaq</w>
min it
maximi ze</w>
katimaj aqtu
juq tauq</w>
immaq aqai</w>
hot els</w>
gunn arama</w>
gre e
giar utiit</w>
fi ght</w>
der ly</w>
chann el</w>
aul atitti
att angi
arsu tik</w>
arn is
arial innik</w>
angiqtau simanngittut</w>
angi ti
al unni</w>
24 1</w>
20 4</w>
04 1</w>
v usi</w>
uq arviq
up irng
tuttar vi
tulattar vi
tu h
si uqti
san au
qaujimaj a
pir ur
pilirivv ingit</w>
piliriar lik</w>
parnak sima
nunataaqpaliaju lirinirmik</w>
nau jutit</w>
nanur nik</w>
nalun arunniiq
meadow bank</w>
li laur
l unigit</w>
katimajirala atuinn
katimaji up</w>
kama tsi
k unnik</w>
jalunai mi</w>
isuma migut</w>
il akka</w>
i ul</w>
har per</w>
h ost</w>
f l
equ ity</w>
conta ins</w>
arnir utta</w>
araj aqtunik</w>
angiqtau guma
angiq tauqullugit</w>
aggiq tuni</w>
accomp lish</w>
19 70</w>
uqau h
uqalima ari
uppir us
unniq pata</w>
tiq simajut</w>
taakk annir
stre et</w>
some time</w>
sivitu jumut</w>
san ds</w>
s ki
rea ching</w>
qaujijuma vunga</w>
qaujigi arni
qauji mali
pur a
piquti q
piquj aksa
pallian inganut</w>
nuqq aru
nali annik</w>
minis si
main tained</w>
kuu gaarjung
kingullir mit</w>
kanata miut</w>
j jutinik</w>
iq aqtu
invi tation</w>
inuuj unni
ill nesses</w>
ilisaij ik
i gasu
g gi
dia bet
diabet es</w>
dang er</w>
coordin ated</w>
br and</w>
bab y</w>
atuni iq
aqtuq aqtillugu</w>
angiq ati
4 .</w>
18 4</w>
1 2,
valli a
utiq taq
uqaq simangmata</w>
ti l
ti a</w>
tauni arlutik</w>
si utinut</w>
san aqatigi
qauji malir
qan ullattaaq</w>
proce e
piqut inik</w>
piliri jut</w>
niruaqtigi simajakka</w>
marr unnik</w>
lu anngu
ka ati</w>
ka all
k si</w>
jai ms</w>
iqalung nut</w>
iqaluktuutti aq</w>
inung nit</w>
ingi k</w>
ikupigvi lirijikkut</w>
ikajuq sui
iglu ksait</w>
gatta .</w>
fil es</w>
excell ence</w>
des tin
d av
be gins</w>
auju mut</w>
assur urn
assu aluk</w>
aru tti
aralu arngata</w>
aqtuq aqpaa</w>
aqatta laurmata</w>
applau d</w>
anngi ttunit</w>
anngi lluni</w>
angiqtaujuma lluni</w>
anginiq sau
ambul ance</w>
al as
akku uq
akik inniqs
aali ks</w>
20 8</w>
2. 8</w>
19 5</w>
uumaqquti lirijikkut</w>
tauvalli ajut</w>
tagv ani
ta lik</w>
sivul liuq
she ets</w>
satis fac
s inirmik</w>
qu ts
qqau gakku</w>
qaujikkaij jutiit</w>
qa suung
passeng ers</w>
ordin ary</w>
nu utau
nan is
namu tuinnaq</w>
mili ang
mi ttauq</w>
king urngagut</w>
ki ulugu</w>
katimajirala anu
juq taq
ja an
isumaalu utaujut</w>
isuma gama</w>
iqal unnu
ha akir
gavamakkunn illu</w>
cre te</w>
con crete</w>
atti at</w>
atri c</w>
arniq taq
aqti ti
aq ulluta</w>
apir iqqa
akituju utinik</w>
19 3</w>
18 2</w>
1, 500</w>
04 4</w>
v ura
v attutik</w>
uv annit</w>
upalunga iq
tusaq atta
tuinn aqtut</w>
tu mmari
tu mini
time lines</w>
thou sands</w>
taijau juq</w>
ta si</w>
suffer ing</w>
sivulli ujji
sima lugit</w>
sa inn
rju ammarialu
recycl ing</w>
ob serv
maligaliuqti ullunga</w>
lir ngata</w>
katimajjutiss atinnut</w>
kanata mut</w>
junnaq si
iqqau mani
iqqanaija anit</w>
inulirij iq
inu lirijikkunnullu</w>
ingi ttunga</w>
imma r
il ingnut</w>
gener ate</w>
avig ju
auq qa
aqta ul
aqta ttinnik</w>
aqt ungalu</w>
ap tigu</w>
anull assi
angunasu ktu
anginn ik.</w>
ang nut</w>
an cy</w>
24 4</w>
04 2</w>
ves sel</w>
unuk allak
unnir mit</w>
unikka anginni</w>
un s
ttu ta</w>
ton ight</w>
taimaittu mut</w>
ta rij
su uri
su liri
siman inginni</w>
silarju amut</w>
saugaj aqtuq</w>
saqqi taulauqtut</w>
resi dency</w>
qang akiaq</w>
qa tau
pitjutigi llugit</w>
pitaq aq
nuqq arumaliq
nu i
niuvir ni
nir b</w>
naamma si
mi luunniit</w>
llari alu
la un
kivallir miut</w>
kingullir mik</w>
ittarnis aq
illuli mmi</w>
ikajuq ta
ik tut</w>
giar asu
gar age</w>
finali ze</w>
enro lled</w>
diale cts</w>
descri ptions</w>
contamin ated</w>
auju mi</w>
arraagutamaaqsi ummut</w>
angn anganut</w>
angi mma
anga gu
alau ri
akiliri aliit</w>
ai mmat</w>
aaqqigiar utaujuq</w>
aanniasi ur
23 3</w>
23 2</w>
uuktu tigilugu</w>
ur ama</w>
uning anu</w>
ull ungit</w>
ula unngi
ty pi
ten dering</w>
taku r
suungu mmangaata</w>
sk ill</w>
sk at
sivuliqti vut</w>
sima vi
quviagij aq
qi ju
qaujijuma tuinnaqpunga</w>
qa angagut</w>
presen ting</w>
piqujivungaaruti mut</w>
pilirivvi ujut</w>
pijjutigi tsugu</w>
pijariiq tausima
nalunaiq simajut</w>
n av
mi i
lau k
l atta
katujjiqatigi inginnik</w>
ilinniar titti
il aujunn
hy po
f low
cra cy</w>
cere monies</w>
ber t</w>
b it
atuq taujuq</w>
atuq pak
atti aqtut</w>
atitt inirmut</w>
as certain</w>
arn gu
ar tunit</w>
aqti tausima
apiqquti mik</w>
angiqtaujuma mmat</w>
angin atta</w>
amisu alunnik</w>
all alaur
ala unngittuq</w>
akk a.</w>
aaqqiu manirmullu</w>
24 5</w>
200 3
2 20</w>
uuttuutigi llugu</w>
ur atta</w>
upirnga akkut</w>
tusaumaqat tauti
tusa gas
tuni siq
tti aruma
ttaili manirmut</w>
te iman</w>
takuss autitti
taima allu</w>
so f
shor tages</w>
qu aq
qaujimajatuq anginni</w>
pularattu lirinirmut</w>
pu si</w>
produc ing</w>
pivalliati tsi
pi ujuq</w>
niv inga
niruaqtauqatigi simaj
ni it</w>
me tal</w>
malig arju
lin k</w>
kat innga
kama ginasu
junnaq ullugit</w>
jj ut</w>
iq qulli
inspe ctors</w>
inni ittut</w>
in ation</w>
ilinniav immi</w>
fac es</w>
f esti
bon uses</w>
bar gaining</w>
auto matically</w>
aruti ks
arti facts</w>
arlu tiglu</w>
aqpu gu</w>
ali uq
ajjigi iqatt
ainn ar
aanniasiuq ti</w>
aanni asu
04 5</w>
valli anirmut</w>
utili dor</w>
ung niq
tusa jikkut</w>
ttu tit</w>
tra f
timi qu
takuj aqtu
simaju kkut</w>
ra anik
qauj ilaur
qamani ʼ
promis ed</w>
parnagu taujut</w>
nunalimmi unut</w>
naam mangmat</w>
mu us
man aj
maligaliur ti</w>
ma s
m inni</w>
juma lluta</w>
iqqanaija aksanik</w>
inter vie
insta ll
ingirr ati
ilitarij auj
ilisarijaujjuti ta
ilinniaqtu lirijikkunni</w>
for gotten</w>
enti rely</w>
dou ble</w>
custo dy</w>
chec ked</w>
ban ks</w>
avittuq simajunut</w>
arv ikkut</w>
[...]
